<pad>	0
<unk>	0
<s>	0
</s>	0
[MASK]	0
▁t	-0
he	-1
▁a	-2
in	-3
▁the	-4
er	-5
on	-6
▁,	-7
re	-8
▁s	-9
ed	-10
▁w	-11
▁o	-12
nd	-13
▁.	-14
at	-15
or	-16
en	-17
it	-18
▁c	-19
▁f	-20
is	-21
es	-22
ar	-23
▁b	-24
▁of	-25
an	-26
▁in	-27
al	-28
ing	-29
▁p	-30
as	-31
▁and	-32
▁to	-33
ic	-34
ro	-35
▁m	-36
▁d	-37
▁h	-38
ion	-39
le	-40
ou	-41
▁T	-42
▁'	-43
▁re	-44
▁S	-45
il	-46
▁A	-47
ent	-48
▁th	-49
st	-50
▁1	-51
el	-52
▁l	-53
▁C	-54
om	-55
▁n	-56
▁e	-57
am	-58
ad	-59
▁was	-60
ac	-61
▁M	-62
▁on	-63
ec	-64
▁The	-65
▁B	-66
ly	-67
ur	-68
et	-69
id	-70
ol	-71
▁g	-72
im	-73
▁I	-74
▁for	-75
ir	-76
ig	-77
iv	-78
ter	-79
ot	-80
ut	-81
▁H	-82
▁as	-83
us	-84
ow	-85
ith	-86
ay	-87
▁st	-88
▁he	-89
ver	-90
▁P	-91
▁with	-92
▁2	-93
▁be	-94
ation	-95
▁that	-96
▁`	-97
▁``	-98
▁''	-99
▁R	-100
ce	-101
▁D	-102
un	-103
em	-104
▁wh	-105
ch	-106
▁by	-107
▁W	-108
th	-109
▁F	-110
▁al	-111
▁)	-112
▁(	-113
ul	-114
▁is	-115
▁con	-116
▁at	-117
▁G	-118
▁L	-119
ers	-120
ct	-121
▁N	-122
and	-123
ain	-124
▁an	-125
os	-126
▁19	-127
▁it	-128
her	-129
rom	-130
av	-131
ag	-132
um	-133
est	-134
▁J	-135
00	-136
▁his	-137
▁r	-138
▁E	-139
od	-140
ri	-141
▁from	-142
▁O	-143
ist	-144
▁com	-145
ap	-146
▁v	-147
op	-148
▁pro	-149
ill	-150
ore	-151
if	-152
up	-153
ere	-154
ld	-155
ew	-156
res	-157
igh	-158
ies	-159
▁In	-160
ber	-161
ard	-162
ort	-163
art	-164
▁de	-165
ich	-166
▁were	-167
ak	-168
▁se	-169
ate	-170
all	-171
ab	-172
ant	-173
oc	-174
ud	-175
ong	-176
▁ex	-177
qu	-178
▁ch	-179
gh	-180
▁or	-181
▁K	-182
ear	-183
ess	-184
ated	-185
ip	-186
ity	-187
▁pl	-188
▁sh	-189
ive	-190
ame	-191
▁U	-192
▁had	-193
ect	-194
se	-195
our	-196
ack	-197
▁su	-198
red	-199
▁which	-200
ast	-201
▁St	-202
▁k	-203
ge	-204
▁are	-205
ment	-206
▁le	-207
und	-208
ov	-209
▁not	-210
ian	-211
ial	-212
ell	-213
ost	-214
ight	-215
▁sp	-216
ia	-217
ord	-218
ust	-219
▁tr	-220
ary	-221
ther	-222
ine	-223
rit	-224
oun	-225
▁y	-226
ave	-227
pt	-228
ical	-229
pp	-230
▁un	-231
cl	-232
▁Ch	-233
▁but	-234
ould	-235
fter	-236
irst	-237
ff	-238
ous	-239
▁200	-240
▁V	-241
cc	-242
ish	-243
te	-244
▁3	-245
so	-246
ions	-247
▁comp	-248
ra	-249
▁whe	-250
ide	-251
ub	-252
ure	-253
▁20	-254
▁ro	-255
▁ar	-256
▁cont	-257
▁;	-258
▁first	-259
wo	-260
ie	-261
▁her	-262
▁its	-263
▁their	-264
ign	-265
ue	-266
ass	-267
ok	-268
▁int	-269
ork	-270
out	-271
og	-272
▁He	-273
▁also	-274
▁res	-275
orm	-276
▁cl	-277
ater	-278
▁–	-279
▁ab	-280
▁:	-281
▁ad	-282
ome	-283
ond	-284
age	-285
hed	-286
ry	-287
mer	-288
ire	-289
▁us	-290
low	-291
pl	-292
ime	-293
ans	-294
per	-295
ru	-296
du	-297
▁per	-298
▁who	-299
▁have	-300
▁Th	-301
own	-302
ally	-303
▁one	-304
ted	-305
ile	-306
▁sc	-307
ugh	-308
▁two	-309
ance	-310
▁rec	-311
uring	-312
▁18	-313
ition	-314
ree	-315
iz	-316
ts	-317
port	-318
ence	-319
▁has	-320
▁been	-321
▁bec	-322
▁ag	-323
ough	-324
▁app	-325
▁part	-326
▁Al	-327
ice	-328
▁en	-329
▁j	-330
▁over	-331
▁201	-332
▁this	-333
ely	-334
▁dis	-335
ke	-336
▁ser	-337
clud	-338
ember	-339
ren	-340
ach	-341
ound	-342
▁after	-343
▁4	-344
▁It	-345
ace	-346
ark	-347
land	-348
ations	-349
over	-350
▁they	-351
ric	-352
▁off	-353
ade	-354
ib	-355
▁des	-356
▁play	-357
ction	-358
▁other	-359
ory	-360
▁te	-361
act	-362
▁out	-363
▁man	-364
ced	-365
▁includ	-366
▁im	-367
ress	-368
▁up	-369
▁year	-370
ult	-371
urn	-372
man	-373
ens	-374
▁Y	-375
ail	-376
▁would	-377
one	-378
ind	-379
wn	-380
we	-381
▁pre	-382
▁into	-383
ang	-384
▁Un	-385
ep	-386
ite	-387
oin	-388
▁On	-389
ward	-390
▁him	-391
▁she	-392
ates	-393
▁we	-394
▁5	-395
able	-396
ased	-397
end	-398
▁time	-399
ited	-400
▁ev	-401
ied	-402
▁att	-403
ever	-404
ilm	-405
amp	-406
old	-407
rough	-408
are	-409
▁comm	-410
ors	-411
oy	-412
ons	-413
▁all	-414
▁more	-415
ount	-416
les	-417
ase	-418
▁inter	-419
ood	-420
aw	-421
▁work	-422
ered	-423
ces	-424
form	-425
ild	-426
▁new	-427
ings	-428
▁bet	-429
▁Ar	-430
ick	-431
▁An	-432
ose	-433
▁when	-434
ve	-435
vel	-436
▁sec	-437
vi	-438
way	-439
▁fe	-440
▁film	-441
ake	-442
ents	-443
inal	-444
aus	-445
fer	-446
ft	-447
iss	-448
att	-449
reat	-450
▁Mar	-451
ved	-452
▁rem	-453
gan	-454
▁cons	-455
rop	-456
▁during	-457
rib	-458
▁und	-459
orth	-460
▁again	-461
▁dec	-462
ason	-463
ubl	-464
▁most	-465
▁gro	-466
hip	-467
ween	-468
ix	-469
oth	-470
▁than	-471
▁As	-472
ollow	-473
▁pr	-474
▁only	-475
▁ear	-476
ob	-477
▁them	-478
▁game	-479
▁ne	-480
▁6	-481
ey	-482
▁sup	-483
fore	-484
▁199	-485
▁New	-486
▁about	-487
ug	-488
ath	-489
▁ret	-490
▁char	-491
▁between	-492
tern	-493
outh	-494
ational	-495
▁later	-496
▁under	-497
▁Se	-498
▁song	-499
▁kn	-500
hn	-501
▁produ	-502
orn	-503
ton	-504
ict	-505
▁three	-506
▁can	-507
▁rele	-508
aid	-509
ron	-510
▁act	-511
▁through	-512
als	-513
▁so	-514
▁col	-515
ook	-516
▁num	-517
ters	-518
▁while	-519
▁me	-520
▁qu	-521
▁En	-522
orld	-523
▁7	-524
meric	-525
lect	-526
▁end	-527
ank	-528
ock	-529
▁cent	-530
▁pos	-531
000	-532
▁rel	-533
▁where	-534
ral	-535
▁ver	-536
▁fl	-537
▁sub	-538
ck	-539
ating	-540
ular	-541
▁acc	-542
▁ass	-543
▁pe	-544
ener	-545
▁Le	-546
▁form	-547
son	-548
ived	-549
▁reg	-550
ames	-551
ision	-552
▁Americ	-553
▁second	-554
▁made	-555
▁follow	-556
▁bu	-557
▁inc	-558
hes	-559
bum	-560
,000	-561
▁such	-562
▁ep	-563
ished	-564
▁record	-565
▁some	-566
ool	-567
▁am	-568
▁def	-569
ph	-570
ained	-571
▁four	-572
▁mov	-573
▁before	-574
▁Com	-575
hen	-576
▁there	-577
round	-578
▁mus	-579
▁Sp	-580
ike	-581
▁8	-582
▁do	-583
▁Jo	-584
io	-585
iel	-586
▁writ	-587
▁spec	-588
▁day	-589
▁season	-590
ode	-591
ros	-592
▁ac	-593
▁This	-594
ident	-595
▁9	-596
owever	-597
▁lar	-598
▁At	-599
▁team	-600
▁album	-601
ning	-602
▁sy	-603
▁years	-604
▁/	-605
▁Re	-606
ics	-607
ual	-608
ily	-609
▁ind	-610
▁Sh	-611
▁used	-612
▁ent	-613
▁call	-614
▁publ	-615
ten	-616
▁being	-617
▁gr	-618
▁epis	-619
led	-620
▁10	-621
ury	-622
▁sur	-623
▁high	-624
▁then	-625
ific	-626
▁against	-627
aj	-628
other	-629
▁loc	-630
▁exp	-631
ris	-632
air	-633
▁inv	-634
anc	-635
ious	-636
▁sever	-637
▁show	-638
▁charac	-639
▁number	-640
▁bl	-641
ince	-642
▁add	-643
▁co	-644
ek	-645
ane	-646
ather	-647
▁pres	-648
ars	-649
▁Brit	-650
▁sing	-651
velop	-652
▁—	-653
▁set	-654
ause	-655
▁lead	-656
▁including	-657
▁became	-658
▁br	-659
ject	-660
▁After	-661
▁no	-662
ale	-663
▁17	-664
▁United	-665
▁rep	-666
ines	-667
▁well	-668
▁perform	-669
▁found	-670
▁both	-671
ier	-672
▁series	-673
ober	-674
ired	-675
▁mon	-676
ower	-677
▁rece	-678
▁pol	-679
▁ship	-680
▁back	-681
▁She	-682
erm	-683
▁cap	-684
ley	-685
ement	-686
▁Sc	-687
▁198	-688
ik	-689
ures	-690
ife	-691
ram	-692
ivers	-693
▁Wh	-694
pen	-695
▁main	-696
▁did	-697
its	-698
elf	-699
iet	-700
ert	-701
▁12	-702
az	-703
ann	-704
any	-705
overn	-706
ised	-707
▁go	-708
der	-709
▁194	-710
▁15	-711
ared	-712
ful	-713
uch	-714
▁cre	-715
▁imp	-716
ll	-717
ven	-718
iver	-719
ities	-720
▁Eng	-721
tend	-722
ting	-723
▁John	-724
▁said	-725
ird	-726
▁develop	-727
irect	-728
▁episode	-729
▁mat	-730
▁long	-731
ute	-732
▁Con	-733
▁many	-734
▁em	-735
▁mill	-736
▁contin	-737
▁min	-738
▁could	-739
▁several	-740
▁stud	-741
▁met	-742
ative	-743
▁orig	-744
▁dep	-745
though	-746
▁dif	-747
ty	-748
▁car	-749
ash	-750
ins	-751
▁inst	-752
ield	-753
ouse	-754
ah	-755
olog	-756
▁air	-757
ise	-758
emb	-759
▁Br	-760
▁bro	-761
▁Ind	-762
iam	-763
view	-764
til	-765
▁16	-766
ross	-767
▁began	-768
▁pop	-769
▁sm	-770
▁return	-771
ually	-772
▁Cl	-773
ople	-774
ued	-775
▁Aust	-776
▁any	-777
▁comple	-778
▁197	-779
▁ob	-780
▁war	-781
chool	-782
my	-783
▁196	-784
aking	-785
▁known	-786
ern	-787
▁sign	-788
ccess	-789
ange	-790
▁feat	-791
▁trans	-792
▁early	-793
▁prov	-794
▁Z	-795
▁design	-796
▁11	-797
▁American	-798
▁Fr	-799
▁released	-800
▁est	-801
ized	-802
▁desc	-803
▁music	-804
▁War	-805
▁until	-806
ists	-807
▁bel	-808
▁own	-809
▁art	-810
▁US	-811
ism	-812
oot	-813
ided	-814
▁fin	-815
▁near	-816
une	-817
imes	-818
▁dist	-819
hy	-820
eb	-821
▁Bl	-822
enn	-823
▁pass	-824
ially	-825
▁inf	-826
ured	-827
▁eff	-828
▁called	-829
erson	-830
▁May	-831
▁resp	-832
▁run	-833
stem	-834
osed	-835
▁along	-836
▁Col	-837
▁crit	-838
erman	-839
rap	-840
▁million	-841
ments	-842
ull	-843
ium	-844
xt	-845
▁direct	-846
▁down	-847
▁these	-848
vent	-849
▁may	-850
▁fam	-851
▁ins	-852
▁gener	-853
▁British	-854
▁offic	-855
▁disc	-856
ution	-857
▁group	-858
▁$	-859
▁mil	-860
▁open	-861
cept	-862
▁sim	-863
ax	-864
ger	-865
gest	-866
▁Aug	-867
▁mod	-868
els	-869
ajor	-870
▁Be	-871
ink	-872
▁De	-873
▁success	-874
ains	-875
▁people	-876
ible	-877
▁Sept	-878
▁August	-879
▁September	-880
▁land	-881
▁same	-882
▁count	-883
▁govern	-884
▁States	-885
amed	-886
ets	-887
▁Ap	-888
▁describ	-889
▁13	-890
▁str	-891
▁character	-892
uc	-893
▁gu	-894
▁because	-895
▁poin	-896
aining	-897
aced	-898
▁attack	-899
▁took	-900
▁though	-901
▁Ad	-902
▁For	-903
▁All	-904
▁use	-905
aving	-906
▁0	-907
erv	-908
▁Is	-909
▁oper	-910
▁Ju	-911
▁km	-912
▁start	-913
wards	-914
▁ann	-915
ped	-916
ner	-917
ues	-918
▁World	-919
▁Oct	-920
▁German	-921
ove	-922
▁vi	-923
▁around	-924
▁batt	-925
▁occ	-926
▁However	-927
▁support	-928
▁following	-929
▁serv	-930
▁Austral	-931
yp	-932
▁appear	-933
▁const	-934
▁Nov	-935
▁Q	-936
ruct	-937
▁14	-938
ene	-939
▁hist	-940
ically	-941
▁win	-942
▁prom	-943
▁193	-944
uss	-945
▁six	-946
▁October	-947
ives	-948
▁ed	-949
▁195	-950
▁received	-951
▁system	-952
▁Car	-953
▁dr	-954
▁ele	-955
ret	-956
▁ever	-957
▁191	-958
ility	-959
▁north	-960
▁small	-961
▁each	-962
▁consid	-963
▁ext	-964
ants	-965
rol	-966
get	-967
▁]	-968
▁will	-969
ored	-970
▁build	-971
gin	-972
oss	-973
▁[	-974
ately	-975
▁Dec	-976
▁York	-977
anu	-978
med	-979
▁head	-980
▁state	-981
▁area	-982
iving	-983
▁Tr	-984
ling	-985
▁They	-986
▁var	-987
ox	-988
▁partic	-989
▁aut	-990
▁By	-991
▁North	-992
▁%	-993
ril	-994
▁report	-995
▁June	-996
▁Me	-997
tle	-998
▁public	-999
▁mar	-1000
▁conc	-1001
▁city	-1002
▁five	-1003
ina	-1004
▁July	-1005
ording	-1006
▁final	-1007
▁major	-1008
▁King	-1009
ians	-1010
▁like	-1011
▁band	-1012
▁single	-1013
▁conf	-1014
▁Pl	-1015
▁Will	-1016
ission	-1017
sh	-1018
▁rest	-1019
▁ref	-1020
▁November	-1021
▁since	-1022
ection	-1023
ient	-1024
ried	-1025
inc	-1026
raft	-1027
esp	-1028
oard	-1029
▁Har	-1030
urch	-1031
▁March	-1032
▁April	-1033
▁week	-1034
▁Mc	-1035
▁allow	-1036
▁world	-1037
omet	-1038
▁just	-1039
▁last	-1040
ected	-1041
▁det	-1042
▁hel	-1043
▁turn	-1044
ively	-1045
por	-1046
ified	-1047
▁Gr	-1048
aim	-1049
▁Ed	-1050
lish	-1051
hest	-1052
..	-1053
vious	-1054
rote	-1055
▁left	-1056
▁differ	-1057
▁large	-1058
by	-1059
▁Comm	-1060
▁Pr	-1061
ague	-1062
▁po	-1063
▁vers	-1064
▁med	-1065
▁arr	-1066
ales	-1067
ilt	-1068
▁During	-1069
ional	-1070
▁what	-1071
▁...	-1072
idge	-1073
ats	-1074
▁much	-1075
▁Ge	-1076
ined	-1077
ble	-1078
eng	-1079
▁South	-1080
rist	-1081
empt	-1082
▁adv	-1083
▁sl	-1084
avy	-1085
▁30	-1086
▁appro	-1087
row	-1088
▁another	-1089
▁school	-1090
▁due	-1091
▁if	-1092
aged	-1093
▁book	-1094
ural	-1095
▁line	-1096
ne	-1097
▁incre	-1098
▁played	-1099
▁included	-1100
▁December	-1101
▁event	-1102
▁south	-1103
▁wrote	-1104
▁When	-1105
▁Can	-1106
▁Ph	-1107
ages	-1108
▁Pro	-1109
▁expl	-1110
apan	-1111
anuary	-1112
ently	-1113
ont	-1114
▁January	-1115
ball	-1116
▁short	-1117
▁Or	-1118
▁century	-1119
ony	-1120
ple	-1121
▁place	-1122
▁child	-1123
▁vis	-1124
▁ph	-1125
▁third	-1126
▁month	-1127
▁government	-1128
rent	-1129
▁class	-1130
alf	-1131
▁port	-1132
▁II	-1133
▁Eu	-1134
oad	-1135
▁Japan	-1136
▁192	-1137
▁death	-1138
▁name	-1139
▁tit	-1140
▁eng	-1141
▁prog	-1142
▁camp	-1143
▁prot	-1144
▁power	-1145
▁kill	-1146
▁won	-1147
ody	-1148
ience	-1149
ital	-1150
▁previous	-1151
▁elect	-1152
▁review	-1153
▁described	-1154
▁lit	-1155
▁requ	-1156
oman	-1157
▁track	-1158
▁family	-1159
▁bre	-1160
▁opp	-1161
▁home	-1162
ott	-1163
▁named	-1164
ideo	-1165
iven	-1166
▁make	-1167
▁led	-1168
iversity	-1169
▁even	-1170
▁Te	-1171
▁cour	-1172
▁story	-1173
▁right	-1174
iod	-1175
▁dem	-1176
aff	-1177
urther	-1178
▁life	-1179
▁men	-1180
ister	-1181
ached	-1182
reen	-1183
▁now	-1184
ilar	-1185
cy	-1186
▁attempt	-1187
▁games	-1188
ged	-1189
▁Bro	-1190
ivision	-1191
▁repl	-1192
▁belie	-1193
▁very	-1194
ograp	-1195
ays	-1196
▁person	-1197
embers	-1198
omin	-1199
▁Gu	-1200
▁dam	-1201
▁command	-1202
ior	-1203
▁top	-1204
itions	-1205
▁those	-1206
▁poss	-1207
rench	-1208
ival	-1209
▁His	-1210
ebru	-1211
▁And	-1212
eter	-1213
▁25	-1214
▁There	-1215
ebruary	-1216
▁February	-1217
▁next	-1218
▁gun	-1219
ched	-1220
▁care	-1221
riend	-1222
▁still	-1223
oci	-1224
self	-1225
▁best	-1226
lu	-1227
▁Europ	-1228
line	-1229
▁par	-1230
aken	-1231
ring	-1232
ness	-1233
▁join	-1234
▁leg	-1235
▁addition	-1236
mp	-1237
▁species	-1238
▁organ	-1239
▁National	-1240
tended	-1241
▁original	-1242
ps	-1243
▁capt	-1244
hor	-1245
▁deb	-1246
▁iss	-1247
alk	-1248
▁Christ	-1249
▁Bar	-1250
au	-1251
▁mark	-1252
ature	-1253
rew	-1254
▁Fl	-1255
▁period	-1256
▁within	-1257
▁effect	-1258
▁former	-1259
af	-1260
▁sold	-1261
▁although	-1262
hel	-1263
▁exper	-1264
▁water	-1265
▁view	-1266
▁We	-1267
▁Mus	-1268
augh	-1269
▁result	-1270
uted	-1271
▁init	-1272
▁match	-1273
▁Par	-1274
ney	-1275
▁Europe	-1276
▁caus	-1277
rodu	-1278
ences	-1279
▁late	-1280
▁cur	-1281
▁great	-1282
▁dest	-1283
▁members	-1284
▁French	-1285
ides	-1286
▁2010	-1287
ances	-1288
isted	-1289
▁William	-1290
▁Am	-1291
▁term	-1292
▁role	-1293
▁storm	-1294
sp	-1295
▁held	-1296
ech	-1297
yl	-1298
▁came	-1299
aster	-1300
▁tri	-1301
▁cr	-1302
▁hand	-1303
oon	-1304
lev	-1305
▁however	-1306
▁mid	-1307
▁built	-1308
side	-1309
▁real	-1310
▁Geor	-1311
▁days	-1312
▁cover	-1313
▁spe	-1314
▁West	-1315
ulation	-1316
na	-1317
▁polit	-1318
▁my	-1319
▁video	-1320
▁estab	-1321
let	-1322
▁often	-1323
omb	-1324
▁you	-1325
▁continued	-1326
▁prop	-1327
▁release	-1328
▁Min	-1329
▁old	-1330
▁X	-1331
itary	-1332
▁local	-1333
ham	-1334
▁among	-1335
ead	-1336
▁wind	-1337
br	-1338
ropical	-1339
▁town	-1340
atic	-1341
▁few	-1342
▁present	-1343
▁2009	-1344
elt	-1345
ense	-1346
▁tw	-1347
▁similar	-1348
ract	-1349
▁based	-1350
akes	-1351
▁stand	-1352
read	-1353
gy	-1354
▁sk	-1355
▁2008	-1356
▁av	-1357
▁2011	-1358
▁post	-1359
▁claim	-1360
app	-1361
▁Mich	-1362
min	-1363
cent	-1364
▁21	-1365
▁Her	-1366
▁different	-1367
▁&	-1368
ator	-1369
▁Dav	-1370
ese	-1371
▁control	-1372
uck	-1373
arm	-1374
ops	-1375
▁sug	-1376
▁England	-1377
tal	-1378
▁beh	-1379
▁No	-1380
ung	-1381
▁fre	-1382
.5	-1383
▁Air	-1384
reet	-1385
▁sent	-1386
▁further	-1387
ards	-1388
-1	-1389
omen	-1390
▁way	-1391
estern	-1392
▁without	-1393
▁100	-1394
ves	-1395
▁take	-1396
ler	-1397
me	-1398
urs	-1399
▁equ	-1400
▁every	-1401
▁El	-1402
▁hum	-1403
▁One	-1404
ampions	-1405
▁side	-1406
ots	-1407
▁moved	-1408
par	-1409
▁del	-1410
▁City	-1411
▁having	-1412
▁considered	-1413
▁version	-1414
ering	-1415
▁2007	-1416
▁Although	-1417
▁position	-1418
▁ant	-1419
▁24	-1420
▁appe	-1421
ruction	-1422
roy	-1423
▁Park	-1424
ery	-1425
▁road	-1426
▁Cent	-1427
ford	-1428
▁English	-1429
▁become	-1430
ize	-1431
▁mag	-1432
gr	-1433
▁Char	-1434
▁cor	-1435
atter	-1436
▁Man	-1437
▁plan	-1438
▁Co	-1439
ices	-1440
▁el	-1441
▁2012	-1442
ront	-1443
▁typ	-1444
ches	-1445
▁Ang	-1446
resent	-1447
▁announ	-1448
▁invol	-1449
▁suggest	-1450
▁Count	-1451
ai	-1452
▁190	-1453
▁fore	-1454
▁club	-1455
ones	-1456
aul	-1457
▁arm	-1458
▁player	-1459
▁house	-1460
▁cast	-1461
ald	-1462
utes	-1463
▁River	-1464
craft	-1465
con	-1466
▁22	-1467
to	-1468
▁sound	-1469
▁bas	-1470
▁influ	-1471
▁With	-1472
sequ	-1473
▁strong	-1474
ape	-1475
ondon	-1476
▁Acc	-1477
▁import	-1478
▁production	-1479
▁commun	-1480
▁University	-1481
▁half	-1482
esc	-1483
▁less	-1484
▁given	-1485
▁defe	-1486
▁law	-1487
iety	-1488
vers	-1489
ille	-1490
▁written	-1491
▁London	-1492
rest	-1493
anted	-1494
▁gave	-1495
▁company	-1496
▁east	-1497
ae	-1498
▁trad	-1499
▁pat	-1500
▁While	-1501
que	-1502
aying	-1503
yle	-1504
▁tro	-1505
▁rad	-1506
ript	-1507
▁total	-1508
day	-1509
▁vict	-1510
▁never	-1511
ef	-1512
▁returned	-1513
▁ke	-1514
▁low	-1515
▁comb	-1516
iment	-1517
ention	-1518
▁west	-1519
▁Canad	-1520
ology	-1521
▁order	-1522
ailed	-1523
▁Cal	-1524
▁aff	-1525
ying	-1526
▁fact	-1527
ories	-1528
cess	-1529
▁soc	-1530
▁refer	-1531
▁good	-1532
▁chang	-1533
▁went	-1534
▁hig	-1535
sc	-1536
▁find	-1537
ges	-1538
▁tem	-1539
▁program	-1540
ably	-1541
aly	-1542
▁origin	-1543
▁country	-1544
▁published	-1545
aun	-1546
▁lost	-1547
▁common	-1548
▁stat	-1549
oll	-1550
ison	-1551
▁fire	-1552
▁Batt	-1553
▁particular	-1554
▁include	-1555
▁stated	-1556
▁High	-1557
▁ships	-1558
levision	-1559
used	-1560
atch	-1561
▁23	-1562
com	-1563
▁youn	-1564
ploy	-1565
▁prof	-1566
▁reported	-1567
▁point	-1568
▁friend	-1569
echn	-1570
▁level	-1571
▁forces	-1572
▁produced	-1573
hing	-1574
▁2006	-1575
▁Sm	-1576
off	-1577
ours	-1578
ington	-1579
▁compet	-1580
ument	-1581
isc	-1582
raw	-1583
▁light	-1584
▁using	-1585
err	-1586
ief	-1587
▁project	-1588
▁building	-1589
aign	-1590
▁Ab	-1591
▁need	-1592
irc	-1593
▁According	-1594
▁Sw	-1595
ned	-1596
▁recorded	-1597
▁father	-1598
▁should	-1599
▁popular	-1600
▁nort	-1601
▁interest	-1602
▁ord	-1603
▁These	-1604
osp	-1605
▁press	-1606
▁bus	-1607
▁ide	-1608
tain	-1609
▁military	-1610
▁fr	-1611
▁ten	-1612
iness	-1613
▁times	-1614
▁himself	-1615
▁somet	-1616
oyal	-1617
▁lim	-1618
▁battle	-1619
ither	-1620
▁author	-1621
▁fun	-1622
▁destroy	-1623
yn	-1624
urric	-1625
outher	-1626
ords	-1627
▁Ne	-1628
▁Australia	-1629
▁Ass	-1630
▁sit	-1631
ampionship	-1632
itive	-1633
▁songs	-1634
mit	-1635
▁Gener	-1636
▁critic	-1637
▁Jack	-1638
▁remained	-1639
▁eight	-1640
alth	-1641
ensive	-1642
▁months	-1643
ks	-1644
▁history	-1645
▁sw	-1646
▁career	-1647
▁making	-1648
▁Af	-1649
eder	-1650
▁anim	-1651
work	-1652
▁State	-1653
outhern	-1654
▁how	-1655
▁service	-1656
▁sol	-1657
▁2013	-1658
lear	-1659
▁Ex	-1660
ries	-1661
ases	-1662
cer	-1663
▁Ear	-1664
▁Pol	-1665
▁ft	-1666
▁read	-1667
▁represent	-1668
▁cross	-1669
▁gl	-1670
▁children	-1671
▁performance	-1672
astern	-1673
▁ground	-1674
▁development	-1675
▁get	-1676
quad	-1677
▁Army	-1678
▁died	-1679
▁189	-1680
▁gen	-1681
ream	-1682
▁characters	-1683
▁James	-1684
most	-1685
▁Sec	-1686
▁suff	-1687
▁ste	-1688
▁foot	-1689
▁title	-1690
▁27	-1691
dom	-1692
▁Dr	-1693
▁chart	-1694
eth	-1695
▁national	-1696
ael	-1697
▁introdu	-1698
▁pra	-1699
▁reached	-1700
▁Pres	-1701
▁Sy	-1702
▁across	-1703
lands	-1704
hern	-1705
aur	-1706
rick	-1707
▁League	-1708
fic	-1709
▁Cor	-1710
ublic	-1711
▁tour	-1712
▁developed	-1713
▁announced	-1714
▁50	-1715
▁sum	-1716
▁campaign	-1717
▁28	-1718
bs	-1719
▁signific	-1720
▁felt	-1721
▁aircraft	-1722
▁red	-1723
▁away	-1724
▁histor	-1725
▁areas	-1726
▁son	-1727
▁relations	-1728
ration	-1729
▁force	-1730
▁26	-1731
ency	-1732
▁noted	-1733
▁Division	-1734
▁promot	-1735
▁’	-1736
alt	-1737
reg	-1738
ressed	-1739
▁Rec	-1740
ression	-1741
▁fav	-1742
▁America	-1743
▁Gl	-1744
▁followed	-1745
▁colle	-1746
▁intern	-1747
▁County	-1748
▁successful	-1749
▁Road	-1750
urricane	-1751
▁performed	-1752
▁official	-1753
▁George	-1754
ole	-1755
▁field	-1756
field	-1757
▁television	-1758
▁40	-1759
imately	-1760
▁created	-1761
▁Sup	-1762
▁Ste	-1763
▁seen	-1764
ope	-1765
▁fac	-1766
▁begin	-1767
ising	-1768
▁coun	-1769
ality	-1770
▁full	-1771
▁fle	-1772
▁cond	-1773
▁served	-1774
lin	-1775
▁night	-1776
▁political	-1777
play	-1778
iber	-1779
▁put	-1780
▁Mad	-1781
▁prim	-1782
▁Japanese	-1783
hem	-1784
▁2005	-1785
elling	-1786
duct	-1787
▁Rep	-1788
▁conv	-1789
▁val	-1790
▁To	-1791
▁star	-1792
▁Mon	-1793
abor	-1794
iting	-1795
lished	-1796
▁General	-1797
▁Comp	-1798
▁East	-1799
▁Rober	-1800
▁Sim	-1801
▁Russ	-1802
▁help	-1803
▁various	-1804
▁too	-1805
▁earl	-1806
▁players	-1807
▁rev	-1808
▁list	-1809
▁Street	-1810
▁2014	-1811
▁aud	-1812
▁bo	-1813
▁becom	-1814
▁rock	-1815
ana	-1816
▁non	-1817
▁aver	-1818
ization	-1819
▁trav	-1820
▁station	-1821
cast	-1822
▁bar	-1823
▁throughout	-1824
▁let	-1825
idence	-1826
▁div	-1827
▁Hen	-1828
rict	-1829
▁killed	-1830
▁process	-1831
▁see	-1832
▁agre	-1833
ecut	-1834
▁thought	-1835
of	-1836
▁fem	-1837
head	-1838
ways	-1839
▁able	-1840
▁meet	-1841
▁does	-1842
▁tropical	-1843
▁vol	-1844
▁wid	-1845
▁significant	-1846
▁David	-1847
ett	-1848
▁Bill	-1849
▁cop	-1850
▁taken	-1851
▁black	-1852
▁discover	-1853
▁entire	-1854
▁miles	-1855
▁special	-1856
▁Phil	-1857
▁look	-1858
▁ident	-1859
▁test	-1860
▁techn	-1861
.2	-1862
▁Reg	-1863
▁little	-1864
umb	-1865
ask	-1866
▁cost	-1867
olution	-1868
aval	-1869
▁fight	-1870
▁cy	-1871
▁appeared	-1872
oice	-1873
▁route	-1874
▁Ser	-1875
▁Rich	-1876
urg	-1877
irl	-1878
▁award	-1879
▁age	-1880
epend	-1881
▁coast	-1882
enced	-1883
ray	-1884
▁mm	-1885
▁Thom	-1886
ought	-1887
urb	-1888
▁1,	-1889
▁obs	-1890
less	-1891
ertain	-1892
lected	-1893
aves	-1894
ster	-1895
▁Mor	-1896
▁established	-1897
▁Sch	-1898
ination	-1899
▁coll	-1900
▁front	-1901
▁!	-1902
acy	-1903
▁points	-1904
ius	-1905
▁struct	-1906
▁features	-1907
▁rank	-1908
▁caused	-1909
cil	-1910
▁You	-1911
▁broad	-1912
odes	-1913
▁impro	-1914
▁seven	-1915
▁decl	-1916
▁important	-1917
gether	-1918
▁together	-1919
▁Australian	-1920
▁Part	-1921
uk	-1922
iec	-1923
blem	-1924
▁body	-1925
iers	-1926
▁writing	-1927
▁Act	-1928
▁Afric	-1929
▁general	-1930
idd	-1931
▁once	-1932
▁started	-1933
▁women	-1934
▁member	-1935
ample	-1936
igned	-1937
▁cult	-1938
emy	-1939
board	-1940
▁esc	-1941
▁decided	-1942
here	-1943
▁pain	-1944
▁activ	-1945
▁feet	-1946
ators	-1947
▁enc	-1948
reek	-1949
▁Per	-1950
▁Qu	-1951
▁hit	-1952
▁saw	-1953
▁arg	-1954
▁completed	-1955
▁mix	-1956
▁grow	-1957
▁Pe	-1958
▁hold	-1959
▁Royal	-1960
▁eventually	-1961
▁Em	-1962
▁conn	-1963
▁My	-1964
rought	-1965
iron	-1966
itar	-1967
▁stri	-1968
▁instead	-1969
▁arch	-1970
ivil	-1971
men	-1972
aces	-1973
▁ball	-1974
hys	-1975
ogn	-1976
oney	-1977
ush	-1978
rison	-1979
cing	-1980
▁added	-1981
▁pri	-1982
▁redu	-1983
▁188	-1984
ects	-1985
hic	-1986
▁29	-1987
▁er	-1988
▁formed	-1989
▁Port	-1990
▁nov	-1991
▁Black	-1992
ivid	-1993
▁tre	-1994
▁cut	-1995
conom	-1996
▁House	-1997
▁ask	-1998
ells	-1999
.1	-2000
▁race	-2001
▁opened	-2002
▁manag	-2003
▁modern	-2004
▁rather	-2005
▁others	-2006
ara	-2007
ament	-2008
50	-2009
ceed	-2010
be	-2011
▁crew	-2012
▁population	-2013
▁range	-2014
int	-2015
ata	-2016
▁occur	-2017
wood	-2018
▁mot	-2019
▁circ	-2020
▁voc	-2021
asing	-2022
▁behind	-2023
▁ren	-2024
▁comment	-2025
▁Michael	-2026
▁mater	-2027
▁located	-2028
▁lik	-2029
▁Med	-2030
▁lack	-2031
ades	-2032
▁Indian	-2033
▁subsequ	-2034
▁fall	-2035
aps	-2036
gg	-2037
▁2004	-2038
arch	-2039
▁186	-2040
▁worked	-2041
▁live	-2042
▁loss	-2043
▁School	-2044
stit	-2045
▁invest	-2046
▁Intern	-2047
▁site	-2048
medi	-2049
nder	-2050
▁miss	-2051
▁Nor	-2052
unk	-2053
▁action	-2054
▁white	-2055
▁problem	-2056
▁2015	-2057
▁France	-2058
▁works	-2059
▁originally	-2060
▁reve	-2061
▁guns	-2062
▁insp	-2063
▁surv	-2064
▁heavy	-2065
bert	-2066
▁peak	-2067
▁almost	-2068
ming	-2069
▁leading	-2070
oint	-2071
▁separ	-2072
▁brother	-2073
west	-2074
ficult	-2075
▁Some	-2076
amb	-2077
ements	-2078
▁weeks	-2079
▁base	-2080
▁know	-2081
▁effort	-2082
▁damage	-2083
anch	-2084
▁Henry	-2085
▁pred	-2086
▁inj	-2087
oring	-2088
▁difficult	-2089
▁relationship	-2090
▁accom	-2091
ee	-2092
▁Ale	-2093
▁close	-2094
▁host	-2095
aut	-2096
▁scored	-2097
ellow	-2098
▁clos	-2099
▁fourth	-2100
▁accept	-2101
oid	-2102
▁mer	-2103
▁party	-2104
istic	-2105
▁31	-2106
▁stage	-2107
▁associ	-2108
▁brought	-2109
▁engine	-2110
▁Wash	-2111
▁inform	-2112
▁upon	-2113
▁young	-2114
▁least	-2115
▁Desp	-2116
▁bomb	-2117
▁troops	-2118
lic	-2119
▁fif	-2120
▁allowed	-2121
▁scene	-2122
▁Vir	-2123
▁round	-2124
▁case	-2125
▁Best	-2126
▁style	-2127
▁wanted	-2128
▁San	-2129
▁pract	-2130
.6	-2131
▁provided	-2132
▁mult	-2133
▁vot	-2134
angu	-2135
▁towards	-2136
▁ra	-2137
▁Ag	-2138
▁region	-2139
▁reb	-2140
ica	-2141
iff	-2142
▁king	-2143
ened	-2144
▁Red	-2145
▁critics	-2146
▁tradition	-2147
go	-2148
ula	-2149
▁goal	-2150
▁construction	-2151
ex	-2152
▁vill	-2153
▁resul	-2154
▁working	-2155
▁quick	-2156
ky	-2157
▁either	-2158
▁far	-2159
▁mother	-2160
▁example	-2161
year	-2162
-2	-2163
ino	-2164
▁Mil	-2165
▁Paul	-2166
ule	-2167
▁President	-2168
▁Cap	-2169
ama	-2170
▁creat	-2171
▁mi	-2172
▁laun	-2173
▁Bel	-2174
tr	-2175
▁Que	-2176
▁econom	-2177
rey	-2178
▁born	-2179
▁army	-2180
▁runs	-2181
▁avail	-2182
▁individ	-2183
▁Robert	-2184
▁featured	-2185
uff	-2186
ength	-2187
▁playing	-2188
▁187	-2189
▁ter	-2190
▁respect	-2191
▁believed	-2192
.7	-2193
▁generally	-2194
itch	-2195
▁reach	-2196
▁indust	-2197
ude	-2198
▁placed	-2199
▁Cour	-2200
▁Do	-2201
▁human	-2202
▁victory	-2203
▁Follow	-2204
azine	-2205
▁business	-2206
▁Washington	-2207
enes	-2208
▁profess	-2209
▁neg	-2210
▁Despite	-2211
▁hon	-2212
▁proper	-2213
▁ve	-2214
▁average	-2215
val	-2216
antic	-2217
▁material	-2218
▁office	-2219
ourn	-2220
▁2000	-2221
ville	-2222
▁Hol	-2223
▁rail	-2224
▁estim	-2225
▁current	-2226
co	-2227
ze	-2228
ills	-2229
▁Following	-2230
▁employ	-2231
▁joined	-2232
ential	-2233
▁soon	-2234
▁recogn	-2235
▁events	-2236
ving	-2237
.4	-2238
ago	-2239
▁dou	-2240
▁Other	-2241
▁fig	-2242
▁sour	-2243
▁ce	-2244
.3	-2245
inn	-2246
▁2003	-2247
▁Ke	-2248
▁foc	-2249
▁free	-2250
oor	-2251
▁Angel	-2252
aled	-2253
▁mph	-2254
▁stru	-2255
osition	-2256
▁particip	-2257
.8	-2258
▁Ham	-2259
▁involved	-2260
▁wife	-2261
key	-2262
▁Bo	-2263
xic	-2264
▁island	-2265
ological	-2266
▁finished	-2267
fall	-2268
quadron	-2269
ander	-2270
▁mass	-2271
▁La	-2272
▁Cup	-2273
▁replaced	-2274
earch	-2275
leg	-2276
artment	-2277
chie	-2278
aper	-2279
▁particularly	-2280
oms	-2281
▁Hall	-2282
BC	-2283
cher	-2284
▁rul	-2285
now	-2286
▁dev	-2287
▁desp	-2288
asion	-2289
▁conduct	-2290
ishing	-2291
for	-2292
▁fund	-2293
▁Gro	-2294
▁nomin	-2295
aren	-2296
▁saying	-2297
▁Je	-2298
▁contrib	-2299
▁Mary	-2300
▁Mal	-2301
uel	-2302
▁training	-2303
▁southern	-2304
▁hours	-2305
▁z	-2306
▁Lou	-2307
like	-2308
ecutive	-2309
▁designed	-2310
▁Mac	-2311
iction	-2312
arn	-2313
erous	-2314
▁Championship	-2315
▁sex	-2316
▁Play	-2317
▁break	-2318
▁highway	-2319
▁Battle	-2320
▁indic	-2321
▁regular	-2322
▁initially	-2323
▁hor	-2324
anned	-2325
oul	-2326
▁hard	-2327
iding	-2328
▁ly	-2329
▁possible	-2330
▁From	-2331
▁European	-2332
▁must	-2333
▁shot	-2334
▁Roman	-2335
▁forced	-2336
▁Wil	-2337
▁available	-2338
ki	-2339
▁praised	-2340
rated	-2341
▁°	-2342
▁Dan	-2343
▁Rou	-2344
▁Two	-2345
▁dro	-2346
▁Great	-2347
▁turned	-2348
▁earlier	-2349
ights	-2350
▁Mart	-2351
▁sequ	-2352
▁opening	-2353
▁score	-2354
▁percent	-2355
▁Republic	-2356
▁McC	-2357
▁northern	-2358
.9	-2359
▁commer	-2360
ply	-2361
▁Cro	-2362
▁Scott	-2363
▁respons	-2364
ipp	-2365
▁hom	-2366
face	-2367
▁contr	-2368
▁Val	-2369
▁minutes	-2370
itte	-2371
▁Ber	-2372
▁Kingdom	-2373
back	-2374
▁studio	-2375
▁Colle	-2376
ended	-2377
anding	-2378
▁remov	-2379
ems	-2380
▁Mag	-2381
▁threat	-2382
▁ended	-2383
rian	-2384
▁2001	-2385
▁First	-2386
▁appearance	-2387
uture	-2388
ateg	-2389
▁super	-2390
ification	-2391
▁Music	-2392
▁director	-2393
itor	-2394
alled	-2395
▁court	-2396
▁president	-2397
heast	-2398
asy	-2399
bor	-2400
▁ill	-2401
ointed	-2402
ocr	-2403
▁social	-2404
hib	-2405
▁Virgin	-2406
▁grad	-2407
ios	-2408
emor	-2409
▁Game	-2410
▁passed	-2411
▁Thomas	-2412
▁largest	-2413
ship	-2414
▁Pal	-2415
uter	-2416
▁units	-2417
▁love	-2418
▁Charles	-2419
▁Navy	-2420
▁Atl	-2421
▁increased	-2422
▁park	-2423
▁hurricane	-2424
▁hy	-2425
▁priv	-2426
.0	-2427
ference	-2428
▁change	-2429
cial	-2430
▁relig	-2431
▁But	-2432
▁Mo	-2433
▁Rock	-2434
▁exist	-2435
▁novel	-2436
rem	-2437
antry	-2438
▁Richard	-2439
▁immedi	-2440
▁keep	-2441
▁White	-2442
▁phys	-2443
aughter	-2444
▁2002	-2445
▁central	-2446
▁Alex	-2447
▁Off	-2448
▁past	-2449
aker	-2450
atural	-2451
▁regard	-2452
▁Star	-2453
itz	-2454
▁highest	-2455
ston	-2456
▁Sen	-2457
▁better	-2458
▁object	-2459
▁bill	-2460
sel	-2461
▁length	-2462
▁move	-2463
▁taking	-2464
iforn	-2465
▁treat	-2466
ique	-2467
▁church	-2468
▁Sing	-2469
▁hous	-2470
▁Award	-2471
▁pers	-2472
ears	-2473
arily	-2474
▁Sam	-2475
▁Canada	-2476
▁stop	-2477
▁Smith	-2478
▁Union	-2479
oph	-2480
▁according	-2481
den	-2482
▁quar	-2483
▁positive	-2484
▁Bay	-2485
ecess	-2486
▁disp	-2487
▁quest	-2488
▁winds	-2489
▁outside	-2490
▁piec	-2491
▁Court	-2492
▁Met	-2493
ilities	-2494
ands	-2495
▁feel	-2496
▁sym	-2497
▁enough	-2498
apt	-2499
anded	-2500
anks	-2501
▁Church	-2502
mon	-2503
▁inn	-2504
▁International	-2505
▁Brown	-2506
▁Associ	-2507
ume	-2508
ump	-2509
▁pot	-2510
▁meas	-2511
▁independ	-2512
agon	-2513
▁cycl	-2514
rup	-2515
▁God	-2516
reng	-2517
▁signed	-2518
pped	-2519
▁failed	-2520
▁slow	-2521
▁Californ	-2522
▁lower	-2523
▁above	-2524
edy	-2525
ership	-2526
ida	-2527
▁ordered	-2528
▁reviews	-2529
elled	-2530
▁achie	-2531
▁subject	-2532
etwork	-2533
▁previously	-2534
▁Island	-2535
▁required	-2536
▁going	-2537
▁spent	-2538
▁Vict	-2539
▁contract	-2540
▁Sl	-2541
ma	-2542
aint	-2543
▁ap	-2544
▁educ	-2545
▁wall	-2546
▁interview	-2547
▁Cong	-2548
ready	-2549
▁itself	-2550
▁think	-2551
ittee	-2552
time	-2553
▁Ir	-2554
oke	-2555
▁esp	-2556
erved	-2557
het	-2558
▁Route	-2559
▁Dep	-2560
▁whose	-2561
▁Cr	-2562
▁elements	-2563
atin	-2564
▁states	-2565
lying	-2566
ground	-2567
▁Germany	-2568
▁despite	-2569
▁India	-2570
osing	-2571
▁Company	-2572
uation	-2573
usion	-2574
▁cred	-2575
▁told	-2576
▁beginning	-2577
▁Tom	-2578
berg	-2579
quare	-2580
▁cru	-2581
▁California	-2582
alion	-2583
▁Ac	-2584
▁Jos	-2585
▁rain	-2586
▁assist	-2587
ibility	-2588
▁debut	-2589
▁films	-2590
▁langu	-2591
▁beg	-2592
▁directed	-2593
▁That	-2594
ows	-2595
▁parts	-2596
▁Res	-2597
▁mean	-2598
▁prob	-2599
▁£	-2600
▁nar	-2601
▁wat	-2602
▁Peter	-2603
▁recording	-2604
▁come	-2605
▁speed	-2606
▁clear	-2607
▁Stud	-2608
▁football	-2609
▁NY	-2610
▁abs	-2611
▁asked	-2612
nes	-2613
▁?	-2614
▁flow	-2615
mar	-2616
▁sil	-2617
amer	-2618
▁future	-2619
▁prevent	-2620
oviet	-2621
▁Mexic	-2622
▁UK	-2623
▁phot	-2624
onna	-2625
▁nine	-2626
▁Govern	-2627
ids	-2628
▁except	-2629
van	-2630
▁Up	-2631
eal	-2632
▁section	-2633
▁transfer	-2634
rief	-2635
▁Mark	-2636
▁rap	-2637
isl	-2638
▁pur	-2639
▁Mer	-2640
▁viol	-2641
▁Christian	-2642
acted	-2643
▁Gold	-2644
▁prem	-2645
▁ey	-2646
▁Art	-2647
▁Britain	-2648
▁bi	-2649
▁groups	-2650
airs	-2651
▁already	-2652
▁Hill	-2653
ability	-2654
▁give	-2655
▁key	-2656
asons	-2657
onst	-2658
hester	-2659
▁poor	-2660
minist	-2661
ha	-2662
▁Grand	-2663
▁Pat	-2664
▁lines	-2665
ecially	-2666
oo	-2667
▁whom	-2668
▁international	-2669
▁carried	-2670
▁quickly	-2671
atory	-2672
usp	-2673
▁claimed	-2674
unt	-2675
▁cou	-2676
▁additional	-2677
▁access	-2678
igan	-2679
▁sea	-2680
▁streng	-2681
eck	-2682
▁unc	-2683
▁Soviet	-2684
▁Hot	-2685
ys	-2686
ully	-2687
▁center	-2688
▁sometimes	-2689
▁fort	-2690
▁introduced	-2691
▁league	-2692
▁Most	-2693
▁Dem	-2694
▁money	-2695
▁Frank	-2696
▁occup	-2697
▁College	-2698
▁especially	-2699
▁evidence	-2700
▁anti	-2701
▁op	-2702
▁bridge	-2703
▁musical	-2704
▁gold	-2705
▁female	-2706
▁Times	-2707
▁defeated	-2708
▁frequ	-2709
▁travel	-2710
▁block	-2711
▁pil	-2712
▁Rob	-2713
▁remain	-2714
▁arrived	-2715
▁1990	-2716
▁shows	-2717
▁che	-2718
▁idea	-2719
▁Ben	-2720
▁-	-2721
▁Chic	-2722
▁might	-2723
▁radio	-2724
▁civil	-2725
irth	-2726
▁Span	-2727
▁product	-2728
▁discuss	-2729
▁Force	-2730
de	-2731
▁usually	-2732
▁becoming	-2733
▁Coun	-2734
ites	-2735
▁Victor	-2736
liam	-2737
▁Soc	-2738
▁minor	-2739
▁lab	-2740
▁larger	-2741
II	-2742
▁Pac	-2743
▁pen	-2744
▁env	-2745
▁deal	-2746
▁Western	-2747
asc	-2748
▁approx	-2749
▁food	-2750
▁latter	-2751
tar	-2752
▁suggested	-2753
aring	-2754
▁script	-2755
▁community	-2756
ulf	-2757
han	-2758
liament	-2759
▁complet	-2760
▁estimated	-2761
gen	-2762
aries	-2763
▁remaining	-2764
eum	-2765
▁Virginia	-2766
▁sat	-2767
▁territ	-2768
▁Just	-2769
▁concern	-2770
▁Mount	-2771
▁western	-2772
▁surround	-2773
▁brief	-2774
▁draw	-2775
▁study	-2776
▁magazine	-2777
ises	-2778
▁Bur	-2779
porary	-2780
ending	-2781
▁flood	-2782
▁issue	-2783
NA	-2784
ergy	-2785
▁students	-2786
su	-2787
mir	-2788
▁1970	-2789
▁determ	-2790
ption	-2791
▁construct	-2792
▁fleet	-2793
omm	-2794
▁lyric	-2795
30	-2796
inct	-2797
▁decision	-2798
▁wood	-2799
▁consider	-2800
▁den	-2801
▁60	-2802
onse	-2803
ederal	-2804
▁leaving	-2805
erve	-2806
ography	-2807
▁prior	-2808
▁liter	-2809
change	-2810
▁Tex	-2811
▁bur	-2812
▁Mill	-2813
▁destroyed	-2814
▁1999	-2815
▁self	-2816
incip	-2817
ession	-2818
▁police	-2819
▁summer	-2820
▁episodes	-2821
▁appointed	-2822
▁commercial	-2823
▁Franc	-2824
yr	-2825
▁doc	-2826
▁teams	-2827
sy	-2828
▁staff	-2829
▁exc	-2830
ournal	-2831
▁guitar	-2832
▁tar	-2833
▁limited	-2834
▁complete	-2835
▁pay	-2836
acing	-2837
ga	-2838
ension	-2839
▁Los	-2840
▁proposed	-2841
▁Jackson	-2842
igade	-2843
nel	-2844
▁personal	-2845
ena	-2846
win	-2847
ests	-2848
ores	-2849
▁1980	-2850
▁acqu	-2851
▁Association	-2852
ari	-2853
▁changes	-2854
▁prison	-2855
▁entered	-2856
▁Chicago	-2857
▁intended	-2858
iser	-2859
AA	-2860
▁investig	-2861
▁market	-2862
▁surface	-2863
▁rights	-2864
▁eastern	-2865
atives	-2866
▁lo	-2867
▁transport	-2868
▁Im	-2869
▁Du	-2870
▁agreed	-2871
▁der	-2872
▁emer	-2873
ift	-2874
▁nearly	-2875
ires	-2876
▁bow	-2877
ulated	-2878
▁provide	-2879
mitted	-2880
▁board	-2881
▁movement	-2882
▁35	-2883
▁certain	-2884
▁influence	-2885
sen	-2886
▁Over	-2887
inent	-2888
▁tax	-2889
▁Film	-2890
▁writer	-2891
▁purch	-2892
lymp	-2893
▁big	-2894
ronic	-2895
enth	-2896
▁division	-2897
▁response	-2898
inese	-2899
▁Party	-2900
▁fail	-2901
▁overall	-2902
▁If	-2903
idents	-2904
▁size	-2905
▁Club	-2906
▁Louis	-2907
ili	-2908
▁screen	-2909
▁helped	-2910
▁susp	-2911
▁Awards	-2912
▁scenes	-2913
▁dark	-2914
kn	-2915
imum	-2916
▁Many	-2917
▁Hist	-2918
▁effects	-2919
▁cal	-2920
▁river	-2921
▁multip	-2922
▁married	-2923
▁Day	-2924
▁trib	-2925
▁Olymp	-2926
▁Edward	-2927
▁Pri	-2928
▁Fle	-2929
▁Flor	-2930
▁184	-2931
▁jud	-2932
▁higher	-2933
tt	-2934
irm	-2935
▁Green	-2936
▁cat	-2937
▁pressure	-2938
▁create	-2939
oe	-2940
▁daughter	-2941
▁awarded	-2942
▁di	-2943
▁arrang	-2944
▁contro	-2945
▁election	-2946
ties	-2947
▁commission	-2948
arent	-2949
▁Johnson	-2950
▁planned	-2951
atively	-2952
can	-2953
▁polic	-2954
▁captured	-2955
imate	-2956
▁feature	-2957
▁Spanish	-2958
aded	-2959
bers	-2960
che	-2961
▁thus	-2962
▁deep	-2963
▁diss	-2964
▁longer	-2965
▁countries	-2966
60	-2967
rd	-2968
▁structure	-2969
▁1998	-2970
down	-2971
▁Chinese	-2972
▁conclud	-2973
▁favor	-2974
▁Cast	-2975
▁compared	-2976
rel	-2977
▁fans	-2978
▁increasing	-2979
umn	-2980
isions	-2981
▁date	-2982
▁approximately	-2983
▁ult	-2984
hold	-2985
▁girl	-2986
▁Council	-2987
teen	-2988
omer	-2989
▁our	-2990
olic	-2991
▁supported	-2992
▁Since	-2993
▁room	-2994
▁experience	-2995
▁voice	-2996
▁32	-2997
▁broadcast	-2998
▁running	-2999
uz	-3000
▁185	-3001
order	-3002
▁dead	-3003
▁research	-3004
▁stars	-3005
▁tracks	-3006
▁copies	-3007
▁living	-3008
▁withd	-3009
pris	-3010
thing	-3011
▁Second	-3012
▁changed	-3013
▁Inf	-3014
▁media	-3015
dle	-3016
▁Pacific	-3017
▁Kore	-3018
▁extended	-3019
▁establish	-3020
enty	-3021
iles	-3022
▁Emp	-3023
bour	-3024
ounds	-3025
▁course	-3026
▁shoot	-3027
▁done	-3028
▁space	-3029
▁mostly	-3030
raz	-3031
▁bring	-3032
ij	-3033
▁Enter	-3034
▁sport	-3035
▁cm	-3036
▁Sal	-3037
▁bird	-3038
▁Don	-3039
▁Billboard	-3040
ny	-3041
▁suffered	-3042
vin	-3043
▁heav	-3044
▁probably	-3045
selves	-3046
▁woman	-3047
▁initial	-3048
▁remains	-3049
▁leader	-3050
▁Mont	-3051
▁themselves	-3052
ounted	-3053
▁visit	-3054
▁1960	-3055
▁Ital	-3056
▁Song	-3057
▁likely	-3058
▁equip	-3059
▁mixed	-3060
▁Later	-3061
▁approach	-3062
▁health	-3063
▁tons	-3064
▁goals	-3065
▁producer	-3066
▁Sun	-3067
tained	-3068
▁subsequently	-3069
iqu	-3070
imin	-3071
action	-3072
ously	-3073
▁1997	-3074
▁soldiers	-3075
▁emb	-3076
▁whether	-3077
▁lyrics	-3078
▁leave	-3079
▁dram	-3080
▁always	-3081
▁consist	-3082
▁Bet	-3083
▁weap	-3084
hood	-3085
▁really	-3086
▁capital	-3087
▁Congress	-3088
▁Fort	-3089
▁temper	-3090
▁natural	-3091
▁immediately	-3092
▁complex	-3093
▁face	-3094
▁buildings	-3095
oys	-3096
writ	-3097
▁wide	-3098
▁intens	-3099
▁includes	-3100
▁concept	-3101
pe	-3102
ien	-3103
▁fifth	-3104
▁Love	-3105
ospital	-3106
itted	-3107
▁chall	-3108
▁Ev	-3109
andon	-3110
▁Both	-3111
▁forward	-3112
▁Sever	-3113
▁quarter	-3114
urt	-3115
iant	-3116
▁terms	-3117
▁operations	-3118
▁mach	-3119
▁Texas	-3120
▁battles	-3121
ss	-3122
▁Oper	-3123
▁depart	-3124
▁attend	-3125
class	-3126
▁syn	-3127
▁Lit	-3128
orning	-3129
ams	-3130
▁Kn	-3131
ctor	-3132
bre	-3133
▁Ro	-3134
▁Another	-3135
▁Scot	-3136
▁fell	-3137
iation	-3138
▁model	-3139
▁compan	-3140
▁Sea	-3141
▁instr	-3142
▁cele	-3143
▁Lake	-3144
ria	-3145
bury	-3146
yard	-3147
▁private	-3148
▁problems	-3149
▁Town	-3150
▁winning	-3151
▁Mr	-3152
▁mount	-3153
▁officers	-3154
▁increase	-3155
well	-3156
▁revealed	-3157
▁Queen	-3158
pan	-3159
▁tow	-3160
▁Old	-3161
▁meeting	-3162
lo	-3163
▁majority	-3164
▁adop	-3165
▁Its	-3166
▁location	-3167
ibr	-3168
▁kil	-3169
▁via	-3170
▁Ol	-3171
uth	-3172
vey	-3173
▁Florida	-3174
stant	-3175
▁Wood	-3176
▁got	-3177
▁Pet	-3178
iring	-3179
▁flag	-3180
aily	-3181
▁appears	-3182
▁conditions	-3183
▁hop	-3184
▁financ	-3185
▁Not	-3186
▁offered	-3187
ging	-3188
▁Jim	-3189
▁something	-3190
▁ran	-3191
▁administ	-3192
▁plans	-3193
▁How	-3194
known	-3195
▁mur	-3196
▁sch	-3197
▁job	-3198
▁damaged	-3199
tered	-3200
▁issued	-3201
VD	-3202
▁distrib	-3203
▁China	-3204
abit	-3205
▁plot	-3206
ste	-3207
▁Canadian	-3208
▁Law	-3209
▁tor	-3210
▁bene	-3211
▁Earth	-3212
etic	-3213
▁Center	-3214
ify	-3215
riage	-3216
venue	-3217
▁altern	-3218
oper	-3219
▁Central	-3220
▁discovered	-3221
▁manager	-3222
rial	-3223
▁breed	-3224
▁Atlantic	-3225
iest	-3226
▁Inter	-3227
▁Cont	-3228
umed	-3229
▁coin	-3230
▁removed	-3231
lor	-3232
▁45	-3233
▁Mel	-3234
▁takes	-3235
▁cause	-3236
▁composed	-3237
▁focus	-3238
▁Lord	-3239
▁Africa	-3240
ironment	-3241
▁Tor	-3242
adium	-3243
▁network	-3244
uf	-3245
quar	-3246
▁vir	-3247
▁Kent	-3248
80	-3249
▁norm	-3250
aches	-3251
▁active	-3252
▁finally	-3253
hod	-3254
▁Jew	-3255
▁anc	-3256
▁carry	-3257
▁upper	-3258
▁professional	-3259
▁smaller	-3260
▁services	-3261
uries	-3262
▁Step	-3263
▁respectively	-3264
▁Camp	-3265
▁nature	-3266
▁attempted	-3267
▁slight	-3268
▁Rail	-3269
▁attacks	-3270
ault	-3271
▁Carol	-3272
▁individual	-3273
▁80	-3274
▁yards	-3275
▁occurred	-3276
▁numerous	-3277
▁mom	-3278
▁Final	-3279
▁flight	-3280
▁App	-3281
wh	-3282
burg	-3283
▁sal	-3284
▁Sir	-3285
20	-3286
oes	-3287
▁box	-3288
ograph	-3289
reater	-3290
▁farm	-3291
▁defeat	-3292
▁deg	-3293
▁Martin	-3294
▁whole	-3295
▁referred	-3296
olk	-3297
▁vehic	-3298
▁status	-3299
▁Mur	-3300
▁amb	-3301
rie	-3302
aught	-3303
▁associated	-3304
▁shown	-3305
▁collect	-3306
uments	-3307
▁coach	-3308
▁Big	-3309
▁makes	-3310
ective	-3311
▁Super	-3312
uing	-3313
,5	-3314
▁Cam	-3315
kin	-3316
▁colon	-3317
ka	-3318
ails	-3319
▁singer	-3320
▁attacked	-3321
▁Str	-3322
▁ens	-3323
▁contains	-3324
▁language	-3325
cean	-3326
uals	-3327
▁Under	-3328
▁village	-3329
▁lay	-3330
izing	-3331
▁type	-3332
▁bad	-3333
▁launched	-3334
▁mission	-3335
aging	-3336
ortun	-3337
ounts	-3338
▁princip	-3339
▁Penn	-3340
▁numbers	-3341
▁Angeles	-3342
▁resulted	-3343
gely	-3344
▁dig	-3345
▁1995	-3346
estival	-3347
▁Bow	-3348
▁qual	-3349
▁birth	-3350
enant	-3351
▁cand	-3352
▁Group	-3353
▁yet	-3354
▁secret	-3355
▁raised	-3356
▁commented	-3357
▁information	-3358
▁III	-3359
▁Empire	-3360
bed	-3361
reme	-3362
vert	-3363
▁DVD	-3364
▁industry	-3365
▁imm	-3366
▁Serv	-3367
▁sales	-3368
▁needed	-3369
▁officer	-3370
▁assigned	-3371
▁Squadron	-3372
itation	-3373
▁unable	-3374
▁request	-3375
▁giving	-3376
▁listed	-3377
▁Russian	-3378
▁issues	-3379
▁1996	-3380
▁stay	-3381
wide	-3382
irection	-3383
▁Rh	-3384
▁cer	-3385
ider	-3386
▁scient	-3387
▁primary	-3388
▁ranked	-3389
▁Miss	-3390
▁Highway	-3391
▁Rad	-3392
▁attention	-3393
▁earned	-3394
urity	-3395
ken	-3396
▁artist	-3397
▁incor	-3398
▁largely	-3399
▁Gar	-3400
eph	-3401
▁selected	-3402
oly	-3403
▁sen	-3404
▁plant	-3405
▁Ter	-3406
▁celebr	-3407
onic	-3408
▁male	-3409
ples	-3410
▁ang	-3411
▁below	-3412
▁Year	-3413
▁Italian	-3414
▁moving	-3415
▁Tur	-3416
▁archit	-3417
road	-3418
▁friends	-3419
▁Viet	-3420
track	-3421
oud	-3422
▁Del	-3423
▁Zeal	-3424
▁pit	-3425
▁2016	-3426
▁link	-3427
▁contem	-3428
itude	-3429
▁counter	-3430
ady	-3431
▁domin	-3432
▁want	-3433
▁trade	-3434
▁audience	-3435
▁refused	-3436
▁sem	-3437
▁kind	-3438
▁Wales	-3439
▁critical	-3440
▁declared	-3441
ections	-3442
▁closed	-3443
10	-3444
▁Democr	-3445
use	-3446
▁enj	-3447
▁Trans	-3448
▁walk	-3449
undred	-3450
▁expected	-3451
iled	-3452
uated	-3453
▁inspired	-3454
inch	-3455
bridge	-3456
▁letter	-3457
lection	-3458
▁religious	-3459
▁traditional	-3460
anced	-3461
▁prec	-3462
▁newsp	-3463
▁Mass	-3464
▁legisl	-3465
ounded	-3466
▁exam	-3467
▁blood	-3468
▁depression	-3469
▁Dist	-3470
ighter	-3471
light	-3472
▁double	-3473
▁Out	-3474
▁saf	-3475
▁i	-3476
▁recover	-3477
rug	-3478
odies	-3479
▁TV	-3480
▁Zealand	-3481
▁underst	-3482
aine	-3483
rown	-3484
▁Tour	-3485
▁ability	-3486
edic	-3487
▁standard	-3488
ening	-3489
ogue	-3490
▁1994	-3491
▁More	-3492
▁Michigan	-3493
▁1950	-3494
▁reason	-3495
▁directly	-3496
arian	-3497
▁method	-3498
▁sister	-3499
aped	-3500
▁talk	-3501
▁artic	-3502
▁commander	-3503
▁roy	-3504
▁books	-3505
▁disapp	-3506
▁operation	-3507
▁max	-3508
▁constit	-3509
ona	-3510
▁meant	-3511
▁Ox	-3512
ector	-3513
▁produce	-3514
▁hot	-3515
▁aw	-3516
▁elected	-3517
house	-3518
▁rapid	-3519
▁Cle	-3520
▁180	-3521
utch	-3522
▁Bec	-3523
▁sett	-3524
▁purp	-3525
▁attended	-3526
isher	-3527
icient	-3528
▁Nort	-3529
▁Test	-3530
miral	-3531
▁matches	-3532
▁70	-3533
▁middle	-3534
▁covered	-3535
▁question	-3536
▁sched	-3537
ette	-3538
▁plat	-3539
▁analy	-3540
▁related	-3541
ibly	-3542
▁necess	-3543
▁compl	-3544
▁Several	-3545
▁Rev	-3546
▁centre	-3547
▁Corps	-3548
▁vocals	-3549
shire	-3550
▁continue	-3551
▁Er	-3552
ares	-3553
▁account	-3554
▁neigh	-3555
▁Cath	-3556
lit	-3557
▁Sar	-3558
▁prep	-3559
▁nearby	-3560
▁presented	-3561
icted	-3562
▁mention	-3563
ims	-3564
▁1940	-3565
▁theat	-3566
▁annual	-3567
▁90	-3568
iences	-3569
▁separate	-3570
aver	-3571
▁Long	-3572
▁document	-3573
▁pow	-3574
▁Lu	-3575
▁thr	-3576
ieut	-3577
▁har	-3578
acher	-3579
▁word	-3580
▁00	-3581
▁Acad	-3582
▁inters	-3583
▁Midd	-3584
▁Kenn	-3585
▁fighting	-3586
antasy	-3587
▁Minister	-3588
▁education	-3589
▁watch	-3590
ani	-3591
▁grand	-3592
▁constructed	-3593
illed	-3594
▁rate	-3595
▁reduced	-3596
40	-3597
▁Mexico	-3598
▁sevent	-3599
▁Their	-3600
▁African	-3601
▁theme	-3602
▁records	-3603
70	-3604
▁Fox	-3605
▁combat	-3606
▁resulting	-3607
▁mor	-3608
▁heart	-3609
gl	-3610
cel	-3611
▁ris	-3612
▁kept	-3613
▁touch	-3614
90	-3615
▁Dis	-3616
▁traff	-3617
▁means	-3618
vention	-3619
echan	-3620
oses	-3621
▁stating	-3622
ping	-3623
▁text	-3624
irmed	-3625
▁enjoy	-3626
▁serious	-3627
▁competition	-3628
pass	-3629
▁purs	-3630
ado	-3631
▁pick	-3632
▁begins	-3633
▁cle	-3634
▁Bu	-3635
▁seem	-3636
eway	-3637
▁unit	-3638
▁So	-3639
ether	-3640
▁+	-3641
▁Wall	-3642
▁tried	-3643
▁drum	-3644
▁Greek	-3645
▁train	-3646
▁dut	-3647
▁repe	-3648
ada	-3649
▁compos	-3650
▁advance	-3651
▁1930	-3652
▁forest	-3653
▁abandon	-3654
▁spir	-3655
▁avoid	-3656
▁accepted	-3657
▁1992	-3658
▁names	-3659
▁fast	-3660
▁inside	-3661
▁direction	-3662
anes	-3663
arents	-3664
▁highly	-3665
awn	-3666
ishop	-3667
stitute	-3668
▁rare	-3669
▁Mic	-3670
▁notes	-3671
▁energy	-3672
▁morning	-3673
▁cas	-3674
▁schools	-3675
▁Bost	-3676
▁Bob	-3677
▁practice	-3678
▁Fore	-3679
vement	-3680
ieutenant	-3681
ya	-3682
lict	-3683
▁1993	-3684
▁Madonna	-3685
▁twenty	-3686
▁dra	-3687
right	-3688
▁Wal	-3689
▁efforts	-3690
▁responsible	-3691
▁showed	-3692
▁Cross	-3693
▁chap	-3694
utions	-3695
▁legal	-3696
▁words	-3697
aph	-3698
▁thick	-3699
▁nation	-3700
▁Dar	-3701
▁asp	-3702
▁positions	-3703
uit	-3704
rier	-3705
force	-3706
▁Foot	-3707
▁controvers	-3708
▁Chris	-3709
▁royal	-3710
ita	-3711
osen	-3712
▁managed	-3713
▁continues	-3714
band	-3715
ceeded	-3716
imb	-3717
▁Stone	-3718
▁concert	-3719
▁183	-3720
ervation	-3721
ecting	-3722
▁Four	-3723
▁houses	-3724
▁conducted	-3725
▁Dou	-3726
claim	-3727
ansion	-3728
▁candid	-3729
thel	-3730
▁levels	-3731
itt	-3732
isation	-3733
▁oil	-3734
▁33	-3735
▁Hel	-3736
▁Sum	-3737
▁Ann	-3738
▁college	-3739
▁Team	-3740
▁lear	-3741
▁rein	-3742
▁1991	-3743
▁Arch	-3744
cend	-3745
rical	-3746
▁recomm	-3747
▁marriage	-3748
▁BC	-3749
▁rat	-3750
▁marked	-3751
illery	-3752
▁environment	-3753
▁movie	-3754
▁dom	-3755
▁Manc	-3756
▁Stan	-3757
▁architect	-3758
▁Matt	-3759
▁reject	-3760
▁dropped	-3761
olf	-3762
peror	-3763
▁metal	-3764
▁cyclone	-3765
▁enemy	-3766
▁variety	-3767
load	-3768
▁Time	-3769
icip	-3770
▁pair	-3771
▁horse	-3772
▁Tre	-3773
▁championship	-3774
▁News	-3775
▁Arab	-3776
earing	-3777
thur	-3778
▁schol	-3779
▁edition	-3780
▁economic	-3781
▁Three	-3782
hips	-3783
▁ge	-3784
▁cases	-3785
▁metres	-3786
▁starting	-3787
▁forms	-3788
▁portray	-3789
▁distinct	-3790
▁du	-3791
▁Cons	-3792
▁bank	-3793
▁premi	-3794
▁Des	-3795
▁Scotland	-3796
▁dism	-3797
▁allowing	-3798
▁uses	-3799
▁Department	-3800
▁performances	-3801
▁becomes	-3802
▁financial	-3803
▁nuc	-3804
based	-3805
gypt	-3806
▁500	-3807
▁mess	-3808
▁Games	-3809
▁Secret	-3810
▁cerem	-3811
▁incorpor	-3812
itiz	-3813
▁Win	-3814
▁kilomet	-3815
▁vo	-3816
ersey	-3817
▁Creek	-3818
▁cust	-3819
▁Sat	-3820
▁Haw	-3821
▁ending	-3822
▁strugg	-3823
▁defend	-3824
sis	-3825
gian	-3826
▁Stephen	-3827
▁meaning	-3828
▁science	-3829
▁multiple	-3830
ulations	-3831
TV	-3832
▁sides	-3833
▁rule	-3834
MS	-3835
ols	-3836
under	-3837
udd	-3838
▁inches	-3839
▁Ever	-3840
▁chief	-3841
▁lived	-3842
emorial	-3843
ait	-3844
▁Brad	-3845
een	-3846
▁featuring	-3847
▁settle	-3848
▁portion	-3849
aud	-3850
▁Jer	-3851
▁suppl	-3852
▁hundred	-3853
▁symb	-3854
sw	-3855
▁federal	-3856
▁univers	-3857
▁source	-3858
▁property	-3859
▁Egypt	-3860
▁Records	-3861
▁Boston	-3862
▁2,	-3863
▁Oxford	-3864
▁peaked	-3865
▁encoun	-3866
▁Parliament	-3867
▁Arm	-3868
▁Sil	-3869
▁presence	-3870
▁Tri	-3871
▁arrest	-3872
▁demonst	-3873
▁primarily	-3874
▁onto	-3875
ih	-3876
▁vocal	-3877
cle	-3878
▁Bre	-3879
▁lif	-3880
▁opportun	-3881
▁Williams	-3882
▁attempts	-3883
▁potential	-3884
▁respond	-3885
▁contrast	-3886
▁display	-3887
ingu	-3888
mark	-3889
▁exhib	-3890
▁things	-3891
▁Ant	-3892
▁ple	-3893
▁tur	-3894
sych	-3895
▁Swed	-3896
▁Society	-3897
▁viewers	-3898
▁Committee	-3899
umber	-3900
▁34	-3901
▁figure	-3902
▁powerful	-3903
▁Kh	-3904
fect	-3905
▁concluded	-3906
▁Sur	-3907
▁Prince	-3908
▁slightly	-3909
▁Oh	-3910
▁actually	-3911
▁Go	-3912
▁Infantry	-3913
▁relatively	-3914
eds	-3915
war	-3916
▁writers	-3917
▁dise	-3918
▁foreign	-3919
▁Southern	-3920
▁Bat	-3921
▁target	-3922
▁greater	-3923
▁castle	-3924
ressive	-3925
▁traffic	-3926
▁raid	-3927
▁journal	-3928
▁cho	-3929
▁transferred	-3930
▁Because	-3931
▁observed	-3932
ils	-3933
▁opt	-3934
▁Before	-3935
▁amount	-3936
▁collection	-3937
ini	-3938
born	-3939
mission	-3940
▁mel	-3941
▁Captain	-3942
St	-3943
orses	-3944
▁calling	-3945
▁combined	-3946
▁1944	-3947
▁weaken	-3948
▁37	-3949
illa	-3950
▁wor	-3951
istry	-3952
▁Jones	-3953
▁struck	-3954
▁Manchester	-3955
▁Like	-3956
▁tend	-3957
uge	-3958
inet	-3959
▁tourn	-3960
▁Pan	-3961
▁Paris	-3962
▁stories	-3963
▁gained	-3964
▁conver	-3965
▁Den	-3966
▁Ver	-3967
▁Spec	-3968
▁beat	-3969
perial	-3970
▁Vietn	-3971
▁acting	-3972
▁reform	-3973
▁Harrison	-3974
▁36	-3975
▁plays	-3976
▁ultimately	-3977
stein	-3978
▁Sol	-3979
▁lot	-3980
ees	-3981
▁situation	-3982
annel	-3983
▁Major	-3984
▁parents	-3985
quarters	-3986
cript	-3987
▁founded	-3988
aga	-3989
▁Lee	-3990
▁mechan	-3991
▁waters	-3992
▁Max	-3993
▁Ott	-3994
▁1941	-3995
▁1942	-3996
▁collabor	-3997
alle	-3998
▁BBC	-3999
▁divided	-4000
acts	-4001
rate	-4002
▁Jeff	-4003
▁spot	-4004
chest	-4005
iance	-4006
▁behav	-4007
▁broke	-4008
▁Fred	-4009
▁Latin	-4010
▁animals	-4011
▁Battalion	-4012
▁companies	-4013
▁Academy	-4014
▁vess	-4015
▁Joseph	-4016
▁maximum	-4017
itan	-4018
astic	-4019
▁rough	-4020
▁designated	-4021
▁society	-4022
▁adj	-4023
▁log	-4024
▁Croat	-4025
▁Columb	-4026
▁Luc	-4027
▁dance	-4028
▁mainly	-4029
▁Commission	-4030
▁completely	-4031
▁ess	-4032
▁thous	-4033
▁encour	-4034
▁independent	-4035
▁gar	-4036
ota	-4037
iated	-4038
▁say	-4039
▁suc	-4040
▁actions	-4041
▁concent	-4042
ala	-4043
mond	-4044
ellig	-4045
town	-4046
thlet	-4047
ylvan	-4048
▁actor	-4049
▁your	-4050
▁Italy	-4051
▁1945	-4052
▁Saint	-4053
▁share	-4054
▁Little	-4055
▁49	-4056
aling	-4057
▁scoring	-4058
-3	-4059
▁Brigade	-4060
ube	-4061
▁Kr	-4062
pson	-4063
inem	-4064
▁quality	-4065
▁innings	-4066
▁Gre	-4067
▁Bridge	-4068
▁Fin	-4069
▁mem	-4070
▁widely	-4071
▁corn	-4072
▁function	-4073
eed	-4074
▁impact	-4075
▁Sk	-4076
▁Tw	-4077
▁Book	-4078
▁winter	-4079
cers	-4080
▁write	-4081
▁rating	-4082
▁specific	-4083
za	-4084
mas	-4085
▁strength	-4086
▁confirmed	-4087
▁webs	-4088
▁today	-4089
▁batter	-4090
ux	-4091
▁serve	-4092
▁torped	-4093
▁versions	-4094
bo	-4095
▁75	-4096
ricket	-4097
ips	-4098
rowd	-4099
▁300	-4100
▁Boy	-4101
▁Tim	-4102
▁activity	-4103
lam	-4104
▁proved	-4105
▁captain	-4106
▁Van	-4107
▁blue	-4108
▁expressed	-4109
▁sources	-4110
▁background	-4111
▁Wind	-4112
AS	-4113
HL	-4114
rative	-4115
▁greatest	-4116
onn	-4117
osaur	-4118
▁recent	-4119
▁38	-4120
adel	-4121
▁Youn	-4122
▁conflict	-4123
▁subsequent	-4124
rupt	-4125
▁Though	-4126
▁Care	-4127
▁Ray	-4128
▁artists	-4129
bit	-4130
▁Series	-4131
▁Chief	-4132
▁explained	-4133
▁181	-4134
▁seg	-4135
hew	-4136
▁Show	-4137
▁coming	-4138
▁Pop	-4139
▁interp	-4140
▁pilot	-4141
▁Entertain	-4142
▁ir	-4143
▁search	-4144
iano	-4145
itness	-4146
▁naval	-4147
▁Way	-4148
olved	-4149
oured	-4150
▁Hal	-4151
▁thir	-4152
▁news	-4153
▁seconds	-4154
-19	-4155
while	-4156
▁1989	-4157
▁Mat	-4158
▁Good	-4159
▁tells	-4160
▁promoted	-4161
▁Tod	-4162
▁invasion	-4163
iced	-4164
▁boy	-4165
▁Ma	-4166
▁alongside	-4167
▁sn	-4168
▁sought	-4169
▁identified	-4170
rec	-4171
▁passing	-4172
▁Regiment	-4173
▁179	-4174
▁Victoria	-4175
▁paid	-4176
▁Histor	-4177
▁Museum	-4178
▁titled	-4179
▁results	-4180
▁Form	-4181
▁Admiral	-4182
▁nominated	-4183
-4	-4184
▁doing	-4185
▁Line	-4186
ibrary	-4187
▁dedic	-4188
ancy	-4189
▁causing	-4190
▁Football	-4191
▁Def	-4192
▁peace	-4193
ategory	-4194
▁albums	-4195
rog	-4196
▁hus	-4197
▁policy	-4198
▁ice	-4199
▁seek	-4200
▁platform	-4201
▁Hor	-4202
inson	-4203
▁Charl	-4204
▁Entertainment	-4205
ining	-4206
▁Service	-4207
▁systems	-4208
▁theory	-4209
bur	-4210
▁transl	-4211
▁piece	-4212
▁influenced	-4213
▁bound	-4214
▁older	-4215
▁41	-4216
▁pun	-4217
▁send	-4218
ero	-4219
▁Ell	-4220
▁Fleet	-4221
▁trial	-4222
▁Fre	-4223
bon	-4224
▁charge	-4225
▁physical	-4226
▁Light	-4227
▁Aut	-4228
▁Dun	-4229
gu	-4230
och	-4231
▁Conf	-4232
▁content	-4233
▁reaching	-4234
▁kg	-4235
▁hands	-4236
▁Through	-4237
▁sixth	-4238
▁instit	-4239
▁Ca	-4240
▁sust	-4241
▁electric	-4242
anta	-4243
▁Carl	-4244
▁Class	-4245
▁Add	-4246
reland	-4247
▁cities	-4248
▁culture	-4249
▁debuted	-4250
▁shortly	-4251
▁Rog	-4252
▁Avenue	-4253
▁apparent	-4254
ola	-4255
▁Upon	-4256
▁represented	-4257
▁organization	-4258
▁instrument	-4259
▁favour	-4260
▁soundtrack	-4261
appen	-4262
▁chem	-4263
▁offer	-4264
▁officially	-4265
eld	-4266
▁border	-4267
▁mind	-4268
▁pict	-4269
itable	-4270
▁county	-4271
▁matter	-4272
▁pattern	-4273
▁artillery	-4274
▁Far	-4275
ylvania	-4276
▁Valley	-4277
▁prominent	-4278
▁heavily	-4279
oration	-4280
▁weather	-4281
olt	-4282
▁says	-4283
▁seasons	-4284
▁Catholic	-4285
▁green	-4286
▁sense	-4287
▁termin	-4288
▁visited	-4289
aven	-4290
▁wild	-4291
▁owned	-4292
▁residents	-4293
▁Bus	-4294
▁Dam	-4295
▁Ireland	-4296
▁Ill	-4297
ushed	-4298
▁1920	-4299
▁emot	-4300
▁supp	-4301
▁hospital	-4302
▁Ry	-4303
clus	-4304
▁negot	-4305
lers	-4306
▁burn	-4307
▁laid	-4308
▁resc	-4309
▁resist	-4310
AF	-4311
ordin	-4312
▁path	-4313
▁Bey	-4314
▁require	-4315
▁Tay	-4316
▁argued	-4317
▁drug	-4318
▁weapons	-4319
▁sexual	-4320
▁Georg	-4321
▁pal	-4322
▁1943	-4323
▁here	-4324
▁image	-4325
▁returning	-4326
ote	-4327
urban	-4328
▁officials	-4329
▁Jul	-4330
abeth	-4331
▁Eliz	-4332
▁Norm	-4333
▁distance	-4334
rich	-4335
▁Nin	-4336
acity	-4337
onents	-4338
essions	-4339
▁prepar	-4340
▁hero	-4341
▁capture	-4342
▁Hard	-4343
▁true	-4344
▁square	-4345
stone	-4346
▁poet	-4347
▁stone	-4348
▁Ram	-4349
▁ahead	-4350
unction	-4351
▁couple	-4352
▁Hurricane	-4353
ighth	-4354
▁Direct	-4355
▁worldwide	-4356
▁gas	-4357
▁wing	-4358
▁consisted	-4359
▁Di	-4360
ayer	-4361
acement	-4362
▁Middle	-4363
▁injury	-4364
▁toward	-4365
▁Jon	-4366
pool	-4367
rong	-4368
▁1987	-4369
▁aired	-4370
▁trying	-4371
▁territory	-4372
▁don	-4373
▁studies	-4374
▁sout	-4375
▁horses	-4376
ruit	-4377
▁student	-4378
ental	-4379
ocked	-4380
▁crowd	-4381
▁leaders	-4382
aved	-4383
▁hour	-4384
▁contemporary	-4385
▁Liber	-4386
▁equipment	-4387
▁claims	-4388
▁district	-4389
▁criticized	-4390
▁eas	-4391
ror	-4392
▁exped	-4393
▁stra	-4394
▁surrounding	-4395
▁Rom	-4396
▁propos	-4397
▁spread	-4398
▁Top	-4399
▁exec	-4400
▁stre	-4401
▁pan	-4402
▁Homer	-4403
▁guest	-4404
▁occasion	-4405
▁182	-4406
amber	-4407
azz	-4408
▁150	-4409
▁Dutch	-4410
▁senior	-4411
▁rainfall	-4412
▁Americans	-4413
▁appearances	-4414
hi	-4415
anna	-4416
▁displ	-4417
▁fully	-4418
▁surpris	-4419
rael	-4420
▁hall	-4421
▁reign	-4422
▁singles	-4423
enge	-4424
▁pack	-4425
▁twice	-4426
▁therefore	-4427
▁formation	-4428
▁Dev	-4429
▁grew	-4430
▁shell	-4431
▁Kar	-4432
anger	-4433
▁citiz	-4434
izes	-4435
▁doub	-4436
▁fellow	-4437
ockey	-4438
▁simply	-4439
▁figures	-4440
▁reference	-4441
▁Young	-4442
century	-4443
▁growth	-4444
▁historian	-4445
▁typically	-4446
ano	-4447
▁Rod	-4448
▁master	-4449
▁machine	-4450
▁Northern	-4451
▁emph	-4452
▁frequently	-4453
arden	-4454
then	-4455
▁paper	-4456
▁chose	-4457
▁escape	-4458
▁Carolina	-4459
▁dyn	-4460
▁Holly	-4461
▁adapt	-4462
▁District	-4463
▁Mod	-4464
omers	-4465
▁ox	-4466
▁Field	-4467
▁speech	-4468
▁Os	-4469
▁Bond	-4470
▁Andrew	-4471
la	-4472
uct	-4473
▁Tem	-4474
▁magn	-4475
▁attract	-4476
▁Of	-4477
▁Che	-4478
▁Penns	-4479
▁split	-4480
ners	-4481
▁Life	-4482
▁pieces	-4483
resp	-4484
▁appl	-4485
▁surre	-4486
▁northeast	-4487
▁Marsh	-4488
ias	-4489
▁iron	-4490
▁Daniel	-4491
▁follows	-4492
embly	-4493
▁alone	-4494
▁billion	-4495
uls	-4496
▁Work	-4497
▁wick	-4498
▁trees	-4499
▁leaves	-4500
▁tournament	-4501
▁god	-4502
▁comes	-4503
▁moment	-4504
ports	-4505
isf	-4506
▁reports	-4507
▁stations	-4508
ym	-4509
set	-4510
orter	-4511
▁passes	-4512
▁opposition	-4513
▁42	-4514
▁Fer	-4515
▁accident	-4516
the	-4517
▁husband	-4518
▁university	-4519
add	-4520
rect	-4521
▁Beat	-4522
ifying	-4523
eller	-4524
▁remark	-4525
▁unknown	-4526
▁Lew	-4527
▁eth	-4528
ading	-4529
▁murder	-4530
▁benef	-4531
▁Alexander	-4532
▁executive	-4533
agn	-4534
▁Alb	-4535
▁step	-4536
▁39	-4537
ampion	-4538
▁Gal	-4539
▁chosen	-4540
igg	-4541
▁cert	-4542
edd	-4543
ura	-4544
▁dog	-4545
▁tun	-4546
▁medical	-4547
▁website	-4548
rid	-4549
uous	-4550
▁Guard	-4551
resh	-4552
itled	-4553
▁opposed	-4554
▁accompan	-4555
uled	-4556
▁Bart	-4557
▁phil	-4558
▁Studios	-4559
▁risk	-4560
▁contest	-4561
▁hun	-4562
ager	-4563
emic	-4564
fully	-4565
▁label	-4566
▁editor	-4567
▁newly	-4568
▁communic	-4569
▁authority	-4570
elve	-4571
▁severe	-4572
▁Scottish	-4573
▁Wilson	-4574
▁adopted	-4575
▁affected	-4576
clusion	-4577
▁Sub	-4578
▁Post	-4579
▁ring	-4580
illy	-4581
▁Short	-4582
▁prompt	-4583
lement	-4584
lines	-4585
▁Each	-4586
▁cell	-4587
▁birds	-4588
ographer	-4589
▁floor	-4590
ables	-4591
▁1988	-4592
▁earth	-4593
▁attrib	-4594
▁Mike	-4595
▁happen	-4596
gar	-4597
antly	-4598
ucky	-4599
▁opin	-4600
ocated	-4601
▁governor	-4602
▁55	-4603
TC	-4604
▁Duke	-4605
▁actors	-4606
▁planet	-4607
▁Fantasy	-4608
▁activities	-4609
▁Polish	-4610
▁ut	-4611
▁bal	-4612
▁extra	-4613
▁Taylor	-4614
▁railway	-4615
▁basis	-4616
ufact	-4617
▁coal	-4618
▁value	-4619
▁wounded	-4620
▁Ros	-4621
▁fuel	-4622
▁draft	-4623
▁element	-4624
▁Government	-4625
▁Colon	-4626
▁condition	-4627
enger	-4628
▁Det	-4629
udget	-4630
ev	-4631
arts	-4632
▁honor	-4633
▁defense	-4634
▁setting	-4635
▁Festival	-4636
▁bul	-4637
▁fired	-4638
utation	-4639
▁Senate	-4640
▁losing	-4641
▁workers	-4642
▁treatment	-4643
isco	-4644
▁Bab	-4645
▁Eastern	-4646
▁nothing	-4647
▁experiment	-4648
imet	-4649
more	-4650
▁bit	-4651
▁deploy	-4652
▁producers	-4653
▁Pennsylvania	-4654
uses	-4655
▁unf	-4656
▁maintained	-4657
▁Gi	-4658
ancing	-4659
▁MD	-4660
▁swe	-4661
▁Girl	-4662
▁Week	-4663
▁Commun	-4664
aming	-4665
onent	-4666
FA	-4667
▁agg	-4668
▁hyd	-4669
estic	-4670
uman	-4671
▁orders	-4672
▁weight	-4673
stitution	-4674
▁Tech	-4675
▁herself	-4676
▁rear	-4677
▁liber	-4678
akers	-4679
▁rival	-4680
▁emphas	-4681
▁Islands	-4682
▁Governor	-4683
▁Elizabeth	-4684
onc	-4685
▁compar	-4686
▁sail	-4687
▁sle	-4688
▁walls	-4689
▁casual	-4690
▁Joe	-4691
isters	-4692
▁operated	-4693
▁newspaper	-4694
ilies	-4695
ivity	-4696
▁disease	-4697
▁manufact	-4698
ledge	-4699
▁Inst	-4700
▁Night	-4701
▁Card	-4702
▁Hung	-4703
▁rang	-4704
▁guard	-4705
▁extend	-4706
▁terr	-4707
▁filming	-4708
anda	-4709
▁contained	-4710
andy	-4711
imens	-4712
▁bodies	-4713
▁48	-4714
▁native	-4715
▁growing	-4716
▁arms	-4717
▁Christmas	-4718
▁System	-4719
▁advanced	-4720
▁Ocean	-4721
▁lives	-4722
▁Albert	-4723
▁extr	-4724
▁column	-4725
▁squadron	-4726
▁consecutive	-4727
▁evac	-4728
▁camer	-4729
▁sens	-4730
▁silver	-4731
▁receive	-4732
▁participated	-4733
-5	-4734
era	-4735
▁fan	-4736
▁vote	-4737
▁spirit	-4738
▁famous	-4739
ricult	-4740
▁Spain	-4741
▁roads	-4742
▁Corn	-4743
▁agreement	-4744
gend	-4745
▁Jud	-4746
standing	-4747
▁fair	-4748
▁Civil	-4749
▁filmed	-4750
▁sequence	-4751
▁firm	-4752
▁Allied	-4753
▁capacity	-4754
▁ur	-4755
pton	-4756
▁advant	-4757
room	-4758
▁1986	-4759
▁supply	-4760
▁rom	-4761
▁Orig	-4762
met	-4763
▁bass	-4764
▁tree	-4765
▁Harry	-4766
▁psych	-4767
▁minute	-4768
▁elev	-4769
▁Mean	-4770
▁entr	-4771
orship	-4772
ocks	-4773
▁launch	-4774
▁Coast	-4775
▁faced	-4776
▁WW	-4777
▁bey	-4778
▁Crit	-4779
▁feed	-4780
▁homes	-4781
▁serving	-4782
ety	-4783
▁creating	-4784
▁doll	-4785
▁council	-4786
▁possibly	-4787
▁Tra	-4788
▁negative	-4789
▁Cat	-4790
▁Jac	-4791
▁inh	-4792
▁What	-4793
▁drive	-4794
▁granted	-4795
isers	-4796
▁weak	-4797
▁Further	-4798
▁incident	-4799
,500	-4800
istics	-4801
▁Clark	-4802
▁beyond	-4803
▁fought	-4804
▁Operation	-4805
▁task	-4806
▁spect	-4807
▁extensive	-4808
▁necessary	-4809
iny	-4810
▁successfully	-4811
edom	-4812
▁Pers	-4813
▁briefly	-4814
▁failure	-4815
▁retired	-4816
▁Wat	-4817
▁offensive	-4818
▁spring	-4819
▁believe	-4820
▁Lo	-4821
iner	-4822
stream	-4823
▁Doctor	-4824
▁Bul	-4825
▁pet	-4826
▁enter	-4827
▁Arthur	-4828
▁Pen	-4829
water	-4830
▁Lind	-4831
▁color	-4832
▁habit	-4833
▁Wild	-4834
▁Institute	-4835
▁Republican	-4836
▁contact	-4837
▁improved	-4838
▁inte	-4839
haps	-4840
▁1939	-4841
▁chair	-4842
▁places	-4843
▁historical	-4844
oln	-4845
▁tower	-4846
▁flying	-4847
▁strike	-4848
▁Men	-4849
▁ends	-4850
▁killing	-4851
▁Blue	-4852
▁solo	-4853
▁animal	-4854
▁Mid	-4855
▁1968	-4856
▁Live	-4857
▁turns	-4858
▁applic	-4859
oles	-4860
▁Cub	-4861
ico	-4862
▁Ohio	-4863
▁load	-4864
▁Castle	-4865
▁Jersey	-4866
▁administration	-4867
wing	-4868
▁era	-4869
▁Board	-4870
▁Square	-4871
▁straight	-4872
▁narrow	-4873
▁perman	-4874
▁express	-4875
ić	-4876
▁Mir	-4877
▁prin	-4878
iot	-4879
imal	-4880
▁mob	-4881
▁repeated	-4882
▁Cambridge	-4883
▁Israel	-4884
▁measure	-4885
▁IS	-4886
appy	-4887
▁Hit	-4888
avalry	-4889
▁delay	-4890
▁achieved	-4891
▁individuals	-4892
acks	-4893
outs	-4894
▁ast	-4895
▁Braz	-4896
omy	-4897
▁rid	-4898
▁heard	-4899
mosp	-4900
▁unsu	-4901
adelph	-4902
▁paralle	-4903
▁ancient	-4904
ima	-4905
▁commonly	-4906
ype	-4907
fort	-4908
▁kilometres	-4909
▁eye	-4910
ishes	-4911
▁data	-4912
ienced	-4913
▁landing	-4914
▁criticism	-4915
▁chor	-4916
friend	-4917
oma	-4918
roll	-4919
▁gives	-4920
▁yellow	-4921
▁Hy	-4922
ella	-4923
▁Elect	-4924
▁Philadelph	-4925
▁Home	-4926
▁Sher	-4927
▁normal	-4928
rif	-4929
▁diam	-4930
▁Are	-4931
▁Land	-4932
▁roles	-4933
▁caught	-4934
▁degree	-4935
▁regarded	-4936
▁table	-4937
▁Georgia	-4938
▁dismiss	-4939
▁describes	-4940
▁kick	-4941
▁genus	-4942
▁seventh	-4943
▁challeng	-4944
▁leadership	-4945
uate	-4946
ented	-4947
▁contain	-4948
▁interchange	-4949
▁Sund	-4950
ava	-4951
▁mis	-4952
iana	-4953
▁ideas	-4954
▁abandoned	-4955
▁1985	-4956
▁torpedo	-4957
▁SR	-4958
▁broken	-4959
▁franch	-4960
▁Philadelphia	-4961
▁headquarters	-4962
BA	-4963
▁Gall	-4964
▁Gil	-4965
▁Germ	-4966
▁43	-4967
▁47	-4968
▁1984	-4969
▁imag	-4970
▁Never	-4971
▁poll	-4972
▁Irish	-4973
▁drop	-4974
restling	-4975
▁65	-4976
umes	-4977
▁Due	-4978
▁progress	-4979
▁Exp	-4980
▁dial	-4981
▁twelve	-4982
▁determined	-4983
▁CD	-4984
▁Ly	-4985
aith	-4986
etts	-4987
▁Even	-4988
▁Secretary	-4989
▁household	-4990
▁Among	-4991
▁Ul	-4992
▁fat	-4993
▁lands	-4994
▁1967	-4995
▁committee	-4996
▁rejected	-4997
▁authorities	-4998
▁Us	-4999
▁Liver	-5000
▁finds	-5001
▁explos	-5002
▁Mul	-5003
bl	-5004
gn	-5005
▁quite	-5006
▁Bru	-5007
▁Cy	-5008
▁Les	-5009
▁sets	-5010
▁provides	-5011
iday	-5012
ourney	-5013
▁armed	-5014
▁sports	-5015
▁arrival	-5016
▁shark	-5017
▁street	-5018
▁acquired	-5019
apers	-5020
▁Columbia	-5021
▁expanded	-5022
▁Tropical	-5023
ms	-5024
▁Fe	-5025
▁glob	-5026
▁drama	-5027
▁battalion	-5028
▁purchased	-5029
attle	-5030
▁Brazil	-5031
▁crossing	-5032
kins	-5033
uting	-5034
▁beaut	-5035
agement	-5036
▁effective	-5037
ba	-5038
▁entirely	-5039
▁unp	-5040
▁advert	-5041
▁formula	-5042
ii	-5043
erc	-5044
ipl	-5045
▁Linc	-5046
▁upgr	-5047
▁singing	-5048
▁expansion	-5049
▁bott	-5050
▁soft	-5051
iments	-5052
▁finish	-5053
▁recently	-5054
▁dedicated	-5055
hens	-5056
▁Prot	-5057
oted	-5058
▁Lar	-5059
▁deliver	-5060
▁SS	-5061
inals	-5062
▁Writ	-5063
▁learn	-5064
igr	-5065
inity	-5066
▁Early	-5067
▁Meanwhile	-5068
▁51	-5069
▁infantry	-5070
▁suggests	-5071
▁vehicles	-5072
Americ	-5073
▁unique	-5074
ifically	-5075
▁families	-5076
etball	-5077
▁Album	-5078
▁plants	-5079
▁prefer	-5080
▁52	-5081
Station	-5082
▁Mov	-5083
ingly	-5084
▁Ash	-5085
▁Also	-5086
▁strik	-5087
▁Lincoln	-5088
▁currently	-5089
▁decre	-5090
▁creation	-5091
▁Leg	-5092
▁article	-5093
▁Anderson	-5094
▁flooding	-5095
▁locations	-5096
▁PlayStation	-5097
▁ca	-5098
▁Hay	-5099
▁fix	-5100
▁resemb	-5101
▁Liverpool	-5102
▁islands	-5103
,2	-5104
-6	-5105
▁44	-5106
▁Ven	-5107
▁withdraw	-5108
▁roof	-5109
▁defin	-5110
▁computer	-5111
▁aim	-5112
▁comedy	-5113
▁46	-5114
▁Fam	-5115
illing	-5116
▁Tam	-5117
icial	-5118
▁Burn	-5119
▁intellig	-5120
▁Lieutenant	-5121
▁End	-5122
▁consists	-5123
▁try	-5124
ulate	-5125
▁la	-5126
▁1969	-5127
amin	-5128
▁1983	-5129
▁Chap	-5130
▁Steve	-5131
▁comic	-5132
▁thing	-5133
▁mentioned	-5134
▁accompanied	-5135
▁Wars	-5136
▁mist	-5137
▁orchest	-5138
▁Jenn	-5139
▁Turn	-5140
▁philos	-5141
▁Bor	-5142
▁Kel	-5143
▁suppor	-5144
▁younger	-5145
▁acad	-5146
▁fish	-5147
▁Addition	-5148
▁management	-5149
ceived	-5150
▁atmosp	-5151
▁budget	-5152
▁egg	-5153
▁security	-5154
▁sort	-5155
▁northwest	-5156
uzz	-5157
▁eyes	-5158
awa	-5159
▁Ep	-5160
▁Six	-5161
▁why	-5162
▁labor	-5163
ns	-5164
hol	-5165
▁Balt	-5166
▁Dark	-5167
▁Mah	-5168
▁Once	-5169
▁types	-5170
▁Russia	-5171
▁containing	-5172
▁structures	-5173
fl	-5174
▁Mot	-5175
▁Pot	-5176
▁1972	-5177
▁squad	-5178
racted	-5179
▁advantage	-5180
▁1914	-5181
▁escort	-5182
▁lic	-5183
atures	-5184
▁extrem	-5185
oz	-5186
▁performing	-5187
worth	-5188
▁hired	-5189
▁Revolution	-5190
▁commissioned	-5191
▁Rol	-5192
▁hair	-5193
▁unus	-5194
iations	-5195
respond	-5196
▁Nintend	-5197
▁ceremony	-5198
▁nob	-5199
▁expedition	-5200
▁Head	-5201
▁defence	-5202
▁purpose	-5203
▁1979	-5204
▁1982	-5205
▁chance	-5206
▁nuclear	-5207
mouth	-5208
▁Order	-5209
▁Prime	-5210
▁Common	-5211
▁120	-5212
▁fresh	-5213
▁graph	-5214
▁mouth	-5215
▁belong	-5216
▁height	-5217
▁Nintendo	-5218
▁touchdown	-5219
bound	-5220
▁react	-5221
uan	-5222
▁pros	-5223
▁calls	-5224
▁branch	-5225
▁178	-5226
▁1918	-5227
▁Korean	-5228
▁closely	-5229
▁convers	-5230
zant	-5231
osa	-5232
▁1964	-5233
▁1966	-5234
▁Storm	-5235
▁elimin	-5236
bar	-5237
▁bat	-5238
▁Brook	-5239
▁powers	-5240
▁trains	-5241
▁perfect	-5242
▁reflect	-5243
▁protect	-5244
▁64	-5245
heim	-5246
rons	-5247
▁Sound	-5248
▁titles	-5249
mod	-5250
▁shooting	-5251
▁Francisco	-5252
▁opportunity	-5253
▁facilities	-5254
▁strengthen	-5255
▁Arg	-5256
▁mut	-5257
apore	-5258
▁fiction	-5259
▁Asia	-5260
▁Rome	-5261
▁alle	-5262
▁defensive	-5263
state	-5264
▁Earl	-5265
▁wave	-5266
▁popularity	-5267
wall	-5268
▁Vol	-5269
▁intensity	-5270
▁citizens	-5271
box	-5272
mun	-5273
burgh	-5274
▁roll	-5275
▁#	-5276
▁adding	-5277
agan	-5278
▁Hun	-5279
▁Shak	-5280
▁Lewis	-5281
▁choice	-5282
ua	-5283
avel	-5284
▁illust	-5285
▁simple	-5286
▁contributed	-5287
▁1971	-5288
▁shall	-5289
▁Byzant	-5290
▁cultural	-5291
▁mic	-5292
lim	-5293
▁tim	-5294
essed	-5295
▁tail	-5296
▁shared	-5297
▁motor	-5298
▁observ	-5299
▁rapidly	-5300
▁Press	-5301
▁merch	-5302
▁recognized	-5303
▁session	-5304
▁prepared	-5305
▁Singapore	-5306
▁Bad	-5307
▁Syd	-5308
▁1,000	-5309
▁Grant	-5310
▁exact	-5311
▁piano	-5312
▁Olympic	-5313
zer	-5314
▁Ka	-5315
▁Gib	-5316
ashion	-5317
▁engaged	-5318
▁Pu	-5319
▁teach	-5320
▁mountain	-5321
▁prote	-5322
▁Railway	-5323
▁occupied	-5324
▁Hollywood	-5325
▁aid	-5326
▁Office	-5327
▁organized	-5328
▁providing	-5329
ran	-5330
inth	-5331
▁deck	-5332
▁viewed	-5333
▁notable	-5334
▁Carey	-5335
▁unsuccess	-5336
▁cry	-5337
▁sac	-5338
▁protected	-5339
▁53	-5340
▁Germans	-5341
▁NHL	-5342
inger	-5343
▁Only	-5344
▁People	-5345
▁Pre	-5346
amm	-5347
ware	-5348
▁knew	-5349
▁Chart	-5350
▁worth	-5351
▁Emperor	-5352
▁scholars	-5353
iate	-5354
▁von	-5355
▁cart	-5356
▁goes	-5357
▁Brian	-5358
▁scheduled	-5359
▁Democratic	-5360
bro	-5361
▁Lis	-5362
opher	-5363
▁resident	-5364
▁selection	-5365
FL	-5366
▁centuries	-5367
▁Conference	-5368
▁conference	-5369
▁Special	-5370
▁focused	-5371
▁Var	-5372
▁supporting	-5373
án	-5374
▁wa	-5375
▁Jean	-5376
▁roughly	-5377
▁correspond	-5378
▁themes	-5379
eral	-5380
▁bands	-5381
▁sites	-5382
theless	-5383
▁Disney	-5384
▁charts	-5385
▁UN	-5386
▁Child	-5387
▁dry	-5388
▁lap	-5389
▁1974	-5390
▁moder	-5391
▁Av	-5392
▁significantly	-5393
gers	-5394
▁concer	-5395
▁parallel	-5396
▁400	-5397
▁Conn	-5398
▁descend	-5399
▁mounted	-5400
▁rob	-5401
▁Summer	-5402
▁approved	-5403
▁developing	-5404
▁Jr	-5405
▁Sa	-5406
▁Daily	-5407
▁pitch	-5408
▁experienced	-5409
▁1973	-5410
▁Gulf	-5411
▁adult	-5412
▁secondary	-5413
▁177	-5414
▁Tro	-5415
▁Nick	-5416
oncé	-5417
▁Miller	-5418
▁gameplay	-5419
osl	-5420
▁Lady	-5421
ologist	-5422
▁visual	-5423
▁cricket	-5424
▁digital	-5425
▁perhaps	-5426
▁holding	-5427
col	-5428
onder	-5429
▁Princ	-5430
▁witness	-5431
▁Kir	-5432
▁Jewish	-5433
▁employed	-5434
▁storyline	-5435
enc	-5436
cles	-5437
iful	-5438
▁Serb	-5439
▁brown	-5440
▁throw	-5441
▁casualties	-5442
▁publication	-5443
▁Bell	-5444
▁awards	-5445
▁motion	-5446
▁symbol	-5447
▁economy	-5448
achus	-5449
unior	-5450
▁cold	-5451
▁distingu	-5452
ropri	-5453
▁Walter	-5454
▁assault	-5455
▁Ret	-5456
▁undert	-5457
rett	-5458
▁vac	-5459
▁letters	-5460
▁receiving	-5461
ults	-5462
▁adap	-5463
▁gain	-5464
▁save	-5465
▁Broad	-5466
▁regions	-5467
▁Between	-5468
ilton	-5469
▁Public	-5470
▁Spring	-5471
▁industrial	-5472
ules	-5473
▁Davis	-5474
▁resistance	-5475
▁Bas	-5476
▁Beyoncé	-5477
▁97	-5478
rence	-5479
▁missing	-5480
▁Kentucky	-5481
▁ec	-5482
omic	-5483
▁enjoyed	-5484
▁getting	-5485
▁reasons	-5486
▁Lab	-5487
▁rot	-5488
▁drew	-5489
▁substant	-5490
wick	-5491
▁1965	-5492
▁compris	-5493
▁renamed	-5494
▁instruct	-5495
▁converted	-5496
▁rise	-5497
▁sand	-5498
▁looking	-5499
omew	-5500
▁cab	-5501
-9	-5502
wise	-5503
yles	-5504
ients	-5505
▁Down	-5506
▁seat	-5507
▁Point	-5508
▁existing	-5509
oh	-5510
▁protection	-5511
rig	-5512
rets	-5513
▁rac	-5514
▁Greg	-5515
▁rules	-5516
▁Philipp	-5517
▁transform	-5518
▁1917	-5519
▁1975	-5520
▁steam	-5521
▁selling	-5522
▁reputation	-5523
put	-5524
▁nick	-5525
▁enl	-5526
▁Bank	-5527
▁Water	-5528
ali	-5529
▁Key	-5530
itors	-5531
ignment	-5532
▁stages	-5533
▁lb	-5534
▁nor	-5535
▁heads	-5536
▁urban	-5537
▁anything	-5538
inking	-5539
va	-5540
▁1946	-5541
▁Whit	-5542
▁agent	-5543
▁franchise	-5544
▁responded	-5545
▁edge	-5546
▁learned	-5547
▁technology	-5548
▁Ken	-5549
▁Mas	-5550
▁Nap	-5551
▁limit	-5552
▁Indust	-5553
ora	-5554
yer	-5555
▁ven	-5556
▁myth	-5557
▁losses	-5558
yph	-5559
▁HMS	-5560
▁Norway	-5561
rin	-5562
▁harm	-5563
▁paint	-5564
▁poem	-5565
▁Massachus	-5566
▁ign	-5567
▁Massachusetts	-5568
▁Ha	-5569
onia	-5570
▁boat	-5571
▁Women	-5572
▁steel	-5573
ato	-5574
▁Run	-5575
▁Fair	-5576
▁Gord	-5577
▁Ross	-5578
▁cars	-5579
▁injured	-5580
▁stadium	-5581
vest	-5582
athan	-5583
▁Sand	-5584
▁alternative	-5585
,3	-5586
▁−	-5587
oir	-5588
▁Die	-5589
▁semi	-5590
▁Sydney	-5591
▁belief	-5592
▁painting	-5593
▁operating	-5594
▁temperature	-5595
asty	-5596
ilding	-5597
▁Station	-5598
▁Mos	-5599
▁fit	-5600
▁Walk	-5601
▁Command	-5602
▁standing	-5603
▁Supreme	-5604
▁actress	-5605
,4	-5606
▁Radio	-5607
▁domestic	-5608
▁Fall	-5609
▁daily	-5610
▁analysis	-5611
▁brothers	-5612
▁intersection	-5613
▁overl	-5614
▁Golden	-5615
▁personnel	-5616
▁succeeded	-5617
hat	-5618
▁Su	-5619
▁sun	-5620
▁allows	-5621
▁introduction	-5622
,6	-5623
▁row	-5624
▁card	-5625
▁youth	-5626
gal	-5627
zen	-5628
▁1976	-5629
▁credited	-5630
▁Bra	-5631
▁Ten	-5632
break	-5633
▁buried	-5634
ographic	-5635
▁1981	-5636
▁Bern	-5637
▁Hart	-5638
▁literature	-5639
▁Moore	-5640
▁cited	-5641
▁drawn	-5642
lane	-5643
▁van	-5644
▁shape	-5645
▁Colonel	-5646
▁connected	-5647
▁McG	-5648
▁flu	-5649
▁freeway	-5650
▁AD	-5651
▁Prov	-5652
▁calc	-5653
▁volume	-5654
otic	-5655
▁showing	-5656
▁MTV	-5657
▁pul	-5658
▁regarding	-5659
eper	-5660
▁Abb	-5661
▁estate	-5662
▁replace	-5663
▁increasingly	-5664
▁About	-5665
▁submar	-5666
▁declined	-5667
▁existence	-5668
run	-5669
ko	-5670
▁Sel	-5671
▁1915	-5672
▁earliest	-5673
▁reaction	-5674
pet	-5675
sey	-5676
▁Mu	-5677
▁Ron	-5678
aka	-5679
▁trip	-5680
▁stopped	-5681
,7	-5682
▁hyp	-5683
iable	-5684
season	-5685
▁Let	-5686
istol	-5687
▁trail	-5688
▁exchange	-5689
▁54	-5690
▁turning	-5691
▁specifically	-5692
▁isol	-5693
▁proceed	-5694
iro	-5695
ador	-5696
iter	-5697
▁opinion	-5698
bell	-5699
▁lov	-5700
iling	-5701
▁Han	-5702
istan	-5703
▁cells	-5704
organ	-5705
onym	-5706
unte	-5707
▁Naval	-5708
▁knots	-5709
▁Airport	-5710
▁journey	-5711
▁boats	-5712
eg	-5713
inary	-5714
unicip	-5715
▁collected	-5716
ulpt	-5717
ashed	-5718
▁Base	-5719
▁consequ	-5720
,1	-5721
foot	-5722
▁Poland	-5723
▁stream	-5724
AR	-5725
▁cool	-5726
come	-5727
atre	-5728
iform	-5729
▁easily	-5730
▁teacher	-5731
ira	-5732
▁1977	-5733
▁rhy	-5734
▁acts	-5735
▁virt	-5736
▁depth	-5737
▁lasted	-5738
▁sustained	-5739
▁hits	-5740
▁rend	-5741
engers	-5742
▁approached	-5743
▁equal	-5744
▁seems	-5745
▁agricult	-5746
long	-5747
▁ban	-5748
▁shel	-5749
▁appoint	-5750
▁landfall	-5751
▁indicated	-5752
▁IV	-5753
ader	-5754
ansas	-5755
psons	-5756
▁wealth	-5757
▁acres	-5758
▁views	-5759
▁Instead	-5760
eke	-5761
verse	-5762
▁core	-5763
▁constitution	-5764
ati	-5765
▁Jes	-5766
▁exerc	-5767
▁towns	-5768
▁Simpsons	-5769
▁projects	-5770
▁settlement	-5771
▁tact	-5772
▁err	-5773
▁1916	-5774
▁patrol	-5775
▁entitled	-5776
-8	-5777
▁tall	-5778
▁scale	-5779
▁routes	-5780
▁Imperial	-5781
▁weakened	-5782
,8	-5783
BN	-5784
▁decade	-5785
▁candidate	-5786
▁battery	-5787
ta	-5788
▁Kim	-5789
▁genre	-5790
apes	-5791
▁uns	-5792
cious	-5793
▁Independ	-5794
life	-5795
▁Sus	-5796
▁1948	-5797
▁Const	-5798
▁athlet	-5799
▁Ottoman	-5800
apped	-5801
▁Anth	-5802
▁trust	-5803
ushing	-5804
▁occas	-5805
▁Justice	-5806
▁Olympics	-5807
▁retained	-5808
▁1978	-5809
▁appeal	-5810
▁sections	-5811
eman	-5812
▁resour	-5813
▁applied	-5814
▁items	-5815
▁museum	-5816
AT	-5817
▁Hon	-5818
tical	-5819
▁laws	-5820
▁designs	-5821
American	-5822
eless	-5823
▁Barb	-5824
▁select	-5825
▁planning	-5826
eler	-5827
▁retire	-5828
▁Vietnam	-5829
▁ways	-5830
▁voted	-5831
uration	-5832
▁Bon	-5833
▁Gra	-5834
▁Jay	-5835
▁writes	-5836
▁Shortly	-5837
▁Cape	-5838
▁Bos	-5839
othes	-5840
▁1963	-5841
▁Prem	-5842
ctions	-5843
▁Dream	-5844
iration	-5845
▁message	-5846
▁southeast	-5847
▁1919	-5848
▁bought	-5849
▁maintain	-5850
▁Vi	-5851
▁Bal	-5852
inois	-5853
▁synt	-5854
▁joint	-5855
▁secure	-5856
▁coastal	-5857
▁Arts	-5858
issance	-5859
▁safety	-5860
▁improve	-5861
icks	-5862
ivered	-5863
▁cinem	-5864
▁Review	-5865
▁proposal	-5866
aked	-5867
▁Att	-5868
▁Ger	-5869
▁bor	-5870
▁engines	-5871
▁arranged	-5872
▁scientific	-5873
▁160	-5874
▁UTC	-5875
▁install	-5876
har	-5877
▁tal	-5878
ender	-5879
▁supplies	-5880
leton	-5881
ropol	-5882
▁reduce	-5883
▁knowledge	-5884
▁catch	-5885
▁violence	-5886
hus	-5887
avig	-5888
▁bed	-5889
▁camera	-5890
▁causes	-5891
▁depend	-5892
emies	-5893
▁address	-5894
produ	-5895
▁Bowl	-5896
▁baseball	-5897
▁programs	-5898
▁assistant	-5899
▁Fire	-5900
▁Pict	-5901
ivalent	-5902
▁consisting	-5903
▁playoff	-5904
▁entrance	-5905
adow	-5906
▁volcan	-5907
lee	-5908
▁Ob	-5909
▁arc	-5910
▁details	-5911
cont	-5912
▁Who	-5913
▁Cart	-5914
▁1936	-5915
▁deaths	-5916
▁Naz	-5917
idden	-5918
bourne	-5919
▁Rhodes	-5920
▁sculpt	-5921
▁statement	-5922
▁models	-5923
▁Confeder	-5924
▁survived	-5925
▁delivered	-5926
▁Jan	-5927
▁Ball	-5928
▁males	-5929
iger	-5930
▁finding	-5931
▁politics	-5932
BS	-5933
▁neut	-5934
▁invited	-5935
▁promotion	-5936
ras	-5937
▁IG	-5938
▁overse	-5939
▁parties	-5940
▁composition	-5941
▁meters	-5942
▁implement	-5943
▁Ast	-5944
▁1938	-5945
▁Stew	-5946
▁mort	-5947
▁emerg	-5948
▁hydro	-5949
▁reserve	-5950
▁Maryland	-5951
ez	-5952
aki	-5953
▁Ok	-5954
▁1962	-5955
▁ones	-5956
▁evening	-5957
▁controlled	-5958
-0	-5959
chers	-5960
senal	-5961
▁gross	-5962
western	-5963
▁online	-5964
▁extremely	-5965
▁installed	-5966
▁Here	-5967
▁stret	-5968
▁exclus	-5969
▁promote	-5970
▁studied	-5971
▁Nic	-5972
▁register	-5973
▁everything	-5974
▁Band	-5975
▁rebu	-5976
▁prisoners	-5977
osis	-5978
▁Cur	-5979
▁flat	-5980
▁56	-5981
▁Pass	-5982
▁Plan	-5983
▁wars	-5984
▁advent	-5985
char	-5986
▁convin	-5987
▁Constant	-5988
▁remainder	-5989
▁Init	-5990
▁offers	-5991
▁carrying	-5992
iat	-5993
lan	-5994
▁bask	-5995
▁humans	-5996
▁gradually	-5997
mann	-5998
▁Norwe	-5999
▁Gordon	-6000
▁Mulder	-6001
wich	-6002
▁store	-6003
▁Howard	-6004
AC	-6005
▁AC	-6006
▁Alf	-6007
▁VII	-6008
after	-6009
▁Vill	-6010
ervative	-6011
▁winner	-6012
▁Univers	-6013
▁females	-6014
▁Beach	-6015
▁producing	-6016
▁independence	-6017
▁85	-6018
▁Ari	-6019
ads	-6020
▁impl	-6021
insula	-6022
▁Songs	-6023
▁somew	-6024
▁interested	-6025
▁Main	-6026
erted	-6027
▁Prog	-6028
▁tick	-6029
▁defined	-6030
▁Director	-6031
ifications	-6032
▁Age	-6033
osite	-6034
▁capable	-6035
▁Moon	-6036
▁admitted	-6037
▁principal	-6038
▁snow	-6039
iversary	-6040
ieval	-6041
▁Tony	-6042
▁combination	-6043
▁Nel	-6044
▁emp	-6045
▁accur	-6046
▁revolution	-6047
▁rated	-6048
▁Hitler	-6049
▁Rem	-6050
▁deleg	-6051
▁products	-6052
▁importance	-6053
iege	-6054
ophy	-6055
▁Bir	-6056
level	-6057
▁Staff	-6058
▁bottom	-6059
izations	-6060
▁Ra	-6061
iller	-6062
▁adapted	-6063
▁auth	-6064
▁apart	-6065
▁owner	-6066
▁watched	-6067
▁threatened	-6068
▁dates	-6069
▁rural	-6070
▁concerns	-6071
▁ago	-6072
▁wearing	-6073
aints	-6074
▁download	-6075
▁entering	-6076
▁internal	-6077
▁ble	-6078
▁price	-6079
▁Portug	-6080
▁recalled	-6081
▁extension	-6082
hr	-6083
ighters	-6084
▁Theatre	-6085
▁crossed	-6086
▁kingdom	-6087
▁descript	-6088
▁nomination	-6089
arp	-6090
▁et	-6091
▁crime	-6092
▁milit	-6093
▁1961	-6094
▁acid	-6095
▁cann	-6096
▁typical	-6097
▁×	-6098
▁Pit	-6099
▁Rel	-6100
▁crown	-6101
▁funds	-6102
▁opera	-6103
▁restaur	-6104
▁regiment	-6105
▁76	-6106
▁Od	-6107
▁McK	-6108
▁1953	-6109
iy	-6110
▁shut	-6111
▁aspects	-6112
,9	-6113
▁vent	-6114
▁duties	-6115
▁images	-6116
entially	-6117
▁retreat	-6118
▁arrested	-6119
▁religion	-6120
anean	-6121
ensus	-6122
▁challenge	-6123
▁portrayed	-6124
▁considerable	-6125
ela	-6126
ilation	-6127
heastern	-6128
ja	-6129
▁sufficient	-6130
ician	-6131
▁Indiana	-6132
▁Adams	-6133
rete	-6134
▁Well	-6135
▁medal	-6136
▁Scully	-6137
▁fashion	-6138
▁consum	-6139
▁returns	-6140
▁Nar	-6141
▁tell	-6142
▁Norwegian	-6143
▁investigation	-6144
star	-6145
▁Cop	-6146
▁IGN	-6147
▁ham	-6148
▁Kong	-6149
▁clim	-6150
▁valley	-6151
▁Mountain	-6152
▁obtained	-6153
▁sell	-6154
▁preced	-6155
BI	-6156
reck	-6157
rell	-6158
▁Inc	-6159
▁note	-6160
▁sole	-6161
▁denied	-6162
▁charges	-6163
▁correct	-6164
▁composer	-6165
▁tank	-6166
▁Maria	-6167
▁conqu	-6168
▁commanded	-6169
▁controversy	-6170
▁distribution	-6171
-7	-6172
night	-6173
▁frag	-6174
▁corner	-6175
▁integr	-6176
▁posted	-6177
ione	-6178
iques	-6179
▁Dougl	-6180
▁faith	-6181
▁ruled	-6182
▁Sunday	-6183
▁vessels	-6184
▁Illinois	-6185
▁Alan	-6186
▁Back	-6187
▁Robinson	-6188
lik	-6189
▁Circ	-6190
▁zone	-6191
▁solid	-6192
▁Mexican	-6193
▁decades	-6194
aks	-6195
oli	-6196
▁Ur	-6197
book	-6198
▁Sav	-6199
▁1957	-6200
▁tanks	-6201
▁Kennedy	-6202
▁Stadium	-6203
AAF	-6204
▁aer	-6205
▁fly	-6206
▁Eric	-6207
▁entry	-6208
▁Gram	-6209
▁Your	-6210
weight	-6211
▁>	-6212
▁clean	-6213
▁survey	-6214
▁cong	-6215
▁Arsenal	-6216
▁someone	-6217
▁pup	-6218
▁outer	-6219
▁Assembly	-6220
▁minister	-6221
▁recommended	-6222
wan	-6223
erto	-6224
hetic	-6225
espread	-6226
▁colour	-6227
▁starts	-6228
poration	-6229
▁permanent	-6230
▁57	-6231
▁ISBN	-6232
▁Leon	-6233
▁stock	-6234
▁occurs	-6235
▁Roger	-6236
▁actual	-6237
▁department	-6238
▁Coll	-6239
▁fict	-6240
yphoon	-6241
▁basic	-6242
claimed	-6243
▁manner	-6244
▁temple	-6245
uro	-6246
▁Hug	-6247
▁hope	-6248
▁Power	-6249
▁Forest	-6250
▁settled	-6251
▁transition	-6252
iley	-6253
▁Nether	-6254
▁thousands	-6255
cknow	-6256
▁Video	-6257
▁glass	-6258
aret	-6259
▁Jane	-6260
▁noting	-6261
▁enemies	-6262
▁Magazine	-6263
▁identity	-6264
▁Gun	-6265
▁Now	-6266
▁decline	-6267
▁concerned	-6268
▁completion	-6269
▁Id	-6270
ooth	-6271
▁armor	-6272
▁relief	-6273
▁freedom	-6274
ivals	-6275
▁nest	-6276
▁improv	-6277
▁brigade	-6278
▁segment	-6279
icit	-6280
ekend	-6281
▁soul	-6282
▁swim	-6283
▁terminus	-6284
aug	-6285
▁dated	-6286
▁expect	-6287
velopment	-6288
▁cloud	-6289
▁formal	-6290
▁breeding	-6291
▁<	-6292
ordan	-6293
▁1937	-6294
iminal	-6295
▁circum	-6296
▁disturb	-6297
▁regional	-6298
▁connection	-6299
▁Five	-6300
▁shots	-6301
▁sequel	-6302
▁committed	-6303
▁fruit	-6304
▁remix	-6305
▁grounds	-6306
▁Roy	-6307
▁Lenn	-6308
▁subs	-6309
▁decor	-6310
▁phase	-6311
▁campus	-6312
lets	-6313
▁Low	-6314
▁spin	-6315
▁involving	-6316
▁parliament	-6317
wen	-6318
rophy	-6319
▁blow	-6320
atinum	-6321
▁opposite	-6322
iva	-6323
burn	-6324
▁possibility	-6325
ami	-6326
law	-6327
spec	-6328
▁alt	-6329
▁1910	-6330
▁duty	-6331
▁foss	-6332
▁autom	-6333
▁headed	-6334
▁exception	-6335
▁Hou	-6336
▁Pur	-6337
aware	-6338
osaurus	-6339
▁assumed	-6340
umin	-6341
▁Kevin	-6342
▁Today	-6343
▁penal	-6344
▁demand	-6345
▁Stanley	-6346
▁purchase	-6347
alog	-6348
▁Kat	-6349
▁Ak	-6350
▁acknow	-6351
15	-6352
▁hip	-6353
acter	-6354
▁skin	-6355
▁Indones	-6356
▁Hamilton	-6357
▁attached	-6358
▁certified	-6359
▁Po	-6360
▁1956	-6361
▁Ryan	-6362
▁prey	-6363
▁Simon	-6364
agonist	-6365
▁serves	-6366
▁Rolling	-6367
eing	-6368
▁WWE	-6369
▁intention	-6370
▁southwest	-6371
▁supporters	-6372
IA	-6373
▁Ut	-6374
▁Gill	-6375
▁poly	-6376
▁objects	-6377
▁Dig	-6378
▁Tar	-6379
▁Engine	-6380
▁downtown	-6381
▁populations	-6382
iterr	-6383
▁hang	-6384
▁spons	-6385
▁Singles	-6386
▁accused	-6387
▁describing	-6388
25	-6389
▁Adam	-6390
▁Bush	-6391
▁courts	-6392
▁slowly	-6393
▁reading	-6394
avia	-6395
▁Andy	-6396
▁Found	-6397
▁charged	-6398
▁passengers	-6399
osh	-6400
▁95	-6401
▁FA	-6402
veland	-6403
▁commit	-6404
▁debate	-6405
uty	-6406
▁Pear	-6407
▁Tenn	-6408
▁Weekly	-6409
▁missed	-6410
▁technical	-6411
▁Throughout	-6412
▁Korea	-6413
agues	-6414
▁door	-6415
▁widespread	-6416
body	-6417
▁dipl	-6418
▁gall	-6419
▁Unlike	-6420
▁Bry	-6421
regon	-6422
▁warm	-6423
▁dress	-6424
▁classes	-6425
▁Cleveland	-6426
▁requested	-6427
▁votes	-6428
▁finishing	-6429
ca	-6430
minute	-6431
▁Philip	-6432
▁premiere	-6433
▁musicians	-6434
▁Douglas	-6435
▁Loc	-6436
▁din	-6437
▁heat	-6438
▁memory	-6439
▁strongly	-6440
▁programme	-6441
▁250	-6442
▁Sweden	-6443
▁literary	-6444
▁occasionally	-6445
▁1.5	-6446
achel	-6447
going	-6448
▁10,000	-6449
▁Beatles	-6450
iterranean	-6451
▁properties	-6452
▁replacement	-6453
▁incorporated	-6454
▁Space	-6455
▁behavior	-6456
▁sessions	-6457
▁supposed	-6458
borne	-6459
▁Marc	-6460
▁tele	-6461
▁Feder	-6462
▁accommod	-6463
▁classified	-6464
▁Web	-6465
▁hosted	-6466
▁vehicle	-6467
▁Memorial	-6468
▁Ba	-6469
▁Morgan	-6470
▁driving	-6471
▁divisions	-6472
Ar	-6473
▁vary	-6474
▁Every	-6475
▁Nelson	-6476
▁strateg	-6477
▁evolution	-6478
▁Mediterranean	-6479
riers	-6480
▁mode	-6481
▁Argent	-6482
▁bringing	-6483
▁attracted	-6484
▁atmosphere	-6485
real	-6486
▁flo	-6487
enses	-6488
▁answ	-6489
▁Bruce	-6490
▁dissip	-6491
point	-6492
risis	-6493
▁oldest	-6494
oyd	-6495
▁Ira	-6496
idges	-6497
▁Rain	-6498
▁Rose	-6499
▁folk	-6500
▁Master	-6501
▁Project	-6502
▁ratings	-6503
▁unusual	-6504
▁memorial	-6505
▁circulation	-6506
pro	-6507
▁Der	-6508
hered	-6509
▁eleven	-6510
upt	-6511
▁Sky	-6512
▁departure	-6513
iece	-6514
▁Oregon	-6515
▁alleged	-6516
▁differences	-6517
ece	-6518
▁ash	-6519
▁canc	-6520
▁ment	-6521
▁Anton	-6522
▁attributed	-6523
▁Bol	-6524
▁Raj	-6525
▁Sab	-6526
▁Freder	-6527
▁effectively	-6528
▁responsibility	-6529
nic	-6530
▁tries	-6531
▁Temple	-6532
▁Francis	-6533
▁equivalent	-6534
lig	-6535
▁1947	-6536
▁1954	-6537
▁fine	-6538
▁hill	-6539
▁hotel	-6540
rations	-6541
▁feeling	-6542
▁recovered	-6543
▁1958	-6544
▁moves	-6545
▁spoke	-6546
▁Around	-6547
▁global	-6548
▁superv	-6549
▁champion	-6550
▁highlight	-6551
▁Additionally	-6552
11	-6553
▁ha	-6554
▁Dal	-6555
▁none	-6556
▁torn	-6557
▁aboard	-6558
▁wickets	-6559
ji	-6560
▁74	-6561
▁fear	-6562
▁Ho	-6563
▁Cab	-6564
▁derived	-6565
aza	-6566
▁sam	-6567
▁shop	-6568
▁costs	-6569
▁protest	-6570
▁neighbor	-6571
▁assistance	-6572
▁filled	-6573
▁funding	-6574
▁neither	-6575
▁1952	-6576
othing	-6577
▁shore	-6578
▁Within	-6579
ker	-6580
▁NBA	-6581
itzer	-6582
▁Again	-6583
▁missions	-6584
▁destruction	-6585
oral	-6586
▁deem	-6587
▁satisf	-6588
▁stayed	-6589
▁Channel	-6590
nce	-6591
uble	-6592
▁110	-6593
▁Bah	-6594
▁Gen	-6595
▁1935	-6596
hedral	-6597
▁sounds	-6598
▁Federal	-6599
▁injuries	-6600
▁restored	-6601
▁battleships	-6602
▁Finn	-6603
▁Bristol	-6604
▁cavalry	-6605
▁Constitution	-6606
▁58	-6607
udden	-6608
▁Marine	-6609
▁thirty	-6610
sex	-6611
▁sons	-6612
thm	-6613
olec	-6614
▁Nich	-6615
▁clubs	-6616
▁Row	-6617
▁Jordan	-6618
▁Scient	-6619
▁classic	-6620
▁Es	-6621
▁Allen	-6622
▁superior	-6623
▁”	-6624
▁Lanc	-6625
▁begun	-6626
▁outbreak	-6627
▁association	-6628
ipe	-6629
▁Stand	-6630
pective	-6631
ructure	-6632
▁reception	-6633
ubb	-6634
isms	-6635
inton	-6636
ewhere	-6637
▁Prior	-6638
▁recru	-6639
▁Norman	-6640
▁Journal	-6641
▁otherwise	-6642
aired	-6643
▁crash	-6644
olished	-6645
▁seemed	-6646
▁passage	-6647
▁remember	-6648
▁spok	-6649
writer	-6650
▁wrong	-6651
▁province	-6652
▁Cas	-6653
abled	-6654
▁rose	-6655
▁eighth	-6656
▁warning	-6657
▁Military	-6658
po	-6659
game	-6660
▁Hell	-6661
emeter	-6662
▁chorus	-6663
▁History	-6664
▁regularly	-6665
▁72	-6666
acent	-6667
ategy	-6668
oster	-6669
teenth	-6670
▁sailed	-6671
▁Matthew	-6672
▁methods	-6673
▁difficulty	-6674
▁inspiration	-6675
▁intelligence	-6676
don	-6677
ige	-6678
sole	-6679
▁tied	-6680
▁Kelly	-6681
RA	-6682
elsh	-6683
▁Mit	-6684
▁gal	-6685
▁Dean	-6686
▁Pier	-6687
▁Treat	-6688
▁desire	-6689
▁fields	-6690
▁Nations	-6691
orney	-6692
▁dream	-6693
▁ready	-6694
▁predecess	-6695
▁reinforce	-6696
▁59	-6697
anny	-6698
anth	-6699
▁Phill	-6700
▁intercept	-6701
▁Sin	-6702
▁Color	-6703
▁rooms	-6704
▁Morris	-6705
rim	-6706
▁1955	-6707
▁accounts	-6708
▁recognition	-6709
ache	-6710
agre	-6711
▁persu	-6712
▁Science	-6713
▁greatly	-6714
▁crop	-6715
▁shif	-6716
▁volunte	-6717
▁animated	-6718
▁fictional	-6719
▁premiered	-6720
▁Spe	-6721
▁eggs	-6722
▁medic	-6723
▁NC	-6724
▁interpret	-6725
▁73	-6726
▁175	-6727
▁Edu	-6728
▁dang	-6729
▁77	-6730
heme	-6731
▁fal	-6732
inder	-6733
▁Mars	-6734
▁communities	-6735
▁Gh	-6736
▁Budd	-6737
▁Ford	-6738
▁Marg	-6739
▁brain	-6740
▁theatre	-6741
▁claiming	-6742
▁Sn	-6743
nings	-6744
▁1959	-6745
▁divers	-6746
▁DE	-6747
pper	-6748
▁1951	-6749
▁teen	-6750
▁separated	-6751
▁AI	-6752
▁Az	-6753
▁Imp	-6754
▁ille	-6755
▁picture	-6756
place	-6757
▁income	-6758
▁Research	-6759
▁materials	-6760
▁cul	-6761
▁Conc	-6762
▁Iron	-6763
▁convinced	-6764
part	-6765
abil	-6766
▁hal	-6767
▁quant	-6768
▁emerged	-6769
▁movements	-6770
aser	-6771
▁scrap	-6772
▁ancest	-6773
▁Thompson	-6774
▁Byzantine	-6775
12	-6776
irds	-6777
▁vide	-6778
▁sale	-6779
▁check	-6780
▁Winter	-6781
▁batting	-6782
▁Centre	-6783
▁determine	-6784
▁entertain	-6785
ici	-6786
▁hol	-6787
▁Wright	-6788
▁bright	-6789
▁Netherlands	-6790
onto	-6791
▁tom	-6792
▁Lisa	-6793
▁pure	-6794
▁inner	-6795
▁Patrick	-6796
▁monarch	-6797
nold	-6798
▁Fame	-6799
▁Jacob	-6800
▁discussed	-6801
using	-6802
▁Prof	-6803
▁else	-6804
▁turb	-6805
▁nickn	-6806
▁depict	-6807
▁ensure	-6808
▁Iraq	-6809
▁stood	-6810
▁assemb	-6811
▁cruiser	-6812
▁visible	-6813
▁Gri	-6814
power	-6815
▁1933	-6816
▁Third	-6817
▁63	-6818
▁looked	-6819
▁Brother	-6820
▁temporary	-6821
▁lake	-6822
▁flank	-6823
▁classification	-6824
▁66	-6825
▁1949	-6826
▁leads	-6827
▁streets	-6828
▁modified	-6829
▁historians	-6830
ses	-6831
▁mo	-6832
roit	-6833
▁Welsh	-6834
Man	-6835
▁od	-6836
asure	-6837
itter	-6838
▁adults	-6839
▁immediate	-6840
▁encouraged	-6841
▁62	-6842
▁remn	-6843
▁suit	-6844
▁engineer	-6845
▁equipped	-6846
agle	-6847
▁Along	-6848
▁Puerto	-6849
▁credit	-6850
ban	-6851
▁Ele	-6852
▁Dick	-6853
▁praise	-6854
▁Network	-6855
▁basketball	-6856
ón	-6857
▁Dor	-6858
▁Thus	-6859
▁raise	-6860
▁Batman	-6861
▁weapon	-6862
chang	-6863
pping	-6864
▁massive	-6865
▁chemical	-6866
▁resources	-6867
▁unsuccessful	-6868
aya	-6869
ogen	-6870
▁reviewer	-6871
▁Recording	-6872
▁discovery	-6873
▁Turk	-6874
▁weekend	-6875
▁Transport	-6876
▁involvement	-6877
irt	-6878
▁CE	-6879
pany	-6880
▁Jews	-6881
▁gone	-6882
▁sees	-6883
▁Harris	-6884
▁Premier	-6885
▁Russell	-6886
▁appropri	-6887
active	-6888
▁Hawai	-6889
▁worst	-6890
▁opponents	-6891
▁surviving	-6892
omot	-6893
▁Croatian	-6894
▁relative	-6895
▁strategy	-6896
▁dismissed	-6897
▁Television	-6898
▁continuing	-6899
gun	-6900
owa	-6901
olph	-6902
oen	-6903
rum	-6904
▁Heart	-6905
▁colony	-6906
▁Holy	-6907
▁needs	-6908
▁Anthony	-6909
▁believes	-6910
▁anniversary	-6911
bec	-6912
▁ic	-6913
▁die	-6914
▁1921	-6915
▁pregn	-6916
▁facility	-6917
▁somewhat	-6918
▁temperatures	-6919
▁61	-6920
▁Labor	-6921
▁meets	-6922
ossible	-6923
▁narrative	-6924
▁ton	-6925
▁Bishop	-6926
▁falling	-6927
▁everyone	-6928
▁Ark	-6929
▁USS	-6930
uther	-6931
▁lies	-6932
encies	-6933
▁Murray	-6934
▁Toronto	-6935
▁medieval	-6936
ivan	-6937
▁1912	-6938
▁Mort	-6939
▁girls	-6940
▁trials	-6941
▁elections	-6942
▁convection	-6943
ultane	-6944
▁Domin	-6945
▁plane	-6946
▁airport	-6947
▁deployed	-6948
▁standards	-6949
▁conclusion	-6950
▁documentary	-6951
mate	-6952
▁1900	-6953
▁reserv	-6954
▁absence	-6955
▁climate	-6956
▁reality	-6957
ixon	-6958
▁Int	-6959
▁Palace	-6960
▁interests	-6961
fire	-6962
ugosl	-6963
urches	-6964
▁consp	-6965
▁loyal	-6966
▁dating	-6967
▁happened	-6968
▁techniques	-6969
▁Techn	-6970
▁category	-6971
▁emergency	-6972
lyn	-6973
▁67	-6974
▁dub	-6975
▁1934	-6976
▁Gaga	-6977
▁Horn	-6978
▁grant	-6979
▁judge	-6980
▁penalty	-6981
▁adaptation	-6982
▁Lyn	-6983
▁Open	-6984
▁hear	-6985
▁mine	-6986
▁Silver	-6987
▁passenger	-6988
▁Wy	-6989
ture	-6990
▁Nob	-6991
▁Gard	-6992
▁Library	-6993
▁surrounded	-6994
▁stands	-6995
▁footage	-6996
▁forming	-6997
una	-6998
▁rum	-6999
▁Glob	-7000
▁Front	-7001
▁hoped	-7002
▁ninth	-7003
▁Detroit	-7004
▁establishment	-7005
▁Bed	-7006
▁library	-7007
▁distributed	-7008
arsh	-7009
▁Hend	-7010
▁Rick	-7011
▁belt	-7012
▁fled	-7013
▁wins	-7014
▁Spears	-7015
▁synthes	-7016
▁appearing	-7017
equ	-7018
▁Niel	-7019
▁biggest	-7020
▁classical	-7021
gets	-7022
hire	-7023
▁Whe	-7024
▁Jesus	-7025
▁accompl	-7026
▁attempting	-7027
aire	-7028
▁130	-7029
ternal	-7030
▁academic	-7031
▁afterwards	-7032
▁photograph	-7033
car	-7034
opes	-7035
ronze	-7036
▁absor	-7037
▁grass	-7038
▁wings	-7039
▁rescue	-7040
▁Roberts	-7041
▁convent	-7042
▁delayed	-7043
▁acknowled	-7044
▁Da	-7045
▁Ta	-7046
▁Tok	-7047
▁municip	-7048
usic	-7049
▁Jam	-7050
▁lat	-7051
▁Anne	-7052
▁Media	-7053
▁alien	-7054
▁Croatia	-7055
▁bombard	-7056
▁architecture	-7057
▁NFL	-7058
▁map	-7059
▁Carter	-7060
▁Knight	-7061
▁fitted	-7062
▁formerly	-7063
▁graphics	-7064
apse	-7065
icide	-7066
▁NBC	-7067
▁successor	-7068
▁DNA	-7069
▁Hospital	-7070
▁Dog	-7071
edding	-7072
wealth	-7073
li	-7074
▁Belg	-7075
▁Jason	-7076
▁races	-7077
▁crosses	-7078
▁existed	-7079
▁inhabit	-7080
▁difference	-7081
aska	-7082
onds	-7083
▁Bou	-7084
imore	-7085
▁1913	-7086
▁Benn	-7087
▁Born	-7088
▁RAAF	-7089
▁depicted	-7090
▁PA	-7091
▁ru	-7092
acre	-7093
▁Pow	-7094
▁doct	-7095
▁holds	-7096
▁diplom	-7097
▁owners	-7098
raf	-7099
▁fer	-7100
▁kid	-7101
▁chairman	-7102
▁suffering	-7103
▁Li	-7104
▁Pak	-7105
▁squ	-7106
ester	-7107
▁Bang	-7108
coming	-7109
▁veter	-7110
▁archae	-7111
▁concur	-7112
▁surviv	-7113
▁Chamber	-7114
▁Similar	-7115
▁partner	-7116
▁Mun	-7117
▁sight	-7118
▁Sports	-7119
▁favorite	-7120
▁apparently	-7121
▁controversial	-7122
ois	-7123
ski	-7124
▁Sant	-7125
▁Berlin	-7126
DS	-7127
fare	-7128
▁Cooper	-7129
atically	-7130
▁commemor	-7131
usted	-7132
▁Santa	-7133
▁Parker	-7134
▁anyone	-7135
uts	-7136
▁deemed	-7137
▁interior	-7138
term	-7139
▁Armen	-7140
▁Produ	-7141
▁Houston	-7142
▁Indians	-7143
▁Swedish	-7144
▁fighter	-7145
▁journalist	-7146
zy	-7147
iliar	-7148
▁partn	-7149
▁legend	-7150
▁languages	-7151
ito	-7152
▁PC	-7153
rine	-7154
▁Get	-7155
▁buy	-7156
▁vul	-7157
ooking	-7158
▁Evans	-7159
▁colonial	-7160
▁historic	-7161
▁convention	-7162
eping	-7163
oming	-7164
▁defended	-7165
▁informed	-7166
▁questions	-7167
tic	-7168
▁99	-7169
vens	-7170
scape	-7171
▁2,000	-7172
▁Family	-7173
▁Yugosl	-7174
▁longest	-7175
▁hundreds	-7176
uster	-7177
▁legislation	-7178
▁x	-7179
▁eat	-7180
▁rich	-7181
▁molec	-7182
▁Somers	-7183
▁seeing	-7184
▁secured	-7185
agu	-7186
▁FI	-7187
hess	-7188
▁Cru	-7189
▁Cry	-7190
▁chapter	-7191
▁reportedly	-7192
35	-7193
▁Last	-7194
▁code	-7195
▁renew	-7196
▁authors	-7197
▁romantic	-7198
exp	-7199
▁mathem	-7200
bu	-7201
osure	-7202
▁feud	-7203
▁inher	-7204
▁operate	-7205
ES	-7206
anton	-7207
▁1911	-7208
▁dens	-7209
▁closer	-7210
▁rebell	-7211
▁scheme	-7212
▁measures	-7213
▁railroad	-7214
▁Commander	-7215
▁childhood	-7216
▁presidential	-7217
vis	-7218
noon	-7219
olis	-7220
▁Bure	-7221
▁boil	-7222
▁legs	-7223
▁stead	-7224
▁channel	-7225
▁intense	-7226
▁87	-7227
lock	-7228
▁vision	-7229
▁territories	-7230
▁Commonwealth	-7231
▁1929	-7232
▁Xbox	-7233
apping	-7234
▁maint	-7235
▁Having	-7236
▁representing	-7237
▁san	-7238
orial	-7239
▁1932	-7240
▁Merc	-7241
▁carrier	-7242
▁mainstream	-7243
aste	-7244
▁Yan	-7245
▁tra	-7246
▁Princess	-7247
▁attacking	-7248
▁prevented	-7249
mad	-7250
▁Late	-7251
▁giant	-7252
emetery	-7253
related	-7254
▁Muslim	-7255
▁astron	-7256
▁cancer	-7257
▁watching	-7258
aria	-7259
iami	-7260
▁Est	-7261
▁bab	-7262
▁Islam	-7263
▁Sarah	-7264
▁sudden	-7265
▁throne	-7266
▁resigned	-7267
mill	-7268
▁agree	-7269
,0	-7270
shaped	-7271
▁audio	-7272
▁siege	-7273
▁behavi	-7274
▁skills	-7275
▁wooden	-7276
▁Baltimore	-7277
▁arrangement	-7278
obi	-7279
rait	-7280
▁1926	-7281
▁Trib	-7282
▁painted	-7283
▁Melbourne	-7284
ds	-7285
▁1927	-7286
ogether	-7287
▁Advent	-7288
▁pushed	-7289
▁notably	-7290
▁references	-7291
mes	-7292
▁sed	-7293
▁vic	-7294
ribed	-7295
▁Disc	-7296
▁Free	-7297
▁detail	-7298
▁starred	-7299
▁Ts	-7300
▁gets	-7301
▁ride	-7302
▁intent	-7303
▁experiences	-7304
udes	-7305
▁carbon	-7306
▁enthus	-7307
rad	-7308
▁coins	-7309
▁assass	-7310
▁excess	-7311
▁Clinton	-7312
▁achieve	-7313
▁influences	-7314
lie	-7315
▁ML	-7316
icop	-7317
iens	-7318
onies	-7319
▁Vice	-7320
▁Greece	-7321
▁Police	-7322
▁Gilbert	-7323
▁Initially	-7324
utt	-7325
▁1931	-7326
▁convoy	-7327
ologists	-7328
▁instruments	-7329
omp	-7330
indu	-7331
▁Ult	-7332
▁Pope	-7333
▁easy	-7334
▁depos	-7335
tenance	-7336
▁factor	-7337
▁poetry	-7338
▁rarely	-7339
▁dialogue	-7340
▁garrison	-7341
▁thousand	-7342
▁Ey	-7343
▁bon	-7344
▁navig	-7345
oto	-7346
ching	-7347
▁Category	-7348
jo	-7349
arked	-7350
▁Miami	-7351
▁alleg	-7352
▁ocean	-7353
▁resign	-7354
▁moderate	-7355
▁generation	-7356
▁influential	-7357
▁participate	-7358
▁Tal	-7359
▁Queens	-7360
▁Ministry	-7361
▁simultane	-7362
away	-7363
raph	-7364
usal	-7365
▁Heavy	-7366
▁deter	-7367
▁Author	-7368
▁pointed	-7369
▁whereas	-7370
helm	-7371
▁pin	-7372
ipped	-7373
stances	-7374
▁proced	-7375
▁Nielsen	-7376
▁announce	-7377
▁executed	-7378
▁accompany	-7379
stic	-7380
▁gay	-7381
eenth	-7382
▁underw	-7383
▁vessel	-7384
▁Somerset	-7385
▁adjacent	-7386
▁Jess	-7387
▁drums	-7388
▁extent	-7389
▁trained	-7390
▁emotional	-7391
▁Nevertheless	-7392
▁1922	-7393
▁bats	-7394
▁spend	-7395
▁retirement	-7396
▁thereafter	-7397
▁characteristics	-7398
SP	-7399
da	-7400
atus	-7401
▁Cook	-7402
▁Asian	-7403
▁union	-7404
▁gather	-7405
▁reveals	-7406
▁preferred	-7407
▁specimens	-7408
▁USD	-7409
ullivan	-7410
sea	-7411
▁ster	-7412
▁thin	-7413
▁brand	-7414
▁goods	-7415
achment	-7416
▁Warner	-7417
▁criminal	-7418
▁learning	-7419
▁withdrew	-7420
▁residential	-7421
▁environmental	-7422
yo	-7423
mates	-7424
▁happy	-7425
ropolitan	-7426
▁restrict	-7427
▁visitors	-7428
▁impressed	-7429
▁destroyers	-7430
▁Corporation	-7431
elle	-7432
orous	-7433
▁Educ	-7434
▁symp	-7435
▁veget	-7436
igration	-7437
▁offices	-7438
▁permission	-7439
dy	-7440
igen	-7441
▁Guy	-7442
▁plate	-7443
▁hearing	-7444
▁releases	-7445
ods	-7446
▁outf	-7447
▁pull	-7448
attered	-7449
▁refuge	-7450
▁housing	-7451
▁Wrestling	-7452
▁employees	-7453
▁surrender	-7454
idel	-7455
rees	-7456
▁flew	-7457
etime	-7458
▁Stock	-7459
▁remove	-7460
▁victims	-7461
▁diameter	-7462
▁neck	-7463
▁ridge	-7464
▁landed	-7465
▁Stewart	-7466
▁chronic	-7467
▁detailed	-7468
▁Frederick	-7469
otes	-7470
▁beach	-7471
▁formally	-7472
▁imprison	-7473
▁instance	-7474
▁battleship	-7475
▁Carib	-7476
borough	-7477
▁novels	-7478
▁tempor	-7479
▁joining	-7480
icians	-7481
▁factors	-7482
▁constant	-7483
igs	-7484
phy	-7485
▁Cz	-7486
ogan	-7487
▁Iowa	-7488
▁junior	-7489
▁uniform	-7490
▁cruisers	-7491
▁afternoon	-7492
▁relationships	-7493
isd	-7494
bean	-7495
▁Anglo	-7496
▁pounds	-7497
▁departed	-7498
▁describe	-7499
▁frequent	-7500
▁spending	-7501
▁universe	-7502
hatt	-7503
▁Obs	-7504
▁Rey	-7505
▁picked	-7506
▁Marshall	-7507
▁82	-7508
▁device	-7509
▁enters	-7510
▁encountered	-7511
cop	-7512
idi	-7513
▁RAF	-7514
▁fil	-7515
▁tie	-7516
otype	-7517
▁treated	-7518
▁traveled	-7519
▁Raw	-7520
▁fur	-7521
▁driver	-7522
▁videos	-7523
chen	-7524
▁600	-7525
▁recur	-7526
▁sympt	-7527
▁exposed	-7528
▁publicly	-7529
▁78	-7530
▁Oak	-7531
▁sky	-7532
▁1925	-7533
▁alco	-7534
▁huge	-7535
▁chain	-7536
▁Origin	-7537
▁finale	-7538
▁criticised	-7539
alo	-7540
amese	-7541
▁excell	-7542
▁Simpson	-7543
▁reprodu	-7544
▁festival	-7545
enh	-7546
▁68	-7547
acle	-7548
rele	-7549
umph	-7550
▁Anna	-7551
▁Bull	-7552
▁Dave	-7553
▁jump	-7554
▁Giants	-7555
▁linked	-7556
▁periods	-7557
FC	-7558
▁Ah	-7559
▁partly	-7560
▁Seattle	-7561
▁reconst	-7562
▁Colorado	-7563
ée	-7564
ila	-7565
ante	-7566
▁Know	-7567
▁Lennon	-7568
▁prompted	-7569
▁neighborhood	-7570
▁jur	-7571
▁upd	-7572
▁1890	-7573
▁Hans	-7574
▁climb	-7575
▁speak	-7576
▁strip	-7577
▁verse	-7578
▁hunting	-7579
▁policies	-7580
▁animation	-7581
▁uncertain	-7582
ls	-7583
▁tot	-7584
▁reun	-7585
▁tests	-7586
▁Malays	-7587
▁honour	-7588
▁collaps	-7589
▁personality	-7590
unes	-7591
▁toll	-7592
ricted	-7593
▁bypass	-7594
▁upgraded	-7595
tty	-7596
▁benefit	-7597
▁bridges	-7598
▁comments	-7599
▁negotiations	-7600
MA	-7601
oked	-7602
▁lob	-7603
prise	-7604
▁Chronic	-7605
▁representative	-7606
hand	-7607
▁2.5	-7608
▁Death	-7609
▁locomot	-7610
▁churches	-7611
▁submarine	-7612
ellite	-7613
icy	-7614
▁Buff	-7615
▁Trek	-7616
▁fung	-7617
▁Player	-7618
▁compete	-7619
▁examples	-7620
▁understand	-7621
▁substantial	-7622
nest	-7623
▁bear	-7624
▁Samuel	-7625
▁drawing	-7626
▁testing	-7627
▁publisher	-7628
▁Development	-7629
▁MP	-7630
▁USA	-7631
odore	-7632
orage	-7633
inction	-7634
▁Express	-7635
▁Lawrence	-7636
hour	-7637
▁140	-7638
▁Lim	-7639
chell	-7640
▁stem	-7641
atched	-7642
▁diagn	-7643
▁Austria	-7644
▁breaking	-7645
▁paintings	-7646
▁reviewers	-7647
ican	-7648
roke	-7649
▁Aud	-7650
acked	-7651
▁diff	-7652
▁lose	-7653
▁Crown	-7654
text	-7655
▁Canal	-7656
▁relie	-7657
▁Social	-7658
▁doctor	-7659
▁stable	-7660
▁technique	-7661
▁engineering	-7662
kes	-7663
rot	-7664
▁Horse	-7665
▁Forces	-7666
▁driven	-7667
▁format	-7668
▁extreme	-7669
▁nations	-7670
no	-7671
ygen	-7672
▁els	-7673
▁Buck	-7674
▁Lane	-7675
imeter	-7676
ounced	-7677
▁Profess	-7678
▁elsewhere	-7679
▁Foundation	-7680
rain	-7681
▁Sym	-7682
▁boys	-7683
▁agents	-7684
ilst	-7685
▁Soon	-7686
▁mamm	-7687
▁unn	-7688
▁Wing	-7689
▁rates	-7690
▁refers	-7691
▁taught	-7692
▁helping	-7693
▁1928	-7694
▁Then	-7695
▁util	-7696
▁divor	-7697
▁explo	-7698
▁radar	-7699
▁seats	-7700
▁teeth	-7701
▁Minnes	-7702
▁Napole	-7703
▁Belgium	-7704
▁forcing	-7705
▁recommend	-7706
▁tub	-7707
alions	-7708
▁tribute	-7709
▁creative	-7710
▁normally	-7711
▁protagonist	-7712
abb	-7713
olas	-7714
rows	-7715
▁Hand	-7716
▁bases	-7717
▁shear	-7718
uscript	-7719
▁Franklin	-7720
▁Ot	-7721
▁bes	-7722
sters	-7723
▁Real	-7724
▁diet	-7725
viation	-7726
▁apprec	-7727
▁rivers	-7728
▁turrets	-7729
mers	-7730
▁Deb	-7731
▁phr	-7732
▁mand	-7733
▁styles	-7734
▁complic	-7735
▁windows	-7736
14	-7737
aws	-7738
ennis	-7739
▁Tower	-7740
▁truck	-7741
▁concerts	-7742
▁opponent	-7743
onnaissance	-7744
▁eliminated	-7745
ouri	-7746
▁Son	-7747
▁1908	-7748
▁1924	-7749
▁Charlie	-7750
▁moments	-7751
▁Hamp	-7752
▁aged	-7753
▁safe	-7754
▁Treaty	-7755
▁pilots	-7756
▁precip	-7757
▁minimum	-7758
▁partially	-7759
▁travelled	-7760
▁appointment	-7761
eu	-7762
▁1.2	-7763
▁sure	-7764
endment	-7765
▁anticip	-7766
▁assists	-7767
▁covering	-7768
▁Op	-7769
▁ju	-7770
▁Benj	-7771
▁Much	-7772
▁hull	-7773
▁3,000	-7774
▁wrest	-7775
▁window	-7776
▁isolated	-7777
mile	-7778
▁surf	-7779
▁twin	-7780
▁overs	-7781
ographical	-7782
▁alignment	-7783
▁electronic	-7784
▁96	-7785
▁asks	-7786
▁proport	-7787
▁maintenance	-7788
▁difficulties	-7789
▁176	-7790
▁1909	-7791
▁sank	-7792
▁covers	-7793
munition	-7794
▁Alab	-7795
▁Rand	-7796
▁Laure	-7797
▁innov	-7798
▁medium	-7799
▁prohib	-7800
▁Guardian	-7801
▁Christopher	-7802
rep	-7803
▁DC	-7804
▁moral	-7805
▁Caribbean	-7806
uda	-7807
▁pric	-7808
▁falls	-7809
▁multi	-7810
▁advice	-7811
▁minimal	-7812
▁fighters	-7813
▁dominated	-7814
▁submitted	-7815
▁Æ	-7816
▁Story	-7817
▁cycle	-7818
▁Shakesp	-7819
▁Township	-7820
▁arriving	-7821
▁organizations	-7822
icts	-7823
▁Khan	-7824
▁helicop	-7825
▁approval	-7826
▁occupation	-7827
▁copy	-7828
▁dynasty	-7829
▁89	-7830
▁Ian	-7831
▁adm	-7832
▁Dead	-7833
▁impossible	-7834
▁Kal	-7835
▁Organ	-7836
▁canal	-7837
▁Alfred	-7838
▁Walker	-7839
▁crisis	-7840
▁rhythm	-7841
▁rounds	-7842
▁keeping	-7843
▁telling	-7844
▁monument	-7845
boy	-7846
▁79	-7847
▁CR	-7848
iders	-7849
▁truth	-7850
▁resear	-7851
atherine	-7852
▁AR	-7853
▁McD	-7854
scale	-7855
▁Banks	-7856
▁smooth	-7857
▁treaty	-7858
▁Alabama	-7859
▁Senator	-7860
▁Benjamin	-7861
▁purposes	-7862
▁Vietnamese	-7863
▁recordings	-7864
▁Thor	-7865
▁phen	-7866
urance	-7867
▁Dance	-7868
▁advoc	-7869
▁Garden	-7870
▁Call	-7871
▁absol	-7872
▁advis	-7873
▁Aff	-7874
▁Fal	-7875
overs	-7876
▁Bros	-7877
▁murd	-7878
▁Event	-7879
▁repair	-7880
▁Digital	-7881
roc	-7882
▁98	-7883
ctic	-7884
▁wear	-7885
▁Yanke	-7886
▁marry	-7887
▁Albums	-7888
▁teaching	-7889
▁Championships	-7890
zz	-7891
▁ax	-7892
idae	-7893
ugby	-7894
▁Michel	-7895
▁storms	-7896
▁indicate	-7897
▁Minnesota	-7898
ng	-7899
▁Mach	-7900
▁Kansas	-7901
▁instrumental	-7902
▁1,5	-7903
▁wet	-7904
▁ammunition	-7905
sk	-7906
▁Hu	-7907
otten	-7908
▁Hills	-7909
ishment	-7910
▁Modern	-7911
▁fishing	-7912
-10	-7913
▁mir	-7914
eline	-7915
hattan	-7916
▁lists	-7917
▁competed	-7918
▁Wol	-7919
▁orb	-7920
▁pool	-7921
father	-7922
▁waves	-7923
▁Grammy	-7924
▁Kurt	-7925
▁signs	-7926
▁ethnic	-7927
▁resumed	-7928
▁dangerous	-7929
iac	-7930
▁ped	-7931
▁villages	-7932
ean	-7933
▁Cold	-7934
▁overw	-7935
▁hockey	-7936
▁designer	-7937
▁Manhattan	-7938
▁encounter	-7939
▁sequences	-7940
▁“	-7941
ogy	-7942
▁EP	-7943
▁Ty	-7944
▁grown	-7945
▁Tenness	-7946
▁suicide	-7947
▁argument	-7948
sky	-7949
storm	-7950
▁grav	-7951
▁elabor	-7952
▁dollars	-7953
▁seeking	-7954
▁collapse	-7955
▁favorable	-7956
▁manuscript	-7957
▁Ban	-7958
▁gat	-7959
rupted	-7960
▁filed	-7961
▁cooper	-7962
▁pulled	-7963
▁consult	-7964
▁signing	-7965
▁Represent	-7966
▁vice	-7967
▁foundation	-7968
CA	-7969
rolled	-7970
▁acted	-7971
▁facing	-7972
▁serial	-7973
▁repairs	-7974
13	-7975
ti	-7976
gery	-7977
▁Mario	-7978
▁values	-7979
▁functions	-7980
▁*	-7981
lah	-7982
▁danc	-7983
▁jazz	-7984
▁mile	-7985
▁tone	-7986
▁Camer	-7987
selling	-7988
▁asking	-7989
▁defeating	-7990
▁victories	-7991
▁description	-7992
ques	-7993
▁Roc	-7994
▁Hockey	-7995
▁lowest	-7996
▁option	-7997
▁balance	-7998
▁coordin	-7999
▁emperor	-8000
▁Industry	-8001
▁Tennessee	-8002
▁scientists	-8003
rix	-8004
xual	-8005
▁800	-8006
▁Ice	-8007
▁Lad	-8008
style	-8009
▁Hong	-8010
▁Rang	-8011
▁suspended	-8012
▁Dw	-8013
▁1923	-8014
incial	-8015
ivated	-8016
▁tunnel	-8017
▁Alexand	-8018
▁credits	-8019
▁restaurant	-8020
nik	-8021
▁liqu	-8022
ecraft	-8023
▁Diego	-8024
ensions	-8025
▁underground	-8026
lar	-8027
▁1.6	-8028
▁Tan	-8029
▁sunk	-8030
▁usual	-8031
▁decides	-8032
▁symptoms	-8033
▁occasions	-8034
▁professor	-8035
▁Australians	-8036
fe	-8037
▁93	-8038
▁170	-8039
▁Rap	-8040
▁1905	-8041
▁parent	-8042
▁subjects	-8043
icer	-8044
unch	-8045
▁ske	-8046
uable	-8047
▁1906	-8048
▁overt	-8049
▁Ll	-8050
▁Si	-8051
▁UE	-8052
weet	-8053
▁Div	-8054
▁Hop	-8055
osevel	-8056
▁poison	-8057
▁Missouri	-8058
▁attendance	-8059
anium	-8060
▁1904	-8061
▁alter	-8062
▁inaug	-8063
alities	-8064
▁Critics	-8065
▁abilities	-8066
▁1907	-8067
▁Trust	-8068
▁degrees	-8069
▁Roosevel	-8070
▁struggle	-8071
▁beautiful	-8072
▁na	-8073
eare	-8074
issue	-8075
▁page	-8076
▁dispute	-8077
▁funeral	-8078
▁survive	-8079
▁preserved	-8080
agh	-8081
▁Dur	-8082
▁rig	-8083
▁Hind	-8084
forced	-8085
▁wreck	-8086
▁violent	-8087
▁designation	-8088
ele	-8089
▁nom	-8090
▁Beck	-8091
▁Switzer	-8092
▁Campbell	-8093
▁assisted	-8094
▁displayed	-8095
isp	-8096
rus	-8097
▁Fem	-8098
▁Tun	-8099
▁trend	-8100
▁poorly	-8101
▁unlike	-8102
▁habitat	-8103
▁Margaret	-8104
▁Lam	-8105
▁Nash	-8106
iveness	-8107
▁Country	-8108
▁documents	-8109
▁88	-8110
▁Comb	-8111
▁Human	-8112
▁skull	-8113
CC	-8114
▁92	-8115
amic	-8116
orph	-8117
▁Nag	-8118
▁Mack	-8119
▁Snow	-8120
▁lect	-8121
▁Kings	-8122
▁Tamil	-8123
▁simpl	-8124
▁escaped	-8125
▁percentage	-8126
uv	-8127
▁Bh	-8128
rawn	-8129
▁Ext	-8130
▁Area	-8131
▁wedding	-8132
▁audiences	-8133
▁Switzerland	-8134
▁Gab	-8135
▁Hud	-8136
▁Shel	-8137
▁Mississ	-8138
▁concrete	-8139
▁schedule	-8140
▁Nat	-8141
▁Fried	-8142
▁prime	-8143
▁changing	-8144
▁controll	-8145
▁newspapers	-8146
▁partnership	-8147
▁agricultural	-8148
▁understanding	-8149
vy	-8150
eton	-8151
reated	-8152
▁flash	-8153
species	-8154
▁refere	-8155
▁bombers	-8156
▁Shakespeare	-8157
oking	-8158
▁Brun	-8159
▁adopt	-8160
▁aimed	-8161
▁aware	-8162
▁engagement	-8163
▁possession	-8164
Star	-8165
roid	-8166
▁McL	-8167
▁keyboard	-8168
16	-8169
▁hat	-8170
mented	-8171
▁categ	-8172
▁Warren	-8173
▁custom	-8174
▁lacked	-8175
▁notice	-8176
▁closing	-8177
▁Roosevelt	-8178
cho	-8179
rams	-8180
obile	-8181
▁Blood	-8182
▁Satur	-8183
▁elder	-8184
ulating	-8185
▁deliber	-8186
▁junction	-8187
▁reflected	-8188
▁collaboration	-8189
overe	-8190
▁dies	-8191
▁forty	-8192
▁neutral	-8193
▁Montreal	-8194
rm	-8195
▁py	-8196
▁Dod	-8197
▁Lucas	-8198
▁Athlet	-8199
▁amongst	-8200
▁Mitchell	-8201
▁Portland	-8202
unc	-8203
▁Hero	-8204
▁Czech	-8205
▁cryst	-8206
▁Health	-8207
▁imperial	-8208
▁situated	-8209
▁residence	-8210
▁candidates	-8211
▁Construction	-8212
die	-8213
▁84	-8214
mith	-8215
▁Hotel	-8216
▁tenth	-8217
▁speaking	-8218
▁lieutenant	-8219
▁interesting	-8220
fish	-8221
▁Halo	-8222
▁behalf	-8223
▁corpor	-8224
▁Turkish	-8225
▁earning	-8226
▁scholar	-8227
▁disaster	-8228
▁platinum	-8229
▁mountains	-8230
▁resolution	-8231
ilty	-8232
▁Ple	-8233
▁ben	-8234
▁Cole	-8235
▁anch	-8236
orious	-8237
▁Steven	-8238
▁Historic	-8239
▁Sullivan	-8240
▁flagship	-8241
▁Peninsula	-8242
gate	-8243
▁wore	-8244
urally	-8245
▁vulner	-8246
▁amounts	-8247
▁pitched	-8248
▁feelings	-8249
TA	-8250
▁94	-8251
▁Fran	-8252
▁Josh	-8253
▁arts	-8254
▁evil	-8255
▁Billy	-8256
▁reven	-8257
resents	-8258
▁willing	-8259
▁suitable	-8260
athy	-8261
▁Joh	-8262
▁lem	-8263
itated	-8264
▁Blues	-8265
▁Record	-8266
▁oxygen	-8267
▁100,000	-8268
▁Wilhelm	-8269
▁artwork	-8270
▁electron	-8271
▁familiar	-8272
▁preparation	-8273
agg	-8274
artney	-8275
▁Chand	-8276
▁Medal	-8277
▁badly	-8278
▁Labour	-8279
▁discip	-8280
▁shells	-8281
▁expensive	-8282
▁Philippines	-8283
▁temporarily	-8284
▁contributions	-8285
rov	-8286
▁Lin	-8287
▁bay	-8288
▁Apple	-8289
▁false	-8290
▁mental	-8291
▁statue	-8292
▁bowling	-8293
▁offering	-8294
▁generated	-8295
▁survivors	-8296
95	-8297
▁wel	-8298
▁erupt	-8299
▁quiet	-8300
▁margin	-8301
▁comfort	-8302
▁Children	-8303
▁inhabitants	-8304
rome	-8305
▁Mes	-8306
▁loan	-8307
ellect	-8308
asts	-8309
▁Cob	-8310
▁frig	-8311
▁pron	-8312
▁span	-8313
▁vast	-8314
▁Barry	-8315
▁ninet	-8316
inental	-8317
overeign	-8318
▁backing	-8319
▁earthqu	-8320
▁illness	-8321
▁completing	-8322
▁represents	-8323
gro	-8324
rator	-8325
▁marks	-8326
▁saved	-8327
▁registered	-8328
▁suggesting	-8329
▁quarterback	-8330
▁distinguished	-8331
▁sector	-8332
▁forests	-8333
▁militia	-8334
▁surprise	-8335
▁explosion	-8336
wa	-8337
adi	-8338
▁VI	-8339
▁kW	-8340
agen	-8341
▁spr	-8342
▁1880	-8343
▁Anim	-8344
▁Baby	-8345
▁Wolf	-8346
inding	-8347
▁orbit	-8348
▁affili	-8349
▁voiced	-8350
▁touring	-8351
▁merchant	-8352
▁businesses	-8353
▁compilation	-8354
▁perspective	-8355
▁bot	-8356
rates	-8357
▁Mess	-8358
▁Friend	-8359
▁Stevens	-8360
▁Egyptian	-8361
▁replacing	-8362
▁mart	-8363
asters	-8364
▁drove	-8365
▁assess	-8366
ylan	-8367
omber	-8368
▁5,000	-8369
▁cargo	-8370
onymous	-8371
olve	-8372
otton	-8373
▁Near	-8374
▁exit	-8375
▁patterns	-8376
▁86	-8377
inea	-8378
reted	-8379
▁1903	-8380
▁prosp	-8381
▁armored	-8382
py	-8383
▁soil	-8384
orders	-8385
▁banks	-8386
▁institutions	-8387
quir	-8388
piece	-8389
▁tack	-8390
▁fifty	-8391
▁ideal	-8392
▁rising	-8393
▁signal	-8394
▁Building	-8395
▁Interstate	-8396
▁operational	-8397
tha	-8398
aron	-8399
▁1901	-8400
▁nucle	-8401
▁controls	-8402
▁remnants	-8403
▁entertainment	-8404
amps	-8405
ifer	-8406
ocking	-8407
▁wider	-8408
▁execut	-8409
▁obvious	-8410
▁Austrian	-8411
▁Education	-8412
▁Louisiana	-8413
▁Originally	-8414
cru	-8415
ippi	-8416
ectic	-8417
▁Phoen	-8418
▁feels	-8419
▁fallen	-8420
▁worship	-8421
EC	-8422
rating	-8423
▁exclud	-8424
▁firing	-8425
▁fifteen	-8426
▁predomin	-8427
▁grey	-8428
▁protein	-8429
▁recognised	-8430
18	-8431
ika	-8432
uma	-8433
▁Maur	-8434
▁Nazi	-8435
▁Ward	-8436
▁Guide	-8437
▁Oklah	-8438
▁peaking	-8439
▁thinking	-8440
imen	-8441
▁Seven	-8442
▁Small	-8443
▁Palest	-8444
▁argues	-8445
▁coverage	-8446
▁philosophy	-8447
▁characterized	-8448
▁Lov	-8449
▁Cuba	-8450
▁Hindu	-8451
▁print	-8452
▁recip	-8453
▁affair	-8454
▁flights	-8455
▁targets	-8456
▁perceived	-8457
ova	-8458
▁Dom	-8459
▁Hem	-8460
▁gust	-8461
▁fixed	-8462
▁grade	-8463
▁mines	-8464
issions	-8465
▁parish	-8466
▁restricted	-8467
▁simultaneously	-8468
mi	-8469
▁Ku	-8470
ivia	-8471
okes	-8472
atics	-8473
▁subt	-8474
▁liked	-8475
▁inland	-8476
▁clearly	-8477
▁distinctive	-8478
▁gang	-8479
▁initi	-8480
▁Flight	-8481
▁chapel	-8482
▁explain	-8483
▁founder	-8484
▁spotted	-8485
▁civilian	-8486
▁conscious	-8487
▁subspecies	-8488
▁demonstrated	-8489
▁Pa	-8490
▁Amy	-8491
▁cous	-8492
▁Dylan	-8493
▁Native	-8494
▁Edwards	-8495
▁Program	-8496
▁affairs	-8497
eor	-8498
inian	-8499
▁Atlanta	-8500
▁measured	-8501
icate	-8502
▁justice	-8503
sequently	-8504
dale	-8505
eded	-8506
olid	-8507
andal	-8508
▁Vinc	-8509
aughters	-8510
hard	-8511
▁Ped	-8512
bishop	-8513
ieties	-8514
▁Bureau	-8515
▁arrive	-8516
▁reluct	-8517
▁spiritual	-8518
abs	-8519
ori	-8520
▁NO	-8521
lings	-8522
▁Grey	-8523
▁useful	-8524
▁Administ	-8525
▁Jonathan	-8526
▁boundary	-8527
▁interact	-8528
▁cancelled	-8529
▁69	-8530
orer	-8531
▁1,2	-8532
▁ABC	-8533
found	-8534
▁draf	-8535
▁genetic	-8536
▁Oklahoma	-8537
▁meetings	-8538
▁solution	-8539
▁repeatedly	-8540
▁Cow	-8541
phony	-8542
▁Kirk	-8543
▁Ring	-8544
▁Dragon	-8545
▁Person	-8546
▁horror	-8547
▁Non	-8548
▁Edge	-8549
▁bulk	-8550
▁Obama	-8551
▁excav	-8552
writing	-8553
▁choose	-8554
▁palace	-8555
inations	-8556
▁acceler	-8557
19	-8558
oned	-8559
uary	-8560
▁Rih	-8561
▁rub	-8562
angle	-8563
▁Magn	-8564
▁Soul	-8565
▁rout	-8566
▁condem	-8567
▁dramatic	-8568
▁explains	-8569
▁intellect	-8570
roph	-8571
▁femin	-8572
▁ranks	-8573
▁autobi	-8574
▁faster	-8575
▁carriers	-8576
▁depending	-8577
▁Confederate	-8578
▁reconnaissance	-8579
rage	-8580
ridge	-8581
▁Harv	-8582
▁maneu	-8583
▁Denmark	-8584
▁Rihanna	-8585
▁evolved	-8586
▁biographer	-8587
din	-8588
▁Rico	-8589
▁drugs	-8590
▁patron	-8591
▁Persian	-8592
▁behaviour	-8593
▁Mississippi	-8594
▁strengthened	-8595
rac	-8596
▁slaves	-8597
▁disagre	-8598
▁striking	-8599
▁vertical	-8600
▁westward	-8601
▁apartment	-8602
▁excellent	-8603
▁1870	-8604
▁pace	-8605
▁frust	-8606
mingham	-8607
▁culmin	-8608
▁riders	-8609
▁exactly	-8610
▁Eventually	-8611
zona	-8612
▁Prize	-8613
▁poems	-8614
▁string	-8615
▁alliance	-8616
▁northward	-8617
▁battalions	-8618
vant	-8619
▁Sony	-8620
apolis	-8621
▁bombs	-8622
▁Saturday	-8623
▁visiting	-8624
▁Furthermore	-8625
▁communication	-8626
17	-8627
rant	-8628
▁Lex	-8629
▁meat	-8630
▁crews	-8631
▁cancel	-8632
▁garden	-8633
▁Perform	-8634
▁alcohol	-8635
▁Federation	-8636
▁households	-8637
lain	-8638
▁Mrs	-8639
▁Nik	-8640
▁Vik	-8641
▁vel	-8642
esses	-8643
▁Pitts	-8644
▁phone	-8645
▁Graham	-8646
▁colonies	-8647
▁dominant	-8648
▁intensified	-8649
▁Micro	-8650
▁oblig	-8651
▁armour	-8652
▁Hungary	-8653
▁Outstanding	-8654
▁application	-8655
▁Liz	-8656
▁tag	-8657
▁tru	-8658
▁Such	-8659
▁obst	-8660
▁Independent	-8661
▁Tokyo	-8662
▁coinc	-8663
▁bronze	-8664
▁shield	-8665
▁theater	-8666
▁Business	-8667
LC	-8668
oa	-8669
rik	-8670
umps	-8671
▁Ren	-8672
▁Vis	-8673
▁rit	-8674
▁Ridge	-8675
▁citing	-8676
▁obtain	-8677
▁retain	-8678
▁Arizona	-8679
▁artistic	-8680
▁exhibition	-8681
▁friendship	-8682
▁institution	-8683
▁predecessor	-8684
erk	-8685
▁Cher	-8686
▁Dest	-8687
▁Lang	-8688
▁sick	-8689
▁synd	-8690
▁thor	-8691
▁doubt	-8692
▁removal	-8693
▁struggled	-8694
▁Tag	-8695
▁kit	-8696
▁Brig	-8697
▁Gary	-8698
▁drink	-8699
▁tight	-8700
▁Indies	-8701
▁racing	-8702
▁terror	-8703
▁sisters	-8704
formation	-8705
▁alternate	-8706
▁directors	-8707
▁conservative	-8708
oven	-8709
▁360	-8710
anches	-8711
▁Nixon	-8712
▁20,000	-8713
▁Internet	-8714
arth	-8715
▁125	-8716
▁Cra	-8717
▁dece	-8718
estyle	-8719
▁Tracy	-8720
▁threw	-8721
▁succeed	-8722
▁portions	-8723
▁satellite	-8724
case	-8725
urer	-8726
▁Ton	-8727
▁Bomb	-8728
oustic	-8729
▁panel	-8730
uations	-8731
▁pursue	-8732
▁prepare	-8733
▁typhoon	-8734
▁Baseball	-8735
▁audition	-8736
▁Na	-8737
▁Wor	-8738
▁pale	-8739
▁Harvey	-8740
▁altered	-8741
▁compens	-8742
▁demands	-8743
▁fastest	-8744
ascar	-8745
ateur	-8746
▁strict	-8747
▁surrend	-8748
▁playoffs	-8749
elli	-8750
grad	-8751
owed	-8752
rose	-8753
owned	-8754
▁boss	-8755
estone	-8756
▁frame	-8757
▁creator	-8758
▁trouble	-8759
▁practices	-8760
▁Birmingham	-8761
▁circumstances	-8762
▁wait	-8763
ulture	-8764
▁chamber	-8765
▁armament	-8766
ello	-8767
▁105	-8768
azing	-8769
ancell	-8770
▁whilst	-8771
▁Writing	-8772
▁sitting	-8773
▁Railroad	-8774
▁severely	-8775
▁tex	-8776
adier	-8777
▁1902	-8778
▁Gene	-8779
▁Lith	-8780
▁wants	-8781
▁waiting	-8782
▁ownership	-8783
▁Ye	-8784
▁Maj	-8785
▁Abbey	-8786
▁alive	-8787
▁surge	-8788
▁Leslie	-8789
▁reaches	-8790
▁attained	-8791
▁rebellion	-8792
arr	-8793
pha	-8794
emen	-8795
▁bid	-8796
eland	-8797
▁gard	-8798
▁brill	-8799
▁yield	-8800
▁retail	-8801
▁Bernard	-8802
▁athletes	-8803
▁friendly	-8804
▁comparison	-8805
avery	-8806
▁Todd	-8807
▁pages	-8808
▁roots	-8809
▁wheel	-8810
▁allies	-8811
42	-8812
▁Py	-8813
acon	-8814
▁Mik	-8815
▁Clar	-8816
▁sket	-8817
▁demanded	-8818
inter	-8819
▁looks	-8820
▁mining	-8821
▁illegal	-8822
▁Universal	-8823
▁believing	-8824
▁administrative	-8825
IS	-8826
▁Bi	-8827
itis	-8828
tery	-8829
▁Jup	-8830
▁cod	-8831
▁voy	-8832
entle	-8833
▁gate	-8834
▁plus	-8835
▁Jimmy	-8836
▁surpass	-8837
▁musician	-8838
▁Connectic	-8839
▁McCartney	-8840
▁orchestra	-8841
45	-8842
hu	-8843
imm	-8844
▁Hur	-8845
pound	-8846
▁Less	-8847
▁loop	-8848
▁Murphy	-8849
▁armies	-8850
▁context	-8851
▁insisted	-8852
uki	-8853
▁12-	-8854
ifies	-8855
▁Hann	-8856
▁Shaw	-8857
ruption	-8858
▁matters	-8859
▁indicating	-8860
OS	-8861
bra	-8862
pow	-8863
folk	-8864
soft	-8865
▁Pil	-8866
▁Bath	-8867
▁mush	-8868
▁Keith	-8869
▁placing	-8870
▁Democrats	-8871
▁Connecticut	-8872
arant	-8873
▁breat	-8874
▁Players	-8875
▁storage	-8876
▁predicted	-8877
▁secretary	-8878
▁restoration	-8879
IV	-8880
▁DS	-8881
ista	-8882
yrus	-8883
ested	-8884
ported	-8885
▁affect	-8886
▁stores	-8887
▁closest	-8888
▁multipl	-8889
▁partial	-8890
▁articles	-8891
▁deterior	-8892
▁initiated	-8893
▁Pars	-8894
▁UEFA	-8895
▁navy	-8896
▁propag	-8897
▁console	-8898
irty	-8899
▁Rub	-8900
▁Wag	-8901
▁Dall	-8902
▁Gray	-8903
▁Roll	-8904
idency	-8905
▁cannon	-8906
▁neighb	-8907
▁pretty	-8908
▁triple	-8909
▁casting	-8910
▁circuit	-8911
▁rebuilt	-8912
odox	-8913
▁Fif	-8914
▁Hugh	-8915
azines	-8916
ennium	-8917
▁Madag	-8918
▁stick	-8919
▁bacter	-8920
▁hidden	-8921
▁revers	-8922
▁ranging	-8923
▁readers	-8924
▁phenomen	-8925
▁promised	-8926
▁campaigns	-8927
▁theatrical	-8928
▁nominations	-8929
Ch	-8930
ni	-8931
occ	-8932
otte	-8933
▁Ald	-8934
▁horiz	-8935
▁acclaim	-8936
▁forecast	-8937
▁highways	-8938
▁specimen	-8939
▁objective	-8940
▁establishing	-8941
enna	-8942
▁Pap	-8943
▁Tel	-8944
itals	-8945
▁revol	-8946
▁Rachel	-8947
▁blocks	-8948
▁revenue	-8949
▁sending	-8950
▁overwhel	-8951
▁=	-8952
stan	-8953
▁jobs	-8954
▁insects	-8955
▁overseas	-8956
▁similarly	-8957
WC	-8958
oga	-8959
▁Haz	-8960
▁net	-8961
▁Farm	-8962
▁democr	-8963
▁artific	-8964
▁decisions	-8965
▁approaching	-8966
held	-8967
icle	-8968
oons	-8969
ultan	-8970
▁Baker	-8971
▁Griff	-8972
▁kings	-8973
▁Territ	-8974
▁agency	-8975
▁output	-8976
▁planets	-8977
▁Delaware	-8978
▁champions	-8979
▁underwent	-8980
iph	-8981
uese	-8982
tario	-8983
▁Wayne	-8984
▁pione	-8985
▁bombing	-8986
▁heading	-8987
boat	-8988
▁cup	-8989
▁orn	-8990
rient	-8991
▁debt	-8992
▁ports	-8993
▁Oliver	-8994
▁aerial	-8995
▁listen	-8996
cription	-8997
▁Phoenix	-8998
▁Windows	-8999
▁remarked	-9000
▁guitarist	-9001
jan	-9002
rast	-9003
▁Chel	-9004
▁Iran	-9005
▁hook	-9006
▁Peace	-9007
▁abund	-9008
▁basin	-9009
▁bonus	-9010
▁diver	-9011
▁lanes	-9012
itively	-9013
▁Johnny	-9014
▁decide	-9015
▁dissipated	-9016
▁115	-9017
▁Spir	-9018
▁drag	-9019
▁ruling	-9020
▁compliment	-9021
▁conversion	-9022
▁acknowledged	-9023
fr	-9024
acc	-9025
▁Sak	-9026
▁Pink	-9027
▁amid	-9028
▁exha	-9029
▁Perry	-9030
▁tubes	-9031
▁confron	-9032
▁surgery	-9033
▁Morrison	-9034
▁neighbour	-9035
▁seriously	-9036
▁concentrated	-9037
eff	-9038
▁Kl	-9039
warf	-9040
▁Len	-9041
▁gap	-9042
inces	-9043
▁markets	-9044
▁defences	-9045
▁enlisted	-9046
▁execution	-9047
▁qualified	-9048
22	-9049
75	-9050
▁Bach	-9051
▁funny	-9052
aircraft	-9053
regation	-9054
▁Ontario	-9055
▁annually	-9056
▁increases	-9057
▁Madagascar	-9058
je	-9059
asa	-9060
idal	-9061
▁Sig	-9062
▁forg	-9063
▁Scout	-9064
▁Spart	-9065
▁guilty	-9066
▁factory	-9067
▁Champions	-9068
pent	-9069
rous	-9070
▁Kit	-9071
▁McM	-9072
▁rif	-9073
ipper	-9074
▁plain	-9075
▁jurisd	-9076
▁supple	-9077
▁talent	-9078
▁Bradman	-9079
▁Enterprise	-9080
▁demolished	-9081
▁personally	-9082
cks	-9083
▁71	-9084
▁Edin	-9085
▁sung	-9086
▁mayor	-9087
▁memor	-9088
▁tribes	-9089
▁drivers	-9090
▁flowers	-9091
▁printed	-9092
▁radical	-9093
▁wrestling	-9094
38	-9095
aja	-9096
cut	-9097
▁Kap	-9098
Files	-9099
▁Patt	-9100
▁happ	-9101
aments	-9102
strong	-9103
▁Alice	-9104
olition	-9105
▁curren	-9106
▁shorter	-9107
▁pictures	-9108
▁shipping	-9109
▁observations	-9110
irts	-9111
▁duo	-9112
▁prove	-9113
▁Comple	-9114
▁extrat	-9115
▁stress	-9116
▁Napoleon	-9117
▁elevation	-9118
▁publishing	-9119
annon	-9120
shore	-9121
▁Gate	-9122
▁Karl	-9123
eneral	-9124
aro	-9125
imp	-9126
week	-9127
▁Lost	-9128
▁bare	-9129
▁subst	-9130
▁Jupiter	-9131
▁Broadway	-9132
▁realized	-9133
▁collapsed	-9134
▁organised	-9135
▁provision	-9136
▁700	-9137
atern	-9138
▁Boys	-9139
▁Cycl	-9140
▁Marie	-9141
▁grave	-9142
▁hosts	-9143
▁slave	-9144
▁counties	-9145
▁essential	-9146
▁discussion	-9147
▁extratropical	-9148
hop	-9149
▁sq	-9150
hous	-9151
▁165	-9152
autical	-9153
▁Defence	-9154
▁birthday	-9155
▁clothing	-9156
▁watershed	-9157
▁Convention	-9158
▁colleagues	-9159
▁originated	-9160
▁Christianity	-9161
onica	-9162
▁Manu	-9163
▁salt	-9164
itudes	-9165
▁accum	-9166
▁chest	-9167
imetres	-9168
▁Triple	-9169
ensively	-9170
▁replied	-9171
▁arrangements	-9172
ania	-9173
▁Æthel	-9174
▁Dwight	-9175
▁engage	-9176
▁explan	-9177
▁switch	-9178
▁identify	-9179
▁magazines	-9180
▁Portuguese	-9181
▁Ay	-9182
▁Ko	-9183
▁Ve	-9184
yler	-9185
▁Cre	-9186
▁cad	-9187
aders	-9188
▁brick	-9189
▁Arnold	-9190
▁Hudson	-9191
▁mainland	-9192
▁defending	-9193
aux	-9194
▁Om	-9195
▁Fat	-9196
▁1899	-9197
▁stops	-9198
▁Canter	-9199
▁Legend	-9200
▁continu	-9201
▁fantasy	-9202
▁liberal	-9203
▁origins	-9204
▁soldier	-9205
▁employment	-9206
▁announcement	-9207
44	-9208
▁Inn	-9209
▁Jar	-9210
ulous	-9211
venth	-9212
▁solar	-9213
▁travels	-9214
▁Edinburgh	-9215
▁daughters	-9216
▁expression	-9217
ricts	-9218
▁coff	-9219
▁fill	-9220
▁expand	-9221
▁connect	-9222
▁guarant	-9223
▁discovers	-9224
▁evacuated	-9225
▁strategic	-9226
pty	-9227
▁Lt	-9228
math	-9229
▁Fel	-9230
▁Mint	-9231
▁baby	-9232
▁corps	-9233
▁Turner	-9234
▁expert	-9235
▁Village	-9236
▁delivery	-9237
▁monaster	-9238
▁aggressive	-9239
▁appropriate	-9240
ghan	-9241
▁Ral	-9242
▁TNA	-9243
▁bone	-9244
▁outd	-9245
▁Mother	-9246
▁Leonard	-9247
▁Yankees	-9248
▁volumes	-9249
▁Champion	-9250
▁connecting	-9251
▁membership	-9252
SA	-9253
dr	-9254
▁μ	-9255
▁ski	-9256
ensed	-9257
▁Bobby	-9258
▁steps	-9259
▁Allies	-9260
▁Trophy	-9261
▁erected	-9262
▁swimming	-9263
bal	-9264
▁sad	-9265
angel	-9266
throp	-9267
▁legit	-9268
▁Friday	-9269
▁dancing	-9270
▁imagery	-9271
▁organisation	-9272
OT	-9273
arc	-9274
sts	-9275
otyp	-9276
▁Lat	-9277
eding	-9278
▁renov	-9279
▁feather	-9280
▁acoustic	-9281
▁Hampshire	-9282
▁stationed	-9283
▁mac	-9284
▁Cost	-9285
▁Diam	-9286
▁rede	-9287
▁prize	-9288
▁uncom	-9289
▁ballad	-9290
▁dubbed	-9291
▁ongoing	-9292
▁marketing	-9293
▁concentration	-9294
cons	-9295
▁Goth	-9296
▁scen	-9297
▁magic	-9298
ecution	-9299
▁Foreign	-9300
▁withdrawal	-9301
pop	-9302
▁Opp	-9303
▁Rab	-9304
▁cyl	-9305
hears	-9306
igenous	-9307
▁samples	-9308
▁walking	-9309
▁external	-9310
▁Yorkshire	-9311
▁battlecru	-9312
▁advertising	-9313
▁legislature	-9314
▁experimental	-9315
MI	-9316
oker	-9317
▁NCAA	-9318
▁horn	-9319
▁Drive	-9320
▁venue	-9321
▁Davies	-9322
▁reveal	-9323
▁turret	-9324
▁requires	-9325
▁Catherine	-9326
▁promotional	-9327
▁interpretation	-9328
inf	-9329
▁RP	-9330
elta	-9331
hist	-9332
▁Box	-9333
▁Isa	-9334
▁Our	-9335
▁pel	-9336
asant	-9337
▁1893	-9338
ingham	-9339
keeper	-9340
▁beats	-9341
▁desert	-9342
▁seized	-9343
▁discont	-9344
▁donated	-9345
▁drinking	-9346
▁graduated	-9347
▁Canterbury	-9348
aman	-9349
mund	-9350
▁Tol	-9351
▁Lion	-9352
▁dict	-9353
▁liquid	-9354
▁confirm	-9355
▁youngest	-9356
▁landscape	-9357
▁provincial	-9358
▁considering	-9359
ür	-9360
-20	-9361
iffs	-9362
▁Tak	-9363
agger	-9364
iracy	-9365
▁Hold	-9366
porting	-9367
▁Thunder	-9368
pike	-9369
▁Meg	-9370
ouver	-9371
readn	-9372
▁coup	-9373
▁glac	-9374
raction	-9375
▁ranking	-9376
▁wealthy	-9377
▁scattered	-9378
▁representatives	-9379
36	-9380
spe	-9381
▁NAS	-9382
▁Nad	-9383
▁shr	-9384
enesis	-9385
▁Craig	-9386
▁Those	-9387
▁raids	-9388
ception	-9389
▁Rights	-9390
▁circle	-9391
▁Finally	-9392
▁gathered	-9393
▁settlers	-9394
▁supplied	-9395
▁Hungarian	-9396
▁consistent	-9397
▁investigate	-9398
▁conventional	-9399
▁Tob	-9400
ethel	-9401
▁1860	-9402
▁Mans	-9403
▁spac	-9404
▁Girls	-9405
▁layer	-9406
▁offense	-9407
▁founding	-9408
▁praising	-9409
39	-9410
gie	-9411
east	-9412
olen	-9413
▁Joy	-9414
▁Nine	-9415
▁Ship	-9416
▁Marvel	-9417
▁limits	-9418
pled	-9419
▁Jun	-9420
overed	-9421
▁uncle	-9422
▁tenure	-9423
▁exposure	-9424
▁starring	-9425
▁Chronicle	-9426
▁component	-9427
▁indicates	-9428
▁relocated	-9429
axon	-9430
▁Sle	-9431
▁Years	-9432
▁recre	-9433
▁parody	-9434
▁persons	-9435
▁compounds	-9436
▁Queensland	-9437
▁translation	-9438
def	-9439
haw	-9440
olly	-9441
otal	-9442
▁Eug	-9443
▁1898	-9444
▁heir	-9445
▁kiss	-9446
▁Protest	-9447
▁Reserve	-9448
▁Brothers	-9449
▁permitted	-9450
▁referring	-9451
▁Depression	-9452
▁commanding	-9453
ocy	-9454
▁cub	-9455
▁Ches	-9456
▁brig	-9457
▁caps	-9458
▁Pearl	-9459
▁Flying	-9460
▁reward	-9461
▁trough	-9462
expected	-9463
▁putting	-9464
▁reverse	-9465
▁fortress	-9466
▁commentary	-9467
▁Fu	-9468
▁scr	-9469
utton	-9470
▁Andre	-9471
▁Hardy	-9472
▁Polit	-9473
▁camps	-9474
▁Return	-9475
▁unclear	-9476
bow	-9477
osm	-9478
▁AP	-9479
▁tip	-9480
▁Bosn	-9481
rising	-9482
▁Marge	-9483
▁Terry	-9484
▁anime	-9485
▁guide	-9486
▁sharp	-9487
ivation	-9488
ags	-9489
▁Set	-9490
▁Stu	-9491
eared	-9492
irates	-9493
▁danger	-9494
▁therap	-9495
▁dressed	-9496
▁Original	-9497
▁improvements	-9498
erg	-9499
▁Mem	-9500
▁Stef	-9501
▁tort	-9502
▁lawyer	-9503
▁varied	-9504
▁visits	-9505
etheless	-9506
▁Belgian	-9507
▁reorgan	-9508
▁attitude	-9509
▁components	-9510
▁contribution	-9511
▁Wii	-9512
▁mal	-9513
▁1897	-9514
▁Chen	-9515
▁Mosc	-9516
▁Potter	-9517
▁regime	-9518
▁weekly	-9519
▁Bennett	-9520
▁strongest	-9521
▁educational	-9522
rip	-9523
▁dogs	-9524
▁Geoff	-9525
▁taxes	-9526
▁Guitar	-9527
▁burial	-9528
▁merely	-9529
▁assembly	-9530
▁emphasis	-9531
▁JT	-9532
avor	-9533
ashes	-9534
▁Laur	-9535
▁bath	-9536
▁cock	-9537
▁furn	-9538
▁gray	-9539
encing	-9540
▁recon	-9541
▁airing	-9542
▁aspect	-9543
▁mobile	-9544
▁Pakistan	-9545
▁competing	-9546
hin	-9547
hyl	-9548
▁id	-9549
rama	-9550
▁les	-9551
anner	-9552
itage	-9553
▁Owen	-9554
▁seed	-9555
▁Begin	-9556
▁incom	-9557
amental	-9558
▁Hughes	-9559
▁topped	-9560
▁Princip	-9561
▁comprom	-9562
▁proceeded	-9563
▁radiation	-9564
▁precipitation	-9565
27	-9566
▁Emmy	-9567
▁Lock	-9568
▁sang	-9569
ibilities	-9570
▁Cov	-9571
▁Dub	-9572
acles	-9573
aters	-9574
▁1896	-9575
▁beam	-9576
▁bond	-9577
person	-9578
▁fewer	-9579
▁melody	-9580
▁Cricket	-9581
▁failing	-9582
▁flooded	-9583
▁portrayal	-9584
▁celebrated	-9585
▁questioned	-9586
odge	-9587
▁Mand	-9588
▁Type	-9589
▁users	-9590
▁thirteen	-9591
▁governments	-9592
▁transported	-9593
onge	-9594
▁Got	-9595
month	-9596
uzzle	-9597
cribed	-9598
▁burned	-9599
▁empire	-9600
▁recall	-9601
▁hypothes	-9602
26	-9603
bel	-9604
▁Say	-9605
▁Beng	-9606
▁Publ	-9607
▁obsc	-9608
▁flows	-9609
▁traded	-9610
▁stronger	-9611
▁Argentina	-9612
▁assembled	-9613
▁photographs	-9614
▁surrendered	-9615
85	-9616
ović	-9617
▁Abd	-9618
riors	-9619
▁Vanc	-9620
▁wish	-9621
▁Larry	-9622
ologies	-9623
▁raising	-9624
▁Campaign	-9625
▁reducing	-9626
▁warnings	-9627
▁Community	-9628
▁3.5	-9629
▁talks	-9630
▁virus	-9631
▁boilers	-9632
▁charity	-9633
▁Microsoft	-9634
▁Vancouver	-9635
▁publications	-9636
▁91	-9637
join	-9638
▁unw	-9639
phone	-9640
▁Mend	-9641
▁branches	-9642
37	-9643
onald	-9644
▁encl	-9645
▁banned	-9646
▁bishop	-9647
▁endors	-9648
▁reduction	-9649
▁productions	-9650
▁81	-9651
eyer	-9652
▁Mong	-9653
▁cens	-9654
istent	-9655
▁Darwin	-9656
▁fossil	-9657
▁movies	-9658
▁Harvard	-9659
▁carries	-9660
▁sixteen	-9661
▁trading	-9662
▁protests	-9663
▁profession	-9664
▁06	-9665
▁Kan	-9666
▁Tit	-9667
▁Kate	-9668
▁Rangers	-9669
▁predict	-9670
▁tactics	-9671
▁software	-9672
▁photography	-9673
nt	-9674
▁Ec	-9675
iper	-9676
▁Nev	-9677
▁Juan	-9678
▁Jerry	-9679
▁Where	-9680
▁Donald	-9681
▁toured	-9682
▁unless	-9683
▁Cameron	-9684
▁accompanying	-9685
▁£1	-9686
▁Lib	-9687
▁Prom	-9688
ffield	-9689
rehens	-9690
▁Sweet	-9691
▁loved	-9692
iciency	-9693
▁fisher	-9694
▁hydrogen	-9695
▁challenged	-9696
49	-9697
AN	-9698
cott	-9699
illo	-9700
▁Mond	-9701
▁elig	-9702
▁worn	-9703
▁Beaut	-9704
▁penet	-9705
▁autumn	-9706
▁wicket	-9707
▁Nicholas	-9708
▁accurate	-9709
▁brilliant	-9710
▁requirements	-9711
és	-9712
uez	-9713
uras	-9714
▁Gor	-9715
▁Pic	-9716
▁Prix	-9717
▁mini	-9718
▁punk	-9719
▁Honor	-9720
▁Mason	-9721
▁Dallas	-9722
▁prices	-9723
▁Norfolk	-9724
▁relatives	-9725
▁intersects	-9726
▁Administration	-9727
▁Bak	-9728
▁Pam	-9729
grade	-9730
▁Sega	-9731
itched	-9732
▁exter	-9733
assador	-9734
▁Lithuan	-9735
▁columns	-9736
▁warfare	-9737
▁Mountains	-9738
▁adventure	-9739
▁exclusively	-9740
ioc	-9741
pler	-9742
▁Kam	-9743
▁Rat	-9744
andom	-9745
onian	-9746
▁Bald	-9747
hammad	-9748
▁Chile	-9749
▁Monte	-9750
▁edited	-9751
▁blocked	-9752
▁talking	-9753
▁confront	-9754
▁identical	-9755
urd	-9756
type	-9757
▁Rud	-9758
rooms	-9759
umble	-9760
umped	-9761
▁coat	-9762
cially	-9763
▁lawsu	-9764
▁devast	-9765
▁ranges	-9766
▁sample	-9767
ellation	-9768
▁contend	-9769
▁Malaysia	-9770
▁nautical	-9771
▁continuous	-9772
▁developers	-9773
ugg	-9774
▁lie	-9775
▁Craw	-9776
▁soph	-9777
atever	-9778
▁Swift	-9779
▁charter	-9780
▁Pittsburgh	-9781
▁definition	-9782
▁opportunities	-9783
rob	-9784
tes	-9785
▁Apoll	-9786
▁Reich	-9787
▁cousin	-9788
released	-9789
▁Mission	-9790
▁advised	-9791
▁fourteen	-9792
▁patients	-9793
▁qualifying	-9794
▁connections	-9795
▁legislative	-9796
▁conservation	-9797
▁MI	-9798
beat	-9799
▁Anc	-9800
▁Rio	-9801
▁Som	-9802
adesh	-9803
▁Maya	-9804
▁blues	-9805
▁march	-9806
▁noble	-9807
▁upset	-9808
▁Living	-9809
▁Collins	-9810
asm	-9811
▁AS	-9812
▁pap	-9813
ensis	-9814
▁Bird	-9815
▁Deep	-9816
▁Swiss	-9817
▁bones	-9818
▁crops	-9819
▁sings	-9820
▁wished	-9821
▁arrives	-9822
▁cleared	-9823
▁thunder	-9824
▁uranium	-9825
▁Professor	-9826
▁Sheffield	-9827
▁aftermath	-9828
▁unexpected	-9829
▁programming	-9830
▁constitutional	-9831
legraph	-9832
▁mature	-9833
▁airfield	-9834
▁platforms	-9835
▁signature	-9836
▁′	-9837
▁3-	-9838
ieth	-9839
▁Dyn	-9840
isive	-9841
itely	-9842
▁Utah	-9843
screen	-9844
▁conce	-9845
▁texts	-9846
▁promin	-9847
▁Overall	-9848
▁understood	-9849
▁Ax	-9850
▁Link	-9851
▁Cyrus	-9852
▁Lloyd	-9853
▁creek	-9854
▁rocks	-9855
itarian	-9856
▁Agency	-9857
▁Burton	-9858
▁backed	-9859
▁spaces	-9860
▁wonder	-9861
ications	-9862
▁courses	-9863
▁dispers	-9864
▁enthusi	-9865
▁shifted	-9866
▁Victorian	-9867
eto	-9868
▁vs	-9869
illes	-9870
▁prev	-9871
▁Upper	-9872
▁Works	-9873
▁manga	-9874
▁pairs	-9875
▁ruler	-9876
▁Afghan	-9877
▁dollar	-9878
▁indeed	-9879
▁Antonio	-9880
▁powered	-9881
▁displays	-9882
▁Brazilian	-9883
▁estimates	-9884
▁vulnerable	-9885
86	-9886
razy	-9887
▁Mix	-9888
▁web	-9889
▁isot	-9890
▁Hawaii	-9891
▁aggreg	-9892
▁invent	-9893
▁towers	-9894
▁reforms	-9895
▁terrain	-9896
▁sovereign	-9897
▁electricity	-9898
▁maintaining	-9899
ayan	-9900
rien	-9901
▁Ker	-9902
▁Las	-9903
▁nit	-9904
▁Curt	-9905
▁Prim	-9906
▁quad	-9907
▁redes	-9908
▁copper	-9909
▁Finland	-9910
▁handled	-9911
▁Training	-9912
▁commanders	-9913
▁reinforcements	-9914
atra	-9915
▁Lem	-9916
▁Thr	-9917
▁Howe	-9918
▁forth	-9919
▁unlik	-9920
▁revised	-9921
▁sailing	-9922
▁impression	-9923
▁₹	-9924
▁MS	-9925
▁155	-9926
▁Pad	-9927
▁Trail	-9928
▁ceased	-9929
▁arguing	-9930
▁hitting	-9931
▁provinces	-9932
▁earthquake	-9933
▁mechanical	-9934
46	-9935
ais	-9936
affe	-9937
▁Blu	-9938
▁Oslo	-9939
▁fulf	-9940
▁garn	-9941
▁pole	-9942
icated	-9943
▁Still	-9944
▁shift	-9945
▁stuff	-9946
▁fairly	-9947
▁voices	-9948
▁Fleming	-9949
▁Liberal	-9950
▁devices	-9951
▁Indonesia	-9952
▁characteristic	-9953
ME	-9954
ye	-9955
embr	-9956
oded	-9957
▁Cad	-9958
inded	-9959
castle	-9960
▁clock	-9961
▁skill	-9962
anguage	-9963
▁ticket	-9964
minister	-9965
▁Heritage	-9966
▁exercise	-9967
▁exclusive	-9968
▁recurring	-9969
cal	-9970
seud	-9971
▁Gon	-9972
backs	-9973
▁cartoon	-9974
sa	-9975
▁ing	-9976
▁1850	-9977
▁Past	-9978
▁Race	-9979
▁lock	-9980
▁Steel	-9981
igrants	-9982
▁accord	-9983
▁induct	-9984
▁shares	-9985
ationally	-9986
▁practical	-9987
▁artificial	-9988
ön	-9989
lad	-9990
rod	-9991
▁Ric	-9992
▁Hunt	-9993
▁infl	-9994
itious	-9995
▁sweet	-9996
▁Guinea	-9997
▁papers	-9998
▁explicit	-9999
▁petition	-10000
▁considers	-10001
▁preparing	-10002
▁architectural	-10003
▁participation	-10004
OC	-10005
▁Ni	-10006
▁Tig	-10007
▁Clay	-10008
▁Emer	-10009
▁push	-10010
aching	-10011
ambers	-10012
ussion	-10013
▁stere	-10014
▁phrase	-10015
▁attending	-10016
▁promoting	-10017
▁withdrawn	-10018
32	-10019
Sp	-10020
TS	-10021
Hung	-10022
▁Osc	-10023
stage	-10024
▁Malt	-10025
▁1,500	-10026
▁Actor	-10027
▁labour	-10028
▁voting	-10029
▁Wallace	-10030
▁centers	-10031
▁displaced	-10032
▁confidence	-10033
owski	-10034
▁Fund	-10035
▁Glen	-10036
▁Susan	-10037
▁Quebec	-10038
▁cutting	-10039
▁restore	-10040
▁valuable	-10041
▁traditionally	-10042
aft	-10043
axy	-10044
▁Ze	-10045
▁FBI	-10046
▁Grace	-10047
▁portr	-10048
▁sleep	-10049
▁uncon	-10050
▁Moscow	-10051
▁Peters	-10052
▁exceed	-10053
▁Officer	-10054
urricanes	-10055
abe	-10056
usc	-10057
arted	-10058
uating	-10059
▁Pruss	-10060
▁Ralph	-10061
▁Syria	-10062
▁queen	-10063
▁marine	-10064
▁myster	-10065
▁salary	-10066
▁spoken	-10067
▁rivalry	-10068
▁districts	-10069
▁traveling	-10070
▁investment	-10071
▁pm	-10072
▁Tai	-10073
▁cir	-10074
▁kills	-10075
ication	-10076
▁Alaska	-10077
▁judges	-10078
▁revolt	-10079
▁amateur	-10080
▁minority	-10081
abl	-10082
agi	-10083
▁09	-10084
▁Ru	-10085
▁CBS	-10086
▁Hob	-10087
eries	-10088
▁Next	-10089
▁moon	-10090
levard	-10091
▁Yellow	-10092
abilities	-10093
▁Beginning	-10094
▁Similarly	-10095
▁respective	-10096
▁109	-10097
▁hem	-10098
ocity	-10099
▁cuts	-10100
▁fasc	-10101
osexual	-10102
▁Austin	-10103
▁Parsons	-10104
▁duration	-10105
▁survival	-10106
▁squadrons	-10107
▁interpreted	-10108
five	-10109
ulty	-10110
▁Cass	-10111
▁Kaiser	-10112
▁Medical	-10113
▁unlikely	-10114
▁multiplayer	-10115
dess	-10116
▁0.5	-10117
▁JTWC	-10118
▁Neil	-10119
▁seas	-10120
▁humor	-10121
▁polar	-10122
▁tribe	-10123
▁Father	-10124
▁exists	-10125
▁Natural	-10126
▁Without	-10127
▁distant	-10128
▁feeding	-10129
▁prisoner	-10130
▁observation	-10131
iko	-10132
asks	-10133
▁See	-10134
berry	-10135
itate	-10136
reens	-10137
where	-10138
▁dual	-10139
▁cyclones	-10140
▁destroying	-10141
▁improvement	-10142
▁CO	-10143
ario	-10144
▁Kyle	-10145
▁wine	-10146
▁wire	-10147
Arthur	-10148
▁Somet	-10149
▁Herald	-10150
▁Serbian	-10151
▁beneath	-10152
▁options	-10153
▁pursuit	-10154
▁Richmond	-10155
▁destroyer	-10156
aha	-10157
▁Ali	-10158
eston	-10159
▁myst	-10160
▁ashore	-10161
▁Vincent	-10162
▁rehears	-10163
▁Official	-10164
▁extending	-10165
rastructure	-10166
ét	-10167
ín	-10168
gom	-10169
amas	-10170
▁jack	-10171
▁Bible	-10172
▁Danny	-10173
▁abuse	-10174
▁Turkey	-10175
▁suspic	-10176
▁CP	-10177
anne	-10178
ashi	-10179
▁127	-10180
▁Eis	-10181
▁Tow	-10182
▁boot	-10183
▁craft	-10184
▁Orange	-10185
▁absent	-10186
▁atomic	-10187
▁voyage	-10188
▁Cardiff	-10189
▁escorted	-10190
▁conceived	-10191
▁competitive	-10192
▁potentially	-10193
33	-10194
aze	-10195
ando	-10196
▁McKin	-10197
▁releg	-10198
▁Comedy	-10199
▁pregnant	-10200
▁commenced	-10201
▁followers	-10202
▁approaches	-10203
▁principles	-10204
host	-10205
uton	-10206
▁Und	-10207
▁1894	-10208
▁Celt	-10209
▁Kane	-10210
▁Stat	-10211
▁YouT	-10212
▁fold	-10213
▁tale	-10214
▁Studio	-10215
▁conven	-10216
▁crimes	-10217
▁graduate	-10218
▁inclusion	-10219
▁principle	-10220
▁transportation	-10221
oca	-10222
uri	-10223
▁HD	-10224
▁Spr	-10225
isons	-10226
▁List	-10227
▁Sign	-10228
▁hybr	-10229
▁Exper	-10230
▁Harbor	-10231
▁cinema	-10232
▁compound	-10233
▁medicine	-10234
▁decorated	-10235
anim	-10236
dest	-10237
▁Gay	-10238
▁earn	-10239
▁jury	-10240
cester	-10241
igious	-10242
▁Falls	-10243
▁Design	-10244
▁riding	-10245
▁passion	-10246
▁Pictures	-10247
▁inherited	-10248
vet	-10249
▁CS	-10250
asha	-10251
▁Dak	-10252
▁Hav	-10253
▁Sac	-10254
▁1889	-10255
▁Zone	-10256
▁eval	-10257
atical	-10258
▁Eight	-10259
▁Plant	-10260
▁Woman	-10261
▁parks	-10262
▁Johann	-10263
▁rebels	-10264
▁sharks	-10265
▁victim	-10266
▁YouTube	-10267
▁enforce	-10268
▁certainly	-10269
▁electrical	-10270
▁applications	-10271
▁Orle	-10272
▁nerv	-10273
▁beauty	-10274
▁merged	-10275
▁clothes	-10276
▁shoulder	-10277
▁Jefferson	-10278
▁efficient	-10279
▁interviews	-10280
▁Aer	-10281
▁Aber	-10282
▁Cred	-10283
▁Jama	-10284
▁fier	-10285
▁flex	-10286
▁Sonic	-10287
▁hills	-10288
▁Harold	-10289
▁summit	-10290
▁equally	-10291
▁Together	-10292
▁commenting	-10293
▁Constantine	-10294
▁⁄	-10295
▁08	-10296
osph	-10297
▁Sout	-10298
▁clar	-10299
▁hole	-10300
usalem	-10301
wright	-10302
▁Mayor	-10303
▁angle	-10304
▁error	-10305
▁valid	-10306
▁streak	-10307
▁tonnes	-10308
▁drummer	-10309
▁Constantin	-10310
▁traditions	-10311
47	-10312
mo	-10313
oda	-10314
hers	-10315
▁106	-10316
▁aft	-10317
▁FIFA	-10318
▁salv	-10319
▁supern	-10320
▁Edition	-10321
▁cabinet	-10322
▁density	-10323
▁consolid	-10324
▁lifetime	-10325
▁civilians	-10326
▁surprised	-10327
▁diplomatic	-10328
▁reinforced	-10329
▁Transportation	-10330
sl	-10331
▁Sem	-10332
▁Salt	-10333
▁Baron	-10334
▁Globe	-10335
▁Krist	-10336
angular	-10337
▁devoted	-10338
▁dischar	-10339
▁drafted	-10340
▁emotion	-10341
▁mixture	-10342
▁Security	-10343
▁lighting	-10344
▁mythology	-10345
▁translated	-10346
▁urg	-10347
enson	-10348
▁Quest	-10349
▁bears	-10350
▁filmm	-10351
▁herit	-10352
▁Clarke	-10353
▁learns	-10354
▁Cavalry	-10355
▁constitu	-10356
▁Jerusalem	-10357
NC	-10358
hum	-10359
▁Ferr	-10360
▁faces	-10361
minster	-10362
▁Barnes	-10363
▁Fisher	-10364
▁conflic	-10365
▁shallow	-10366
▁implemented	-10367
▁judg	-10368
▁Bryan	-10369
▁dwarf	-10370
▁morph	-10371
▁ratio	-10372
▁Brooks	-10373
▁Spirit	-10374
▁batted	-10375
▁deeply	-10376
▁resort	-10377
▁rivals	-10378
▁theore	-10379
▁airline	-10380
▁receives	-10381
▁intermedi	-10382
▁magnitude	-10383
ups	-10384
▁dim	-10385
▁1891	-10386
▁Must	-10387
▁dense	-10388
▁weigh	-10389
▁Defense	-10390
▁Israeli	-10391
▁crashed	-10392
▁diverse	-10393
▁slavery	-10394
▁succession	-10395
III	-10396
fly	-10397
▁ow	-10398
hell	-10399
▁1861	-10400
▁fest	-10401
▁Flore	-10402
▁Local	-10403
▁spawn	-10404
▁Sultan	-10405
▁colors	-10406
▁Orleans	-10407
▁Picture	-10408
▁explore	-10409
▁extinct	-10410
▁addressed	-10411
▁advancing	-10412
▁frequency	-10413
▁predators	-10414
▁accommodate	-10415
len	-10416
prof	-10417
arest	-10418
▁bull	-10419
achute	-10420
▁liner	-10421
▁steep	-10422
▁surve	-10423
▁tours	-10424
▁scores	-10425
▁Product	-10426
▁advertis	-10427
▁presentation	-10428
21	-10429
ATO	-10430
▁AM	-10431
▁Sug	-10432
▁tel	-10433
lington	-10434
▁Wonder	-10435
▁eventual	-10436
▁Executive	-10437
▁administer	-10438
▁concurrent	-10439
▁disturbance	-10440
▁experiments	-10441
-18	-10442
chi	-10443
lon	-10444
arks	-10445
▁Had	-10446
quest	-10447
ritic	-10448
uters	-10449
▁Gang	-10450
▁Half	-10451
▁Prop	-10452
▁ages	-10453
▁Nancy	-10454
landers	-10455
ocation	-10456
▁Greater	-10457
▁disorder	-10458
▁garnered	-10459
▁Authority	-10460
▁interaction	-10461
23	-10462
oria	-10463
▁Bes	-10464
▁clin	-10465
▁fate	-10466
written	-10467
▁feared	-10468
▁charted	-10469
▁Register	-10470
▁Um	-10471
▁Hey	-10472
▁1895	-10473
▁Full	-10474
▁Priv	-10475
▁nurs	-10476
arting	-10477
lining	-10478
▁chore	-10479
▁Section	-10480
▁hostile	-10481
▁tickets	-10482
▁theories	-10483
▁processes	-10484
▁recruited	-10485
▁evacuation	-10486
▁similarities	-10487
▁southeastern	-10488
aco	-10489
▁nat	-10490
▁Luke	-10491
▁Peng	-10492
▁pill	-10493
actory	-10494
▁prest	-10495
▁shock	-10496
▁Danish	-10497
▁gender	-10498
▁villain	-10499
▁congress	-10500
▁volcanic	-10501
▁MacArthur	-10502
▁proposals	-10503
▁explaining	-10504
48	-10505
hill	-10506
oids	-10507
▁Vel	-10508
▁Poly	-10509
▁forb	-10510
▁tomb	-10511
▁Patri	-10512
▁Titan	-10513
▁choir	-10514
▁drown	-10515
▁50,000	-10516
▁Saturn	-10517
▁golden	-10518
▁lights	-10519
▁Classic	-10520
▁divorce	-10521
▁holiday	-10522
▁promise	-10523
▁Portugal	-10524
▁attorney	-10525
▁jurisdiction	-10526
uka	-10527
four	-10528
utor	-10529
▁tap	-10530
▁Pete	-10531
▁amph	-10532
▁embr	-10533
isting	-10534
▁Justin	-10535
▁Romney	-10536
▁borrow	-10537
▁screenplay	-10538
PA	-10539
▁iP	-10540
▁1.8	-10541
▁166	-10542
▁Inv	-10543
▁Sid	-10544
lived	-10545
▁gene	-10546
▁crest	-10547
▁Chelsea	-10548
▁knocked	-10549
▁Johnston	-10550
▁Symphony	-10551
▁suddenly	-10552
▁Sox	-10553
▁jet	-10554
eling	-10555
▁Leaf	-10556
▁smoke	-10557
▁Hearts	-10558
▁Panzer	-10559
▁descent	-10560
▁rushing	-10561
▁capturing	-10562
▁persuaded	-10563
▁Heavyweight	-10564
ao	-10565
izz	-10566
▁AT	-10567
lims	-10568
rock	-10569
▁Amb	-10570
▁Eve	-10571
▁Yam	-10572
▁lad	-10573
heric	-10574
▁Boat	-10575
▁Hope	-10576
▁beaten	-10577
▁breaks	-10578
▁guests	-10579
▁mounts	-10580
▁Muhammad	-10581
▁Services	-10582
▁sentence	-10583
▁Charlotte	-10584
▁virtually	-10585
▁Laboratory	-10586
▁infrastructure	-10587
core	-10588
nels	-10589
▁McN	-10590
parts	-10591
▁Flow	-10592
acking	-10593
itting	-10594
▁tested	-10595
▁Against	-10596
▁dancers	-10597
▁pursued	-10598
▁complained	-10599
▁concerning	-10600
▁AA	-10601
ovak	-10602
rost	-10603
▁Abu	-10604
▁rib	-10605
erver	-10606
▁Quar	-10607
▁Scar	-10608
▁epic	-10609
▁prel	-10610
▁vari	-10611
icking	-10612
lights	-10613
▁Newton	-10614
▁handed	-10615
▁Orchest	-10616
▁reactions	-10617
▁Republicans	-10618
ho	-10619
▁Il	-10620
▁Vo	-10621
▁0.2	-10622
music	-10623
▁Ivan	-10624
▁Pant	-10625
osaurs	-10626
▁Wells	-10627
▁sword	-10628
▁Spider	-10629
▁opposing	-10630
▁writings	-10631
▁Communist	-10632
▁suspected	-10633
agers	-10634
▁cant	-10635
▁demo	-10636
▁Burns	-10637
▁dimin	-10638
▁links	-10639
▁orange	-10640
▁recept	-10641
▁rejoin	-10642
▁stolen	-10643
▁involves	-10644
▁ordinary	-10645
▁universal	-10646
▁essentially	-10647
uin	-10648
▁350	-10649
▁lin	-10650
▁Wisc	-10651
▁fram	-10652
▁4,000	-10653
▁hoping	-10654
▁stones	-10655
▁Greatest	-10656
▁benefits	-10657
▁recovery	-10658
▁sentenced	-10659
▁statements	-10660
▁Springfield	-10661
▁researchers	-10662
rh	-10663
ía	-10664
rene	-10665
ulus	-10666
▁pip	-10667
aiden	-10668
final	-10669
▁1800	-10670
▁hind	-10671
▁mood	-10672
▁pink	-10673
master	-10674
uction	-10675
▁opens	-10676
▁toler	-10677
▁manage	-10678
▁thrown	-10679
▁Wiscons	-10680
▁rescued	-10681
▁Newcastle	-10682
▁laboratory	-10683
▁positively	-10684
▁accidentally	-10685
sec	-10686
avan	-10687
edia	-10688
▁Wes	-10689
▁1888	-10690
▁Days	-10691
▁innoc	-10692
▁Baltic	-10693
▁Branch	-10694
▁racial	-10695
▁beating	-10696
▁heritage	-10697
▁nickname	-10698
▁proportion	-10699
▁Metropolitan	-10700
▁10-	-10701
▁Fil	-10702
▁avo	-10703
cliff	-10704
▁Side	-10705
▁rect	-10706
▁tape	-10707
thodox	-10708
▁depicts	-10709
▁stretch	-10710
▁warships	-10711
▁Scientology	-10712
▁territorial	-10713
▁Representatives	-10714
mans	-10715
ulum	-10716
▁Pok	-10717
▁mad	-10718
▁mit	-10719
▁Camb	-10720
▁Rest	-10721
▁ties	-10722
▁apply	-10723
▁reass	-10724
winning	-10725
▁Athens	-10726
▁pitcher	-10727
▁editions	-10728
▁operates	-10729
ör	-10730
bes	-10731
▁Din	-10732
▁José	-10733
▁Stra	-10734
▁Winn	-10735
▁Stein	-10736
▁Fourth	-10737
▁Rogers	-10738
▁answer	-10739
▁enabled	-10740
▁sculpture	-10741
▁variation	-10742
▁Yugoslavia	-10743
▁imprisoned	-10744
▁universities	-10745
▁representation	-10746
uto	-10747
▁83	-10748
anche	-10749
▁Chad	-10750
▁knee	-10751
ielder	-10752
▁chase	-10753
▁inhab	-10754
▁waste	-10755
▁Buffalo	-10756
▁evident	-10757
▁harbour	-10758
▁thereby	-10759
▁Athletic	-10760
▁reviewed	-10761
▁Wisconsin	-10762
▁documented	-10763
▁extensively	-10764
▁nevertheless	-10765
uil	-10766
▁Ins	-10767
▁Ref	-10768
ucker	-10769
▁Fitz	-10770
▁kidn	-10771
▁spur	-10772
▁cable	-10773
▁cards	-10774
▁rever	-10775
General	-10776
▁Season	-10777
▁Stuart	-10778
▁locally	-10779
▁tension	-10780
▁Airlines	-10781
▁Electric	-10782
▁horizont	-10783
▁boundaries	-10784
▁categories	-10785
▁variations	-10786
▁volunteers	-10787
▁communications	-10788
DI	-10789
300	-10790
▁fee	-10791
▁bell	-10792
▁Books	-10793
▁liver	-10794
▁avoided	-10795
▁competitions	-10796
mn	-10797
,200	-10798
high	-10799
pine	-10800
▁0.0	-10801
▁978	-10802
▁cow	-10803
icken	-10804
▁disb	-10805
iously	-10806
▁helps	-10807
▁Hunter	-10808
▁detect	-10809
▁metric	-10810
▁random	-10811
▁sacrif	-10812
▁Actress	-10813
▁segments	-10814
▁weakening	-10815
▁Production	-10816
▁commercially	-10817
▁thunderstorm	-10818
▁Zh	-10819
▁ho	-10820
othy	-10821
white	-10822
▁Mind	-10823
▁maps	-10824
▁merc	-10825
▁juven	-10826
▁Junior	-10827
▁priest	-10828
▁tasked	-10829
▁Sherman	-10830
▁teammate	-10831
▁accessible	-10832
▁structural	-10833
▁highlighted	-10834
alg	-10835
▁Ga	-10836
aple	-10837
roat	-10838
ocket	-10839
ridor	-10840
▁Fish	-10841
unning	-10842
▁hence	-10843
▁hopes	-10844
▁Boeing	-10845
▁Legisl	-10846
▁Fighter	-10847
▁produces	-10848
▁impressive	-10849
▁intervention	-10850
pat	-10851
ught	-10852
▁Poll	-10853
called	-10854
umbered	-10855
▁Comics	-10856
▁eating	-10857
▁gaining	-10858
▁invaded	-10859
▁lighter	-10860
▁Province	-10861
▁Boulevard	-10862
▁requiring	-10863
ER	-10864
hall	-10865
▁Bark	-10866
▁Bert	-10867
▁Tyler	-10868
▁Until	-10869
▁Apollo	-10870
▁afford	-10871
▁revival	-10872
▁embarked	-10873
▁confusion	-10874
▁corporate	-10875
▁Sey	-10876
▁mud	-10877
rible	-10878
story	-10879
▁1865	-10880
▁Judge	-10881
▁arena	-10882
▁Econom	-10883
▁census	-10884
▁Gallery	-10885
▁Muslims	-10886
▁burning	-10887
▁communist	-10888
▁substitute	-10889
▁collections	-10890
▁restrictions	-10891
enz	-10892
top	-10893
▁cu	-10894
ellar	-10895
ephew	-10896
north	-10897
▁fame	-10898
amount	-10899
▁Magic	-10900
▁Schum	-10901
ometric	-10902
▁marking	-10903
▁Regional	-10904
▁interven	-10905
▁supports	-10906
▁Armstrong	-10907
▁Cathedral	-10908
▁settlements	-10909
▁AL	-10910
cour	-10911
hart	-10912
ilda	-10913
rise	-10914
▁vig	-10915
alling	-10916
▁Joint	-10917
▁Round	-10918
▁boost	-10919
▁paras	-10920
▁Barbara	-10921
▁travelling	-10922
lined	-10923
rific	-10924
▁Shep	-10925
▁Terr	-10926
▁Vers	-10927
▁Guild	-10928
▁inhib	-10929
▁abroad	-10930
▁handling	-10931
▁Indonesian	-10932
▁agriculture	-10933
▁participants	-10934
bach	-10935
colm	-10936
flow	-10937
isan	-10938
olar	-10939
rior	-10940
avian	-10941
▁NATO	-10942
▁unve	-10943
▁tooth	-10944
▁Thames	-10945
▁elaborate	-10946
ibn	-10947
▁NS	-10948
▁PS	-10949
▁Eff	-10950
▁1892	-10951
▁housed	-10952
▁warned	-10953
▁dealing	-10954
▁physics	-10955
▁tornado	-10956
▁preserve	-10957
▁Christians	-10958
▁separation	-10959
87	-10960
96	-10961
▁UC	-10962
ayed	-10963
▁18-	-10964
▁Pin	-10965
▁conj	-10966
▁cook	-10967
▁Based	-10968
▁Trade	-10969
▁costume	-10970
▁canceled	-10971
▁chemistry	-10972
▁contracts	-10973
▁suspension	-10974
▁celebration	-10975
▁considerably	-10976
HS	-10977
osy	-10978
roe	-10979
▁Has	-10980
amine	-10981
▁Shah	-10982
gomery	-10983
▁Miles	-10984
▁manip	-10985
▁Merced	-10986
▁clergy	-10987
▁veteran	-10988
▁detected	-10989
▁humanity	-10990
▁Montgomery	-10991
▁Performance	-10992
▁parliamentary	-10993
var	-10994
inis	-10995
ocal	-10996
qual	-10997
▁1,6	-10998
▁Neb	-10999
oting	-11000
▁fles	-11001
▁Metac	-11002
▁Scots	-11003
▁empty	-11004
▁Wagner	-11005
▁conced	-11006
▁plates	-11007
▁tissue	-11008
▁gardens	-11009
▁trapped	-11010
▁armoured	-11011
▁convicted	-11012
▁Constantinople	-11013
gow	-11014
iah	-11015
oba	-11016
disc	-11017
izer	-11018
usty	-11019
▁Eth	-11020
▁Sic	-11021
▁Cena	-11022
▁indu	-11023
▁prox	-11024
heimer	-11025
▁drain	-11026
▁15,000	-11027
▁Ground	-11028
▁analog	-11029
▁deputy	-11030
▁naming	-11031
▁Bradley	-11032
▁favourite	-11033
▁Chamberlain	-11034
▁RI	-11035
uber	-11036
▁MLB	-11037
ospel	-11038
ubble	-11039
▁1864	-11040
▁Sean	-11041
▁yard	-11042
▁Malcolm	-11043
▁velocity	-11044
▁discontin	-11045
▁Protestant	-11046
▁grandfather	-11047
-17	-11048
▁nut	-11049
▁styl	-11050
▁tube	-11051
ennial	-11052
▁Oscar	-11053
▁Shiva	-11054
▁assum	-11055
▁taste	-11056
▁Serbia	-11057
▁voters	-11058
▁closure	-11059
▁proteins	-11060
▁resolved	-11061
▁consumption	-11062
▁Đ	-11063
▁LS	-11064
itol	-11065
▁Pul	-11066
▁une	-11067
eness	-11068
▁Phys	-11069
▁Shin	-11070
▁gift	-11071
▁Grade	-11072
▁manif	-11073
▁sheep	-11074
changed	-11075
▁30,000	-11076
▁Affairs	-11077
▁farmers	-11078
▁authorized	-11079
▁indigenous	-11080
▁remembered	-11081
▁compositions	-11082
▁championships	-11083
24	-11084
cha	-11085
▁1.4	-11086
▁Adv	-11087
arded	-11088
▁Ruth	-11089
▁Take	-11090
▁cash	-11091
▁angry	-11092
▁dying	-11093
▁stern	-11094
veloped	-11095
▁handle	-11096
▁Attorney	-11097
▁customers	-11098
▁Independence	-11099
31	-11100
itic	-11101
▁Cer	-11102
▁Hom	-11103
amics	-11104
▁Bask	-11105
▁Skin	-11106
▁Walt	-11107
▁scar	-11108
▁Market	-11109
▁renewed	-11110
▁compiled	-11111
▁Amendment	-11112
▁batteries	-11113
sor	-11114
▁07	-11115
auge	-11116
cell	-11117
urst	-11118
▁2.4	-11119
▁Saw	-11120
onial	-11121
▁Duch	-11122
finals	-11123
▁Bears	-11124
▁Movie	-11125
▁Youth	-11126
▁infer	-11127
▁Altern	-11128
▁tourist	-11129
▁significance	-11130
AP	-11131
asi	-11132
iga	-11133
lex	-11134
enos	-11135
page	-11136
rang	-11137
▁Ted	-11138
▁Case	-11139
▁Watch	-11140
▁grows	-11141
▁Nature	-11142
▁dinner	-11143
▁decreased	-11144
▁politician	-11145
▁politicians	-11146
▁05	-11147
rels	-11148
▁2.0	-11149
▁Sud	-11150
▁Crus	-11151
▁grap	-11152
▁mask	-11153
▁Prest	-11154
▁noise	-11155
regular	-11156
▁Report	-11157
▁Ancient	-11158
▁Kenneth	-11159
▁colours	-11160
▁manufacturing	-11161
idia	-11162
lete	-11163
abric	-11164
world	-11165
▁Evil	-11166
▁Face	-11167
▁Icel	-11168
▁Luft	-11169
▁nose	-11170
▁Tommy	-11171
▁blend	-11172
▁blind	-11173
▁rings	-11174
▁fungus	-11175
▁Angelou	-11176
▁Freedom	-11177
▁noticed	-11178
▁reporter	-11179
▁depicting	-11180
feld	-11181
▁Heb	-11182
▁cam	-11183
Brien	-11184
▁1862	-11185
▁Bris	-11186
▁Nova	-11187
▁fert	-11188
▁gods	-11189
rieved	-11190
▁Month	-11191
▁Opera	-11192
▁chrom	-11193
▁doors	-11194
▁assert	-11195
▁bomber	-11196
▁stored	-11197
▁Control	-11198
▁ignored	-11199
▁lacking	-11200
▁license	-11201
▁asserted	-11202
▁biography	-11203
▁celebrate	-11204
▁companion	-11205
▁defenders	-11206
▁independently	-11207
imony	-11208
izers	-11209
▁Bulg	-11210
▁Cinc	-11211
orient	-11212
▁Micha	-11213
▁enorm	-11214
▁trunk	-11215
playing	-11216
▁Foster	-11217
▁Taiwan	-11218
▁darker	-11219
▁honest	-11220
▁encounters	-11221
▁Continental	-11222
opp	-11223
orf	-11224
▁MV	-11225
▁Poe	-11226
▁sor	-11227
▁Aren	-11228
▁VIII	-11229
▁Cinem	-11230
▁facil	-11231
▁hyper	-11232
▁verte	-11233
▁mixing	-11234
▁Friends	-11235
▁Marines	-11236
▁sinking	-11237
▁circular	-11238
▁eastward	-11239
▁feathers	-11240
▁challenges	-11241
▁occasional	-11242
28	-11243
Hg	-11244
net	-11245
oirs	-11246
▁Tru	-11247
atisf	-11248
inery	-11249
ships	-11250
▁1885	-11251
▁1886	-11252
▁bowl	-11253
▁Maced	-11254
▁truly	-11255
▁vital	-11256
▁cruise	-11257
ancellor	-11258
▁Weather	-11259
▁marched	-11260
▁sustain	-11261
▁murdered	-11262
▁vicinity	-11263
▁biological	-11264
▁provisions	-11265
▁historically	-11266
99	-11267
asp	-11268
▁EC	-11269
hend	-11270
▁Ent	-11271
▁Ord	-11272
ipher	-11273
▁Ages	-11274
▁Fern	-11275
▁Mang	-11276
▁Nord	-11277
amation	-11278
▁medals	-11279
▁beliefs	-11280
▁Theodore	-11281
▁infection	-11282
▁organisms	-11283
én	-11284
emble	-11285
▁Rear	-11286
▁hosp	-11287
▁Antar	-11288
▁Lower	-11289
▁monit	-11290
▁resid	-11291
▁Bulgar	-11292
▁debris	-11293
▁entert	-11294
▁Iceland	-11295
▁possess	-11296
▁concepts	-11297
▁convince	-11298
▁studying	-11299
▁Formation	-11300
▁cathedral	-11301
▁Archbishop	-11302
▁girlfriend	-11303
hl	-11304
umi	-11305
▁3.2	-11306
▁Kon	-11307
ublin	-11308
▁Meth	-11309
▁lift	-11310
▁ramp	-11311
ulsion	-11312
▁Maine	-11313
▁knows	-11314
areness	-11315
▁Islamic	-11316
▁Liberty	-11317
▁viewing	-11318
▁mechanism	-11319
GM	-11320
eps	-11321
▁Ib	-11322
mont	-11323
olia	-11324
▁Kin	-11325
▁guy	-11326
ailing	-11327
enberg	-11328
▁Ghost	-11329
▁borough	-11330
43	-11331
▁XX	-11332
atsu	-11333
ptic	-11334
▁Any	-11335
▁JNA	-11336
▁oct	-11337
leted	-11338
▁Eddie	-11339
▁posts	-11340
▁urged	-11341
▁anthem	-11342
issioned	-11343
▁threats	-11344
▁prototype	-11345
omed	-11346
quer	-11347
▁4.5	-11348
▁leaf	-11349
▁Pedro	-11350
▁motif	-11351
▁Austro	-11352
▁profit	-11353
ournament	-11354
▁mentions	-11355
▁occurring	-11356
▁Collection	-11357
isk	-11358
▁Lev	-11359
▁sin	-11360
itime	-11361
oples	-11362
▁Hull	-11363
▁Than	-11364
▁Isaac	-11365
▁Lords	-11366
▁curve	-11367
▁proof	-11368
▁rugby	-11369
▁Bright	-11370
▁Chester	-11371
▁Tribune	-11372
▁bearing	-11373
▁rebounds	-11374
▁helicopter	-11375
▁speculation	-11376
ré	-11377
half	-11378
▁Eld	-11379
▁Env	-11380
▁Bour	-11381
▁Slav	-11382
▁coron	-11383
▁encom	-11384
▁swing	-11385
▁Inside	-11386
▁clouds	-11387
▁lawsuit	-11388
▁scandal	-11389
▁disappeared	-11390
▁explanation	-11391
▁disappointed	-11392
erts	-11393
actor	-11394
▁1887	-11395
▁Chet	-11396
▁Reed	-11397
▁Tang	-11398
▁bapt	-11399
ischer	-11400
▁elite	-11401
▁worse	-11402
▁Ernest	-11403
▁Nevada	-11404
▁roster	-11405
▁thanks	-11406
▁romance	-11407
▁acclaimed	-11408
▁Technology	-11409
▁complicated	-11410
akh	-11411
aku	-11412
tem	-11413
▁af	-11414
rift	-11415
▁Daw	-11416
▁Fly	-11417
▁Pay	-11418
▁Seb	-11419
▁Toy	-11420
olars	-11421
▁Vick	-11422
▁laps	-11423
ellers	-11424
hanced	-11425
▁admir	-11426
ultural	-11427
▁Invest	-11428
▁Nation	-11429
▁apolog	-11430
▁cattle	-11431
▁Century	-11432
▁Cincinn	-11433
northwest	-11434
▁thorough	-11435
▁Management	-11436
▁challenging	-11437
▁examination	-11438
ieg	-11439
▁900	-11440
▁Nam	-11441
▁Sex	-11442
izard	-11443
▁Vern	-11444
employ	-11445
▁flour	-11446
▁Olivia	-11447
▁walked	-11448
▁exhibit	-11449
▁mammals	-11450
▁cemetery	-11451
▁throwing	-11452
▁Orchestra	-11453
▁instructions	-11454
▁reconstruction	-11455
acht	-11456
▁0.1	-11457
▁1,0	-11458
▁Kaz	-11459
▁Kil	-11460
▁Veg	-11461
ettes	-11462
▁1000	-11463
▁Beth	-11464
▁Hood	-11465
▁Room	-11466
raltar	-11467
▁Minor	-11468
▁rains	-11469
▁Julian	-11470
▁killer	-11471
▁telesc	-11472
▁Studies	-11473
▁patient	-11474
▁progressed	-11475
▁anticipated	-11476
▁consequence	-11477
▁revolutionary	-11478
AL	-11479
▁DJ	-11480
ardo	-11481
▁mos	-11482
osion	-11483
▁1884	-11484
▁Rena	-11485
▁aside	-11486
▁gusts	-11487
▁swept	-11488
▁Reagan	-11489
▁cotton	-11490
▁targeted	-11491
▁teachers	-11492
▁engineers	-11493
▁intellectual	-11494
▁northeastern	-11495
ovic	-11496
racks	-11497
rians	-11498
stand	-11499
▁Cand	-11500
▁Cort	-11501
▁Glas	-11502
▁prol	-11503
▁stim	-11504
▁wrap	-11505
itches	-11506
▁Fight	-11507
▁Stars	-11508
▁Holland	-11509
▁focuses	-11510
▁profile	-11511
▁recruit	-11512
▁connects	-11513
▁Gibraltar	-11514
▁diversity	-11515
▁particles	-11516
ocol	-11517
▁0.3	-11518
▁1.3	-11519
▁sav	-11520
encer	-11521
icing	-11522
▁Tree	-11523
▁nice	-11524
▁Villa	-11525
▁fires	-11526
▁therm	-11527
▁Dublin	-11528
▁butter	-11529
▁flower	-11530
▁Marshal	-11531
▁Mercury	-11532
▁Middles	-11533
▁Cemetery	-11534
▁decisive	-11535
▁relation	-11536
▁relieved	-11537
▁witnesses	-11538
▁Cincinnati	-11539
▁Metacritic	-11540
ahl	-11541
eda	-11542
▁LP	-11543
unge	-11544
▁Cut	-11545
▁ERA	-11546
▁liv	-11547
▁inHg	-11548
▁loud	-11549
ishops	-11550
▁arose	-11551
▁Ottawa	-11552
▁genres	-11553
▁castles	-11554
▁diamond	-11555
▁fossils	-11556
▁prosper	-11557
▁varying	-11558
▁indirect	-11559
▁Princeton	-11560
▁conflicts	-11561
▁prompting	-11562
▁industries	-11563
▁predominantly	-11564
aton	-11565
▁0.6	-11566
▁aqu	-11567
▁por	-11568
iture	-11569
▁Hubb	-11570
▁oxid	-11571
▁pier	-11572
▁tune	-11573
▁Chuck	-11574
▁Traff	-11575
▁Chapel	-11576
▁finals	-11577
▁verses	-11578
▁Alberta	-11579
▁lasting	-11580
▁irregular	-11581
▁conversation	-11582
▁ty	-11583
quis	-11584
▁BCE	-11585
▁Lud	-11586
▁abb	-11587
▁Canu	-11588
▁Mann	-11589
▁Pick	-11590
▁Pros	-11591
▁atop	-11592
▁fron	-11593
▁laugh	-11594
▁photo	-11595
▁Dennis	-11596
▁desper	-11597
▁opined	-11598
▁screens	-11599
ufficient	-11600
▁numbered	-11601
▁Bulgarian	-11602
▁Millennium	-11603
▁constantly	-11604
▁undertaken	-11605
41	-11606
lem	-11607
pin	-11608
▁spl	-11609
asury	-11610
ewise	-11611
▁1867	-11612
▁Floyd	-11613
▁Serge	-11614
▁dozen	-11615
▁wound	-11616
ointing	-11617
▁speeds	-11618
▁Phillies	-11619
▁Friedrich	-11620
▁sponsored	-11621
▁integrated	-11622
▁outstanding	-11623
▁Conservative	-11624
nda	-11625
etta	-11626
itars	-11627
enburg	-11628
▁Liter	-11629
▁balls	-11630
▁fract	-11631
▁patri	-11632
▁usage	-11633
▁walks	-11634
through	-11635
▁Leices	-11636
▁Shield	-11637
▁comics	-11638
▁parking	-11639
▁revenge	-11640
▁contacted	-11641
▁contribute	-11642
▁Oil	-11643
child	-11644
▁Mall	-11645
▁Rush	-11646
▁Cryst	-11647
▁Devil	-11648
▁Vegas	-11649
▁lover	-11650
▁breast	-11651
▁Normandy	-11652
▁managing	-11653
▁removing	-11654
▁undertook	-11655
▁submarines	-11656
▁distinction	-11657
▁consideration	-11658
29	-11659
ju	-11660
▁Kid	-11661
▁fed	-11662
auded	-11663
quiry	-11664
rogen	-11665
works	-11666
▁spar	-11667
▁Athen	-11668
▁Brand	-11669
▁Milan	-11670
▁prince	-11671
▁submer	-11672
▁Hubbard	-11673
▁Twitter	-11674
▁altitude	-11675
▁decrease	-11676
▁monastery	-11677
▁comprising	-11678
ubs	-11679
yan	-11680
hero	-11681
▁fra	-11682
▁pig	-11683
icles	-11684
▁Burg	-11685
▁Joan	-11686
▁Talk	-11687
▁kids	-11688
overty	-11689
▁Chair	-11690
▁Place	-11691
▁pseud	-11692
▁gentle	-11693
▁quoted	-11694
▁triumph	-11695
▁winners	-11696
▁creatures	-11697
▁reporting	-11698
▁retreated	-11699
▁sentiment	-11700
▁commitment	-11701
▁physically	-11702
▁positioned	-11703
atty	-11704
▁15-	-11705
aping	-11706
▁1863	-11707
▁hide	-11708
▁Leeds	-11709
▁Barcel	-11710
▁Commer	-11711
▁blamed	-11712
▁dislik	-11713
▁strikes	-11714
▁Armenian	-11715
▁magnetic	-11716
▁attraction	-11717
di	-11718
▁NW	-11719
▁1.1	-11720
▁240	-11721
▁Pel	-11722
▁enh	-11723
agles	-11724
▁Herm	-11725
▁mate	-11726
▁ward	-11727
ampton	-11728
ortion	-11729
▁tools	-11730
▁config	-11731
▁easier	-11732
▁nephew	-11733
▁solely	-11734
restrial	-11735
▁Members	-11736
umberland	-11737
▁McKinley	-11738
▁portrait	-11739
▁steadily	-11740
▁upcoming	-11741
.00	-11742
,600	-11743
assy	-11744
atar	-11745
▁450	-11746
▁Alt	-11747
▁unh	-11748
▁Glee	-11749
▁pref	-11750
▁wake	-11751
▁Denver	-11752
▁creature	-11753
▁Afghanistan	-11754
oi	-11755
adal	-11756
edge	-11757
omon	-11758
▁0.9	-11759
▁Saf	-11760
▁Brah	-11761
▁Poké	-11762
▁tent	-11763
artime	-11764
▁Metro	-11765
▁repet	-11766
▁Waters	-11767
▁Typhoon	-11768
▁Cornwall	-11769
▁agencies	-11770
▁condemned	-11771
▁dependent	-11772
▁Westminster	-11773
auc	-11774
bie	-11775
elin	-11776
onso	-11777
orus	-11778
▁Sad	-11779
▁Tas	-11780
▁Cond	-11781
▁Gabri	-11782
▁antib	-11783
▁scout	-11784
▁Action	-11785
▁revealing	-11786
▁regulations	-11787
▁complimented	-11788
▁ˈ	-11789
ums	-11790
▁Tu	-11791
iors	-11792
▁Ran	-11793
▁gif	-11794
▁Isab	-11795
▁Salv	-11796
▁fant	-11797
▁logo	-11798
handed	-11799
▁Malta	-11800
▁Orton	-11801
▁whales	-11802
▁monster	-11803
▁Romanian	-11804
▁machines	-11805
▁messages	-11806
▁encourage	-11807
▁mechanics	-11808
▁conducting	-11809
▁situations	-11810
▁consciousness	-11811
Down	-11812
▁Aub	-11813
▁1840	-11814
▁1876	-11815
▁Jake	-11816
▁echo	-11817
▁Helen	-11818
▁auton	-11819
▁Nathan	-11820
▁agrees	-11821
▁Montana	-11822
▁Raymond	-11823
▁estates	-11824
▁favored	-11825
▁lyrical	-11826
▁trailer	-11827
▁Michaels	-11828
▁confused	-11829
▁inaugural	-11830
▁introduce	-11831
▁peninsula	-11832
▁preceding	-11833
▁stability	-11834
▁witnessed	-11835
▁conspiracy	-11836
▁Environment	-11837
▁collaborated	-11838
gett	-11839
▁Fun	-11840
▁Caes	-11841
▁Jose	-11842
▁Term	-11843
▁Paraly	-11844
▁guards	-11845
▁myself	-11846
▁Madison	-11847
▁Mercedes	-11848
▁educated	-11849
▁rendered	-11850
▁Schumacher	-11851
▁bombardment	-11852
▁fundamental	-11853
▁consistently	-11854
▁expectations	-11855
ht	-11856
aba	-11857
iar	-11858
iki	-11859
▁145	-11860
▁Kill	-11861
▁gear	-11862
▁grid	-11863
▁Draft	-11864
▁comed	-11865
▁spots	-11866
▁Circle	-11867
▁paying	-11868
▁Canucks	-11869
▁refuses	-11870
▁dropping	-11871
▁offshore	-11872
▁delegates	-11873
▁Richardson	-11874
▁achievement	-11875
▁progressive	-11876
▁intermediate	-11877
gé	-11878
str	-11879
gary	-11880
▁101	-11881
▁Cou	-11882
igger	-11883
▁dust	-11884
▁penn	-11885
▁user	-11886
mother	-11887
▁Burke	-11888
▁Gates	-11889
▁Squad	-11890
entieth	-11891
▁Pierre	-11892
▁genera	-11893
▁heavier	-11894
▁blockade	-11895
▁focusing	-11896
▁inducted	-11897
▁presents	-11898
▁exercises	-11899
▁journalists	-11900
▁autobiography	-11901
RC	-11902
zes	-11903
,400	-11904
gans	-11905
oves	-11906
▁168	-11907
▁Nas	-11908
reeks	-11909
▁1883	-11910
▁Code	-11911
▁clip	-11912
▁perc	-11913
▁rook	-11914
aneous	-11915
▁Solar	-11916
▁breeds	-11917
▁declar	-11918
▁pleased	-11919
▁tracked	-11920
▁actively	-11921
100	-11922
▁Bud	-11923
▁Mak	-11924
▁RNA	-11925
▁Rav	-11926
sized	-11927
▁Alam	-11928
▁Yard	-11929
▁Energy	-11930
▁confer	-11931
▁encompass	-11932
▁ministers	-11933
▁navigation	-11934
▁southwestern	-11935
ogg	-11936
▁ov	-11937
▁Dud	-11938
onnie	-11939
▁1877	-11940
▁Isle	-11941
omical	-11942
ulates	-11943
▁Smack	-11944
▁argue	-11945
▁rebel	-11946
▁Others	-11947
▁adjust	-11948
▁brings	-11949
▁Gregory	-11950
▁guitars	-11951
▁studios	-11952
▁absorbed	-11953
▁eighteen	-11954
▁Barcelona	-11955
▁Churchill	-11956
▁directing	-11957
▁torpedoes	-11958
▁Tournament	-11959
▁successive	-11960
vor	-11961
▁SH	-11962
▁0.8	-11963
▁Pas	-11964
▁Rus	-11965
front	-11966
▁1873	-11967
▁Nass	-11968
▁lung	-11969
▁Derby	-11970
▁Drake	-11971
▁Robin	-11972
▁Steam	-11973
▁imposed	-11974
▁ultimate	-11975
▁preventing	-11976
alia	-11977
iang	-11978
▁cro	-11979
ijing	-11980
otion	-11981
▁Mult	-11982
ashire	-11983
inated	-11984
▁enlar	-11985
▁Edmund	-11986
▁Planet	-11987
▁funded	-11988
▁latest	-11989
▁organic	-11990
▁Alliance	-11991
▁Paralymp	-11992
▁absolute	-11993
▁variable	-11994
▁expanding	-11995
▁measuring	-11996
▁vegetation	-11997
▁transformed	-11998
▁corresponding	-11999
irk	-12000
kil	-12001
▁da	-12002
▁Esc	-12003
▁sib	-12004
opard	-12005
erness	-12006
roscop	-12007
▁Tests	-12008
▁annex	-12009
▁flown	-12010
▁lying	-12011
▁melod	-12012
▁Manuel	-12013
▁bowled	-12014
▁Barrett	-12015
▁onwards	-12016
▁superst	-12017
▁terminal	-12018
▁belonging	-12019
▁confident	-12020
▁Electronic	-12021
▁calculated	-12022
▁ceremonies	-12023
▁touchdowns	-12024
▁scholarship	-12025
▁contributing	-12026
OM	-12027
gus	-12028
▁0.4	-12029
▁reh	-12030
▁Emma	-12031
▁Mega	-12032
▁Tint	-12033
▁Verm	-12034
▁stall	-12035
▁sugar	-12036
▁toxic	-12037
▁finance	-12038
▁shelter	-12039
▁exterior	-12040
▁landmark	-12041
▁Adventure	-12042
▁Telegraph	-12043
▁incidents	-12044
▁telephone	-12045
▁Lancashire	-12046
bus	-12047
gon	-12048
▁Mi	-12049
ishn	-12050
▁167	-12051
▁CEO	-12052
▁cha	-12053
waffe	-12054
▁Berm	-12055
▁rice	-12056
hentic	-12057
▁Chang	-12058
▁essay	-12059
▁ghost	-12060
▁input	-12061
▁Strong	-12062
▁Truman	-12063
▁remote	-12064
election	-12065
▁outcome	-12066
▁Arkansas	-12067
▁Brooklyn	-12068
▁turbines	-12069
▁whatever	-12070
▁scientist	-12071
▁spacecraft	-12072
HC	-12073
eta	-12074
oom	-12075
▁Ky	-12076
lake	-12077
estab	-12078
▁Carn	-12079
▁Glou	-12080
▁gest	-12081
▁sulf	-12082
▁seeds	-12083
▁amphib	-12084
▁venues	-12085
▁quarters	-12086
▁Basketball	-12087
▁kilometers	-12088
▁mysterious	-12089
ci	-12090
chw	-12091
ère	-12092
orig	-12093
▁0.7	-12094
Music	-12095
amped	-12096
▁Delta	-12097
▁Parks	-12098
▁Percy	-12099
▁Gibson	-12100
▁Sponge	-12101
▁varies	-12102
▁Beijing	-12103
▁Pokémon	-12104
▁conquest	-12105
production	-12106
▁realistic	-12107
▁regiments	-12108
▁battlefield	-12109
▁overwhelming	-12110
Le	-12111
kh	-12112
▁Tir	-12113
asaki	-12114
▁Clif	-12115
▁Mull	-12116
▁frog	-12117
usters	-12118
mitting	-12119
▁Carlos	-12120
▁Tigers	-12121
▁radius	-12122
▁Conserv	-12123
▁loyalty	-12124
▁strange	-12125
▁Computer	-12126
▁disbanded	-12127
▁naturally	-12128
▁unsuccessfully	-12129
iti	-12130
▁yd	-12131
alin	-12132
asia	-12133
cock	-12134
▁Kub	-12135
▁Nak	-12136
▁Cany	-12137
▁mild	-12138
▁Wings	-12139
▁moist	-12140
▁postp	-12141
istical	-12142
▁convey	-12143
▁layers	-12144
▁batsman	-12145
▁faculty	-12146
▁updated	-12147
▁Crawford	-12148
▁bacteria	-12149
▁centered	-12150
▁rotation	-12151
▁executives	-12152
▁propaganda	-12153
▁resignation	-12154
lett	-12155
▁fru	-12156
▁jaw	-12157
▁Hass	-12158
▁zero	-12159
▁Belie	-12160
▁Blair	-12161
▁Psych	-12162
▁chann	-12163
▁tough	-12164
instein	-12165
▁Hispan	-12166
▁Venice	-12167
▁rocket	-12168
▁Parkway	-12169
▁routing	-12170
▁doctrine	-12171
▁mushroom	-12172
▁properly	-12173
▁switched	-12174
▁awareness	-12175
▁fragments	-12176
▁critically	-12177
▁illustrated	-12178
▁locomotives	-12179
▁participating	-12180
two	-12181
rint	-12182
rium	-12183
▁Sor	-12184
actic	-12185
odied	-12186
▁marg	-12187
▁milk	-12188
acular	-12189
▁ferry	-12190
▁Rodrig	-12191
breaking	-12192
▁crucial	-12193
▁manages	-12194
▁roadway	-12195
rehensive	-12196
▁Flanders	-12197
▁coastline	-12198
▁composers	-12199
▁procedure	-12200
▁distinguish	-12201
▁fortifications	-12202
Ad	-12203
esh	-12204
gor	-12205
inge	-12206
▁Arc	-12207
▁Cox	-12208
▁RBI	-12209
▁1869	-12210
▁Chan	-12211
▁Enix	-12212
▁Marl	-12213
▁hurt	-12214
▁migr	-12215
▁touc	-12216
attack	-12217
▁6,000	-12218
▁Malay	-12219
▁Wrest	-12220
▁eleph	-12221
▁flesh	-12222
▁holes	-12223
▁staged	-12224
▁Calgary	-12225
▁peoples	-12226
▁rounded	-12227
▁refugees	-12228
▁insurance	-12229
▁nicknamed	-12230
▁directions	-12231
▁formations	-12232
▁punishment	-12233
▁permanently	-12234
post	-12235
▁Hok	-12236
▁lib	-12237
ework	-12238
oints	-12239
▁Marx	-12240
▁Voice	-12241
▁bench	-12242
rossing	-12243
▁silent	-12244
▁venture	-12245
▁Chandler	-12246
▁opinions	-12247
▁depiction	-12248
▁projected	-12249
▁demographic	-12250
▁transmission	-12251
▁Revolutionary	-12252
tz	-12253
appa	-12254
ouch	-12255
aults	-12256
immer	-12257
▁Crow	-12258
▁Sche	-12259
▁trio	-12260
▁Cloud	-12261
▁loose	-12262
▁spell	-12263
▁legacy	-12264
▁remake	-12265
▁wartime	-12266
▁judicial	-12267
▁priority	-12268
imensional	-12269
▁SmackDown	-12270
▁complement	-12271
▁suggestion	-12272
▁Uk	-12273
atem	-12274
▁Hus	-12275
▁1830	-12276
▁Body	-12277
▁dive	-12278
▁intr	-12279
headed	-12280
igrated	-12281
iminary	-12282
▁Selena	-12283
▁ascend	-12284
▁Diamond	-12285
▁averaged	-12286
▁Luftwaffe	-12287
▁possessed	-12288
▁archaeological	-12289
anka	-12290
girl	-12291
omys	-12292
▁RPG	-12293
▁bin	-12294
▁1872	-12295
▁1881	-12296
▁aest	-12297
▁brut	-12298
▁seal	-12299
anking	-12300
▁Isles	-12301
▁Mills	-12302
▁eagle	-12303
▁genes	-12304
▁Duncan	-12305
▁Wolver	-12306
▁rushed	-12307
▁timber	-12308
isations	-12309
▁goddess	-12310
▁sailors	-12311
▁sharing	-12312
▁Veronica	-12313
▁enhanced	-12314
▁comparing	-12315
▁homosexual	-12316
▁initiative	-12317
400	-12318
ierra	-12319
▁abst	-12320
▁blast	-12321
▁harsh	-12322
▁Luther	-12323
▁carved	-12324
▁hybrid	-12325
▁Shelley	-12326
▁ceiling	-12327
▁frigate	-12328
▁elevated	-12329
▁developments	-12330
nery	-12331
▁ion	-12332
ighed	-12333
▁Abra	-12334
▁Seas	-12335
▁Stre	-12336
▁sear	-12337
ampire	-12338
▁Aguil	-12339
▁drunk	-12340
▁allied	-12341
▁anarch	-12342
▁intend	-12343
▁poster	-12344
▁rapper	-12345
▁tribut	-12346
▁Glasgow	-12347
▁Yugoslav	-12348
▁airborne	-12349
▁disputed	-12350
▁rational	-12351
▁instrumentation	-12352
▁internationally	-12353
bery	-12354
ichi	-12355
▁Sri	-12356
▁raw	-12357
endar	-12358
▁Bass	-12359
▁Unit	-12360
▁stom	-12361
commun	-12362
herent	-12363
▁achiev	-12364
▁lesser	-12365
▁Genesis	-12366
▁lengthy	-12367
▁eligible	-12368
▁memories	-12369
▁Cardinals	-12370
▁contempor	-12371
▁submerged	-12372
▁disappoint	-12373
▁hurricanes	-12374
▁phenomenon	-12375
▁Conservation	-12376
▁MC	-12377
acer	-12378
mons	-12379
▁Duc	-12380
▁Occ	-12381
▁subd	-12382
▁Rosen	-12383
▁fault	-12384
▁hatch	-12385
▁tasks	-12386
▁taxon	-12387
▁Rivers	-12388
▁Cyclone	-12389
▁Fischer	-12390
▁Various	-12391
▁dynamic	-12392
▁extends	-12393
▁faction	-12394
▁lengths	-12395
▁shipped	-12396
▁Aguilera	-12397
▁enormous	-12398
▁examined	-12399
▁Henderson	-12400
▁publicity	-12401
▁releasing	-12402
▁objectives	-12403
▁continental	-12404
▁consequences	-12405
mel	-12406
▁Mk	-12407
wind	-12408
▁Ltd	-12409
▁Pon	-12410
arthy	-12411
▁Zero	-12412
▁icon	-12413
alties	-12414
lessly	-12415
licted	-12416
otypes	-12417
▁optim	-12418
▁troop	-12419
▁Flames	-12420
▁Gothic	-12421
▁Ronald	-12422
▁Tintin	-12423
▁ritual	-12424
▁unanim	-12425
▁Commons	-12426
▁staying	-12427
▁belonged	-12428
▁exploration	-12429
▁philosopher	-12430
97	-12431
pit	-12432
olan	-12433
▁Hum	-12434
▁Vic	-12435
▁haz	-12436
assed	-12437
▁Woods	-12438
▁aided	-12439
▁gates	-12440
▁Browns	-12441
▁Canyon	-12442
▁Female	-12443
▁McCain	-12444
▁finest	-12445
▁wishes	-12446
▁Morning	-12447
▁SpongeB	-12448
▁Theater	-12449
▁therapy	-12450
▁damaging	-12451
▁arguments	-12452
▁molecular	-12453
▁searching	-12454
▁songwriter	-12455
▁Organization	-12456
RS	-12457
dam	-12458
arus	-12459
▁2.2	-12460
▁Wel	-12461
armed	-12462
▁Brid	-12463
ectors	-12464
riages	-12465
▁width	-12466
▁discour	-12467
▁variant	-12468
▁Geoffrey	-12469
▁speculated	-12470
▁accomplished	-12471
▁assassination	-12472
-16	-12473
oub	-12474
▁NL	-12475
▁Ow	-12476
stad	-12477
▁Beh	-12478
allic	-12479
heads	-12480
odium	-12481
utter	-12482
▁bore	-12483
formed	-12484
marine	-12485
▁Break	-12486
▁accus	-12487
▁chlor	-12488
▁shaped	-12489
▁coaches	-12490
▁environ	-12491
▁Allmusic	-12492
▁repaired	-12493
▁Broadcast	-12494
issa	-12495
made	-12496
▁Moz	-12497
suing	-12498
▁Cool	-12499
▁plum	-12500
▁Grove	-12501
▁Range	-12502
▁Former	-12503
▁phosph	-12504
▁tradem	-12505
graduate	-12506
eneration	-12507
▁costumes	-12508
▁reconstruct	-12509
▁manufactured	-12510
▁Hi	-12511
ampa	-12512
pres	-12513
▁220	-12514
▁Bri	-12515
boats	-12516
eches	-12517
iffer	-12518
▁Berg	-12519
▁NASA	-12520
▁Colin	-12521
▁Ellen	-12522
▁Essex	-12523
▁spite	-12524
rection	-12525
▁Contem	-12526
▁inning	-12527
▁termed	-12528
▁versus	-12529
▁500,000	-12530
▁Herbert	-12531
▁partners	-12532
▁republic	-12533
▁Palestine	-12534
▁surpassed	-12535
▁collecting	-12536
▁environments	-12537
▁preparations	-12538
des	-12539
orne	-12540
▁135	-12541
▁Put	-12542
▁Medic	-12543
▁adequ	-12544
▁dealt	-12545
▁proud	-12546
▁Newman	-12547
▁Romans	-12548
▁fabric	-12549
▁Maxwell	-12550
▁ensuing	-12551
▁eruption	-12552
▁municipal	-12553
▁delegation	-12554
▁processing	-12555
34	-12556
list	-12557
▁Fur	-12558
▁Leo	-12559
▁odd	-12560
isode	-12561
ungle	-12562
▁Surv	-12563
▁epit	-12564
▁masc	-12565
▁mbar	-12566
▁Fifth	-12567
▁Albany	-12568
▁Tasman	-12569
▁eldest	-12570
▁floors	-12571
▁intact	-12572
▁summon	-12573
▁Springs	-12574
▁Newfound	-12575
▁deposits	-12576
▁disabled	-12577
▁proceeds	-12578
▁weakness	-12579
▁associate	-12580
▁dispatched	-12581
▁underwater	-12582
▁subtropical	-12583
▁deliberately	-12584
▁XI	-12585
free	-12586
orge	-12587
▁Aqu	-12588
▁Syl	-12589
▁1875	-12590
▁Bent	-12591
▁Chem	-12592
▁Gonz	-12593
▁Insp	-12594
istant	-12595
▁Arena	-12596
▁stair	-12597
▁curved	-12598
▁cylind	-12599
▁summar	-12600
official	-12601
▁patrols	-12602
▁poverty	-12603
▁Sciences	-12604
▁diseases	-12605
▁psychiat	-12606
▁orchestral	-12607
▁performers	-12608
▁threatening	-12609
▁insufficient	-12610
▁04	-12611
▁156	-12612
▁sic	-12613
ogram	-12614
▁Punk	-12615
▁Sans	-12616
▁lesb	-12617
▁Total	-12618
▁Using	-12619
▁honey	-12620
▁Burger	-12621
▁Kepler	-12622
▁jersey	-12623
▁mansion	-12624
▁estimate	-12625
▁resemble	-12626
▁tourists	-12627
▁Northwest	-12628
▁Wellington	-12629
▁proclaimed	-12630
▁Newfoundland	-12631
nal	-12632
Spot	-12633
elia	-12634
urbs	-12635
▁1.9	-12636
antle	-12637
▁Mick	-12638
▁cameo	-12639
▁canon	-12640
▁exile	-12641
▁Dudley	-12642
▁lifted	-12643
▁planes	-12644
▁homeless	-12645
▁playable	-12646
▁corruption	-12647
▁deployment	-12648
▁protecting	-12649
▁battlecruisers	-12650
ema	-12651
▁Wa	-12652
▁104	-12653
▁Rup	-12654
▁lip	-12655
orted	-12656
stown	-12657
▁Ellis	-12658
▁widow	-12659
athetic	-12660
igation	-12661
▁Arabic	-12662
▁Screen	-12663
▁incred	-12664
▁Bermuda	-12665
▁Mounted	-12666
▁Trinity	-12667
▁grossed	-12668
▁reminis	-12669
▁channels	-12670
▁honorary	-12671
▁SpongeBob	-12672
▁advocated	-12673
▁authentic	-12674
▁consensus	-12675
▁editorial	-12676
▁literally	-12677
▁Additional	-12678
▁acceptance	-12679
▁neighbouring	-12680
GB	-12681
igo	-12682
mat	-12683
abad	-12684
arma	-12685
icus	-12686
▁MVP	-12687
▁Spy	-12688
ramid	-12689
▁Brew	-12690
▁perf	-12691
▁reef	-12692
▁gauge	-12693
▁Monroe	-12694
▁Shadow	-12695
▁Surrey	-12696
▁Tucker	-12697
▁acquis	-12698
language	-12699
▁contrad	-12700
▁horsepower	-12701
▁mathematics	-12702
zi	-12703
cat	-12704
olo	-12705
six	-12706
ugs	-12707
▁1.7	-12708
▁108	-12709
▁Pra	-12710
▁WWF	-12711
▁Pent	-12712
▁Soph	-12713
▁Eagle	-12714
▁Perth	-12715
▁cubic	-12716
▁owing	-12717
▁whale	-12718
▁Butler	-12719
▁Future	-12720
▁barely	-12721
ordinary	-12722
▁Banksia	-12723
▁borders	-12724
▁convert	-12725
▁temples	-12726
▁disputes	-12727
▁relating	-12728
▁fatalities	-12729
▁percussion	-12730
▁presidency	-12731
PS	-12732
cht	-12733
iri	-12734
▁SA	-12735
▁fo	-12736
eria	-12737
pect	-12738
urse	-12739
▁230	-12740
▁NOK	-12741
▁Ply	-12742
▁1866	-12743
▁Food	-12744
▁beer	-12745
▁Films	-12746
▁Nobel	-12747
▁Tales	-12748
▁farms	-12749
▁paved	-12750
▁modest	-12751
▁nomine	-12752
▁Daniels	-12753
▁Frances	-12754
▁emerging	-12755
▁generals	-12756
▁unveiled	-12757
▁immigrants	-12758
▁spectators	-12759
▁Productions	-12760
BO	-12761
ão	-12762
▁CM	-12763
▁Jur	-12764
Tunes	-12765
rosse	-12766
▁Mile	-12767
▁Pack	-12768
angered	-12769
▁Desert	-12770
▁Mobile	-12771
▁interf	-12772
▁rulers	-12773
▁spores	-12774
▁washed	-12775
▁harvest	-12776
▁outdoor	-12777
ologically	-12778
▁boyfriend	-12779
▁reluctant	-12780
▁Operations	-12781
▁politically	-12782
▁songwriting	-12783
vo	-12784
▁É	-12785
ido	-12786
▁UB	-12787
▁£2	-12788
,800	-12789
▁Kem	-12790
▁lun	-12791
▁Come	-12792
▁True	-12793
▁ants	-12794
▁cosm	-12795
▁pump	-12796
elfare	-12797
▁Alpha	-12798
▁telev	-12799
▁Arctic	-12800
▁Celtic	-12801
▁Colomb	-12802
▁loaded	-12803
▁mistake	-12804
▁GameSpot	-12805
▁defenses	-12806
▁overcome	-12807
▁scrapped	-12808
▁privately	-12809
▁seemingly	-12810
▁complaints	-12811
▁compromise	-12812
▁locomotive	-12813
▁requirement	-12814
HA	-12815
▁Fa	-12816
▁102	-12817
▁117	-12818
▁Why	-12819
▁sew	-12820
▁Pine	-12821
▁Meyer	-12822
▁Speed	-12823
▁marsh	-12824
▁Article	-12825
▁acquire	-12826
▁theaters	-12827
▁Territory	-12828
ED	-12829
Ne	-12830
ebe	-12831
edar	-12832
▁etc	-12833
guard	-12834
range	-12835
▁1871	-12836
▁Wool	-12837
arians	-12838
length	-12839
▁Adela	-12840
▁Heath	-12841
▁decay	-12842
rington	-12843
▁Bosnia	-12844
▁Ferdin	-12845
▁Meteor	-12846
▁graphic	-12847
▁McCarthy	-12848
▁chapters	-12849
▁reserves	-12850
▁gathering	-12851
▁memorable	-12852
▁pregnancy	-12853
▁qualities	-12854
▁hypothesis	-12855
how	-12856
▁Dy	-12857
-200	-12858
imer	-12859
umar	-12860
▁Hat	-12861
▁1882	-12862
▁Hein	-12863
▁Plat	-12864
▁bars	-12865
▁buff	-12866
▁duck	-12867
▁golf	-12868
▁puzz	-12869
aceous	-12870
▁Booth	-12871
▁fluor	-12872
▁gains	-12873
▁lacks	-12874
▁lakes	-12875
▁Adrian	-12876
▁Guadal	-12877
▁harbor	-12878
▁impress	-12879
▁nervous	-12880
▁privile	-12881
▁routine	-12882
▁strings	-12883
Hungarian	-12884
▁Caroline	-12885
▁Movement	-12886
▁enrolled	-12887
▁licensed	-12888
▁comprised	-12889
▁molecules	-12890
IC	-12891
apa	-12892
jud	-12893
zig	-12894
▁IC	-12895
asse	-12896
holm	-12897
▁116	-12898
adows	-12899
elfth	-12900
etary	-12901
utely	-12902
▁Lead	-12903
▁Mail	-12904
▁Want	-12905
iggins	-12906
otilla	-12907
▁Aaron	-12908
▁rider	-12909
▁Choice	-12910
▁Curtis	-12911
▁Fellow	-12912
▁Skinner	-12913
▁unemploy	-12914
▁vocalist	-12915
▁continent	-12916
▁comparable	-12917
▁discussing	-12918
▁Consequently	-12919
▁achievements	-12920
lia	-12921
ulk	-12922
▁Dj	-12923
,300	-12924
▁Bea	-12925
aurus	-12926
▁1874	-12927
▁Lore	-12928
▁incl	-12929
▁metals	-12930
▁Crystal	-12931
▁involve	-12932
▁signals	-12933
▁incomple	-12934
▁landings	-12935
▁reserved	-12936
▁horizontal	-12937
▁separately	-12938
lew	-12939
ogs	-12940
,700	-12941
otto	-12942
▁Lie	-12943
imity	-12944
ovsky	-12945
▁Suff	-12946
kinson	-12947
▁Blake	-12948
▁Chase	-12949
▁Lynch	-12950
▁deals	-12951
▁fears	-12952
▁trips	-12953
▁iTunes	-12954
▁Romania	-12955
▁auction	-12956
▁missile	-12957
▁unaware	-12958
▁bankrupt	-12959
nie	-12960
▁CN	-12961
▁Pi	-12962
team	-12963
▁3.0	-12964
▁Sax	-12965
▁1868	-12966
▁Adri	-12967
▁Bear	-12968
▁Shar	-12969
▁Trav	-12970
▁dock	-12971
ficial	-12972
icular	-12973
monton	-12974
▁Right	-12975
▁fluid	-12976
▁Vienna	-12977
▁Jamaica	-12978
▁chances	-12979
▁damages	-12980
▁Standard	-12981
▁regained	-12982
▁tensions	-12983
▁machinery	-12984
yers	-12985
▁3.7	-12986
▁Mut	-12987
▁Sib	-12988
▁hunt	-12989
▁weld	-12990
entric	-12991
▁Henri	-12992
▁anger	-12993
▁assets	-12994
▁assume	-12995
▁fights	-12996
▁presum	-12997
▁trophy	-12998
ographed	-12999
▁creates	-13000
▁listing	-13001
▁nearest	-13002
▁invented	-13003
▁millions	-13004
▁subordin	-13005
▁Brigadier	-13006
▁thickness	-13007
▁psychological	-13008
atha	-13009
ishi	-13010
▁Cos	-13011
elect	-13012
ilogy	-13013
▁1878	-13014
aptist	-13015
▁Money	-13016
▁Urban	-13017
▁woods	-13018
▁Archae	-13019
▁Jeremy	-13020
▁Twenty	-13021
▁finger	-13022
▁Capital	-13023
▁knowing	-13024
▁totally	-13025
▁Senators	-13026
▁athletic	-13027
▁maneuver	-13028
▁Therefore	-13029
▁listening	-13030
▁HM	-13031
avil	-13032
iche	-13033
inqu	-13034
inus	-13035
mitt	-13036
▁Laf	-13037
meter	-13038
osity	-13039
▁Kerr	-13040
▁Otto	-13041
▁Vlad	-13042
thlete	-13043
▁Logan	-13044
▁artif	-13045
▁reads	-13046
▁Impact	-13047
▁Palmer	-13048
▁deeper	-13049
▁reader	-13050
▁Soviets	-13051
▁desired	-13052
▁expense	-13053
▁tourism	-13054
▁weighed	-13055
▁appealed	-13056
▁cultures	-13057
▁emotions	-13058
▁habitats	-13059
▁tactical	-13060
▁ambitious	-13061
▁attractive	-13062
Pa	-13063
iden	-13064
oric	-13065
raid	-13066
▁Voy	-13067
▁Wis	-13068
istle	-13069
▁Buch	-13070
▁Coal	-13071
▁Doug	-13072
▁ally	-13073
ainted	-13074
second	-13075
▁reson	-13076
▁Deputy	-13077
▁Method	-13078
▁Knights	-13079
▁delight	-13080
▁McDonald	-13081
▁abundant	-13082
▁proximity	-13083
▁supporter	-13084
▁quantities	-13085
DA	-13086
-15	-13087
▁Cu	-13088
▁ol	-13089
very	-13090
▁Hil	-13091
▁joy	-13092
eward	-13093
overy	-13094
▁lava	-13095
▁root	-13096
making	-13097
▁Spiel	-13098
▁sheet	-13099
▁Combat	-13100
▁Prison	-13101
▁bitter	-13102
▁curves	-13103
▁shadow	-13104
▁slower	-13105
enerated	-13106
▁Machine	-13107
▁Minogue	-13108
▁revived	-13109
▁redesign	-13110
▁allocated	-13111
▁contested	-13112
▁dissolved	-13113
▁descendants	-13114
▁Headquarters	-13115
wy	-13116
ulu	-13117
▁CG	-13118
▁Bot	-13119
▁Esp	-13120
keley	-13121
olves	-13122
▁Bron	-13123
rified	-13124
▁Usher	-13125
▁ineff	-13126
▁rifle	-13127
▁Guatem	-13128
▁transp	-13129
▁Baldwin	-13130
▁Newport	-13131
▁secular	-13132
▁disliked	-13133
▁teammates	-13134
▁pronounced	-13135
▁commentators	-13136
▁interference	-13137
▁photographer	-13138
lay	-13139
wig	-13140
▁Spit	-13141
▁hier	-13142
▁keen	-13143
▁reop	-13144
▁soap	-13145
▁Devon	-13146
▁Turks	-13147
▁digit	-13148
▁lobby	-13149
▁saving	-13150
tershire	-13151
▁Florence	-13152
▁Jennifer	-13153
▁Lindwall	-13154
▁Plymouth	-13155
▁aviation	-13156
▁assessment	-13157
▁contracted	-13158
▁comfortable	-13159
▁interviewed	-13160
alid	-13161
cycl	-13162
quet	-13163
▁20-	-13164
▁Rif	-13165
oline	-13166
onnell	-13167
▁Cuban	-13168
▁Glass	-13169
▁unpop	-13170
▁Guards	-13171
▁Herman	-13172
▁constr	-13173
▁photos	-13174
▁suffer	-13175
▁Capitol	-13176
▁mystery	-13177
▁Leicester	-13178
▁migration	-13179
▁discipline	-13180
▁intelligent	-13181
▁Contemporary	-13182
zo	-13183
omes	-13184
▁Nav	-13185
▁Ori	-13186
▁Yok	-13187
▁hur	-13188
▁nam	-13189
▁sus	-13190
▁Idol	-13191
▁Shan	-13192
▁mail	-13193
▁shed	-13194
ashing	-13195
▁Motor	-13196
▁Venus	-13197
▁disgu	-13198
▁escal	-13199
▁trick	-13200
istence	-13201
letcher	-13202
▁Powell	-13203
▁fusion	-13204
▁gallery	-13205
▁monitor	-13206
▁Adelaide	-13207
▁Michelle	-13208
▁coaching	-13209
▁employee	-13210
▁explored	-13211
▁imported	-13212
▁internet	-13213
readnought	-13214
▁instructed	-13215
▁instruction	-13216
▁sufficiently	-13217
98	-13218
rox	-13219
vol	-13220
zac	-13221
▁Bod	-13222
agons	-13223
birds	-13224
▁Winc	-13225
▁gran	-13226
▁cream	-13227
▁edges	-13228
▁shops	-13229
▁zones	-13230
▁linear	-13231
▁Spencer	-13232
▁custody	-13233
▁posthum	-13234
▁streams	-13235
▁confined	-13236
▁Lancaster	-13237
▁descended	-13238
▁exhibited	-13239
rav	-13240
agic	-13241
ipel	-13242
▁107	-13243
▁Scr	-13244
▁anx	-13245
olith	-13246
▁cave	-13247
houses	-13248
spring	-13249
▁Riley	-13250
achelor	-13251
▁Dakota	-13252
▁Motion	-13253
▁Sierra	-13254
▁hamlet	-13255
▁lemurs	-13256
▁runner	-13257
▁subtle	-13258
▁Abraham	-13259
▁doctors	-13260
▁leagues	-13261
▁singers	-13262
▁subsidi	-13263
▁Agricult	-13264
▁thoughts	-13265
▁struggling	-13266
▁demonstrate	-13267
LA	-13268
ding	-13269
oths	-13270
▁126	-13271
▁Mom	-13272
▁Barn	-13273
▁Rhode	-13274
▁deton	-13275
▁greet	-13276
▁revel	-13277
▁tempo	-13278
▁Mirror	-13279
▁Senior	-13280
▁Timber	-13281
▁Watson	-13282
▁assign	-13283
▁grants	-13284
▁inject	-13285
▁kicked	-13286
▁panels	-13287
▁Cabinet	-13288
▁Masters	-13289
▁Reading	-13290
▁referee	-13291
▁Edmonton	-13292
dimensional	-13293
▁prohibited	-13294
In	-13295
Sh	-13296
dan	-13297
hey	-13298
nut	-13299
iary	-13300
▁4.7	-13301
▁Kes	-13302
▁Sed	-13303
ushes	-13304
▁Sour	-13305
▁Spin	-13306
▁Wald	-13307
▁dawn	-13308
▁lane	-13309
istocr	-13310
▁Norse	-13311
▁satir	-13312
▁openly	-13313
▁operas	-13314
▁regist	-13315
▁200,000	-13316
▁Monster	-13317
▁networks	-13318
▁veterans	-13319
▁Lightning	-13320
▁improving	-13321
▁necessarily	-13322
▁compensation	-13323
▁installation	-13324
anto	-13325
▁Fab	-13326
▁Tib	-13327
▁gam	-13328
▁Bott	-13329
▁Stri	-13330
▁adds	-13331
▁clan	-13332
▁dors	-13333
▁Ports	-13334
▁membr	-13335
▁Irving	-13336
▁stabil	-13337
▁healthy	-13338
▁payment	-13339
▁volcano	-13340
▁assessed	-13341
▁perfectly	-13342
▁restaurants	-13343
▁northwestern	-13344
bage	-13345
▁Dian	-13346
▁Euro	-13347
▁Raid	-13348
▁bout	-13349
▁Janet	-13350
▁eject	-13351
▁posed	-13352
▁Fergus	-13353
▁Heaven	-13354
▁Legion	-13355
▁Marcus	-13356
▁Sebast	-13357
▁mutual	-13358
▁preval	-13359
▁slowed	-13360
▁circles	-13361
▁farming	-13362
▁lessons	-13363
▁Augustus	-13364
▁Intellig	-13365
▁findings	-13366
▁shopping	-13367
▁Spielberg	-13368
▁demanding	-13369
▁excessive	-13370
eli	-13371
ikh	-13372
achi	-13373
cope	-13374
▁Gran	-13375
▁Tall	-13376
▁busy	-13377
▁craf	-13378
▁unst	-13379
yright	-13380
▁Monday	-13381
▁muscle	-13382
▁relied	-13383
▁Stories	-13384
▁publish	-13385
▁printing	-13386
▁discussions	-13387
DT	-13388
nan	-13389
wer	-13390
zed	-13391
,100	-13392
comb	-13393
▁HIV	-13394
▁oak	-13395
andin	-13396
urers	-13397
▁Task	-13398
▁joke	-13399
▁trem	-13400
▁Angle	-13401
▁Phant	-13402
▁draws	-13403
▁fatal	-13404
▁ridic	-13405
▁Gerald	-13406
▁Martha	-13407
▁betray	-13408
▁unrest	-13409
▁Nothing	-13410
▁upgrade	-13411
▁Resident	-13412
▁advances	-13413
▁securing	-13414
▁Beautiful	-13415
▁recognize	-13416
▁waterline	-13417
▁functional	-13418
vae	-13419
▁Hip	-13420
▁Yet	-13421
▁ibn	-13422
▁jew	-13423
▁tum	-13424
▁Lamb	-13425
▁Look	-13426
▁Apart	-13427
▁Belle	-13428
▁princ	-13429
▁resur	-13430
▁Things	-13431
▁muzzle	-13432
▁Manning	-13433
imination	-13434
▁Phillips	-13435
▁uprising	-13436
▁abolished	-13437
▁screening	-13438
▁sensitive	-13439
▁supplement	-13440
▁reminiscent	-13441
▁strengthening	-13442
92	-13443
enne	-13444
odon	-13445
otus	-13446
▁1,8	-13447
Saxon	-13448
▁Pall	-13449
▁trap	-13450
▁Emily	-13451
▁fraud	-13452
▁joins	-13453
▁sixty	-13454
osystem	-13455
▁halted	-13456
▁honored	-13457
▁kitchen	-13458
▁corridor	-13459
▁motorway	-13460
▁realizes	-13461
94	-13462
DP	-13463
ibl	-13464
nam	-13465
pur	-13466
▁Gy	-13467
▁Sue	-13468
isans	-13469
nolds	-13470
▁Bast	-13471
▁Hond	-13472
▁Bowie	-13473
▁Exped	-13474
▁cabin	-13475
▁grain	-13476
▁citizen	-13477
▁freight	-13478
▁package	-13479
▁undergo	-13480
▁engaging	-13481
▁pleasure	-13482
▁Ferdinand	-13483
▁Industrial	-13484
▁ambassador	-13485
▁incomplete	-13486
▁Engineering	-13487
▁controlling	-13488
▁preliminary	-13489
▁investigated	-13490
OR	-13491
cor	-13492
drop	-13493
tage	-13494
▁Gaz	-13495
▁Tyr	-13496
▁Hanc	-13497
▁Luis	-13498
▁Trad	-13499
▁oral	-13500
▁Shank	-13501
▁Tiger	-13502
▁jokes	-13503
▁rally	-13504
▁trigg	-13505
▁decomm	-13506
▁hiding	-13507
▁perpet	-13508
▁roller	-13509
▁steady	-13510
▁realize	-13511
▁transit	-13512
▁Bulgaria	-13513
▁Orthodox	-13514
▁frontier	-13515
▁sporting	-13516
▁developer	-13517
▁lifestyle	-13518
▁Adventures	-13519
▁definitely	-13520
▁regardless	-13521
▁cooperation	-13522
▁declaration	-13523
▁discontinued	-13524
▁metropolitan	-13525
iox	-13526
ymn	-13527
▁118	-13528
occup	-13529
▁fare	-13530
▁item	-13531
▁Maxim	-13532
▁inver	-13533
▁spare	-13534
▁Easter	-13535
▁domain	-13536
▁Solomon	-13537
▁elderly	-13538
▁electro	-13539
▁stepped	-13540
▁generate	-13541
▁prosecut	-13542
▁prospect	-13543
▁syndrome	-13544
▁collision	-13545
▁diagnosed	-13546
▁testimony	-13547
▁Publishing	-13548
▁storylines	-13549
▁atmospheric	-13550
▁helicopters	-13551
▁introducing	-13552
▁progression	-13553
▁demonstration	-13554
▁Ps	-13555
tegr	-13556
▁Ned	-13557
▁spo	-13558
brown	-13559
rozen	-13560
▁AIDS	-13561
▁Heat	-13562
▁file	-13563
▁suburb	-13564
▁qualify	-13565
▁Jennings	-13566
▁Paramount	-13567
▁declaring	-13568
▁merchants	-13569
▁Historical	-13570
pus	-13571
ugu	-13572
▁CC	-13573
▁JG	-13574
▁Sr	-13575
atum	-13576
haul	-13577
▁3.9	-13578
▁ESP	-13579
▁Num	-13580
▁Sep	-13581
osely	-13582
▁Crom	-13583
▁metab	-13584
▁modes	-13585
atorial	-13586
▁Damage	-13587
▁Region	-13588
▁pedest	-13589
▁stroke	-13590
oriented	-13591
▁Circuit	-13592
▁Finnish	-13593
▁Stefani	-13594
▁experts	-13595
▁precise	-13596
▁aristocr	-13597
▁inhabited	-13598
▁twentieth	-13599
▁unpopular	-13600
▁competitors	-13601
oop	-13602
isch	-13603
ivic	-13604
song	-13605
ishna	-13606
lance	-13607
ooter	-13608
▁Rare	-13609
▁shar	-13610
ayette	-13611
▁Annie	-13612
▁Chall	-13613
▁Large	-13614
▁bills	-13615
▁25,000	-13616
▁rookie	-13617
▁worker	-13618
overning	-13619
▁exhaust	-13620
▁Garfield	-13621
▁Turnpike	-13622
▁secretly	-13623
▁Parachute	-13624
▁keyboards	-13625
▁interrupted	-13626
▁RO	-13627
▁SE	-13628
bane	-13629
▁mim	-13630
uxili	-13631
▁butt	-13632
▁Hergé	-13633
▁Kenny	-13634
▁Starr	-13635
▁micro	-13636
▁opted	-13637
rolling	-13638
▁40,000	-13639
▁Almost	-13640
▁Eugene	-13641
▁sketch	-13642
▁Hancock	-13643
▁speaker	-13644
▁darkness	-13645
▁carefully	-13646
▁hospitals	-13647
▁negotiate	-13648
▁Expedition	-13649
▁Generation	-13650
▁disappointment	-13651
Cl	-13652
odia	-13653
olds	-13654
▁30-	-13655
▁5.5	-13656
▁Bav	-13657
south	-13658
▁Berk	-13659
▁Chin	-13660
▁Fear	-13661
▁cere	-13662
▁pine	-13663
▁vacc	-13664
erving	-13665
▁Hayes	-13666
▁naked	-13667
istance	-13668
utonium	-13669
▁Madrid	-13670
▁gaming	-13671
▁nights	-13672
▁Borough	-13673
▁Brandon	-13674
▁Formula	-13675
▁Preston	-13676
▁erosion	-13677
▁readily	-13678
▁Stanford	-13679
▁midnight	-13680
▁Nashville	-13681
▁invitation	-13682
iman	-13683
lies	-13684
▁Bog	-13685
▁Kle	-13686
▁Led	-13687
▁vit	-13688
adequ	-13689
brook	-13690
▁carn	-13691
▁quit	-13692
▁tram	-13693
ophone	-13694
▁1,200	-13695
▁Drama	-13696
▁Edwin	-13697
▁Leigh	-13698
▁mobil	-13699
▁monks	-13700
▁Panama	-13701
▁Warsaw	-13702
▁backup	-13703
▁coffee	-13704
▁enable	-13705
▁wounds	-13706
▁Chapman	-13707
▁Variety	-13708
▁Warwick	-13709
▁profits	-13710
▁AllMusic	-13711
▁momentum	-13712
▁surfaces	-13713
▁amendment	-13714
▁eliminate	-13715
▁monuments	-13716
▁placement	-13717
▁legitimate	-13718
▁Commissioner	-13719
arre	-13720
▁Kot	-13721
▁ecl	-13722
aceae	-13723
▁1879	-13724
▁Wend	-13725
▁Rocky	-13726
▁Store	-13727
▁atoms	-13728
▁facts	-13729
▁shaft	-13730
▁synth	-13731
powered	-13732
▁floods	-13733
▁incons	-13734
▁ironcl	-13735
▁layout	-13736
▁prayer	-13737
produced	-13738
▁Presley	-13739
▁Fletcher	-13740
▁Principal	-13741
▁Nonetheless	-13742
▁allegations	-13743
▁generations	-13744
▁entertaining	-13745
▁SN	-13746
offs	-13747
opol	-13748
soon	-13749
uits	-13750
▁Aur	-13751
▁dug	-13752
ocene	-13753
▁1851	-13754
▁fart	-13755
▁Flood	-13756
▁mouse	-13757
▁Bengal	-13758
▁Bolton	-13759
▁decomp	-13760
▁notion	-13761
▁conting	-13762
▁teenage	-13763
▁Aviation	-13764
▁eleventh	-13765
▁hardware	-13766
▁monarchy	-13767
▁operator	-13768
▁reflects	-13769
▁populated	-13770
▁sexuality	-13771
sm	-13772
rez	-13773
▁EU	-13774
elic	-13775
erek	-13776
fast	-13777
▁Jag	-13778
▁Jen	-13779
▁Kos	-13780
▁Peg	-13781
▁lux	-13782
otted	-13783
▁1848	-13784
▁Anat	-13785
▁Nept	-13786
▁RIAA	-13787
alysis	-13788
▁chess	-13789
▁lease	-13790
▁stuck	-13791
▁Harper	-13792
▁arcade	-13793
▁errors	-13794
▁lineup	-13795
▁Griffin	-13796
▁Windsor	-13797
▁jumping	-13798
▁Starting	-13799
▁reversed	-13800
▁allegedly	-13801
▁sacrifice	-13802
▁Renaissance	-13803
▁millimetres	-13804
▁enthusiastic	-13805
81	-13806
hyd	-13807
irs	-13808
pes	-13809
▁03	-13810
▁coc	-13811
atoes	-13812
sover	-13813
▁Pend	-13814
▁pige	-13815
▁tong	-13816
tailed	-13817
▁Bangl	-13818
▁Citiz	-13819
▁Hutch	-13820
▁Sword	-13821
▁conve	-13822
▁crust	-13823
osphere	-13824
pounder	-13825
▁Places	-13826
▁Regard	-13827
▁ranged	-13828
▁suited	-13829
▁symbols	-13830
▁Berkeley	-13831
▁computers	-13832
▁statistics	-13833
▁conjunction	-13834
▁proceedings	-13835
▁comprehensive	-13836
ovo	-13837
bred	-13838
▁fib	-13839
▁Kens	-13840
▁Shen	-13841
▁rush	-13842
▁8,000	-13843
▁Leban	-13844
▁Rugby	-13845
▁keeps	-13846
▁minim	-13847
▁refit	-13848
itating	-13849
ophical	-13850
▁Valent	-13851
▁repeat	-13852
▁tended	-13853
▁thinks	-13854
▁Koreans	-13855
▁Pirates	-13856
▁courage	-13857
▁ensured	-13858
▁heating	-13859
▁totaled	-13860
▁coalition	-13861
▁concludes	-13862
▁disappear	-13863
▁remarkable	-13864
▁underlying	-13865
▁measurements	-13866
▁Š	-13867
▁Yu	-13868
auer	-13869
ripp	-13870
▁24-	-13871
▁Ble	-13872
▁bol	-13873
▁tea	-13874
raska	-13875
▁Cant	-13876
▁Garc	-13877
▁Hoff	-13878
▁Holl	-13879
▁Hous	-13880
▁inev	-13881
ipping	-13882
rowing	-13883
▁2,500	-13884
▁bread	-13885
▁cease	-13886
▁ruins	-13887
▁Pierce	-13888
▁Sunder	-13889
▁masses	-13890
▁proven	-13891
▁volunt	-13892
grossing	-13893
▁caution	-13894
▁preceded	-13895
▁captivity	-13896
▁electoral	-13897
▁superhero	-13898
▁inscription	-13899
▁‘	-13900
▁AF	-13901
▁Bj	-13902
,900	-13903
beit	-13904
isor	-13905
▁157	-13906
▁Squ	-13907
▁Suz	-13908
▁ber	-13909
▁jam	-13910
▁Desc	-13911
▁Gust	-13912
▁ampl	-13913
▁inex	-13914
50,000	-13915
alogue	-13916
berger	-13917
▁Manor	-13918
▁Quinn	-13919
▁Randy	-13920
▁flags	-13921
▁Dayton	-13922
▁garage	-13923
▁Hammond	-13924
▁Musical	-13925
▁suburbs	-13926
▁manifest	-13927
▁performs	-13928
▁Protection	-13929
▁nationally	-13930
▁procedures	-13931
tra	-13932
dict	-13933
oshi	-13934
uine	-13935
▁113	-13936
▁2.3	-13937
▁Gav	-13938
▁Kur	-13939
▁gre	-13940
▁Kann	-13941
▁cats	-13942
▁flee	-13943
▁lion	-13944
▁deriv	-13945
▁fever	-13946
▁illeg	-13947
▁Franco	-13948
▁slopes	-13949
▁Britney	-13950
▁Scandin	-13951
▁compact	-13952
▁convinc	-13953
▁gravity	-13954
▁visuals	-13955
▁Rhodesia	-13956
▁contrary	-13957
▁specified	-13958
▁accordance	-13959
▁4-	-13960
xter	-13961
▁3.1	-13962
▁Fan	-13963
inite	-13964
oning	-13965
▁Coul	-13966
▁clay	-13967
ervers	-13968
player	-13969
▁Hanna	-13970
▁schem	-13971
taining	-13972
▁Contin	-13973
▁Holmes	-13974
▁Tunnel	-13975
▁honors	-13976
▁infant	-13977
▁rumors	-13978
▁worried	-13979
▁conquered	-13980
▁explosive	-13981
▁festivals	-13982
▁substance	-13983
▁accomplish	-13984
▁assignment	-13985
▁administered	-13986
IN	-13987
aru	-13988
iasm	-13989
inae	-13990
iott	-13991
▁Kra	-13992
tempo	-13993
▁Cann	-13994
▁Chal	-13995
▁Hamb	-13996
▁Lucy	-13997
▁Pand	-13998
▁View	-13999
▁Volt	-14000
▁calm	-14001
▁dome	-14002
▁duet	-14003
▁hect	-14004
▁hung	-14005
▁puts	-14006
penter	-14007
▁Spect	-14008
▁Truth	-14009
▁Munich	-14010
▁diving	-14011
▁retrie	-14012
▁worksh	-14013
speaking	-14014
▁choices	-14015
▁murders	-14016
▁accuracy	-14017
▁colleges	-14018
▁consumed	-14019
▁massacre	-14020
▁relevant	-14021
▁requests	-14022
▁speeches	-14023
▁Admiralty	-14024
▁affecting	-14025
▁distances	-14026
▁trademark	-14027
▁unusually	-14028
▁emphasized	-14029
▁nineteenth	-14030
▁northbound	-14031
▁municipality	-14032
PC	-14033
Re	-14034
Far	-14035
▁02	-14036
arms	-14037
horn	-14038
ilia	-14039
imir	-14040
stop	-14041
uchi	-14042
▁fox	-14043
▁sou	-14044
▁ump	-14045
▁arbit	-14046
▁thank	-14047
▁Hebrew	-14048
▁Louise	-14049
▁divine	-14050
▁Wrestle	-14051
▁enhance	-14052
▁spawned	-14053
▁Hawaiian	-14054
▁Nebraska	-14055
▁advocate	-14056
▁floating	-14057
▁sophistic	-14058
▁departments	-14059
▁capabilities	-14060
▁predecessors	-14061
▁extraordinary	-14062
lla	-14063
rah	-14064
ław	-14065
▁2.1	-14066
▁unt	-14067
archy	-14068
olics	-14069
▁Wals	-14070
▁tool	-14071
▁Lakes	-14072
▁Plaza	-14073
▁metap	-14074
▁subsc	-14075
enhower	-14076
▁Hollow	-14077
▁Patton	-14078
▁embarr	-14079
▁extant	-14080
▁tennis	-14081
▁worlds	-14082
▁inadequ	-14083
▁martial	-14084
▁resolve	-14085
▁drainage	-14086
▁fragment	-14087
▁incorrect	-14088
▁maintains	-14089
▁negotiated	-14090
▁adaptations	-14091
▁Subsequently	-14092
IT	-14093
este	-14094
iker	-14095
▁Balk	-14096
▁Mine	-14097
▁Ober	-14098
▁rely	-14099
record	-14100
▁Berry	-14101
▁Metal	-14102
▁burst	-14103
▁freed	-14104
▁nests	-14105
▁12,000	-14106
▁Castro	-14107
▁Survey	-14108
▁filter	-14109
▁orient	-14110
▁pupils	-14111
▁tribal	-14112
▁consent	-14113
▁Reynolds	-14114
▁climbing	-14115
▁scenario	-14116
▁promising	-14117
▁Sunderland	-14118
▁conviction	-14119
▁interactions	-14120
adic	-14121
mass	-14122
▁2.7	-14123
▁Cyp	-14124
▁Equ	-14125
▁Gas	-14126
▁Wid	-14127
▁que	-14128
aston	-14129
▁Make	-14130
▁Myst	-14131
▁Rams	-14132
▁Edgar	-14133
▁Shawn	-14134
▁diary	-14135
ountain	-14136
▁Member	-14137
▁Observ	-14138
▁locate	-14139
▁unders	-14140
▁Municip	-14141
▁defeats	-14142
▁tunnels	-14143
▁Critical	-14144
▁boarding	-14145
▁missiles	-14146
rimination	-14147
▁aggregate	-14148
eo	-14149
▁6-	-14150
▁Va	-14151
onde	-14152
▁Lac	-14153
▁Pun	-14154
▁aug	-14155
▁lod	-14156
chair	-14157
pling	-14158
▁Chop	-14159
estock	-14160
ovakia	-14161
rators	-14162
▁stunt	-14163
▁witch	-14164
imeters	-14165
▁dorsal	-14166
▁plastic	-14167
▁twelfth	-14168
▁currency	-14169
▁neighboring	-14170
▁substantially	-14171
▁investigations	-14172
UC	-14173
oro	-14174
abet	-14175
anan	-14176
auna	-14177
insp	-14178
neum	-14179
▁1,7	-14180
▁Lan	-14181
▁Mol	-14182
▁Too	-14183
entry	-14184
pered	-14185
▁Expl	-14186
▁Goeb	-14187
▁Made	-14188
▁Gross	-14189
▁spont	-14190
ounding	-14191
▁Number	-14192
▁Webber	-14193
▁albeit	-14194
▁delays	-14195
▁larvae	-14196
▁overth	-14197
▁sacred	-14198
▁symmet	-14199
▁Armenia	-14200
▁deciding	-14201
▁detached	-14202
▁ensemble	-14203
▁juvenile	-14204
▁retaining	-14205
▁successes	-14206
▁Eisenhower	-14207
▁attachment	-14208
▁graduating	-14209
▁appreciated	-14210
▁prosecution	-14211
▁£5	-14212
▁Cec	-14213
▁pla	-14214
ocese	-14215
▁Ster	-14216
▁barb	-14217
▁blog	-14218
▁Rever	-14219
▁patch	-14220
isphere	-14221
▁Artist	-14222
▁Morton	-14223
▁alumin	-14224
▁consul	-14225
▁tender	-14226
▁Maurice	-14227
▁counsel	-14228
▁magical	-14229
▁monthly	-14230
▁pressed	-14231
▁feminist	-14232
▁settings	-14233
▁comprises	-14234
▁struggles	-14235
▁specialist	-14236
▁congregation	-14237
fam	-14238
hou	-14239
nor	-14240
bing	-14241
oton	-14242
roft	-14243
zens	-14244
▁Gam	-14245
▁ram	-14246
▁Carr	-14247
▁Cave	-14248
▁Duck	-14249
▁Hait	-14250
▁Crane	-14251
▁immun	-14252
▁knock	-14253
▁topic	-14254
▁Blaine	-14255
▁Finals	-14256
▁Fraser	-14257
▁Illust	-14258
▁fierce	-14259
▁namely	-14260
▁welcom	-14261
▁escapes	-14262
▁unnamed	-14263
imensions	-14264
unciation	-14265
▁Airborne	-14266
▁Buddhist	-14267
▁drawings	-14268
▁mistaken	-14269
▁breakdown	-14270
▁maneuvers	-14271
▁seventeen	-14272
▁southbound	-14273
MC	-14274
tor	-14275
built	-14276
ctive	-14277
hurst	-14278
▁Joel	-14279
▁fees	-14280
▁bonds	-14281
▁Porter	-14282
▁heroes	-14283
▁remarks	-14284
▁Monument	-14285
▁pitching	-14286
▁Robertson	-14287
▁imprisonment	-14288
▁identification	-14289
▁2-	-14290
▁Sz	-14291
atri	-14292
irus	-14293
isle	-14294
▁112	-14295
erals	-14296
fight	-14297
stock	-14298
▁Kiss	-14299
▁Rhys	-14300
▁Sold	-14301
▁bold	-14302
▁soci	-14303
▁Stage	-14304
▁chord	-14305
▁forts	-14306
ictions	-14307
▁Ashley	-14308
▁Double	-14309
▁organs	-14310
▁bassist	-14311
▁centres	-14312
▁Treasury	-14313
▁exceeded	-14314
▁merchand	-14315
▁sexually	-14316
▁celebrity	-14317
▁satisfied	-14318
▁intentions	-14319
▁destination	-14320
▁consequently	-14321
vik	-14322
▁Ig	-14323
boro	-14324
ylum	-14325
▁137	-14326
▁Mam	-14327
▁Raf	-14328
▁vow	-14329
asting	-14330
▁Caesar	-14331
▁Canber	-14332
▁merger	-14333
▁throat	-14334
▁Hopkins	-14335
▁hanging	-14336
▁stomach	-14337
▁substit	-14338
▁Columbus	-14339
▁activist	-14340
▁maturity	-14341
▁ecosystem	-14342
▁Chancellor	-14343
nae	-14344
oft	-14345
bird	-14346
iots	-14347
pers	-14348
▁7.5	-14349
▁ecc	-14350
▁mes	-14351
▁psy	-14352
avity	-14353
canal	-14354
ovich	-14355
woman	-14356
▁1845	-14357
▁Fant	-14358
▁Schw	-14359
▁Soft	-14360
asures	-14361
▁Delhi	-14362
▁Derek	-14363
▁Omaha	-14364
▁Price	-14365
▁reper	-14366
rically	-14367
▁Torres	-14368
▁ballot	-14369
▁monkey	-14370
▁runway	-14371
▁Manager	-14372
▁choosing	-14373
▁concluding	-14374
▁highlights	-14375
▁incorporate	-14376
▁modifications	-14377
▁decommissioned	-14378
▁Á	-14379
▁€	-14380
asu	-14381
rys	-14382
▁Ny	-14383
imid	-14384
▁ost	-14385
▁rer	-14386
Mania	-14387
neath	-14388
outed	-14389
▁1200	-14390
▁plug	-14391
▁riot	-14392
▁Karen	-14393
▁loves	-14394
▁seize	-14395
▁Sicily	-14396
▁regret	-14397
▁retros	-14398
▁subsid	-14399
▁topics	-14400
▁united	-14401
▁scripts	-14402
istically	-14403
▁brigades	-14404
▁deceased	-14405
▁exciting	-14406
▁factions	-14407
▁monsters	-14408
▁suburban	-14409
▁averaging	-14410
▁commended	-14411
▁copyright	-14412
▁subsidiary	-14413
▁Guadalcanal	-14414
▁limitations	-14415
▁evolutionary	-14416
arte	-14417
ibal	-14418
▁ank	-14419
▁hes	-14420
chief	-14421
▁Hess	-14422
▁Page	-14423
▁anth	-14424
iating	-14425
▁Adult	-14426
▁Britt	-14427
▁Comic	-14428
▁cheap	-14429
▁trace	-14430
clusive	-14431
▁Powers	-14432
▁insect	-14433
▁locked	-14434
▁talked	-14435
▁Elliott	-14436
▁Gabriel	-14437
▁catalog	-14438
▁genuine	-14439
▁leather	-14440
▁welfare	-14441
ighthouse	-14442
▁stripped	-14443
▁tracking	-14444
ordination	-14445
▁respected	-14446
aye	-14447
iast	-14448
▁Swan	-14449
▁cros	-14450
▁summ	-14451
ocaust	-14452
▁Dover	-14453
▁Linda	-14454
▁sanct	-14455
writers	-14456
▁genius	-14457
▁doubles	-14458
▁painter	-14459
▁preview	-14460
▁pushing	-14461
▁silence	-14462
▁Brisbane	-14463
▁Chairman	-14464
▁Russians	-14465
▁dinosaurs	-14466
▁Philippine	-14467
▁effectiveness	-14468
RT	-14469
oan	-14470
opez	-14471
▁née	-14472
ounce	-14473
▁Ming	-14474
▁Rice	-14475
▁whit	-14476
▁Jesse	-14477
▁Laura	-14478
▁semif	-14479
▁Archit	-14480
▁Calvin	-14481
▁Greeks	-14482
▁divide	-14483
building	-14484
▁barrier	-14485
▁rehabil	-14486
▁commerce	-14487
▁servants	-14488
▁Catholics	-14489
▁Southeast	-14490
▁eccentric	-14491
▁launching	-14492
▁enthusiasm	-14493
▁frustrated	-14494
▁underneath	-14495
▁countryside	-14496
igu	-14497
ikes	-14498
uper	-14499
▁111	-14500
▁2.6	-14501
▁fut	-14502
icity	-14503
press	-14504
▁Dart	-14505
▁gamb	-14506
isbury	-14507
▁lemur	-14508
versely	-14509
▁Global	-14510
▁shapes	-14511
▁Hendrix	-14512
▁Pearson	-14513
▁editing	-14514
▁suspect	-14515
▁unhappy	-14516
▁grandson	-14517
▁shipments	-14518
▁societies	-14519
▁extinction	-14520
▁innovative	-14521
▁Intelligence	-14522
än	-14523
aude	-14524
bone	-14525
igon	-14526
▁bag	-14527
raine	-14528
▁1859	-14529
▁Wilm	-14530
▁fins	-14531
alford	-14532
▁theor	-14533
changes	-14534
▁mirror	-14535
▁strain	-14536
▁Ferguson	-14537
▁contents	-14538
▁reunited	-14539
▁Sebastian	-14540
▁ancestors	-14541
▁persisted	-14542
▁moderately	-14543
▁accelerated	-14544
▁installment	-14545
▁intercepted	-14546
▁deteriorated	-14547
gs	-14548
herd	-14549
quin	-14550
▁Kor	-14551
▁Smy	-14552
▁Von	-14553
aland	-14554
anian	-14555
assic	-14556
▁100-	-14557
▁Gone	-14558
▁Pitt	-14559
▁Woll	-14560
▁ease	-14561
▁Busch	-14562
▁cliff	-14563
ipelago	-14564
▁Wander	-14565
▁Jeffrey	-14566
▁Knowles	-14567
▁Neither	-14568
▁inherit	-14569
▁inquiry	-14570
▁reconcil	-14571
▁tendency	-14572
▁plutonium	-14573
▁resembles	-14574
▁sympathetic	-14575
▁incorporates	-14576
▁dy	-14577
anas	-14578
▁146	-14579
▁Dre	-14580
▁Ost	-14581
ormal	-14582
▁1820	-14583
▁ESPN	-14584
▁Shir	-14585
▁Trip	-14586
▁hell	-14587
▁irre	-14588
atters	-14589
▁McMah	-14590
▁alert	-14591
▁besie	-14592
▁solve	-14593
▁Hutton	-14594
▁median	-14595
▁stance	-14596
▁Ferrari	-14597
▁crowned	-14598
▁warrant	-14599
▁Canberra	-14600
▁adoption	-14601
▁barracks	-14602
▁freshman	-14603
▁physician	-14604
▁Portsmouth	-14605
▁specialized	-14606
▁illustrations	-14607
EF	-14608
wyn	-14609
ovan	-14610
rawl	-14611
▁128	-14612
▁40-	-14613
▁Chi	-14614
▁sel	-14615
▁Dale	-14616
▁Drum	-14617
▁dign	-14618
▁jail	-14619
▁stip	-14620
▁toss	-14621
▁Shack	-14622
▁blank	-14623
▁drops	-14624
▁shirt	-14625
▁Single	-14626
▁Willie	-14627
▁traits	-14628
▁Duchess	-14629
▁colored	-14630
▁enacted	-14631
▁frigates	-14632
▁governed	-14633
▁Salisbury	-14634
▁activists	-14635
▁meanwhile	-14636
▁motivated	-14637
▁Ultimately	-14638
▁absolutely	-14639
▁introduces	-14640
▁enforcement	-14641
amy	-14642
▁Ana	-14643
▁Kas	-14644
▁Gand	-14645
▁vibr	-14646
abling	-14647
ingers	-14648
ropolis	-14649
▁Hammer	-14650
▁blacks	-14651
▁admired	-14652
▁depends	-14653
▁mineral	-14654
▁puzzles	-14655
▁refusal	-14656
▁Ultimate	-14657
▁nobility	-14658
▁Artillery	-14659
▁solutions	-14660
▁Broadcasting	-14661
▁configuration	-14662
▁Og	-14663
▁XV	-14664
esty	-14665
umni	-14666
▁Sha	-14667
▁Was	-14668
▁fet	-14669
▁Cock	-14670
▁Doll	-14671
▁Wake	-14672
▁rape	-14673
▁Humph	-14674
▁Norton	-14675
▁Stalin	-14676
▁dragon	-14677
▁homage	-14678
▁landsl	-14679
▁scales	-14680
uxiliary	-14681
▁bishops	-14682
▁sounded	-14683
▁borrowed	-14684
▁achieving	-14685
▁inability	-14686
▁attributes	-14687
▁collective	-14688
▁efficiency	-14689
▁explicitly	-14690
ệm	-14691
bul	-14692
vić	-14693
▁AN	-14694
zyme	-14695
▁Nem	-14696
▁Wed	-14697
▁Reds	-14698
▁Wang	-14699
▁dorm	-14700
▁sued	-14701
esters	-14702
▁cater	-14703
▁smart	-14704
▁Strait	-14705
▁morale	-14706
▁wanting	-14707
▁Brighton	-14708
▁endorsed	-14709
▁maritime	-14710
▁receiver	-14711
▁screened	-14712
▁shelters	-14713
▁siblings	-14714
▁woodland	-14715
▁activated	-14716
▁fortified	-14717
▁inflicted	-14718
▁varieties	-14719
▁contemporaries	-14720
CO	-14721
VA	-14722
do	-14723
atz	-14724
zym	-14725
▁Dh	-14726
eros	-14727
vous	-14728
▁asc	-14729
▁vin	-14730
iolet	-14731
▁Azer	-14732
▁Kath	-14733
▁dent	-14734
▁erup	-14735
▁haul	-14736
▁silk	-14737
▁sink	-14738
cience	-14739
ograms	-14740
▁Birth	-14741
▁Glenn	-14742
▁param	-14743
▁realm	-14744
▁Bailey	-14745
▁Beyond	-14746
▁Eighth	-14747
▁Forbes	-14748
▁Joshua	-14749
▁Rupert	-14750
▁safely	-14751
▁sphere	-14752
▁thrust	-14753
▁Dodgers	-14754
▁Adriatic	-14755
▁calendar	-14756
▁reliable	-14757
▁Associated	-14758
▁confronted	-14759
▁goalkeeper	-14760
▁comparisons	-14761
▁Indianapolis	-14762
▁accommodation	-14763
▁undergraduate	-14764
ben	-14765
rag	-14766
▁HV	-14767
▁OS	-14768
audi	-14769
elda	-14770
acker	-14771
asted	-14772
orman	-14773
▁Dana	-14774
▁wors	-14775
agonal	-14776
▁Given	-14777
▁Lopez	-14778
▁Recre	-14779
▁Compton	-14780
▁Norwich	-14781
▁cinemat	-14782
▁outlets	-14783
▁peaceful	-14784
▁symbolic	-14785
▁Lithuania	-14786
▁Middlesex	-14787
▁Retrieved	-14788
▁Afterwards	-14789
▁acquisition	-14790
gent	-14791
ifax	-14792
ndum	-14793
▁158	-14794
▁Sul	-14795
ilian	-14796
speed	-14797
▁Hawk	-14798
▁Jazz	-14799
▁phyl	-14800
▁pian	-14801
▁seiz	-14802
▁Roads	-14803
▁dolph	-14804
▁nerve	-14805
▁saint	-14806
▁tends	-14807
▁Astron	-14808
▁Online	-14809
▁Sussex	-14810
▁bigger	-14811
▁chains	-14812
agonists	-14813
▁Collect	-14814
▁Jacques	-14815
▁anthrop	-14816
▁cameras	-14817
▁planted	-14818
▁anywhere	-14819
▁judgment	-14820
▁steering	-14821
▁warriors	-14822
▁Argentine	-14823
▁mathematical	-14824
ów	-14825
-21	-14826
anz	-14827
orp	-14828
▁01	-14829
▁ot	-14830
acco	-14831
empl	-14832
orde	-14833
oved	-14834
phan	-14835
▁131	-14836
▁Bun	-14837
▁Tab	-14838
▁rod	-14839
▁wit	-14840
icked	-14841
idium	-14842
▁1856	-14843
▁Amaz	-14844
▁Mumb	-14845
▁dish	-14846
▁mere	-14847
▁Claud	-14848
▁Creat	-14849
▁Train	-14850
▁gifts	-14851
▁restr	-14852
▁trump	-14853
iblical	-14854
▁Capcom	-14855
▁Claire	-14856
▁Compan	-14857
▁drives	-14858
▁oversaw	-14859
inguished	-14860
▁stopping	-14861
▁telescope	-14862
▁volunteer	-14863
▁Alexandria	-14864
▁displacement	-14865
▁thunderstorms	-14866
fin	-14867
utz	-14868
vas	-14869
▁5-	-14870
▁Mé	-14871
▁1.0	-14872
▁16-	-14873
▁Ful	-14874
▁Lav	-14875
urred	-14876
▁1854	-14877
▁Lear	-14878
▁Site	-14879
▁Stop	-14880
ighest	-14881
▁Basin	-14882
▁Plate	-14883
▁annoy	-14884
chester	-14885
▁Scotia	-14886
▁Prussia	-14887
▁portrays	-14888
▁retiring	-14889
▁exhausted	-14890
▁primitive	-14891
▁dimensions	-14892
▁presenting	-14893
▁WrestleMania	-14894
ET	-14895
▁IX	-14896
▁Nu	-14897
best	-14898
▁Lag	-14899
▁Lak	-14900
▁Syn	-14901
adian	-14902
omous	-14903
seven	-14904
▁1852	-14905
▁Gaza	-14906
▁Gren	-14907
▁Prin	-14908
▁Till	-14909
▁depr	-14910
▁fake	-14911
▁gram	-14912
▁trout	-14913
▁occupy	-14914
▁permit	-14915
▁trails	-14916
▁Chapter	-14917
▁Destiny	-14918
▁shocked	-14919
▁Kingston	-14920
▁Superman	-14921
▁defender	-14922
▁speakers	-14923
controlled	-14924
▁mortality	-14925
▁unwilling	-14926
▁Southampton	-14927
▁possessions	-14928
iev	-14929
isa	-14930
uba	-14931
▁je	-14932
fold	-14933
▁hin	-14934
iscal	-14935
rying	-14936
uates	-14937
▁Anti	-14938
▁Aven	-14939
▁Diệm	-14940
▁Yale	-14941
▁epid	-14942
▁hate	-14943
▁haun	-14944
▁tide	-14945
▁Allan	-14946
▁Iraqi	-14947
▁Joyce	-14948
▁Lions	-14949
▁Remix	-14950
▁blame	-14951
▁demon	-14952
▁grace	-14953
▁polls	-14954
▁Lesser	-14955
▁Rather	-14956
▁export	-14957
▁ruined	-14958
▁valued	-14959
▁Credits	-14960
▁Gardner	-14961
▁Whitney	-14962
▁matched	-14963
▁watches	-14964
▁expenses	-14965
[...]
