<pad>	0
<unk>	0
<s>	0
</s>	0
[MASK]	0
▁t	-0
he	-1
▁a	-2
ou	-3
▁s	-4
▁m	-5
▁w	-6
in	-7
re	-8
ha	-9
▁the	-10
nd	-11
▁b	-12
is	-13
or	-14
▁f	-15
▁I	-16
er	-17
ll	-18
it	-19
on	-20
▁d	-21
▁c	-22
▁n	-23
▁l	-24
▁y	-25
es	-26
en	-27
▁th	-28
ar	-29
▁h	-30
▁o	-31
▁to	-32
▁you	-33
▁p	-34
▁T	-35
hat	-36
▁A	-37
▁he	-38
st	-39
ve	-40
ot	-41
▁and	-42
ow	-43
ing	-44
▁of	-45
an	-46
om	-47
▁g	-48
at	-49
▁be	-50
▁W	-51
se	-52
▁my	-53
▁in	-54
▁ha	-55
ce	-56
le	-57
ay	-58
ld	-59
ir	-60
et	-61
ed	-62
ut	-63
▁B	-64
▁me	-65
im	-66
▁S	-67
ith	-68
▁not	-69
▁H	-70
ch	-71
▁that	-72
▁is	-73
▁M	-74
gh	-75
▁And	-76
▁for	-77
▁u	-78
ke	-79
▁C	-80
▁we	-81
our	-82
oo	-83
ill	-84
▁e	-85
▁with	-86
her	-87
▁it	-88
ent	-89
▁your	-90
ad	-91
ri	-92
▁O	-93
▁thou	-94
▁st	-95
▁k	-96
▁L	-97
ome	-98
▁his	-99
▁F	-100
▁G	-101
ght	-102
EN	-103
ord	-104
▁re	-105
id	-106
ra	-107
▁The	-108
▁have	-109
▁him	-110
IN	-111
ly	-112
▁li	-113
as	-114
▁P	-115
▁this	-116
ur	-117
IO	-118
al	-119
▁so	-120
▁as	-121
▁de	-122
▁on	-123
▁R	-124
ore	-125
ro	-126
▁N	-127
hi	-128
ould	-129
ood	-130
AR	-131
ck	-132
ain	-133
ver	-134
▁Y	-135
est	-136
▁sha	-137
▁thy	-138
ess	-139
▁will	-140
▁do	-141
ea	-142
▁no	-143
am	-144
▁E	-145
▁but	-146
▁D	-147
us	-148
▁se	-149
US	-150
if	-151
▁'	-152
ge	-153
▁all	-154
and	-155
▁Th	-156
▁su	-157
ake	-158
▁To	-159
▁her	-160
ru	-161
ion	-162
▁an	-163
▁K	-164
▁lo	-165
ard	-166
ter	-167
han	-168
▁sp	-169
ell	-170
ear	-171
▁thee	-172
▁fa	-173
▁shall	-174
▁our	-175
▁by	-176
th	-177
UC	-178
▁are	-179
il	-180
ING	-181
▁ne	-182
▁kn	-183
rom	-184
ho	-185
▁v	-186
▁That	-187
ER	-188
OR	-189
ast	-190
ct	-191
ous	-192
▁what	-193
▁sh	-194
ight	-195
ul	-196
ET	-197
ant	-198
▁up	-199
sel	-200
▁good	-201
qu	-202
▁But	-203
art	-204
row	-205
ath	-206
ine	-207
▁com	-208
▁mu	-209
▁lord	-210
hich	-211
nt	-212
▁pr	-213
▁man	-214
▁at	-215
▁V	-216
one	-217
▁whe	-218
▁con	-219
▁What	-220
▁am	-221
end	-222
ic	-223
ES	-224
ble	-225
ry	-226
ong	-227
▁from	-228
ie	-229
▁she	-230
▁bl	-231
ive	-232
ven	-233
▁go	-234
▁For	-235
▁more	-236
▁them	-237
em	-238
▁was	-239
IC	-240
out	-241
au	-242
▁sir	-243
other	-244
are	-245
oth	-246
ol	-247
▁if	-248
▁He	-249
▁now	-250
▁hat	-251
▁there	-252
▁would	-253
AN	-254
ost	-255
▁know	-256
▁can	-257
LO	-258
ind	-259
ers	-260
IUS	-261
ep	-262
self	-263
ARD	-264
▁say	-265
▁KING	-266
ather	-267
ond	-268
ate	-269
res	-270
fe	-271
▁sw	-272
▁here	-273
▁love	-274
▁their	-275
▁My	-276
▁or	-277
▁than	-278
▁br	-279
pp	-280
--	-281
▁us	-282
▁king	-283
▁they	-284
▁then	-285
all	-286
▁ar	-287
od	-288
▁let	-289
▁un	-290
ig	-291
▁wor	-292
ure	-293
ink	-294
▁may	-295
hy	-296
ame	-297
▁come	-298
fore	-299
ort	-300
▁As	-301
▁qu	-302
ook	-303
▁well	-304
el	-305
ish	-306
LI	-307
▁Whe	-308
▁j	-309
KE	-310
ves	-311
▁one	-312
▁hath	-313
irst	-314
▁make	-315
▁You	-316
▁gra	-317
reat	-318
ak	-319
ng	-320
▁must	-321
gain	-322
ound	-323
▁were	-324
▁ho	-325
▁see	-326
▁should	-327
▁like	-328
ci	-329
▁pro	-330
ue	-331
eak	-332
TIO	-333
▁sa	-334
ity	-335
▁pl	-336
▁mad	-337
▁father	-338
▁had	-339
um	-340
▁did	-341
▁upon	-342
OM	-343
ime	-344
pe	-345
▁too	-346
ice	-347
ON	-348
▁J	-349
▁dis	-350
ence	-351
▁death	-352
ward	-353
▁which	-354
▁en	-355
▁If	-356
ose	-357
own	-358
▁speak	-359
▁po	-360
▁when	-361
ful	-362
▁out	-363
▁fri	-364
▁how	-365
entle	-366
io	-367
pt	-368
un	-369
ICH	-370
▁again	-371
▁RICH	-372
▁tru	-373
OL	-374
de	-375
UKE	-376
▁DUKE	-377
man	-378
▁heart	-379
▁yet	-380
ick	-381
▁hand	-382
very	-383
▁With	-384
▁RICHARD	-385
▁who	-386
ENTIO	-387
▁Thou	-388
ign	-389
▁We	-390
▁some	-391
ance	-392
▁Which	-393
▁hon	-394
▁mar	-395
nce	-396
▁r	-397
ies	-398
▁In	-399
▁son	-400
ire	-401
▁off	-402
▁mine	-403
ist	-404
INC	-405
▁al	-406
ince	-407
har	-408
orn	-409
ack	-410
▁Why	-411
wn	-412
▁Of	-413
▁God	-414
EL	-415
▁hea	-416
▁such	-417
▁time	-418
oy	-419
▁First	-420
▁hear	-421
▁So	-422
ness	-423
▁brother	-424
ec	-425
▁these	-426
▁Cl	-427
▁blood	-428
▁ab	-429
▁ex	-430
ither	-431
▁give	-432
UE	-433
▁fo	-434
▁Is	-435
▁No	-436
▁day	-437
▁ear	-438
▁ro	-439
▁look	-440
▁think	-441
▁II	-442
▁How	-443
▁life	-444
▁tell	-445
EST	-446
ise	-447
▁ey	-448
AB	-449
eet	-450
▁where	-451
UCH	-452
▁take	-453
▁word	-454
oul	-455
▁friend	-456
▁Q	-457
ther	-458
▁This	-459
ag	-460
age	-461
LOUC	-462
▁des	-463
ESTER	-464
▁GLOUC	-465
▁GLOUCESTER	-466
ef	-467
een	-468
erv	-469
▁Come	-470
ady	-471
ust	-472
rown	-473
▁gentle	-474
ings	-475
▁Lord	-476
▁U	-477
▁ri	-478
urse	-479
ave	-480
RY	-481
ase	-482
▁Rome	-483
tis	-484
UEEN	-485
▁art	-486
▁lea	-487
▁VINC	-488
▁QUEEN	-489
▁VINCENTIO	-490
way	-491
▁OF	-492
▁war	-493
▁most	-494
▁honour	-495
▁fl	-496
▁Mar	-497
▁much	-498
UM	-499
LAN	-500
▁sl	-501
▁Where	-502
AM	-503
urn	-504
▁made	-505
▁tw	-506
ment	-507
▁fear	-508
▁hast	-509
▁Now	-510
▁Who	-511
▁bet	-512
ENRY	-513
aught	-514
▁HENRY	-515
▁cou	-516
▁great	-517
▁Be	-518
ber	-519
not	-520
▁bre	-521
ved	-522
▁never	-523
▁new	-524
▁fair	-525
cc	-526
ee	-527
ss	-528
▁af	-529
ower	-530
ap	-531
igh	-532
▁AN	-533
▁men	-534
itt	-535
aster	-536
orrow	-537
▁Your	-538
uke	-539
▁It	-540
iz	-541
ough	-542
ORK	-543
▁YORK	-544
▁any	-545
▁call	-546
▁part	-547
▁Or	-548
▁ra	-549
ation	-550
INIUS	-551
ST	-552
ide	-553
ree	-554
▁ad	-555
▁comm	-556
▁cannot	-557
▁pre	-558
▁true	-559
▁stand	-560
▁heaven	-561
▁PET	-562
▁name	-563
AU	-564
▁been	-565
▁pray	-566
old	-567
▁cl	-568
hing	-569
▁sweet	-570
DW	-571
▁EDW	-572
▁per	-573
▁ple	-574
▁EDWARD	-575
ple	-576
▁GR	-577
,--	-578
▁doth	-579
▁noble	-580
▁wr	-581
ears	-582
▁own	-583
▁LUC	-584
ouse	-585
▁done	-586
▁There	-587
ull	-588
▁tr	-589
▁way	-590
ife	-591
▁head	-592
▁other	-593
RO	-594
aw	-595
▁mean	-596
▁pres	-597
UT	-598
▁Ed	-599
▁bear	-600
red	-601
▁sc	-602
▁nor	-603
AP	-604
EO	-605
▁Ay	-606
OMEO	-607
▁When	-608
▁soul	-609
▁very	-610
▁ROMEO	-611
▁Edward	-612
ass	-613
▁An	-614
ENEN	-615
aint	-616
ving	-617
▁both	-618
▁MENEN	-619
▁night	-620
▁world	-621
▁before	-622
▁MENENIUS	-623
ace	-624
ger	-625
▁By	-626
ause	-627
▁queen	-628
li	-629
▁Let	-630
TH	-631
▁mo	-632
▁chi	-633
aughter	-634
RUCH	-635
▁Here	-636
▁Then	-637
RUCHIO	-638
▁PETRUCHIO	-639
able	-640
▁cont	-641
▁dead	-642
▁down	-643
TES	-644
▁app	-645
ite	-646
▁wh	-647
▁ke	-648
▁rem	-649
▁being	-650
per	-651
▁myself	-652
ab	-653
les	-654
▁MAR	-655
▁Than	-656
▁arm	-657
▁beg	-658
ilt	-659
ORIO	-660
LANUS	-661
▁thus	-662
▁CORIO	-663
▁leave	-664
▁CORIOLANUS	-665
▁Sec	-666
▁grace	-667
▁Second	-668
▁unt	-669
ction	-670
ress	-671
▁Nor	-672
▁eyes	-673
▁LE	-674
▁im	-675
▁mother	-676
led	-677
▁ma	-678
less	-679
▁old	-680
ran	-681
land	-682
INA	-683
▁rep	-684
itiz	-685
▁ever	-686
itizen	-687
lo	-688
ps	-689
sw	-690
▁She	-691
▁int	-692
▁live	-693
▁long	-694
▁wife	-695
▁child	-696
▁wom	-697
▁poor	-698
▁friends	-699
▁III	-700
▁away	-701
▁cons	-702
▁Go	-703
▁might	-704
eace	-705
ford	-706
nder	-707
▁Sir	-708
▁die	-709
▁stay	-710
▁comes	-711
ks	-712
oud	-713
atch	-714
wick	-715
▁War	-716
▁many	-717
▁ru	-718
▁rest	-719
▁house	-720
▁pe	-721
▁crown	-722
▁Warwick	-723
ff	-724
ows	-725
▁le	-726
▁cour	-727
Tis	-728
come	-729
ison	-730
▁His	-731
▁ent	-732
▁har	-733
▁thought	-734
LA	-735
SAB	-736
ELLA	-737
▁lie	-738
▁ISAB	-739
▁ISABELLA	-740
erc	-741
ian	-742
iss	-743
uck	-744
RAN	-745
▁set	-746
▁daughter	-747
che	-748
▁Well	-749
▁Romeo	-750
▁nothing	-751
ULI	-752
ors	-753
ONTES	-754
ULIET	-755
atter	-756
▁tong	-757
▁JULIET	-758
▁better	-759
▁LEONTES	-760
▁St	-761
▁VI	-762
▁Nay	-763
ittle	-764
▁gone	-765
▁prince	-766
rant	-767
AD	-768
ADY	-769
int	-770
ought	-771
▁LADY	-772
AL	-773
CE	-774
me	-775
ENCE	-776
well	-777
▁tri	-778
ied	-779
▁Pro	-780
▁keep	-781
▁news	-782
os	-783
▁res	-784
▁sle	-785
▁wit	-786
▁best	-787
▁against	-788
ces	-789
for	-790
hall	-791
ious	-792
▁Serv	-793
▁those	-794
ier	-795
ool	-796
hard	-797
▁SIC	-798
▁acc	-799
▁gri	-800
▁comp	-801
▁hence	-802
▁little	-803
▁Citizen	-804
▁SICINIUS	-805
▁Not	-806
▁hour	-807
▁lords	-808
▁thing	-809
une	-810
akes	-811
▁put	-812
ardon	-813
▁face	-814
lse	-815
ret	-816
sed	-817
ult	-818
▁On	-819
llow	-820
▁end	-821
▁kind	-822
EY	-823
ft	-824
▁two	-825
▁still	-826
▁young	-827
ont	-828
ork	-829
ield	-830
▁pri	-831
▁himself	-832
ud	-833
alk	-834
▁Thy	-835
▁pur	-836
▁LUCIO	-837
▁power	-838
ale	-839
ert	-840
ins	-841
▁IV	-842
▁Ric	-843
▁cha	-844
▁Richard	-845
▁CL	-846
▁sub	-847
▁count	-848
▁therefore	-849
TI	-850
cl	-851
ew	-852
▁gu	-853
ried	-854
cious	-855
iness	-856
▁dear	-857
▁else	-858
▁unto	-859
▁first	-860
▁peace	-861
▁BR	-862
▁sm	-863
ason	-864
hile	-865
▁Have	-866
▁Will	-867
▁duke	-868
▁till	-869
▁could	-870
ail	-871
ect	-872
ile	-873
uty	-874
▁co	-875
▁hus	-876
▁tra	-877
▁back	-878
▁words	-879
▁though	-880
ETH	-881
LIZ	-882
▁bid	-883
▁dre	-884
▁tre	-885
ABETH	-886
▁ELIZ	-887
▁York	-888
▁fell	-889
▁find	-890
▁need	-891
▁earth	-892
▁tongue	-893
▁ELIZABETH	-894
ius	-895
yal	-896
band	-897
ople	-898
▁lady	-899
▁thine	-900
ty	-901
IAN	-902
men	-903
eech	-904
orse	-905
▁bra	-906
▁hel	-907
▁home	-908
▁hope	-909
▁seem	-910
▁forth	-911
ark	-912
eth	-913
ray	-914
enry	-915
▁Yet	-916
▁high	-917
▁Henry	-918
▁husband	-919
vere	-920
▁Good	-921
▁right	-922
get	-923
▁chan	-924
tw	-925
ARW	-926
ICK	-927
uth	-928
▁ban	-929
▁WARW	-930
▁mind	-931
▁people	-932
▁WARWICK	-933
ds	-934
ix	-935
AST	-936
ach	-937
hip	-938
rer	-939
▁Do	-940
▁All	-941
▁che	-942
ister	-943
▁char	-944
▁conf	-945
▁show	-946
▁Shall	-947
ged	-948
▁bri	-949
▁hands	-950
HAM	-951
fort	-952
▁imp	-953
▁joy	-954
▁why	-955
▁Nurse	-956
▁cause	-957
▁master	-958
UL	-959
▁gl	-960
APUL	-961
▁law	-962
▁They	-963
▁mist	-964
▁none	-965
▁once	-966
▁said	-967
▁serv	-968
APULET	-969
▁CAPULET	-970
▁fort	-971
▁every	-972
GE	-973
IL	-974
MIO	-975
ren	-976
▁bod	-977
ousin	-978
▁bring	-979
RI	-980
bt	-981
▁dou	-982
UCK	-983
eed	-984
UTUS	-985
ates	-986
▁BUCK	-987
▁pass	-988
INGHAM	-989
▁BRUTUS	-990
▁please	-991
▁BUCKINGHAM	-992
lt	-993
BRO	-994
ESS	-995
iet	-996
ird	-997
▁BOL	-998
BROKE	-999
RANIO	-1000
▁From	-1001
▁light	-1002
▁BOLING	-1003
▁TRANIO	-1004
▁BOLINGBROKE	-1005
eel	-1006
▁wo	-1007
swer	-1008
vost	-1009
▁bes	-1010
▁nat	-1011
▁thr	-1012
▁royal	-1013
▁tears	-1014
▁whose	-1015
▁present	-1016
mb	-1017
ary	-1018
cle	-1019
its	-1020
▁Our	-1021
▁boy	-1022
▁came	-1023
▁just	-1024
▁since	-1025
lf	-1026
vy	-1027
ock	-1028
ory	-1029
roke	-1030
▁dev	-1031
▁full	-1032
▁after	-1033
▁heard	-1034
▁under	-1035
▁wrong	-1036
▁pardon	-1037
NE	-1038
GAR	-1039
pose	-1040
GARET	-1041
▁happ	-1042
▁land	-1043
▁place	-1044
▁MARGARET	-1045
ATH	-1046
ens	-1047
AMIL	-1048
▁ere	-1049
▁mis	-1050
▁King	-1051
▁last	-1052
▁state	-1053
sand	-1054
▁care	-1055
▁hold	-1056
▁kill	-1057
▁meet	-1058
▁sorrow	-1059
ORD	-1060
GELO	-1061
cent	-1062
esty	-1063
▁GRE	-1064
▁eye	-1065
ition	-1066
▁help	-1067
▁whom	-1068
▁ANGELO	-1069
▁thousand	-1070
▁Eng	-1071
▁fal	-1072
ARINA	-1073
▁less	-1074
arence	-1075
▁answer	-1076
▁follow	-1077
SC	-1078
irt	-1079
▁Sh	-1080
▁ch	-1081
cius	-1082
▁bus	-1083
▁far	-1084
▁pat	-1085
▁sun	-1086
ceive	-1087
▁KATH	-1088
▁enem	-1089
▁fool	-1090
▁weep	-1091
selves	-1092
▁about	-1093
▁shame	-1094
▁hither	-1095
▁Clarence	-1096
▁KATHARINA	-1097
iol	-1098
urde	-1099
▁fall	-1100
▁maid	-1101
▁Marcius	-1102
▁gentleman	-1103
day	-1104
▁ob	-1105
asure	-1106
▁into	-1107
▁Un	-1108
▁Up	-1109
ALUS	-1110
▁ESC	-1111
▁coun	-1112
▁hate	-1113
▁court	-1114
▁grief	-1115
▁makes	-1116
▁cousin	-1117
▁ESCALUS	-1118
▁gracious	-1119
air	-1120
▁Al	-1121
imes	-1122
ject	-1123
▁stri	-1124
▁woman	-1125
iv	-1126
ove	-1127
▁Hath	-1128
▁stre	-1129
▁turn	-1130
▁worth	-1131
▁comfort	-1132
alt	-1133
ild	-1134
ons	-1135
deed	-1136
ices	-1137
ling	-1138
▁bed	-1139
▁hum	-1140
▁DUCH	-1141
▁Duke	-1142
▁dost	-1143
▁talk	-1144
▁wilt	-1145
▁sleep	-1146
urderer	-1147
▁DUCHESS	-1148
ERC	-1149
itor	-1150
ount	-1151
pher	-1152
▁bel	-1153
▁Ange	-1154
▁body	-1155
▁over	-1156
▁i	-1157
ute	-1158
▁bu	-1159
▁Her	-1160
▁att	-1161
▁dra	-1162
▁inst	-1163
morrow	-1164
▁fault	-1165
▁sound	-1166
▁thank	-1167
▁Angelo	-1168
IA	-1169
ised	-1170
▁adv	-1171
ience	-1172
▁play	-1173
AMILLO	-1174
▁false	-1175
▁prove	-1176
▁indeed	-1177
▁CAMILLO	-1178
▁another	-1179
ily	-1180
▁vo	-1181
ieve	-1182
omet	-1183
▁has	-1184
▁ret	-1185
▁ser	-1186
▁use	-1187
▁wel	-1188
▁Even	-1189
▁deed	-1190
▁Would	-1191
▁sword	-1192
▁fellow	-1193
▁Provost	-1194
ENS	-1195
ORT	-1196
ade	-1197
ans	-1198
▁bo	-1199
▁HORT	-1200
▁even	-1201
▁pers	-1202
▁vill	-1203
▁fight	-1204
▁matter	-1205
▁HORTENS	-1206
▁fortune	-1207
RIAR	-1208
hold	-1209
▁Upon	-1210
▁sent	-1211
▁FRIAR	-1212
▁grave	-1213
▁prison	-1214
▁sovere	-1215
▁country	-1216
▁HORTENSIO	-1217
,'	-1218
STA	-1219
eal	-1220
ury	-1221
APTI	-1222
▁Are	-1223
▁cur	-1224
▁dan	-1225
▁merc	-1226
▁send	-1227
▁virt	-1228
▁BAPTI	-1229
▁doubt	-1230
▁years	-1231
▁banish	-1232
▁rather	-1233
▁BAPTISTA	-1234
YC	-1235
mp	-1236
▁Ty	-1237
▁gr	-1238
OLYC	-1239
fect	-1240
ouch	-1241
pect	-1242
▁AUT	-1243
▁COM	-1244
▁ass	-1245
▁hang	-1246
▁want	-1247
▁wish	-1248
OLYCUS	-1249
▁reven	-1250
▁truth	-1251
▁COMINIUS	-1252
▁business	-1253
▁AUTOLYCUS	-1254
.'	-1255
dd	-1256
▁At	-1257
▁CLAR	-1258
▁More	-1259
▁disc	-1260
▁lies	-1261
▁only	-1262
▁Third	-1263
▁shalt	-1264
▁reason	-1265
▁CLARENCE	-1266
ms	-1267
ere	-1268
ior	-1269
pen	-1270
ENES	-1271
▁cra	-1272
▁sea	-1273
pherd	-1274
rance	-1275
▁arms	-1276
▁stra	-1277
▁dream	-1278
▁breath	-1279
▁command	-1280
ENV	-1281
der	-1282
▁gi	-1283
OLIO	-1284
ener	-1285
▁NOR	-1286
▁lay	-1287
▁sec	-1288
▁BENV	-1289
▁prom	-1290
▁Clown	-1291
▁stran	-1292
▁Gentle	-1293
▁BENVOLIO	-1294
SP	-1295
ERO	-1296
ROSP	-1297
UMIO	-1298
▁sen	-1299
▁Take	-1300
▁holy	-1301
▁pity	-1302
▁wind	-1303
▁PROSP	-1304
▁proud	-1305
▁remem	-1306
▁somet	-1307
▁GRUMIO	-1308
▁enough	-1309
▁content	-1310
▁PROSPERO	-1311
ia	-1312
hed	-1313
ken	-1314
▁Su	-1315
ERCU	-1316
ator	-1317
▁Did	-1318
▁bea	-1319
▁Kate	-1320
▁dare	-1321
▁fare	-1322
▁sold	-1323
▁spir	-1324
▁MERCU	-1325
▁lives	-1326
▁swear	-1327
▁three	-1328
▁MERCUTIO	-1329
▁Murderer	-1330
IS	-1331
ike	-1332
eter	-1333
▁dep	-1334
▁get	-1335
▁Were	-1336
▁gods	-1337
▁tend	-1338
▁nature	-1339
▁within	-1340
▁Servant	-1341
▁villain	-1342
▁welcome	-1343
▁LUCENTIO	-1344
OMP	-1345
ars	-1346
ham	-1347
LAND	-1348
▁gre	-1349
▁saw	-1350
ester	-1351
▁POMP	-1352
▁foul	-1353
▁free	-1354
▁kiss	-1355
▁happy	-1356
▁madam	-1357
▁sister	-1358
▁things	-1359
▁mistress	-1360
▁sovereign	-1361
AUL	-1362
any	-1363
apt	-1364
att	-1365
hal	-1366
unt	-1367
ient	-1368
vers	-1369
▁Was	-1370
▁Give	-1371
▁PAUL	-1372
▁city	-1373
▁break	-1374
▁means	-1375
▁yield	-1376
▁PAULINA	-1377
▁beseech	-1378
▁subject	-1379
eft	-1380
ery	-1381
▁aw	-1382
ague	-1383
▁Say	-1384
▁den	-1385
▁mer	-1386
onder	-1387
▁Look	-1388
▁born	-1389
▁oath	-1390
gainst	-1391
gether	-1392
▁horse	-1393
▁yours	-1394
▁GREMIO	-1395
▁POMPEY	-1396
LIX	-1397
NIA	-1398
anc	-1399
▁PO	-1400
OLUM	-1401
balt	-1402
ches	-1403
usic	-1404
▁Com	-1405
▁dru	-1406
▁tem	-1407
▁fire	-1408
▁supp	-1409
▁POLIX	-1410
▁VOLUM	-1411
▁faith	-1412
▁looks	-1413
▁while	-1414
▁wound	-1415
▁bloody	-1416
▁England	-1417
▁VOLUMNIA	-1418
▁yourself	-1419
▁POLIXENES	-1420
ey	-1421
ues	-1422
INGS	-1423
▁car	-1424
▁maj	-1425
▁spo	-1426
▁win	-1427
enger	-1428
▁Fare	-1429
▁HAST	-1430
▁cond	-1431
▁requ	-1432
centio	-1433
ingman	-1434
▁common	-1435
▁traitor	-1436
▁HASTINGS	-1437
▁Servingman	-1438
by	-1439
AUR	-1440
rong	-1441
▁Can	-1442
▁May	-1443
▁def	-1444
▁lam	-1445
▁mon	-1446
broke	-1447
▁Hast	-1448
▁LAUR	-1449
▁mark	-1450
ertain	-1451
▁uncle	-1452
essenger	-1453
▁LAURENCE	-1454
▁children	-1455
BY	-1456
BER	-1457
▁Ah	-1458
form	-1459
▁Jul	-1460
▁met	-1461
▁val	-1462
▁beat	-1463
▁late	-1464
▁left	-1465
▁soon	-1466
▁sight	-1467
▁Tybalt	-1468
▁danger	-1469
▁tender	-1470
▁majesty	-1471
▁Therefore	-1472
FF	-1473
ten	-1474
use	-1475
▁Sp	-1476
LIFF	-1477
THUM	-1478
like	-1479
▁sin	-1480
▁woe	-1481
▁days	-1482
▁foot	-1483
▁save	-1484
▁seen	-1485
▁told	-1486
BERLAND	-1487
▁NORTHUM	-1488
▁warrant	-1489
▁NORTHUMBERLAND	-1490
ID	-1491
TA	-1492
rem	-1493
▁Lu	-1494
▁Pl	-1495
ides	-1496
idow	-1497
▁sad	-1498
▁does	-1499
▁gener	-1500
▁mercy	-1501
▁report	-1502
▁return	-1503
▁farewell	-1504
up	-1505
dom	-1506
hes	-1507
rel	-1508
earn	-1509
ring	-1510
ters	-1511
unes	-1512
▁sit	-1513
▁ANNE	-1514
▁deep	-1515
▁gold	-1516
▁sure	-1517
▁heavy	-1518
▁marry	-1519
▁Though	-1520
▁purpose	-1521
▁through	-1522
▁without	-1523
▁together	-1524
bl	-1525
ca	-1526
ERD	-1527
aim	-1528
ict	-1529
▁PR	-1530
INCE	-1531
cher	-1532
enty	-1533
▁Had	-1534
▁cho	-1535
▁ill	-1536
▁rec	-1537
ments	-1538
▁Clif	-1539
▁Mont	-1540
▁cold	-1541
▁ears	-1542
▁grow	-1543
▁lost	-1544
ignior	-1545
▁deser	-1546
▁nurse	-1547
▁Juliet	-1548
▁PRINCE	-1549
▁person	-1550
▁strange	-1551
▁Clifford	-1552
az	-1553
mer	-1554
ush	-1555
▁MI	-1556
▁Ri	-1557
ains	-1558
ceed	-1559
ours	-1560
ross	-1561
vent	-1562
▁Bol	-1563
▁Cam	-1564
▁Cor	-1565
▁ask	-1566
▁wat	-1567
▁Tell	-1568
▁disp	-1569
▁suff	-1570
▁liege	-1571
▁pluck	-1572
▁times	-1573
▁Boling	-1574
▁spirit	-1575
▁believe	-1576
▁thyself	-1577
▁Bolingbroke	-1578
ets	-1579
ift	-1580
▁Ha	-1581
▁Wh	-1582
▁jo	-1583
ever	-1584
▁One	-1585
▁age	-1586
▁air	-1587
▁sil	-1588
▁Away	-1589
▁Some	-1590
▁heir	-1591
▁loss	-1592
▁says	-1593
▁Whose	-1594
▁learn	-1595
▁point	-1596
▁Should	-1597
▁Signior	-1598
aid	-1599
ced	-1600
ial	-1601
ner	-1602
▁cry	-1603
▁fly	-1604
▁past	-1605
▁devil	-1606
▁friar	-1607
▁haste	-1608
▁trust	-1609
▁Coriol	-1610
▁desire	-1611
▁ground	-1612
▁instru	-1613
▁entreat	-1614
▁justice	-1615
▁Farewell	-1616
gu	-1617
sh	-1618
aud	-1619
ges	-1620
ina	-1621
ixt	-1622
ined	-1623
outh	-1624
▁Sen	-1625
▁mur	-1626
▁ord	-1627
▁vis	-1628
aking	-1629
night	-1630
▁Like	-1631
▁Pray	-1632
▁betw	-1633
▁bold	-1634
▁fast	-1635
▁near	-1636
▁found	-1637
▁slain	-1638
▁France	-1639
▁toward	-1640
▁service	-1641
▁remember	-1642
▁straight	-1643
IZ	-1644
LE	-1645
UF	-1646
LOR	-1647
▁Gl	-1648
IZEL	-1649
UFID	-1650
oman	-1651
ution	-1652
▁FLOR	-1653
▁hard	-1654
▁wear	-1655
▁AUFID	-1656
▁These	-1657
▁alone	-1658
▁curse	-1659
▁quick	-1660
▁beauty	-1661
▁strong	-1662
▁worthy	-1663
▁married	-1664
▁AUFIDIUS	-1665
▁FLORIZEL	-1666
▁Messenger	-1667
xt	-1668
ION	-1669
TON	-1670
let	-1671
▁hu	-1672
adam	-1673
ithe	-1674
ning	-1675
ured	-1676
▁See	-1677
▁bec	-1678
▁run	-1679
▁woo	-1680
audio	-1681
▁exec	-1682
▁open	-1683
▁poss	-1684
▁enemy	-1685
▁grant	-1686
▁ready	-1687
▁touch	-1688
▁Claudio	-1689
▁brought	-1690
▁general	-1691
▁revenge	-1692
!'	-1693
bs	-1694
gs	-1695
ERS	-1696
aunt	-1697
cept	-1698
ible	-1699
inks	-1700
▁fur	-1701
▁inc	-1702
▁inf	-1703
▁iss	-1704
umber	-1705
▁deli	-1706
▁duty	-1707
▁lose	-1708
▁prof	-1709
▁quar	-1710
▁canst	-1711
▁hours	-1712
▁knows	-1713
▁youth	-1714
▁charge	-1715
▁itself	-1716
▁Senator	-1717
▁confess	-1718
▁thoughts	-1719
▁Gentleman	-1720
AS	-1721
EB	-1722
pl	-1723
ua	-1724
vo	-1725
ouc	-1726
CIUS	-1727
ched	-1728
illo	-1729
ship	-1730
▁Bec	-1731
▁SEB	-1732
▁del	-1733
▁par	-1734
ithee	-1735
riage	-1736
▁desp	-1737
▁dist	-1738
▁feel	-1739
▁morn	-1740
▁read	-1741
ASTIAN	-1742
▁Glouc	-1743
▁Madam	-1744
▁speed	-1745
▁Master	-1746
▁stands	-1747
▁streng	-1748
▁twenty	-1749
▁Against	-1750
▁MARCIUS	-1751
▁Montague	-1752
▁Shepherd	-1753
▁SEBASTIAN	-1754
OW	-1755
op	-1756
eep	-1757
olk	-1758
oop	-1759
ump	-1760
▁Pr	-1761
cess	-1762
▁div	-1763
▁jud	-1764
▁fore	-1765
▁half	-1766
▁hell	-1767
▁mock	-1768
▁post	-1769
ingham	-1770
▁field	-1771
▁resol	-1772
fection	-1773
▁behold	-1774
▁Camillo	-1775
▁counsel	-1776
▁fearful	-1777
no	-1778
DEL	-1779
ads	-1780
alm	-1781
ols	-1782
▁Bo	-1783
▁ye	-1784
osom	-1785
▁cut	-1786
▁dam	-1787
▁min	-1788
▁ter	-1789
DELLO	-1790
ortal	-1791
▁BION	-1792
▁Buck	-1793
▁Till	-1794
▁batt	-1795
▁each	-1796
▁trib	-1797
▁work	-1798
▁wret	-1799
▁bosom	-1800
▁bound	-1801
▁known	-1802
▁short	-1803
▁hearts	-1804
▁honest	-1805
▁Hastings	-1806
▁marriage	-1807
▁BIONDELLO	-1808
▁Buckingham	-1809
▁Gloucester	-1810
of	-1811
sc	-1812
rah	-1813
the	-1814
▁ve	-1815
ench	-1816
folk	-1817
iers	-1818
ones	-1819
pare	-1820
▁Cap	-1821
▁ten	-1822
▁tit	-1823
▁whi	-1824
▁Thus	-1825
▁Vols	-1826
▁dish	-1827
▁draw	-1828
▁harm	-1829
▁seek	-1830
▁suit	-1831
▁tale	-1832
▁guilt	-1833
▁serve	-1834
▁widow	-1835
▁women	-1836
▁attend	-1837
▁murder	-1838
▁strike	-1839
▁voices	-1840
▁wonder	-1841
▁Norfolk	-1842
▁company	-1843
▁highness	-1844
▁something	-1845
OP	-1846
Tw	-1847
▁CA	-1848
▁ag	-1849
ERLE	-1850
hood	-1851
most	-1852
▁AUM	-1853
▁bur	-1854
▁cor	-1855
▁sat	-1856
TONIO	-1857
ander	-1858
ished	-1859
▁knew	-1860
▁pret	-1861
▁side	-1862
▁sing	-1863
▁didst	-1864
▁watch	-1865
▁change	-1866
▁loving	-1867
▁ANTONIO	-1868
▁AUMERLE	-1869
▁heavens	-1870
▁Lucentio	-1871
▁strength	-1872
▁gentlemen	-1873
ZA	-1874
ONZA	-1875
ents	-1876
▁Pet	-1877
▁Wel	-1878
▁act	-1879
▁aff	-1880
▁bit	-1881
▁Bian	-1882
▁Lanc	-1883
▁Tran	-1884
▁sake	-1885
▁stir	-1886
▁wast	-1887
ONZALO	-1888
▁Marry	-1889
▁brave	-1890
▁cloud	-1891
▁enter	-1892
ethinks	-1893
▁GONZALO	-1894
▁enemies	-1895
▁pleasure	-1896
▁Lancaster	-1897
bly	-1898
fid	-1899
ils	-1900
rew	-1901
▁Sw	-1902
▁dr	-1903
▁ty	-1904
▁wa	-1905
ives	-1906
oose	-1907
▁HER	-1908
▁Pom	-1909
▁Unt	-1910
▁ext	-1911
▁gar	-1912
▁pie	-1913
▁pra	-1914
▁Lady	-1915
▁Most	-1916
▁begg	-1917
▁chee	-1918
▁next	-1919
▁pale	-1920
▁sign	-1921
ceived	-1922
▁breat	-1923
▁close	-1924
▁gates	-1925
▁music	-1926
▁souls	-1927
▁title	-1928
▁Bianca	-1929
▁coming	-1930
▁course	-1931
▁suffer	-1932
▁thanks	-1933
▁withal	-1934
▁deliver	-1935
be	-1936
AUD	-1937
ats	-1938
els	-1939
▁Au	-1940
▁Ch	-1941
▁sk	-1942
etch	-1943
vour	-1944
▁abs	-1945
▁fit	-1946
AUDIO	-1947
MIONE	-1948
claim	-1949
oward	-1950
▁Rich	-1951
▁forg	-1952
▁grie	-1953
▁jest	-1954
▁lips	-1955
▁rich	-1956
▁sick	-1957
▁weak	-1958
▁CLIFF	-1959
▁Petru	-1960
▁order	-1961
▁plain	-1962
▁become	-1963
▁either	-1964
▁CLAUDIO	-1965
▁CLIFFORD	-1966
▁HERMIONE	-1967
▁patience	-1968
▁themselves	-1969
DA	-1970
isf	-1971
kes	-1972
lly	-1973
oof	-1974
ses	-1975
urp	-1976
▁EL	-1977
▁JO	-1978
▁ac	-1979
arry	-1980
chio	-1981
east	-1982
irth	-1983
race	-1984
rest	-1985
ries	-1986
twas	-1987
▁Bes	-1988
▁reg	-1989
▁ven	-1990
▁wis	-1991
RANDA	-1992
ready	-1993
twere	-1994
▁Call	-1995
▁LORD	-1996
▁Make	-1997
▁cast	-1998
▁forb	-1999
▁prop	-2000
▁same	-2001
▁took	-2002
▁wall	-2003
fidius	-2004
▁Being	-2005
▁Since	-2006
▁along	-2007
▁cheer	-2008
▁merry	-2009
▁sworn	-2010
▁worse	-2011
▁Tranio	-2012
▁breast	-2013
▁consul	-2014
▁forget	-2015
▁poison	-2016
▁virtue	-2017
▁MIRANDA	-2018
▁further	-2019
▁Aufidius	-2020
▁Petruchio	-2021
HN	-2022
cy	-2023
SON	-2024
lst	-2025
▁Re	-2026
▁cr	-2027
▁du	-2028
▁ta	-2029
ally	-2030
ions	-2031
rows	-2032
rust	-2033
vern	-2034
▁bad	-2035
▁emb	-2036
▁enc	-2037
▁red	-2038
▁wed	-2039
▁Alas	-2040
▁JOHN	-2041
▁book	-2042
▁dire	-2043
▁four	-2044
▁gave	-2045
▁move	-2046
▁self	-2047
▁soft	-2048
▁wise	-2049
▁begin	-2050
▁given	-2051
▁issue	-2052
▁liber	-2053
▁loves	-2054
▁mouth	-2055
▁battle	-2056
▁office	-2057
▁already	-2058
▁consent	-2059
▁morning	-2060
▁request	-2061
▁Hereford	-2062
▁dangerous	-2063
nk	-2064
pes	-2065
▁Ar	-2066
anus	-2067
dden	-2068
each	-2069
fter	-2070
icer	-2071
mber	-2072
mond	-2073
orge	-2074
uous	-2075
used	-2076
▁Yes	-2077
▁exp	-2078
▁foe	-2079
▁gro	-2080
▁lad	-2081
▁pay	-2082
▁burn	-2083
▁goes	-2084
▁sons	-2085
▁succ	-2086
▁trou	-2087
▁Speak	-2088
▁Tower	-2089
▁black	-2090
▁feast	-2091
▁frown	-2092
▁Before	-2093
▁satisf	-2094
▁wounds	-2095
▁between	-2096
▁neither	-2097
▁quarrel	-2098
▁Richmond	-2099
▁soldiers	-2100
NT	-2101
awd	-2102
hem	-2103
irm	-2104
ots	-2105
▁Ab	-2106
aret	-2107
aris	-2108
chan	-2109
empt	-2110
ging	-2111
ires	-2112
rist	-2113
ting	-2114
ures	-2115
▁bar	-2116
▁dro	-2117
▁est	-2118
▁hot	-2119
▁mal	-2120
▁und	-2121
TESBY	-2122
garet	-2123
owers	-2124
▁Must	-2125
▁Such	-2126
▁case	-2127
▁dark	-2128
▁priv	-2129
▁sigh	-2130
▁thri	-2131
▁vict	-2132
▁bless	-2133
▁bride	-2134
▁brief	-2135
▁often	-2136
▁water	-2137
▁Unless	-2138
▁having	-2139
▁speech	-2140
▁thence	-2141
▁Because	-2142
▁CATESBY	-2143
▁Welcome	-2144
▁servant	-2145
▁presence	-2146
po	-2147
ILI	-2148
emn	-2149
ona	-2150
▁ev	-2151
alth	-2152
ends	-2153
▁ble	-2154
▁bow	-2155
▁got	-2156
▁pen	-2157
▁sum	-2158
cient	-2159
ondon	-2160
▁Bapt	-2161
▁Both	-2162
▁GREY	-2163
▁Keep	-2164
▁Whom	-2165
▁deny	-2166
▁town	-2167
▁wars	-2168
▁Saint	-2169
▁Their	-2170
▁compl	-2171
▁dread	-2172
▁inter	-2173
▁kings	-2174
▁loved	-2175
▁seems	-2176
▁spoke	-2177
▁visit	-2178
▁voice	-2179
▁London	-2180
▁mighty	-2181
▁mortal	-2182
▁throne	-2183
▁Baptist	-2184
▁flatter	-2185
▁respect	-2186
▁Margaret	-2187
▁Coriolanus	-2188
CA	-2189
IV	-2190
ip	-2191
so	-2192
bed	-2193
ern	-2194
oun	-2195
▁De	-2196
▁Ge	-2197
ILIA	-2198
iant	-2199
ided	-2200
ired	-2201
ourn	-2202
ught	-2203
▁Ere	-2204
▁RIV	-2205
▁bab	-2206
▁bro	-2207
▁buy	-2208
▁cap	-2209
▁col	-2210
▁fra	-2211
▁hur	-2212
▁vow	-2213
IANCA	-2214
▁Isab	-2215
▁Lest	-2216
▁prot	-2217
▁safe	-2218
ainted	-2219
▁Paris	-2220
▁deeds	-2221
▁knock	-2222
▁BIANCA	-2223
▁George	-2224
▁RIVERS	-2225
▁action	-2226
▁appear	-2227
▁bitter	-2228
▁dishon	-2229
▁sudden	-2230
▁ancient	-2231
▁chamber	-2232
▁prayers	-2233
▁promise	-2234
▁worship	-2235
▁Baptista	-2236
▁princely	-2237
ls	-2238
BOW	-2239
cks	-2240
esh	-2241
now	-2242
ura	-2243
▁pu	-2244
AUNT	-2245
ated	-2246
lish	-2247
nown	-2248
oney	-2249
resh	-2250
urch	-2251
▁ang	-2252
▁ign	-2253
▁lim	-2254
▁opp	-2255
▁reb	-2256
▁sac	-2257
essed	-2258
otion	-2259
right	-2260
stand	-2261
▁bawd	-2262
▁lead	-2263
▁rage	-2264
▁viol	-2265
antage	-2266
▁ELBOW	-2267
▁GAUNT	-2268
▁Roman	-2269
▁Stand	-2270
▁appro	-2271
▁creat	-2272
▁cross	-2273
▁fetch	-2274
▁flesh	-2275
▁heads	-2276
▁scorn	-2277
▁coward	-2278
▁lament	-2279
▁triump	-2280
▁kingdom	-2281
▁patient	-2282
▁prepare	-2283
▁success	-2284
▁valiant	-2285
▁witness	-2286
▁presently	-2287
UR	-2288
to	-2289
▁3	-2290
GUE	-2291
iff	-2292
ler	-2293
urs	-2294
▁Bl	-2295
▁Jo	-2296
▁Ox	-2297
▁TY	-2298
▁ow	-2299
ONTA	-2300
aken	-2301
mand	-2302
sper	-2303
▁cle	-2304
▁eat	-2305
▁ins	-2306
▁lab	-2307
▁unw	-2308
antag	-2309
ensio	-2310
ities	-2311
itted	-2312
▁Hort	-2313
▁Merc	-2314
▁gall	-2315
▁kins	-2316
▁lack	-2317
▁moon	-2318
▁prin	-2319
▁scar	-2320
▁wash	-2321
▁MONTA	-2322
▁Think	-2323
▁drink	-2324
▁least	-2325
▁offer	-2326
▁slave	-2327
▁throw	-2328
▁Christ	-2329
▁Oxford	-2330
▁defend	-2331
▁faults	-2332
▁secret	-2333
▁forward	-2334
▁prithee	-2335
▁MONTAGUE	-2336
▁tribunes	-2337
▁Hortensio	-2338
ac	-2339
als	-2340
bit	-2341
ees	-2342
ley	-2343
pey	-2344
ued	-2345
▁id	-2346
aked	-2347
feit	-2348
host	-2349
ines	-2350
king	-2351
ully	-2352
vest	-2353
ying	-2354
▁Con	-2355
▁Gre	-2356
▁Kat	-2357
▁Whi	-2358
▁ben	-2359
▁fie	-2360
▁mid	-2361
▁nay	-2362
▁occ	-2363
▁sur	-2364
▁Doth	-2365
▁Hark	-2366
▁damn	-2367
▁dest	-2368
▁hide	-2369
▁writ	-2370
asters	-2371
harina	-2372
▁Bohem	-2373
▁North	-2374
▁beast	-2375
▁small	-2376
▁Pompey	-2377
▁almost	-2378
▁chance	-2379
▁depart	-2380
▁pretty	-2381
▁possess	-2382
▁thither	-2383
umberland	-2384
▁subjects	-2385
▁Katharina	-2386
▁execution	-2387
▁slaughter	-2388
▁Northumberland	-2389
AT	-2390
RG	-2391
ITA	-2392
arl	-2393
aul	-2394
rum	-2395
umb	-2396
▁Ad	-2397
▁Am	-2398
▁Br	-2399
▁Ca	-2400
▁Ex	-2401
▁ut	-2402
hind	-2403
oint	-2404
then	-2405
ural	-2406
▁eas	-2407
inger	-2408
ingly	-2409
ledge	-2410
▁Hold	-2411
▁PERD	-2412
▁Paul	-2413
▁VIRG	-2414
▁base	-2415
▁fill	-2416
▁fond	-2417
▁form	-2418
▁glad	-2419
▁inno	-2420
▁pain	-2421
▁stru	-2422
▁tear	-2423
▁wert	-2424
cience	-2425
perate	-2426
▁Peace	-2427
▁Sweet	-2428
▁birth	-2429
▁hadst	-2430
▁trump	-2431
▁usurp	-2432
▁awhile	-2433
▁favour	-2434
▁goodly	-2435
▁living	-2436
▁whence	-2437
▁Bohemia	-2438
▁PERDITA	-2439
▁certain	-2440
▁hearing	-2441
▁offence	-2442
▁perform	-2443
▁proceed	-2444
▁quickly	-2445
▁VIRGILIA	-2446
▁virtuous	-2447
LY	-2448
ze	-2449
dge	-2450
eds	-2451
eem	-2452
raw	-2453
ror	-2454
▁ay	-2455
▁ca	-2456
▁ur	-2457
IANA	-2458
ding	-2459
iest	-2460
omes	-2461
orth	-2462
over	-2463
▁Off	-2464
▁SLY	-2465
▁Yea	-2466
▁adm	-2467
▁inj	-2468
▁pit	-2469
▁shi	-2470
▁tor	-2471
edant	-2472
force	-2473
isure	-2474
ustom	-2475
▁Stay	-2476
▁fier	-2477
▁knee	-2478
▁mild	-2479
▁shad	-2480
▁slew	-2481
▁walk	-2482
▁wild	-2483
astard	-2484
▁angry	-2485
▁blows	-2486
▁forsw	-2487
▁kneel	-2488
▁match	-2489
▁pleas	-2490
▁quiet	-2491
▁worst	-2492
▁Isabel	-2493
▁church	-2494
▁guilty	-2495
▁lawful	-2496
▁MARIANA	-2497
▁greater	-2498
▁leisure	-2499
▁soldier	-2500
▁treason	-2501
▁weeping	-2502
▁deserved	-2503
▁affection	-2504
gg	-2505
arn	-2506
awn	-2507
gue	-2508
joy	-2509
ked	-2510
med	-2511
ony	-2512
ual	-2513
vol	-2514
zen	-2515
▁ST	-2516
▁Tw	-2517
▁ap	-2518
▁em	-2519
ARIS	-2520
adua	-2521
ames	-2522
ighb	-2523
read	-2524
rupt	-2525
▁Bel	-2526
▁Men	-2527
▁Out	-2528
▁fam	-2529
▁hap	-2530
▁med	-2531
▁mod	-2532
▁nob	-2533
▁sho	-2534
▁unc	-2535
▁unk	-2536
▁won	-2537
ended	-2538
eness	-2539
fully	-2540
remio	-2541
rumio	-2542
▁Mist	-2543
▁blow	-2544
▁doom	-2545
▁fled	-2546
▁list	-2547
▁neck	-2548
▁sole	-2549
▁year	-2550
▁PARIS	-2551
▁Padua	-2552
▁Watch	-2553
▁While	-2554
▁ignor	-2555
▁march	-2556
▁needs	-2557
▁reign	-2558
▁sense	-2559
▁shows	-2560
antagen	-2561
itizens	-2562
osition	-2563
▁Gremio	-2564
▁Grumio	-2565
▁behind	-2566
▁clouds	-2567
▁contin	-2568
▁encoun	-2569
▁forbid	-2570
▁govern	-2571
▁ladies	-2572
▁letter	-2573
▁second	-2574
▁speaks	-2575
▁English	-2576
▁because	-2577
▁breathe	-2578
▁condemn	-2579
▁letters	-2580
▁liberty	-2581
▁measure	-2582
▁trouble	-2583
▁wouldst	-2584
▁prisoner	-2585
▁sentence	-2586
▁shepherd	-2587
▁Plantagen	-2588
▁dishonour	-2589
▁ourselves	-2590
▁banishment	-2591
:'	-2592
▁X	-2593
dle	-2594
ize	-2595
oor	-2596
oss	-2597
rue	-2598
vel	-2599
acle	-2600
aves	-2601
ider	-2602
iles	-2603
rous	-2604
ster	-2605
▁Ant	-2606
▁Hea	-2607
▁Int	-2608
▁Too	-2609
▁big	-2610
▁cru	-2611
▁dog	-2612
▁dry	-2613
▁lan	-2614
▁mut	-2615
▁oft	-2616
▁pet	-2617
▁ref	-2618
aring	-2619
ators	-2620
ndred	-2621
▁Fear	-2622
▁five	-2623
▁held	-2624
▁join	-2625
▁laid	-2626
▁note	-2627
▁obey	-2628
▁seat	-2629
▁sort	-2630
▁stor	-2631
▁temp	-2632
▁vain	-2633
▁womb	-2634
▁Gaunt	-2635
▁PETER	-2636
▁above	-2637
▁aside	-2638
▁bones	-2639
▁drunk	-2640
▁fresh	-2641
▁grand	-2642
▁lived	-2643
▁noise	-2644
▁piece	-2645
▁rough	-2646
▁steal	-2647
▁Sirrah	-2648
▁appare	-2649
▁choose	-2650
▁golden	-2651
▁longer	-2652
▁morrow	-2653
▁remain	-2654
▁hundred	-2655
▁prosper	-2656
▁victory	-2657
▁dispatch	-2658
▁proclaim	-2659
▁conscience	-2660
▁Plantagenet	-2661
bb	-2662
hn	-2663
ny	-2664
ts	-2665
!--	-2666
ART	-2667
WIS	-2668
ban	-2669
ety	-2670
ieu	-2671
ott	-2672
rim	-2673
set	-2674
ume	-2675
vey	-2676
▁En	-2677
▁Fa	-2678
▁Me	-2679
▁Sc	-2680
▁XI	-2681
▁ef	-2682
RIEL	-2683
ceit	-2684
erle	-2685
iled	-2686
ular	-2687
ulet	-2688
▁DOR	-2689
▁Per	-2690
▁exc	-2691
▁ind	-2692
▁lau	-2693
▁len	-2694
▁low	-2695
▁saf	-2696
▁sch	-2697
▁sto	-2698
▁sus	-2699
asion	-2700
inius	-2701
lease	-2702
ounds	-2703
posed	-2704
uthor	-2705
▁Earl	-2706
▁Hear	-2707
▁LART	-2708
▁Unto	-2709
▁bend	-2710
▁fine	-2711
▁lust	-2712
▁obed	-2713
▁purs	-2714
▁shed	-2715
▁tent	-2716
▁warm	-2717
▁woes	-2718
atesby	-2719
icious	-2720
▁ARIEL	-2721
▁Could	-2722
▁LEWIS	-2723
▁bears	-2724
▁broke	-2725
▁conqu	-2726
▁doing	-2727
▁drown	-2728
▁glory	-2729
▁knees	-2730
▁lands	-2731
▁pride	-2732
▁saint	-2733
▁stain	-2734
▁steel	-2735
▁stood	-2736
▁swift	-2737
▁venge	-2738
▁double	-2739
▁effect	-2740
▁forgot	-2741
▁labour	-2742
▁revere	-2743
▁threat	-2744
▁wisdom	-2745
▁Capulet	-2746
▁Catesby	-2747
▁LARTIUS	-2748
▁blessed	-2749
▁counter	-2750
▁despair	-2751
▁kinsman	-2752
▁slander	-2753
▁towards	-2754
▁Watchman	-2755
▁citizens	-2756
▁precious	-2757
▁desperate	-2758
▁encounter	-2759
▁entertain	-2760
▁knowledge	-2761
▁yourselves	-2762
;'	-2763
AMP	-2764
TIS	-2765
ang	-2766
irl	-2767
owb	-2768
ude	-2769
uff	-2770
▁fe	-2771
cted	-2772
ease	-2773
iful	-2774
rent	-2775
vail	-2776
▁Aum	-2777
▁CUR	-2778
▁Dis	-2779
▁Fri	-2780
▁Ver	-2781
▁eld	-2782
▁fat	-2783
▁few	-2784
▁fru	-2785
▁pun	-2786
▁ran	-2787
▁uns	-2788
eterm	-2789
gment	-2790
iance	-2791
ility	-2792
itors	-2793
rence	-2794
▁Cons	-2795
▁John	-2796
▁Mowb	-2797
▁SAMP	-2798
▁abro	-2799
▁army	-2800
▁capt	-2801
▁corn	-2802
▁died	-2803
▁foll	-2804
▁hair	-2805
▁kept	-2806
▁seal	-2807
▁sour	-2808
▁stud	-2809
ations	-2810
estion	-2811
ointed	-2812
ontent	-2813
▁alive	-2814
▁const	-2815
▁contr	-2816
▁dance	-2817
▁enjoy	-2818
▁guess	-2819
▁guest	-2820
▁money	-2821
▁mount	-2822
▁plant	-2823
▁quoth	-2824
▁remed	-2825
▁sever	-2826
▁white	-2827
▁CURTIS	-2828
▁Keeper	-2829
▁Pedant	-2830
▁Within	-2831
▁author	-2832
▁beggar	-2833
▁cheeks	-2834
▁deadly	-2835
▁determ	-2836
▁fought	-2837
▁health	-2838
▁manner	-2839
▁struck	-2840
▁Aumerle	-2841
▁Mowbray	-2842
▁SAMPSON	-2843
▁bastard	-2844
▁flowers	-2845
▁honours	-2846
▁masters	-2847
▁lordship	-2848
▁methinks	-2849
▁promised	-2850
▁wretched	-2851
▁understand	-2852
BU	-2853
ne	-2854
:--	-2855
GON	-2856
LEY	-2857
ash	-2858
den	-2859
ief	-2860
mit	-2861
ppy	-2862
tle	-2863
▁EX	-2864
▁Fl	-2865
▁Ne	-2866
BURY	-2867
bury	-2868
ewis	-2869
head	-2870
ited	-2871
osed	-2872
reed	-2873
utio	-2874
ways	-2875
▁Put	-2876
▁aid	-2877
▁deg	-2878
▁pal	-2879
▁rot	-2880
▁sim	-2881
▁try	-2882
GONUS	-2883
ament	-2884
ounce	-2885
▁ANTI	-2886
▁Mine	-2887
▁Poor	-2888
▁cred	-2889
▁gent	-2890
▁prov	-2891
orious	-2892
▁Lewis	-2893
▁among	-2894
▁calls	-2895
▁cried	-2896
▁cruel	-2897
▁early	-2898
▁going	-2899
▁greet	-2900
▁guard	-2901
▁judge	-2902
▁liest	-2903
▁moved	-2904
▁seven	-2905
▁shake	-2906
▁spent	-2907
▁stars	-2908
▁teach	-2909
▁truly	-2910
▁Either	-2911
▁Heaven	-2912
▁Pardon	-2913
▁demand	-2914
▁dreams	-2915
▁extrem	-2916
▁humble	-2917
▁neighb	-2918
▁priest	-2919
▁scarce	-2920
▁summer	-2921
▁valour	-2922
▁wretch	-2923
▁account	-2924
▁charity	-2925
▁foolish	-2926
▁herself	-2927
▁kindred	-2928
▁officer	-2929
▁triumph	-2930
▁whether	-2931
▁Citizens	-2932
▁Mercutio	-2933
▁brothers	-2934
▁ANTIGONUS	-2935
▁honourable	-2936
BR	-2937
lp	-2938
ATC	-2939
BRA	-2940
ask	-2941
iew	-2942
ify	-2943
pir	-2944
roy	-2945
▁ba	-2946
▁ga	-2947
Twas	-2948
ians	-2949
ites	-2950
leep	-2951
mble	-2952
▁Bet	-2953
▁Bid	-2954
▁add	-2955
▁cir	-2956
▁din	-2957
▁rid	-2958
▁unf	-2959
▁yea	-2960
arted	-2961
ating	-2962
house	-2963
ining	-2964
orthy	-2965
under	-2966
▁Made	-2967
▁Mars	-2968
▁Once	-2969
▁RATC	-2970
▁anon	-2971
▁beha	-2972
▁bids	-2973
▁dism	-2974
▁ease	-2975
▁envy	-2976
▁fart	-2977
▁hung	-2978
▁idle	-2979
▁imag	-2980
▁ours	-2981
▁pack	-2982
▁rise	-2983
▁thro	-2984
▁view	-2985
▁wail	-2986
though	-2987
▁Alack	-2988
▁Faith	-2989
▁Harry	-2990
▁Music	-2991
▁Never	-2992
▁benef	-2993
▁blame	-2994
▁chast	-2995
▁crave	-2996
▁dwell	-2997
▁faint	-2998
▁faire	-2999
▁force	-3000
▁glass	-3001
▁laugh	-3002
▁miser	-3003
▁month	-3004
▁party	-3005
▁stone	-3006
▁subst	-3007
▁trial	-3008
▁walls	-3009
▁weary	-3010
▁abroad	-3011
▁bright	-3012
▁custom	-3013
▁malice	-3014
▁others	-3015
▁thinks	-3016
▁winter	-3017
▁Volsces	-3018
▁butcher	-3019
▁fellows	-3020
▁private	-3021
▁provost	-3022
▁thereof	-3023
▁Cominius	-3024
▁RATCLIFF	-3025
▁kindness	-3026
▁minister	-3027
▁condition	-3028
▁satisfied	-3029
▁vengeance	-3030
▁wherefore	-3031
ALT	-3032
HOP	-3033
amp	-3034
ope	-3035
BALT	-3036
cell	-3037
enes	-3038
lock	-3039
ners	-3040
omas	-3041
rees	-3042
scal	-3043
vell	-3044
with	-3045
▁Des	-3046
▁Fie	-3047
▁Rut	-3048
▁Vin	-3049
▁bef	-3050
▁env	-3051
▁god	-3052
▁hol	-3053
▁rel	-3054
▁smo	-3055
▁unb	-3056
▁unl	-3057
▁unp	-3058
▁ver	-3059
▁wag	-3060
▁wre	-3061
ANLEY	-3062
ISHOP	-3063
ailor	-3064
allow	-3065
antua	-3066
eless	-3067
icked	-3068
ident	-3069
orous	-3070
rench	-3071
▁Barn	-3072
▁Show	-3073
▁True	-3074
▁acqu	-3075
▁arri	-3076
▁bite	-3077
▁boot	-3078
▁deal	-3079
▁dull	-3080
▁easy	-3081
▁evil	-3082
▁firm	-3083
▁foes	-3084
▁gown	-3085
▁incl	-3086
▁lest	-3087
▁meat	-3088
▁root	-3089
▁vice	-3090
▁vile	-3091
▁After	-3092
▁Hence	-3093
▁Lords	-3094
▁Peter	-3095
▁Under	-3096
▁blind	-3097
▁concl	-3098
▁corse	-3099
▁cover	-3100
▁fruit	-3101
▁mayst	-3102
▁quite	-3103
▁shore	-3104
▁shrew	-3105
▁sport	-3106
▁wench	-3107
▁Mantua	-3108
▁Please	-3109
▁TYBALT	-3110
▁Thomas	-3111
▁Whilst	-3112
▁afford	-3113
▁convey	-3114
▁deputy	-3115
▁excuse	-3116
▁flower	-3117
▁former	-3118
▁humour	-3119
▁prophe	-3120
▁school	-3121
▁swords	-3122
▁tyrant	-3123
▁Corioli	-3124
▁Paulina	-3125
▁Rutland	-3126
▁STANLEY	-3127
▁changed	-3128
▁counten	-3129
▁honesty	-3130
▁tongues	-3131
▁Methinks	-3132
▁judgment	-3133
▁question	-3134
▁received	-3135
▁Vincentio	-3136
'?	-3137
AK	-3138
ek	-3139
AND	-3140
HOM	-3141
ead	-3142
llo	-3143
she	-3144
und	-3145
▁Lo	-3146
AKEN	-3147
aper	-3148
azed	-3149
ered	-3150
ilia	-3151
omer	-3152
ract	-3153
rate	-3154
rift	-3155
roth	-3156
vish	-3157
▁Art	-3158
▁Ind	-3159
▁Sic	-3160
▁Tut	-3161
▁spe	-3162
HOMAS	-3163
acher	-3164
anley	-3165
arden	-3166
cians	-3167
ement	-3168
rison	-3169
twixt	-3170
ursed	-3171
woman	-3172
▁Dost	-3173
▁Jove	-3174
▁Love	-3175
▁Wilt	-3176
▁brow	-3177
▁circ	-3178
▁cure	-3179
▁disg	-3180
▁door	-3181
▁dust	-3182
▁fain	-3183
▁feed	-3184
▁gift	-3185
▁girl	-3186
▁leng	-3187
▁nose	-3188
▁stab	-3189
▁stop	-3190
ealous	-3191
idings	-3192
▁Caius	-3193
▁Death	-3194
▁Friar	-3195
▁blest	-3196
▁brows	-3197
▁fiery	-3198
▁ghost	-3199
▁green	-3200
▁gross	-3201
▁grown	-3202
▁joint	-3203
▁knave	-3204
▁pains	-3205
▁proof	-3206
▁sheep	-3207
▁spake	-3208
▁stoop	-3209
▁taken	-3210
▁twice	-3211
▁tyran	-3212
▁BRAKEN	-3213
▁Prince	-3214
▁THOMAS	-3215
▁Verona	-3216
▁affair	-3217
▁always	-3218
▁buried	-3219
▁choice	-3220
▁divine	-3221
▁finger	-3222
▁import	-3223
▁leaves	-3224
▁necess	-3225
▁remedy	-3226
▁repent	-3227
▁sacred	-3228
▁safety	-3229
▁senate	-3230
▁sirrah	-3231
▁spring	-3232
▁undert	-3233
▁whilst	-3234
▁wicked	-3235
▁wither	-3236
▁wrongs	-3237
▁Besides	-3238
▁Brother	-3239
▁Stanley	-3240
▁embrace	-3241
▁prevail	-3242
▁prevent	-3243
▁reasons	-3244
▁silence	-3245
▁therein	-3246
▁thunder	-3247
▁Mistress	-3248
▁creature	-3249
▁innocent	-3250
▁occasion	-3251
▁perceive	-3252
▁traitors	-3253
▁BRAKENBURY	-3254
?'	-3255
jo	-3256
mn	-3257
sp	-3258
GOR	-3259
ONE	-3260
STR	-3261
eld	-3262
hys	-3263
loy	-3264
nat	-3265
oly	-3266
omp	-3267
pin	-3268
shi	-3269
▁AE	-3270
▁OV	-3271
▁ed	-3272
▁es	-3273
ERBY	-3274
GORY	-3275
aced	-3276
anch	-3277
aste	-3278
ault	-3279
elve	-3280
hant	-3281
itol	-3282
oard	-3283
orry	-3284
unts	-3285
▁Apo	-3286
▁avo	-3287
▁cre	-3288
▁dec	-3289
▁eag	-3290
▁ele	-3291
▁emp	-3292
▁lar	-3293
▁rob	-3294
▁shr	-3295
ctise	-3296
enius	-3297
hysic	-3298
inous	-3299
▁Turn	-3300
▁bark	-3301
▁drop	-3302
▁empt	-3303
▁fury	-3304
▁rock	-3305
▁rude	-3306
▁sail	-3307
▁shar	-3308
▁ship	-3309
▁sits	-3310
▁used	-3311
▁went	-3312
ERDONE	-3313
STRESS	-3314
ardine	-3315
edious	-3316
othing	-3317
unning	-3318
▁DERBY	-3319
▁Somer	-3320
▁adieu	-3321
▁allow	-3322
▁anger	-3323
▁belly	-3324
▁cares	-3325
▁cheek	-3326
▁claim	-3327
▁condu	-3328
▁drawn	-3329
▁fares	-3330
▁langu	-3331
▁loath	-3332
▁loyal	-3333
▁maids	-3334
▁mayor	-3335
▁plead	-3336
▁round	-3337
▁smile	-3338
▁tempt	-3339
▁troth	-3340
▁utter	-3341
▁weeds	-3342
▁wings	-3343
▁Having	-3344
▁Indeed	-3345
▁Myself	-3346
▁assist	-3347
▁broken	-3348
▁design	-3349
▁fright	-3350
▁garden	-3351
▁hollow	-3352
▁inform	-3353
▁knight	-3354
▁oracle	-3355
▁plague	-3356
▁prayer	-3357
▁renown	-3358
▁rotten	-3359
▁stones	-3360
▁wanton	-3361
aughters	-3362
▁Capitol	-3363
▁GREGORY	-3364
▁Prithee	-3365
▁Wherein	-3366
▁Without	-3367
▁absence	-3368
▁commend	-3369
▁delight	-3370
▁deserve	-3371
▁despite	-3372
▁profess	-3373
▁violent	-3374
▁wherein	-3375
▁MISTRESS	-3376
▁Menenius	-3377
▁OVERDONE	-3378
▁Somerset	-3379
▁deceived	-3380
▁ignorant	-3381
▁imprison	-3382
▁practise	-3383
▁treacher	-3384
▁trumpets	-3385
▁Barnardine	-3386
▁countenance	-3387
XF	-3388
MON	-3389
act	-3390
aze	-3391
cha	-3392
esy	-3393
isa	-3394
mon	-3395
pet	-3396
ALER	-3397
MOND	-3398
ards	-3399
ashi	-3400
cend	-3401
draw	-3402
eeth	-3403
eous	-3404
haps	-3405
held	-3406
ione	-3407
ises	-3408
ongs	-3409
othe	-3410
rand	-3411
rehe	-3412
semb	-3413
utes	-3414
▁Lea	-3415
▁OXF	-3416
▁Pol	-3417
▁Pre	-3418
▁Res	-3419
▁SOM	-3420
▁Sha	-3421
▁aim	-3422
▁amb	-3423
▁det	-3424
▁dew	-3425
▁due	-3426
▁dur	-3427
▁hid	-3428
▁hit	-3429
▁pil	-3430
▁pin	-3431
▁six	-3432
ERSET	-3433
iment	-3434
mione	-3435
rious	-3436
▁Grey	-3437
▁Into	-3438
▁Know	-3439
▁Mark	-3440
▁Pisa	-3441
▁alas	-3442
▁babe	-3443
▁ball	-3444
▁cell	-3445
▁earn	-3446
▁gain	-3447
▁heav	-3448
▁lamb	-3449
▁loud	-3450
▁nine	-3451
▁ones	-3452
▁pair	-3453
▁pawn	-3454
▁publ	-3455
▁ruin	-3456
▁sens	-3457
▁star	-3458
▁stat	-3459
▁tune	-3460
▁wont	-3461
ALERIA	-3462
change	-3463
ission	-3464
itting	-3465
pinion	-3466
ursday	-3467
▁Great	-3468
▁Three	-3469
▁aught	-3470
▁awake	-3471
▁borne	-3472
▁carry	-3473
▁chief	-3474
▁cries	-3475
▁deare	-3476
▁fatal	-3477
▁fools	-3478
▁gives	-3479
▁names	-3480
▁persu	-3481
▁sighs	-3482
▁steed	-3483
▁stock	-3484
▁storm	-3485
▁stuff	-3486
▁tread	-3487
▁whole	-3488
▁wives	-3489
▁woful	-3490
onounce	-3491
▁Apollo	-3492
▁Cousin	-3493
▁OXFORD	-3494
▁Rivers	-3495
▁advise	-3496
▁asleep	-3497
▁begins	-3498
▁castle	-3499
▁colour	-3500
▁damned	-3501
▁devise	-3502
▁excell	-3503
▁infect	-3504
▁motion	-3505
▁nobles	-3506
▁number	-3507
▁offend	-3508
▁proper	-3509
▁rememb	-3510
▁resign	-3511
▁simple	-3512
▁supper	-3513
▁thrive	-3514
▁throat	-3515
▁thrust	-3516
▁undone	-3517
ethought	-3518
▁VALERIA	-3519
▁affairs	-3520
▁becomes	-3521
▁benefit	-3522
▁burthen	-3523
▁deposed	-3524
▁envious	-3525
▁express	-3526
▁farther	-3527
▁follows	-3528
▁hanging	-3529
▁jealous	-3530
▁meaning	-3531
▁outward	-3532
▁passing	-3533
▁pleased	-3534
▁protect	-3535
▁receive	-3536
▁tedious	-3537
▁tidings	-3538
▁vantage	-3539
▁Hermione	-3540
▁Musician	-3541
▁RICHMOND	-3542
▁SOMERSET	-3543
▁Thursday	-3544
▁banished	-3545
▁dreadful	-3546
▁garments	-3547
▁possible	-3548
▁prepared	-3549
▁shouldst	-3550
▁Christian	-3551
▁authority	-3552
▁followers	-3553
▁disposition	-3554
BH	-3555
HY	-3556
SA	-3557
eg	-3558
go	-3559
ub	-3560
ene	-3561
enn	-3562
gle	-3563
hop	-3564
rib	-3565
ron	-3566
run	-3567
thi	-3568
▁Bi	-3569
▁er	-3570
▁ir	-3571
BHOR	-3572
BRAY	-3573
ETER	-3574
LIUS	-3575
OPSA	-3576
USHY	-3577
anct	-3578
ancy	-3579
arch	-3580
ared	-3581
atsw	-3582
cing	-3583
ello	-3584
iffe	-3585
ills	-3586
ldom	-3587
ords	-3588
room	-3589
yard	-3590
yond	-3591
▁Boy	-3592
▁Has	-3593
▁MOW	-3594
▁bew	-3595
▁cal	-3596
▁cam	-3597
▁equ	-3598
▁lip	-3599
▁lod	-3600
▁owe	-3601
▁sup	-3602
▁top	-3603
▁van	-3604
after	-3605
eding	-3606
ellow	-3607
erved	-3608
imely	-3609
itude	-3610
loved	-3611
orses	-3612
ounty	-3613
ouses	-3614
place	-3615
usion	-3616
▁Bona	-3617
▁Help	-3618
▁Very	-3619
▁ange	-3620
▁band	-3621
▁bond	-3622
▁cens	-3623
▁conj	-3624
▁disd	-3625
▁drum	-3626
▁gage	-3627
▁hurt	-3628
▁lean	-3629
▁legs	-3630
▁lend	-3631
▁prey	-3632
▁quit	-3633
▁rash	-3634
▁room	-3635
▁seas	-3636
▁shut	-3637
▁step	-3638
▁sway	-3639
▁tort	-3640
▁weap	-3641
▁wine	-3642
enture	-3643
illing	-3644
iteous	-3645
ixenes	-3646
ortion	-3647
▁ABHOR	-3648
▁BUSHY	-3649
▁Biond	-3650
▁Leave	-3651
▁MAMIL	-3652
▁MOPSA	-3653
▁Still	-3654
▁accus	-3655
▁brook	-3656
▁chair	-3657
▁clear	-3658
▁crack	-3659
▁curst	-3660
▁delay	-3661
▁empty	-3662
▁exile	-3663
▁keeps	-3664
▁mourn	-3665
▁paper	-3666
▁parts	-3667
▁penit	-3668
▁peril	-3669
▁prize	-3670
▁sanct	-3671
▁sorry	-3672
▁speci	-3673
▁spend	-3674
▁store	-3675
▁taste	-3676
▁teeth	-3677
▁trans	-3678
▁unnat	-3679
▁until	-3680
▁wrath	-3681
atswain	-3682
utation	-3683
▁EXETER	-3684
▁Tailor	-3685
▁accept	-3686
▁access	-3687
▁accuse	-3688
▁affect	-3689
▁beheld	-3690
▁belike	-3691
▁circum	-3692
▁denied	-3693
▁desert	-3694
▁dinner	-3695
▁flight	-3696
▁humbly	-3697
▁intend	-3698
▁kingly	-3699
▁palace	-3700
▁partic	-3701
▁perish	-3702
▁physic	-3703
▁punish	-3704
▁shadow	-3705
▁silver	-3706
▁solemn	-3707
▁twelve	-3708
▁wander	-3709
▁weight	-3710
▁Believe	-3711
▁MOWBRAY	-3712
▁Officer	-3713
▁betwixt	-3714
▁conquer	-3715
▁corrupt	-3716
▁cunning	-3717
▁perfect	-3718
▁protest	-3719
▁resolve	-3720
▁several	-3721
▁spirits	-3722
▁wedding	-3723
▁whither	-3724
▁ABHORSON	-3725
▁continue	-3726
▁contrary	-3727
▁courtesy	-3728
▁forsworn	-3729
▁goodness	-3730
▁murderer	-3731
▁petition	-3732
▁pleasant	-3733
▁resolved	-3734
▁threaten	-3735
▁Biondello	-3736
▁MAMILLIUS	-3737
▁Polixenes	-3738
▁advantage	-3739
▁daughters	-3740
▁miserable	-3741
▁neighbour	-3742
▁gentlewoman	-3743
CH	-3744
af	-3745
dy	-3746
rt	-3747
RCH	-3748
aff	-3749
ane	-3750
cio	-3751
ept	-3752
irg	-3753
oke	-3754
oot	-3755
ote	-3756
pic	-3757
que	-3758
ung	-3759
▁Co	-3760
▁di	-3761
▁pi	-3762
ALTH	-3763
ASAR	-3764
ERCY	-3765
amed	-3766
cape	-3767
cian	-3768
ency	-3769
erve	-3770
mity	-3771
oler	-3772
outs	-3773
ping	-3774
sequ	-3775
sing	-3776
uted	-3777
▁AEd	-3778
▁Nap	-3779
▁Rep	-3780
▁Two	-3781
▁ado	-3782
▁arg	-3783
▁bas	-3784
▁bud	-3785
▁clo	-3786
▁cup	-3787
▁dag	-3788
▁fee	-3789
▁fle	-3790
▁fro	-3791
▁sep	-3792
▁tut	-3793
▁wol	-3794
▁wot	-3795
aries	-3796
clock	-3797
ising	-3798
kedom	-3799
pping	-3800
rease	-3801
umble	-3802
▁ARCH	-3803
▁Bear	-3804
▁None	-3805
▁Only	-3806
▁amen	-3807
▁calm	-3808
▁comb	-3809
▁debt	-3810
▁dies	-3811
▁dign	-3812
▁diss	-3813
▁ends	-3814
▁fail	-3815
▁gate	-3816
▁hark	-3817
▁heed	-3818
▁hunt	-3819
▁joys	-3820
▁mend	-3821
▁miss	-3822
▁plot	-3823
▁pure	-3824
▁rose	-3825
▁slow	-3826
▁tomb	-3827
▁ways	-3828
▁wits	-3829
▁wond	-3830
▁wood	-3831
igence	-3832
lesome	-3833
ourish	-3834
picion	-3835
urance	-3836
urious	-3837
ustice	-3838
▁BALTH	-3839
▁Mayor	-3840
▁Might	-3841
▁PERCY	-3842
▁Right	-3843
▁chide	-3844
▁dares	-3845
▁durst	-3846
▁faces	-3847
▁fashi	-3848
▁folly	-3849
▁griev	-3850
▁groan	-3851
▁hopes	-3852
▁large	-3853
▁naked	-3854
▁scept	-3855
▁seest	-3856
▁sharp	-3857
▁spare	-3858
▁story	-3859
▁table	-3860
▁tremb	-3861
▁turns	-3862
▁weigh	-3863
▁whore	-3864
▁wreck	-3865
hearted	-3866
▁BISHOP	-3867
▁Father	-3868
▁French	-3869
▁beyond	-3870
▁bodies	-3871
▁called	-3872
▁comple	-3873
▁credit	-3874
▁crowns	-3875
▁cursed	-3876
▁curses	-3877
▁employ	-3878
▁endure	-3879
▁expect	-3880
▁fairly	-3881
▁hatred	-3882
▁horses	-3883
▁intent	-3884
▁joyful	-3885
▁making	-3886
▁market	-3887
▁misery	-3888
▁perpet	-3889
▁public	-3890
▁quench	-3891
▁reward	-3892
▁seeing	-3893
▁spoken	-3894
▁temper	-3895
▁terror	-3896
▁theirs	-3897
▁waters	-3898
▁whiles	-3899
▁yonder	-3900
▁Beseech	-3901
▁Marshal	-3902
▁Nothing	-3903
▁advance	-3904
▁apparel	-3905
▁attempt	-3906
▁beloved	-3907
▁colours	-3908
▁courage	-3909
▁dukedom	-3910
▁looking	-3911
▁mistake	-3912
▁natural	-3913
▁needful	-3914
▁opinion	-3915
▁painted	-3916
▁piteous	-3917
▁princes	-3918
▁remains	-3919
▁shortly	-3920
▁swallow	-3921
▁wounded	-3922
▁complain	-3923
▁discover	-3924
▁fortunes	-3925
▁instruct	-3926
▁language	-3927
▁princess	-3928
▁senators	-3929
▁services	-3930
▁sometime	-3931
▁BALTHASAR	-3932
▁assurance	-3933
▁commanded	-3934
▁excellent	-3935
▁happiness	-3936
▁hereafter	-3937
▁obedience	-3938
▁pronounce	-3939
▁sometimes	-3940
▁undertake	-3941
▁unnatural	-3942
▁discontent	-3943
▁government	-3944
▁instrument	-3945
▁counterfeit	-3946
▁remembrance	-3947
OS	-3948
oe	-3949
ys	-3950
?--	-3951
CAS	-3952
FOL	-3953
OSS	-3954
afe	-3955
bow	-3956
dds	-3957
fer	-3958
hor	-3959
ita	-3960
lar	-3961
lic	-3962
val	-3963
whe	-3964
▁El	-3965
▁Le	-3966
FOLK	-3967
ants	-3968
arts	-3969
atic	-3970
born	-3971
gers	-3972
hest	-3973
noon	-3974
oved	-3975
same	-3976
uary	-3977
uses	-3978
what	-3979
wise	-3980
▁App	-3981
▁Cal	-3982
▁Lay	-3983
▁Rem	-3984
▁Ret	-3985
▁Ros	-3986
▁Set	-3987
▁Tit	-3988
▁gru	-3989
▁haz	-3990
▁imm	-3991
▁its	-3992
▁kin	-3993
▁led	-3994
▁mag	-3995
▁odd	-3996
▁pol	-3997
▁sky	-3998
▁tap	-3999
▁ung	-4000
▁vex	-4001
akest	-4002
arent	-4003
ences	-4004
happy	-4005
ieved	-4006
ified	-4007
ishop	-4008
isper	-4009
olute	-4010
orset	-4011
think	-4012
ument	-4013
vours	-4014
▁Amen	-4015
▁Comm	-4016
▁Dear	-4017
▁Four	-4018
▁Jack	-4019
▁Long	-4020
▁Page	-4021
▁Post	-4022
▁ROSS	-4023
▁Sold	-4024
▁bare	-4025
▁boar	-4026
▁bott	-4027
▁cock	-4028
▁conc	-4029
▁east	-4030
▁fame	-4031
▁grey	-4032
▁host	-4033
▁isle	-4034
▁mere	-4035
▁mile	-4036
▁mill	-4037
▁odds	-4038
▁qual	-4039
▁repe	-4040
▁ring	-4041
▁rule	-4042
▁shun	-4043
▁sink	-4044
▁sins	-4045
▁slay	-4046
▁stol	-4047
▁test	-4048
▁virg	-4049
▁wait	-4050
▁worn	-4051
chance	-4052
ctions	-4053
idence	-4054
ourage	-4055
strous	-4056
uteous	-4057
▁Lucio	-4058
▁March	-4059
▁Those	-4060
▁Widow	-4061
▁Young	-4062
▁alter	-4063
▁block	-4064
▁blush	-4065
▁brain	-4066
▁cease	-4067
▁drops	-4068
▁drums	-4069
▁flies	-4070
▁frame	-4071
▁grows	-4072
▁journ	-4073
▁knife	-4074
▁leads	-4075
▁maint	-4076
▁meant	-4077
▁oppos	-4078
▁realm	-4079
▁rogue	-4080
▁scene	-4081
▁scope	-4082
▁seize	-4083
▁shape	-4084
▁slept	-4085
▁spite	-4086
▁strew	-4087
▁terms	-4088
▁thief	-4089
▁trade	-4090
▁trick	-4091
▁vault	-4092
▁venom	-4093
▁wants	-4094
▁winds	-4095
▁write	-4096
ination	-4097
ression	-4098
▁DORCAS	-4099
▁Dorset	-4100
▁Exeter	-4101
▁Naples	-4102
▁Volsce	-4103
▁Worthy	-4104
▁absent	-4105
▁accord	-4106
▁advers	-4107
▁armour	-4108
▁behalf	-4109
▁brings	-4110
▁camest	-4111
▁choler	-4112
▁comest	-4113
▁compan	-4114
▁dagger	-4115
▁degree	-4116
▁direct	-4117
▁enmity	-4118
▁freely	-4119
▁houses	-4120
▁imposs	-4121
▁intell	-4122
▁island	-4123
▁maiden	-4124
▁nought	-4125
▁powers	-4126
▁praise	-4127
▁purcha	-4128
▁repair	-4129
▁serves	-4130
▁smooth	-4131
▁NORFOLK	-4132
▁Whither	-4133
▁apprehe	-4134
▁captain	-4135
▁compass	-4136
▁disdain	-4137
▁earnest	-4138
▁fathers	-4139
▁granted	-4140
▁hateful	-4141
▁instant	-4142
▁manners	-4143
▁passage	-4144
▁passion	-4145
▁privile	-4146
▁sceptre	-4147
▁seeming	-4148
▁torment	-4149
▁unknown	-4150
▁weather	-4151
▁approach	-4152
▁consider	-4153
▁contract	-4154
▁deserves	-4155
▁friendly	-4156
▁glorious	-4157
▁increase	-4158
▁reverend	-4159
▁untimely	-4160
▁Boatswain	-4161
▁Gentlemen	-4162
▁contented	-4163
▁monstrous	-4164
▁respected	-4165
▁suspicion	-4166
▁particular	-4167
▁prosperous	-4168
▁resolution	-4169
▁treacherous	-4170
GH	-4171
NS	-4172
RR	-4173
fl	-4174
God	-4175
NSO	-4176
SET	-4177
elt	-4178
iny	-4179
kin	-4180
ped	-4181
rey	-4182
ric	-4183
uce	-4184
▁Se	-4185
▁Ye	-4186
▁da	-4187
RREL	-4188
ades	-4189
ales	-4190
atcl	-4191
erns	-4192
fret	-4193
iate	-4194
iven	-4195
just	-4196
oral	-4197
rain	-4198
reme	-4199
ruly	-4200
▁ALO	-4201
▁Ber	-4202
▁Bra	-4203
▁Ire	-4204
▁Lau	-4205
▁Mil	-4206
▁Pat	-4207
▁Rom	-4208
▁Son	-4209
▁dig	-4210
▁dri	-4211
▁ens	-4212
▁fig	-4213
▁glo	-4214
▁ing	-4215
▁jew	-4216
▁rap	-4217
▁spr	-4218
▁squ	-4219
ERDIN	-4220
aline	-4221
ances	-4222
andal	-4223
ature	-4224
ember	-4225
raced	-4226
▁Came	-4227
▁Down	-4228
▁Play	-4229
▁Save	-4230
▁Stri	-4231
▁Supp	-4232
▁able	-4233
▁bird	-4234
▁braw	-4235
▁bury	-4236
▁chat	-4237
▁clam	-4238
▁furn	-4239
▁lark	-4240
▁lion	-4241
▁melt	-4242
▁nobl	-4243
▁perj	-4244
▁puts	-4245
▁roar	-4246
▁ruth	-4247
▁spur	-4248
▁suck	-4249
▁tame	-4250
▁tide	-4251
▁vows	-4252
▁wept	-4253
▁About	-4254
▁Bring	-4255
▁Froth	-4256
▁GREEN	-4257
▁Ghost	-4258
▁Hunts	-4259
▁Ratcl	-4260
▁Titus	-4261
▁Until	-4262
▁abhor	-4263
▁adver	-4264
▁affli	-4265
▁alike	-4266
▁avoid	-4267
▁beard	-4268
▁begun	-4269
▁boots	-4270
▁build	-4271
▁catch	-4272
▁conce	-4273
▁daily	-4274
▁dress	-4275
▁dying	-4276
▁elder	-4277
▁fears	-4278
▁finds	-4279
▁flatt	-4280
▁haply	-4281
▁hasty	-4282
▁holds	-4283
▁lusty	-4284
▁nobly	-4285
▁north	-4286
▁parli	-4287
▁patri	-4288
▁peers	-4289
▁press	-4290
▁provo	-4291
▁purse	-4292
▁raise	-4293
▁recom	-4294
▁revol	-4295
▁sends	-4296
▁south	-4297
▁stamp	-4298
▁study	-4299
▁swell	-4300
▁tells	-4301
▁third	-4302
▁thorn	-4303
▁urged	-4304
▁veins	-4305
▁waste	-4306
▁witch	-4307
▁AEdile	-4308
▁ALONSO	-4309
▁DORSET	-4310
▁FERDIN	-4311
▁Romans	-4312
▁TYRREL	-4313
▁Thanks	-4314
▁aboard	-4315
▁advice	-4316
▁amazed	-4317
▁county	-4318
▁darest	-4319
▁disper	-4320
▁estate	-4321
▁famous	-4322
▁gently	-4323
▁giving	-4324
▁grieve	-4325
▁groans	-4326
▁hanged	-4327
▁hardly	-4328
▁kindly	-4329
▁lovely	-4330
▁muster	-4331
▁parent	-4332
▁pieces	-4333
▁profit	-4334
▁rascal	-4335
▁rebell	-4336
▁record	-4337
▁season	-4338
▁silent	-4339
▁single	-4340
▁smiles	-4341
▁taught	-4342
▁thrice	-4343
▁unless	-4344
▁virgin	-4345
▁wealth	-4346
▁worthi	-4347
▁Conspir	-4348
▁Ireland	-4349
▁Pomfret	-4350
▁Sicilia	-4351
▁Soldier	-4352
▁accused	-4353
▁arrived	-4354
▁assured	-4355
▁bearing	-4356
▁bethink	-4357
▁charged	-4358
▁conceit	-4359
▁conduct	-4360
▁current	-4361
▁destroy	-4362
▁enforce	-4363
▁forbear	-4364
▁garland	-4365
▁journey	-4366
▁soundly	-4367
▁special	-4368
▁streets	-4369
▁warlike	-4370
▁whereof	-4371
▁whisper	-4372
▁willing	-4373
▁wrought	-4374
▁Huntsman	-4375
▁Ratcliff	-4376
▁Rosaline	-4377
▁circumst	-4378
▁constant	-4379
▁greatest	-4380
▁grievous	-4381
▁maintain	-4382
▁perforce	-4383
▁revenged	-4384
▁shoulder	-4385
▁supposed	-4386
▁FERDINAND	-4387
▁afternoon	-4388
▁committed	-4389
▁messenger	-4390
▁perpetual	-4391
▁protector	-4392
▁sanctuary	-4393
▁willingly	-4394
▁affections	-4395
▁commission	-4396
▁parliament	-4397
▁instruments	-4398
▁imprisonment	-4399
Th	-4400
gl	-4401
ib	-4402
pr	-4403
zz	-4404
▁z	-4405
;--	-4406
LIS	-4407
aly	-4408
ams	-4409
cei	-4410
con	-4411
dig	-4412
eat	-4413
gar	-4414
icy	-4415
ipe	-4416
ipp	-4417
ker	-4418
law	-4419
nal	-4420
nty	-4421
rac	-4422
ser	-4423
uch	-4424
ulf	-4425
upt	-4426
vet	-4427
▁Fo	-4428
▁Ho	-4429
▁Sm	-4430
▁Vi	-4431
▁fi	-4432
▁sy	-4433
aces	-4434
aded	-4435
ages	-4436
alis	-4437
ater	-4438
clam	-4439
deem	-4440
eder	-4441
enna	-4442
erby	-4443
erer	-4444
esar	-4445
fall	-4446
grim	-4447
iety	-4448
llen	-4449
more	-4450
mory	-4451
omen	-4452
onci	-4453
owry	-4454
pass	-4455
roll	-4456
rrel	-4457
ties	-4458
time	-4459
tled	-4460
uing	-4461
uten	-4462
vior	-4463
▁Acc	-4464
▁Ben	-4465
▁Bus	-4466
▁Min	-4467
▁Six	-4468
▁Tar	-4469
▁ach	-4470
▁ago	-4471
▁apt	-4472
▁dim	-4473
▁fun	-4474
▁hie	-4475
▁hor	-4476
▁lin	-4477
▁mel	-4478
▁mir	-4479
▁oak	-4480
▁pot	-4481
▁sal	-4482
▁sue	-4483
▁une	-4484
▁ves	-4485
Twere	-4486
aming	-4487
ative	-4488
erity	-4489
ested	-4490
etite	-4491
faced	-4492
forth	-4493
groom	-4494
harge	-4495
ierce	-4496
ignty	-4497
orted	-4498
osing	-4499
ouchs	-4500
ourse	-4501
shire	-4502
ulate	-4503
ullus	-4504
▁Anti	-4505
▁Cond	-4506
▁Conf	-4507
▁Dare	-4508
▁Draw	-4509
▁aunt	-4510
▁bade	-4511
▁begu	-4512
▁boys	-4513
▁cere	-4514
▁cher	-4515
▁clim	-4516
▁feet	-4517
▁food	-4518
▁fors	-4519
▁frow	-4520
▁helm	-4521
▁holp	-4522
▁horn	-4523
▁inqu	-4524
▁lent	-4525
▁mult	-4526
▁nail	-4527
▁port	-4528
▁rare	-4529
▁reck	-4530
▁rejo	-4531
▁rust	-4532
▁salt	-4533
▁sees	-4534
▁sell	-4535
▁sets	-4536
▁sire	-4537
▁snow	-4538
▁sore	-4539
▁sple	-4540
▁stro	-4541
▁tall	-4542
▁task	-4543
▁unst	-4544
▁whip	-4545
▁wide	-4546
▁wing	-4547
▁yoke	-4548
▁yond	-4549
eeming	-4550
father	-4551
forced	-4552
semble	-4553
soever	-4554
▁Derby	-4555
▁Makes	-4556
▁Milan	-4557
▁Noble	-4558
▁Salis	-4559
▁abide	-4560
▁agree	-4561
▁alack	-4562
▁below	-4563
▁blunt	-4564
▁books	-4565
▁brace	-4566
▁chase	-4567
▁confe	-4568
▁corre	-4569
▁craft	-4570
▁diffe	-4571
▁equal	-4572
▁event	-4573
▁exerc	-4574
▁fancy	-4575
▁fires	-4576
▁flood	-4577
▁habit	-4578
▁image	-4579
▁manif	-4580
▁merit	-4581
▁newly	-4582
▁oaths	-4583
▁pitch	-4584
▁pound	-4585
▁prett	-4586
▁prick	-4587
▁regal	-4588
▁ruled	-4589
▁smell	-4590
▁sooth	-4591
▁stabb	-4592
▁sting	-4593
▁stopp	-4594
▁stout	-4595
▁stret	-4596
▁tarry	-4597
▁twain	-4598
▁weeps	-4599
▁wrink	-4600
ancholy	-4601
itation	-4602
ruction	-4603
utenant	-4604
▁Caesar	-4605
▁Cannot	-4606
▁Fourth	-4607
▁Marian	-4608
▁Rather	-4609
▁Tyrrel	-4610
▁Vienna	-4611
▁appeal	-4612
▁assure	-4613
▁ballad	-4614
▁barren	-4615
▁beasts	-4616
▁betray	-4617
▁caught	-4618
▁charac	-4619
▁deceit	-4620
▁disple	-4621
▁fairer	-4622
▁forced	-4623
▁graves	-4624
▁knaves	-4625
▁length	-4626
▁mouths	-4627
▁native	-4628
▁partly	-4629
▁points	-4630
▁raised	-4631
▁redeem	-4632
▁regard	-4633
▁resist	-4634
▁saying	-4635
▁secure	-4636
▁shield	-4637
▁slaves	-4638
▁stroke	-4639
▁surely	-4640
▁unjust	-4641
▁unkind	-4642
▁vessel	-4643
▁waking	-4644
▁Proceed	-4645
▁besides	-4646
▁betimes	-4647
▁commons	-4648
▁complex	-4649
▁defence	-4650
▁descend	-4651
▁desires	-4652
▁dignity	-4653
▁fairest	-4654
▁fashion	-4655
▁feeling	-4656
▁forfeit	-4657
▁forgive	-4658
▁froward	-4659
▁parting	-4660
▁pilgrim	-4661
▁reconci	-4662
▁substit	-4663
▁suspect	-4664
▁tempest	-4665
▁tremble	-4666
▁trumpet	-4667
▁tyranny	-4668
▁unhappy	-4669
▁virtues	-4670
▁accident	-4671
▁alliance	-4672
▁although	-4673
▁apparent	-4674
▁appetite	-4675
▁breathed	-4676
▁contempt	-4677
▁devotion	-4678
▁disgrace	-4679
▁exchange	-4680
▁faithful	-4681
▁forswear	-4682
▁mistrust	-4683
▁obedient	-4684
▁offended	-4685
▁penitent	-4686
▁powerful	-4687
▁renowned	-4688
▁sickness	-4689
▁standing	-4690
▁treasure	-4691
▁weakness	-4692
▁Salisbury	-4693
▁according	-4694
▁beholding	-4695
▁complaint	-4696
▁falsehood	-4697
▁household	-4698
▁rebellion	-4699
▁reverence	-4700
▁wholesome	-4701
▁bridegroom	-4702
▁conference	-4703
▁determined	-4704
▁impossible	-4705
▁melancholy	-4706
▁patricians	-4707
▁sovereignty	-4708
▁entertainment	-4709
Ay	-4710
DR	-4711
IT	-4712
gn	-4713
ns	-4714
rs	-4715
xe	-4716
.--	-4717
EOM	-4718
LOU	-4719
bod	-4720
com	-4721
eve	-4722
iam	-4723
nes	-4724
rat	-4725
tic	-4726
uit	-4727
▁Af	-4728
▁Aw	-4729
▁Kn	-4730
▁Ra	-4731
GHBY	-4732
ROTH	-4733
ases	-4734
bear	-4735
cary	-4736
cate	-4737
cies	-4738
dita	-4739
fold	-4740
ical	-4741
illy	-4742
inct	-4743
irty	-4744
iter	-4745
ivil	-4746
ized	-4747
long	-4748
maid	-4749
mong	-4750
onst	-4751
sell	-4752
teen	-4753
ulch	-4754
weal	-4755
wife	-4756
▁ADR	-4757
▁Cle	-4758
▁Cry	-4759
▁Cur	-4760
▁Get	-4761
▁Him	-4762
▁Lie	-4763
▁Thr	-4764
▁Val	-4765
▁Ven	-4766
▁WIL	-4767
▁axe	-4768
▁bir	-4769
▁bon	-4770
▁deb	-4771
▁eng	-4772
▁jot	-4773
▁lap	-4774
▁nap	-4775
▁ope	-4776
▁ped	-4777
▁pee	-4778
▁spl	-4779
▁spy	-4780
▁ste	-4781
▁suc	-4782
▁tim	-4783
▁var	-4784
▁vel	-4785
▁vol	-4786
▁wid	-4787
▁yes	-4788
aning	-4789
earer	-4790
erves	-4791
herit	-4792
icles	-4793
imble	-4794
irect	-4795
itten	-4796
omach	-4797
ories	-4798
othes	-4799
otted	-4800
stery	-4801
uries	-4802
ushes	-4803
▁Anon	-4804
▁Betw	-4805
▁Each	-4806
▁Fort	-4807
▁Hail	-4808
▁Lart	-4809
▁Many	-4810
▁Soft	-4811
▁Time	-4812
▁Tush	-4813
▁Vill	-4814
▁blem	-4815
▁bran	-4816
▁bred	-4817
▁buck	-4818
▁coff	-4819
▁cost	-4820
▁curt	-4821
▁deck	-4822
▁decl	-4823
▁edge	-4824
▁fact	-4825
▁fawn	-4826
▁fish	-4827
▁gaze	-4828
▁grat	-4829
▁iron	-4830
▁knot	-4831
▁lift	-4832
▁line	-4833
▁mess	-4834
▁mood	-4835
▁rail	-4836
▁rain	-4837
▁reap	-4838
▁ride	-4839
▁ripe	-4840
▁sham	-4841
▁shri	-4842
▁slip	-4843
▁spit	-4844
▁tail	-4845
▁toad	-4846
▁toil	-4847
▁tres	-4848
▁wake	-4849
▁west	-4850
▁whit	-4851
▁wink	-4852
bation	-4853
itable	-4854
seless	-4855
▁Among	-4856
▁Bushy	-4857
▁CLEOM	-4858
▁Didst	-4859
▁FROTH	-4860
▁Happy	-4861
▁Italy	-4862
▁Somet	-4863
▁Sound	-4864
▁Uncle	-4865
▁babes	-4866
▁began	-4867
▁burst	-4868
▁chall	-4869
▁civil	-4870
▁coron	-4871
▁counc	-4872
▁disgu	-4873
▁dowry	-4874
▁eagle	-4875
▁estim	-4876
▁hangs	-4877
▁harsh	-4878
▁hated	-4879
▁heirs	-4880
▁human	-4881
▁impat	-4882
▁incen	-4883
▁innoc	-4884
▁liken	-4885
▁lover	-4886
▁marks	-4887
▁minds	-4888
▁mirth	-4889
▁negle	-4890
▁occup	-4891
▁offic	-4892
▁pause	-4893
▁scold	-4894
▁spect	-4895
▁stick	-4896
▁super	-4897
▁swain	-4898
▁takes	-4899
▁taunt	-4900
▁thick	-4901
▁tooth	-4902
▁wager	-4903
▁wakes	-4904
▁warri	-4905
LOUGHBY	-4906
▁ADRIAN	-4907
▁Behold	-4908
▁Better	-4909
▁County	-4910
▁Follow	-4911
▁Return	-4912
▁Tullus	-4913
▁abused	-4914
▁bigger	-4915
▁chaste	-4916
▁craves	-4917
▁dearly	-4918
▁deaths	-4919
▁dismal	-4920
▁fierce	-4921
▁frowns	-4922
▁griefs	-4923
▁infant	-4924
▁keeper	-4925
▁league	-4926
▁lesser	-4927
▁lovest	-4928
▁manage	-4929
▁memory	-4930
▁modest	-4931
▁object	-4932
▁pierce	-4933
▁policy	-4934
▁refuse	-4935
▁remove	-4936
▁repeal	-4937
▁repose	-4938
▁retire	-4939
▁revolt	-4940
▁rights	-4941
▁seldom	-4942
▁served	-4943
▁shrewd	-4944
▁shroud	-4945
▁sights	-4946
▁steeds	-4947
▁subtle	-4948
▁suffic	-4949
▁suitor	-4950
▁sullen	-4951
▁supply	-4952
▁thirty	-4953
▁thread	-4954
▁trusty	-4955
▁uncles	-4956
▁visage	-4957
banished	-4958
othecary	-4959
ouchsafe	-4960
▁Commend	-4961
▁Lartius	-4962
▁Mariana	-4963
▁Perdita	-4964
▁Through	-4965
▁Whether	-4966
▁William	-4967
▁clothes	-4968
▁conceal	-4969
▁confirm	-4970
▁dearest	-4971
▁descent	-4972
▁feather	-4973
▁foreign	-4974
▁gallant	-4975
▁growing	-4976
▁meeting	-4977
▁modesty	-4978
▁mystery	-4979
▁perhaps	-4980
▁plainly	-4981
▁proclam	-4982
▁prophet	-4983
▁redress	-4984
▁remorse	-4985
▁removed	-4986
▁satisfy	-4987
▁scandal	-4988
▁sepulch	-4989
▁shadows	-4990
▁sorrows	-4991
▁strokes	-4992
▁stumble	-4993
▁succeed	-4994
▁sweeter	-4995
▁torture	-4996
▁windows	-4997
▁writing	-4998
▁yielded	-4999
▁younger	-5000
▁absolute	-5001
▁accursed	-5002
▁acquaint	-5003
▁careless	-5004
▁executed	-5005
▁exercise	-5006
▁fourteen	-5007
▁heartily	-5008
▁heavenly	-5009
▁monument	-5010
▁opposite	-5011
▁pleasing	-5012
▁purchase	-5013
▁selfsame	-5014
▁servants	-5015
▁stranger	-5016
▁stronger	-5017
▁trespass	-5018
▁withdraw	-5019
▁wondrous	-5020
▁youngest	-5021
▁CLEOMENES	-5022
▁adventure	-5023
▁appointed	-5024
▁beauteous	-5025
▁determine	-5026
▁direction	-5027
▁extremity	-5028
▁flatterer	-5029
▁greatness	-5030
▁ignorance	-5031
▁infection	-5032
▁mischance	-5033
▁privilege	-5034
▁trembling	-5035
▁WILLOUGHBY	-5036
▁commonweal	-5037
▁countrymen	-5038
▁triumphant	-5039
▁Conspirator	-5040
▁adversaries	-5041
▁executioner	-5042
▁instruction	-5043
EP	-5044
ax	-5045
gy	-5046
we	-5047
ARN	-5048
EPH	-5049
INE	-5050
ann	-5051
app	-5052
aug	-5053
bio	-5054
but	-5055
cue	-5056
esu	-5057
iar	-5058
ips	-5059
mas	-5060
ola	-5061
oon	-5062
owl	-5063
rif	-5064
sey	-5065
sha	-5066
son	-5067
sop	-5068
▁Ap	-5069
▁Gu	-5070
▁Im	-5071
▁Oh	-5072
▁Wr	-5073
▁ah	-5074
▁sn	-5075
AMUS	-5076
aker	-5077
ares	-5078
ased	-5079
athe	-5080
ayed	-5081
bble	-5082
bert	-5083
cels	-5084
ders	-5085
enge	-5086
hern	-5087
hrew	-5088
iced	-5089
icio	-5090
iddy	-5091
iege	-5092
ilth	-5093
ital	-5094
ived	-5095
iver	-5096
lied	-5097
nken	-5098
oops	-5099
oubt	-5100
rage	-5101
raid	-5102
rank	-5103
rity	-5104
sire	-5105
some	-5106
ueen	-5107
▁Att	-5108
▁Bre	-5109
▁Bur	-5110
▁Del	-5111
▁Ely	-5112
▁Fal	-5113
▁Imp	-5114
▁Old	-5115
▁Pri	-5116
▁RUT	-5117
▁Sur	-5118
▁Wed	-5119
▁Woe	-5120
▁ale	-5121
▁bag	-5122
▁cat	-5123
▁fix	-5124
▁hig	-5125
▁hom	-5126
▁hop	-5127
▁ink	-5128
▁lur	-5129
▁mil	-5130
▁net	-5131
▁orn	-5132
▁sav	-5133
▁tig	-5134
▁tou	-5135
▁tro	-5136
▁unm	-5137
▁yon	-5138
ables	-5139
acles	-5140
agues	-5141
ainty	-5142
ansom	-5143
ardel	-5144
atest	-5145
athed	-5146
cheth	-5147
chief	-5148
eping	-5149
ering	-5150
hamed	-5151
icate	-5152
inate	-5153
ision	-5154
itiff	-5155
keley	-5156
ontes	-5157
orney	-5158
pense	-5159
ratch	-5160
rible	-5161
twill	-5162
unate	-5163
▁Anne	-5164
▁BARN	-5165
▁Cast	-5166
▁Dido	-5167
▁Disp	-5168
▁Does	-5169
▁Fair	-5170
▁Find	-5171
▁Gree	-5172
▁Hang	-5173
▁Perc	-5174
▁Send	-5175
▁Vaug	-5176
▁Wife	-5177
▁ages	-5178
▁alms	-5179
▁bank	-5180
▁bere	-5181
▁bill	-5182
▁bore	-5183
▁butt	-5184
▁caps	-5185
▁coll	-5186
▁cram	-5187
▁crow	-5188
▁date	-5189
▁deaf	-5190
▁dogs	-5191
▁dove	-5192
▁drag	-5193
▁eter	-5194
▁exam	-5195
▁fant	-5196
▁flow	-5197
▁fret	-5198
▁godd	-5199
▁grew	-5200
▁hare	-5201
▁heat	-5202
▁hers	-5203
▁hind	-5204
▁hire	-5205
▁laws	-5206
▁lets	-5207
▁luck	-5208
▁main	-5209
▁neat	-5210
▁nest	-5211
▁nice	-5212
▁numb	-5213
▁nupt	-5214
▁page	-5215
▁paid	-5216
▁path	-5217
▁pear	-5218
▁pern	-5219
▁prep	-5220
▁rank	-5221
▁serp	-5222
▁sirs	-5223
▁subd	-5224
▁thie	-5225
▁thin	-5226
▁tren	-5227
▁trif	-5228
▁unfe	-5229
▁unse	-5230
▁urge	-5231
▁vent	-5232
▁ward	-5233
▁wolf	-5234
▁wore	-5235
▁worm	-5236
▁zeal	-5237
ARDINE	-5238
IDAMUS	-5239
ceives	-5240
ending	-5241
ercing	-5242
fellow	-5243
harged	-5244
headed	-5245
ilence	-5246
ingers	-5247
master	-5248
orough	-5249
pardon	-5250
scalus	-5251
ushing	-5252
▁Elbow	-5253
▁Grace	-5254
▁Green	-5255
▁Hadst	-5256
▁Licio	-5257
▁Prove	-5258
▁Queen	-5259
▁Shore	-5260
▁abuse	-5261
▁amiss	-5262
▁angel	-5263
▁appea	-5264
▁backs	-5265
▁bands	-5266
▁beaut	-5267
▁beget	-5268
▁birds	-5269
▁blast	-5270
▁boast	-5271
▁bread	-5272
▁breed	-5273
▁brown	-5274
▁burns	-5275
▁burnt	-5276
▁charm	-5277
▁cheap	-5278
▁dower	-5279
▁dozen	-5280
▁flint	-5281
▁forty	-5282
▁freed	-5283
▁giddy	-5284
▁goods	-5285
▁grain	-5286
▁heels	-5287
▁honey	-5288
▁jewel	-5289
▁lance	-5290
▁limbs	-5291
▁limit	-5292
▁lower	-5293
▁lying	-5294
▁metal	-5295
▁moral	-5296
▁moves	-5297
▁noted	-5298
▁price	-5299
▁prime	-5300
▁reply	-5301
▁share	-5302
▁shook	-5303
▁sings	-5304
▁spoil	-5305
▁stale	-5306
▁steps	-5307
▁stern	-5308
▁straw	-5309
▁suits	-5310
▁sweat	-5311
▁swore	-5312
▁thumb	-5313
▁torch	-5314
▁troop	-5315
▁trunk	-5316
▁waves	-5317
▁wills	-5318
ribunes	-5319
▁Cambio	-5320
▁Making	-5321
▁Strike	-5322
▁Surrey	-5323
▁Whiles	-5324
▁arrest	-5325
▁befall	-5326
▁bestow	-5327
▁borrow	-5328
▁bottom	-5329
▁contro	-5330
▁covert	-5331
▁escape	-5332
▁fardel	-5333
▁graced	-5334
▁guests	-5335
▁haught	-5336
▁hungry	-5337
▁injury	-5338
▁joints	-5339
▁likely	-5340
▁liking	-5341
▁livery	-5342
▁looked	-5343
▁meddle	-5344
▁minute	-5345
▁months	-5346
▁parted	-5347
▁places	-5348
▁rapier	-5349
▁rebels	-5350
▁restra	-5351
▁sacrif	-5352
▁saints	-5353
▁senses	-5354
▁shapes	-5355
▁shines	-5356
▁shrift	-5357
▁sooner	-5358
▁sought	-5359
▁spleen	-5360
▁statue	-5361
▁strive	-5362
▁thirst	-5363
▁transp	-5364
▁troops	-5365
▁tyrann	-5366
▁unfold	-5367
▁velvet	-5368
▁weapon	-5369
▁wooing	-5370
▁yields	-5371
▁Another	-5372
▁Escalus	-5373
▁Fortune	-5374
▁Justice	-5375
▁Leontes	-5376
▁RUTLAND	-5377
▁Vaughan	-5378
▁Villain	-5379
▁Whereto	-5380
▁actions	-5381
▁advised	-5382
▁affords	-5383
▁burning	-5384
▁caitiff	-5385
▁careful	-5386
▁carried	-5387
▁censure	-5388
▁cherish	-5389
▁clamour	-5390
▁conjure	-5391
▁disease	-5392
▁dismiss	-5393
▁drunken	-5394
▁execute	-5395
▁fearing	-5396
▁happily	-5397
▁imagine	-5398
▁liberal	-5399
▁madness	-5400
▁misfort	-5401
▁monarch	-5402
▁monster	-5403
▁nuptial	-5404
▁offices	-5405
▁peevish	-5406
▁pitiful	-5407
▁praises	-5408
▁process	-5409
▁putting	-5410
▁rejoice	-5411
▁royalty	-5412
▁sadness	-5413
▁scatter	-5414
▁shallow	-5415
▁stomach	-5416
▁stretch	-5417
▁suitors	-5418
▁tapster	-5419
▁telling	-5420
▁thereby	-5421
▁upright	-5422
▁wanting	-5423
▁whereon	-5424
▁written	-5425
▁Although	-5426
▁Berkeley	-5427
▁Laurence	-5428
▁Remember	-5429
▁anointed	-5430
▁behavior	-5431
▁bitterly	-5432
▁bleeding	-5433
▁blessing	-5434
▁childish	-5435
▁conceive	-5436
▁counsell	-5437
▁flourish	-5438
▁immortal	-5439
▁inclined	-5440
▁lengthen	-5441
▁likeness	-5442
▁midnight	-5443
▁nobility	-5444
▁officers	-5445
▁ruthless	-5446
▁sleeping	-5447
▁somewhat	-5448
▁thinking	-5449
▁tomorrow	-5450
▁violence	-5451
▁warriors	-5452
▁Methought	-5453
▁Wherefore	-5454
▁Wiltshire	-5455
▁apprehend	-5456
▁breathing	-5457
▁challenge	-5458
▁character	-5459
▁companion	-5460
▁courteous	-5461
▁discourse	-5462
▁dispersed	-5463
▁forthwith	-5464
▁grandsire	-5465
▁lightning	-5466
▁methought	-5467
▁necessity	-5468
▁prettiest	-5469
▁prevented	-5470
▁senseless	-5471
▁sepulchre	-5472
▁substance	-5473
▁ARCHIDAMUS	-5474
▁BARNARDINE	-5475
▁churchyard	-5476
▁coronation	-5477
▁pernicious	-5478
▁possession	-5479
▁proportion	-5480
▁reputation	-5481
▁succession	-5482
▁threatening	-5483
▁commonwealth	-5484
▁intelligence	-5485
▁proclamation	-5486
AG	-5487
IR	-5488
OT	-5489
ZW	-5490
ta	-5491
wd	-5492
yc	-5493
BAN	-5494
CRO	-5495
EOR	-5496
MOR	-5497
acy	-5498
adv	-5499
arm	-5500
asp	-5501
bey	-5502
cri	-5503
dal	-5504
ded	-5505
dst	-5506
got	-5507
hen	-5508
ndy	-5509
oes	-5510
rog	-5511
sen	-5512
uns	-5513
zed	-5514
▁Em	-5515
▁Ga	-5516
▁Qu	-5517
▁fr	-5518
▁gn	-5519
AGOT	-5520
ATER	-5521
ITZW	-5522
ably	-5523
aged	-5524
agot	-5525
ardy	-5526
cket	-5527
cure	-5528
ersu	-5529
foot	-5530
give	-5531
here	-5532
hilo	-5533
hire	-5534
iban	-5535
iece	-5536
igon	-5537
itch	-5538
join	-5539
kind	-5540
lace	-5541
olks	-5542
oned	-5543
rald	-5544
reet	-5545
rich	-5546
riel	-5547
roof	-5548
spur	-5549
that	-5550
ulls	-5551
umed	-5552
upid	-5553
ushi	-5554
utch	-5555
vied	-5556
wing	-5557
▁Add	-5558
▁CAR	-5559
▁ELY	-5560
▁Fit	-5561
▁Gra	-5562
▁Hie	-5563
▁Hon	-5564
▁Mis	-5565
▁SIR	-5566
▁Saw	-5567
▁Sly	-5568
▁Sus	-5569
▁Ten	-5570
▁Wit	-5571
▁aud	-5572
▁bay	-5573
▁bol	-5574
▁bru	-5575
▁cab	-5576
▁cop	-5577
▁dem	-5578
▁fin	-5579
▁gam	-5580
▁gap	-5581
▁ice	-5582
▁inv	-5583
▁leg	-5584
▁lun	-5585
▁mat	-5586
▁mew	-5587
▁nar	-5588
▁pop	-5589
▁por	-5590
▁rag	-5591
▁rue	-5592
▁sau	-5593
▁sca	-5594
▁sed	-5595
▁una	-5596
▁wax	-5597
▁wet	-5598
CROOP	-5599
ELAND	-5600
EORGE	-5601
EPHEN	-5602
LIBAN	-5603
LISLE	-5604
alter	-5605
arers	-5606
blood	-5607
chers	-5608
emper	-5609
erest	-5610
guard	-5611
gundy	-5612
ickle	-5613
igent	-5614
igned	-5615
ilful	-5616
iliar	-5617
iners	-5618
iring	-5619
ishes	-5620
light	-5621
mbers	-5622
olved	-5623
order	-5624
oured	-5625
ranch	-5626
reant	-5627
shall	-5628
sophy	-5629
ulous	-5630
verty	-5631
vided	-5632
volio	-5633
which	-5634
▁Capt	-5635
▁Desp	-5636
▁Dian	-5637
▁Else	-5638
▁Ever	-5639
▁Five	-5640
▁Full	-5641
▁Gard	-5642
▁Jesu	-5643
▁Live	-5644
▁Much	-5645
▁Name	-5646
▁Part	-5647
▁Virt	-5648
▁WEST	-5649
▁aged	-5650
▁also	-5651
▁anch	-5652
▁balm	-5653
▁beef	-5654
▁bell	-5655
▁bent	-5656
▁brat	-5657
▁busy	-5658
▁buzz	-5659
▁cent	-5660
▁coat	-5661
▁cook	-5662
▁drew	-5663
▁felt	-5664
▁flat	-5665
▁fray	-5666
▁fres	-5667
▁goss	-5668
▁hail	-5669
▁herd	-5670
▁hist	-5671
▁hoar	-5672
▁hurl	-5673
▁keys	-5674
▁lect	-5675
▁lewd	-5676
▁load	-5677
▁lock	-5678
▁lour	-5679
▁mars	-5680
▁misc	-5681
▁mour	-5682
▁omit	-5683
▁owes	-5684
▁pace	-5685
▁palm	-5686
▁pent	-5687
▁pick	-5688
▁pict	-5689
▁pill	-5690
▁pomp	-5691
▁push	-5692
▁rack	-5693
▁rate	-5694
▁rear	-5695
▁rend	-5696
▁robb	-5697
▁sess	-5698
▁shel	-5699
▁shop	-5700
▁shru	-5701
▁smil	-5702
▁soci	-5703
▁soil	-5704
▁surp	-5705
▁tack	-5706
▁term	-5707
▁tied	-5708
▁tops	-5709
▁tree	-5710
▁trim	-5711
▁unre	-5712
▁vast	-5713
▁wave	-5714
▁week	-5715
▁wipe	-5716
action	-5717
egrity	-5718
idered	-5719
igonus	-5720
isting	-5721
nesday	-5722
owards	-5723
spurgh	-5724
tering	-5725
ventry	-5726
▁Above	-5727
▁Adieu	-5728
▁BAGOT	-5729
▁Bagot	-5730
▁Blunt	-5731
▁Canst	-5732
▁Comes	-5733
▁EXTON	-5734
▁FITZW	-5735
▁False	-5736
▁Persu	-5737
▁Raven	-5738
▁Shalt	-5739
▁Swear	-5740
▁Thine	-5741
▁Trust	-5742
▁Welsh	-5743
▁Women	-5744
▁Yield	-5745
▁abund	-5746
▁accom	-5747
▁alleg	-5748
▁amain	-5749
▁ambit	-5750
▁apace	-5751
▁array	-5752
▁beams	-5753
▁beats	-5754
▁clock	-5755
▁cozen	-5756
▁crook	-5757
▁disin	-5758
▁divor	-5759
▁droop	-5760
▁eaten	-5761
▁eight	-5762
▁ended	-5763
▁exped	-5764
▁falls	-5765
▁fever	-5766
▁fiend	-5767
▁frail	-5768
▁frank	-5769
▁frost	-5770
▁gains	-5771
▁gifts	-5772
▁goose	-5773
▁helps	-5774
▁imper	-5775
▁infer	-5776
▁insol	-5777
▁lambs	-5778
▁likes	-5779
▁lions	-5780
▁lists	-5781
▁merri	-5782
▁mould	-5783
▁ought	-5784
▁paint	-5785
▁petty	-5786
▁philo	-5787
▁plebe	-5788
▁purge	-5789
▁raven	-5790
▁reach	-5791
▁revel	-5792
▁robes	-5793
▁rouse	-5794
▁saved	-5795
▁ships	-5796
▁shoes	-5797
▁sides	-5798
▁silly	-5799
▁skill	-5800
▁slipp	-5801
▁stays	-5802
▁stead	-5803
▁stops	-5804
▁tired	-5805
▁towns	-5806
▁train	-5807
▁waked	-5808
▁wears	-5809
ceiving	-5810
isement	-5811
iveness	-5812
mediate	-5813
onstant	-5814
umbling	-5815
▁Appear	-5816
▁Curtis	-5817
▁GEORGE	-5818
▁Gaoler	-5819
▁Minola	-5820
▁Nature	-5821
▁SCROOP	-5822
▁Things	-5823
▁Venice	-5824
▁afraid	-5825
▁amends	-5826
▁aspect	-5827
▁attain	-5828
▁beaten	-5829
▁betide	-5830
▁boldly	-5831
▁bowels	-5832
▁brains	-5833
▁bridal	-5834
▁cheque	-5835
▁chosen	-5836
▁cloudy	-5837
▁couple	-5838
▁dearer	-5839
▁depose	-5840
▁detest	-5841
▁eldest	-5842
▁eleven	-5843
▁errand	-5844
▁esteem	-5845
▁except	-5846
▁falcon	-5847
▁figure	-5848
▁fondly	-5849
▁gladly	-5850
▁hazard	-5851
▁height	-5852
▁herald	-5853
▁homely	-5854
▁kisses	-5855
▁landed	-5856
▁lately	-5857
▁livest	-5858
▁lovers	-5859
▁marvel	-5860
▁middle	-5861
▁narrow	-5862
▁nights	-5863
▁notice	-5864
▁obsequ	-5865
▁prefer	-5866
▁prodig	-5867
▁prompt	-5868
▁proved	-5869
▁purple	-5870
▁ransom	-5871
▁reckon	-5872
▁riches	-5873
▁savage	-5874
▁seated	-5875
▁seized	-5876
▁severe	-5877
▁signal	-5878
▁slight	-5879
▁sounds	-5880
▁spread	-5881
▁stolen	-5882
▁storms	-5883
▁strict	-5884
▁swears	-5885
▁takest	-5886
▁testim	-5887
▁tricks	-5888
▁troubl	-5889
▁vanity	-5890
▁varlet	-5891
▁wisely	-5892
MORELAND	-5893
perience	-5894
▁Becomes	-5895
▁CALIBAN	-5896
▁Caliban	-5897
▁Captain	-5898
▁Comfort	-5899
▁Neither	-5900
▁Perhaps	-5901
▁Prepare	-5902
▁STEPHEN	-5903
▁Towards	-5904
▁Whereof	-5905
▁amongst	-5906
▁amorous	-5907
▁ashamed	-5908
▁bidding	-5909
▁blemish	-5910
▁ceremon	-5911
▁cheerly	-5912
▁conclud	-5913
▁consequ	-5914
▁couldst	-5915
▁designs	-5916
▁earthly	-5917
▁example	-5918
▁extreme	-5919
▁fantast	-5920
▁favours	-5921
▁fingers	-5922
▁freedom	-5923
▁furnish	-5924
▁ghostly	-5925
▁goddess	-5926
▁grandam	-5927
▁grieved	-5928
▁grieves	-5929
▁heavier	-5930
▁holding	-5931
▁hopeful	-5932
▁kinsmen	-5933
▁knowing	-5934
▁learned	-5935
▁marvell	-5936
▁members	-5937
▁mightst	-5938
▁neglect	-5939
▁ourself	-5940
▁outrage	-5941
▁parents	-5942
▁parties	-5943
▁partner	-5944
▁poverty	-5945
▁presume	-5946
▁profane	-5947
▁prophes	-5948
▁provide	-5949
▁restore	-5950
▁retired	-5951
▁scratch	-5952
▁settled	-5953
▁signify	-5954
▁smother	-5955
▁sounded	-5956
▁sweetly	-5957
▁temples	-5958
▁tempted	-5959
▁thieves	-5960
▁travell	-5961
▁weapons	-5962
▁winters	-5963
▁worldly	-5964
▁Benvolio	-5965
▁Burgundy	-5966
▁CARLISLE	-5967
▁Coventry	-5968
▁Gardener	-5969
▁Patience	-5970
▁Proclaim	-5971
▁Tribunes	-5972
▁Withdraw	-5973
▁attorney	-5974
▁bastards	-5975
▁boldness	-5976
▁compound	-5977
▁conclude	-5978
▁confound	-5979
▁conquest	-5980
▁contents	-5981
▁courtier	-5982
▁cowardly	-5983
▁darkness	-5984
▁devilish	-5985
▁entrance	-5986
▁greeting	-5987
▁likewise	-5988
▁merchant	-5989
▁mildness	-5990
▁mutinous	-5991
▁persuade	-5992
▁piercing	-5993
▁preserve	-5994
▁provoked	-5995
▁revenges	-5996
▁speaking	-5997
▁suddenly	-5998
▁thankful	-5999
▁treasons	-6000
▁troubled	-6001
▁usurping	-6002
▁villains	-6003
▁youthful	-6004
▁Antigonus	-6005
▁FITZWATER	-6006
▁Vouchsafe	-6007
▁Wednesday	-6008
▁ambitious	-6009
▁condemned	-6010
▁constable	-6011
▁departure	-6012
▁downright	-6013
▁instantly	-6014
▁integrity	-6015
▁ministers	-6016
▁musicians	-6017
▁nobleness	-6018
▁readiness	-6019
▁reconcile	-6020
▁sentenced	-6021
▁tyrannous	-6022
▁wandering	-6023
▁accusation	-6024
▁acquainted	-6025
▁allegiance	-6026
▁complexion	-6027
▁entreaties	-6028
▁estimation	-6029
▁flattering	-6030
▁lamentable	-6031
▁misfortune	-6032
▁neighbours	-6033
▁occupation	-6034
▁philosophy	-6035
▁pilgrimage	-6036
▁recompense	-6037
▁substitute	-6038
▁sufficient	-6039
▁unkindness	-6040
▁Ravenspurgh	-6041
▁approbation	-6042
▁destruction	-6043
▁WESTMORELAND	-6044
▁circumstance	-6045
▁discontented	-6046
▁satisfaction	-6047
br	-6048
do	-6049
eb	-6050
uc	-6051
ug	-6052
Hic	-6053
amy	-6054
bot	-6055
boy	-6056
cra	-6057
cus	-6058
des	-6059
gea	-6060
gic	-6061
inu	-6062
len	-6063
lor	-6064
low	-6065
off	-6066
ril	-6067
rop	-6068
tin	-6069
uiv	-6070
urb	-6071
uts	-6072
wer	-6073
▁Ac	-6074
▁Er	-6075
▁ug	-6076
What	-6077
alks	-6078
ands	-6079
aped	-6080
back	-6081
bour	-6082
bric	-6083
cest	-6084
ctor	-6085
done	-6086
ella	-6087
eves	-6088
ewks	-6089
gues	-6090
hage	-6091
hand	-6092
hors	-6093
icle	-6094
ifth	-6095
inal	-6096
kest	-6097
lain	-6098
last	-6099
lect	-6100
lier	-6101
made	-6102
nday	-6103
oble	-6104
onio	-6105
orax	-6106
oriz	-6107
oses	-6108
rish	-6109
tied	-6110
ules	-6111
uned	-6112
unis	-6113
vive	-6114
wear	-6115
work	-6116
▁Adv	-6117
▁Aff	-6118
▁Che	-6119
▁Dep	-6120
▁Div	-6121
▁Har	-6122
▁Jup	-6123
▁Mur	-6124
▁Ned	-6125
▁Pem	-6126
▁Rel	-6127
▁Sit	-6128
▁Syc	-6129
▁Tra	-6130
▁ack	-6131
▁afe	-6132
▁ann	-6133
▁ape	-6134
▁ash	-6135
▁bul	-6136
▁dot	-6137
▁eff	-6138
▁fan	-6139
▁fox	-6140
▁fre	-6141
▁hag	-6142
▁key	-6143
▁mas	-6144
▁moe	-6145
▁mom	-6146
▁nod	-6147
▁obs	-6148
▁pow	-6149
▁pup	-6150
▁rhe	-6151
▁rig	-6152
▁rum	-6153
▁sap	-6154
▁sow	-6155
▁thw	-6156
▁tie	-6157
▁vul	-6158
Twixt	-6159
aints	-6160
amity	-6161
asant	-6162
avour	-6163
awful	-6164
aying	-6165
board	-6166
ening	-6167
horse	-6168
iders	-6169
inces	-6170
inies	-6171
inted	-6172
ively	-6173
lance	-6174
longs	-6175
ocate	-6176
oster	-6177
peian	-6178
ption	-6179
roach	-6180
shine	-6181
sooth	-6182
there	-6183
trees	-6184
ually	-6185
uring	-6186
water	-6187
▁ABRA	-6188
▁Best	-6189
▁Bold	-6190
▁Cart	-6191
▁Cont	-6192
▁Dest	-6193
▁Fall	-6194
▁Fell	-6195
▁Foul	-6196
▁Happ	-6197
▁Kent	-6198
▁Kind	-6199
▁Lead	-6200
▁Lend	-6201
▁Lies	-6202
▁Nept	-6203
▁Over	-6204
▁Purs	-6205
▁Read	-6206
▁Scot	-6207
▁Talk	-6208
▁Troy	-6209
▁Wert	-6210
▁West	-6211
▁acts	-6212
▁aims	-6213
▁alar	-6214
▁amaz	-6215
▁baby	-6216
▁bail	-6217
▁bald	-6218
▁blot	-6219
▁blue	-6220
▁bowl	-6221
▁bows	-6222
▁cler	-6223
▁cool	-6224
▁cord	-6225
▁crab	-6226
▁crim	-6227
▁dash	-6228
▁dece	-6229
▁deer	-6230
▁defy	-6231
▁desc	-6232
▁dine	-6233
▁diso	-6234
▁dole	-6235
▁dram	-6236
▁earl	-6237
▁fift	-6238
▁fulf	-6239
▁game	-6240
▁grim	-6241
▁gust	-6242
▁harl	-6243
▁heel	-6244
▁hill	-6245
▁inch	-6246
▁lads	-6247
▁leap	-6248
▁lick	-6249
▁lief	-6250
▁lute	-6251
▁mask	-6252
▁meal	-6253
▁meed	-6254
▁milk	-6255
▁nigh	-6256
▁noon	-6257
▁nort	-6258
▁obsc	-6259
▁pant	-6260
▁peer	-6261
▁perd	-6262
▁pest	-6263
▁plan	-6264
▁pour	-6265
▁race	-6266
▁ranc	-6267
▁rein	-6268
▁roof	-6269
▁runs	-6270
▁rush	-6271
▁sack	-6272
▁shot	-6273
▁silk	-6274
▁sixt	-6275
▁song	-6276
▁stag	-6277
▁summ	-6278
▁terr	-6279
▁torn	-6280
▁trow	-6281
▁undo	-6282
▁vass	-6283
▁veil	-6284
▁vial	-6285
▁welc	-6286
▁yare	-6287
BISHOP	-6288
Zounds	-6289
advent	-6290
aments	-6291
anders	-6292
arried	-6293
attern	-6294
enches	-6295
govern	-6296
iments	-6297
ittany	-6298
lihood	-6299
ossess	-6300
ousins	-6301
rament	-6302
rantic	-6303
twould	-6304
uivant	-6305
ulting	-6306
▁Alban	-6307
▁Ariel	-6308
▁Bound	-6309
▁Break	-6310
▁Cupid	-6311
▁Fetch	-6312
▁Gives	-6313
▁Ready	-6314
▁Teach	-6315
▁Tewks	-6316
▁Thank	-6317
▁Throw	-6318
▁Touch	-6319
▁Truly	-6320
▁Tunis	-6321
▁Twice	-6322
▁aloud	-6323
▁apart	-6324
▁arise	-6325
▁ashes	-6326
▁blaze	-6327
▁bliss	-6328
▁blown	-6329
▁brand	-6330
▁cabin	-6331
▁canop	-6332
▁champ	-6333
▁chose	-6334
▁clean	-6335
▁cloak	-6336
▁coast	-6337
▁cords	-6338
▁crept	-6339
▁crows	-6340
▁crush	-6341
▁cushi	-6342
▁diest	-6343
▁dined	-6344
▁dried	-6345
▁drift	-6346
▁dukes	-6347
▁eager	-6348
▁evils	-6349
▁faced	-6350
▁fleet	-6351
▁flock	-6352
▁folks	-6353
▁fount	-6354
▁front	-6355
▁fully	-6356
▁gaunt	-6357
▁grass	-6358
▁groom	-6359
▁haunt	-6360
▁kites	-6361
▁level	-6362
▁linea	-6363
▁lodge	-6364
▁lowly	-6365
▁mates	-6366
▁medic	-6367
▁midst	-6368
▁model	-6369
▁moody	-6370
▁mouse	-6371
▁murde	-6372
▁nails	-6373
▁named	-6374
▁pearl	-6375
▁pilot	-6376
▁pinch	-6377
▁prate	-6378
▁print	-6379
▁puiss	-6380
▁rests	-6381
▁roses	-6382
▁sadly	-6383
▁score	-6384
▁seeks	-6385
▁shade	-6386
▁shown	-6387
▁slily	-6388
▁spark	-6389
▁spurs	-6390
▁stark	-6391
▁steep	-6392
▁stiff	-6393
▁stink	-6394
▁surpr	-6395
▁swoon	-6396
▁tardy	-6397
▁theme	-6398
▁tiger	-6399
▁toads	-6400
▁trees	-6401
▁tutor	-6402
▁unpro	-6403
▁vouch	-6404
▁waits	-6405
▁whist	-6406
▁worms	-6407
▁wring	-6408
advised	-6409
angling	-6410
emption	-6411
ication	-6412
racious	-6413
rateful	-6414
▁Answer	-6415
▁Antium	-6416
▁Bishop	-6417
▁Murder	-6418
▁Stands	-6419
▁Sunday	-6420
▁Virtue	-6421
▁Walter	-6422
▁abhorr	-6423
▁accomp	-6424
▁acknow	-6425
▁afeard	-6426
▁ancest	-6427
▁angels	-6428
▁asking	-6429
▁belong	-6430
▁bereft	-6431
▁beside	-6432
▁bestri	-6433
▁bosoms	-6434
▁bounty	-6435
▁branch	-6436
▁breaks	-6437
▁burden	-6438
▁butter	-6439
▁causes	-6440
▁closed	-6441
▁crying	-6442
▁dearth	-6443
▁deform	-6444
▁depend	-6445
▁devils	-6446
▁devour	-6447
▁distra	-6448
▁easily	-6449
▁embass	-6450
▁enrich	-6451
▁exceed	-6452
▁fallen	-6453
▁feasts	-6454
▁framed	-6455
▁frozen	-6456
▁gather	-6457
▁graces	-6458
▁growth	-6459
▁herein	-6460
▁hinder	-6461
▁insinu	-6462
▁invent	-6463
▁inward	-6464
▁knocks	-6465
▁leaden	-6466
▁lenity	-6467
▁lights	-6468
▁linger	-6469
▁lodged	-6470
▁magist	-6471
▁meaner	-6472
▁mildly	-6473
▁moiety	-6474
▁moment	-6475
▁moving	-6476
▁nimble	-6477
▁orator	-6478
▁patron	-6479
▁pedlar	-6480
▁pitied	-6481
▁plants	-6482
▁pursue	-6483
▁reigns	-6484
▁resemb	-6485
▁rushes	-6486
▁safely	-6487
▁search	-6488
▁speedy	-6489
▁spider	-6490
▁stocks	-6491
▁strife	-6492
▁taking	-6493
▁taunts	-6494
▁temple	-6495
▁thrown	-6496
▁unlike	-6497
▁unlook	-6498
▁unluck	-6499
▁unruly	-6500
▁unseen	-6501
▁utmost	-6502
▁watery	-6503
▁wedded	-6504
▁window	-6505
▁worser	-6506
▁yester	-6507
isterous	-6508
shearing	-6509
standing	-6510
▁ABRAHAM	-6511
▁Antonio	-6512
▁Command	-6513
▁Confess	-6514
▁Content	-6515
▁Courage	-6516
▁Jupiter	-6517
▁Mistake	-6518
▁Neptune	-6519
▁Prosper	-6520
▁Suppose	-6521
▁Sycorax	-6522
▁Thyself	-6523
▁adverse	-6524
▁afflict	-6525
▁appears	-6526
▁avoided	-6527
▁battles	-6528
▁beggars	-6529
▁bending	-6530
▁breasts	-6531
▁carries	-6532
▁chances	-6533
▁charges	-6534
▁climate	-6535
▁compare	-6536
▁dancing	-6537
▁destiny	-6538
▁dissemb	-6539
▁disturb	-6540
▁endured	-6541
▁eternal	-6542
▁falling	-6543
▁fifteen	-6544
▁frantic	-6545
▁glasses	-6546
▁hangman	-6547
▁harbour	-6548
▁harmony	-6549
▁harvest	-6550
▁heinous	-6551
▁history	-6552
▁ignoble	-6553
▁impeach	-6554
▁inquire	-6555
▁intents	-6556
▁lasting	-6557
▁leaving	-6558
▁loathed	-6559
▁lodging	-6560
▁loyalty	-6561
▁lunatic	-6562
▁manhood	-6563
▁marshal	-6564
▁midwife	-6565
▁minutes	-6566
▁mothers	-6567
▁murders	-6568
▁mustard	-6569
▁numbers	-6570
▁persons	-6571
▁popular	-6572
▁prating	-6573
▁pursuit	-6574
▁quarter	-6575
▁require	-6576
▁revenue	-6577
▁roaring	-6578
▁secrets	-6579
▁serious	-6580
▁serpent	-6581
▁sitting	-6582
▁sixteen	-6583
▁springs	-6584
▁steward	-6585
▁support	-6586
▁surfeit	-6587
▁talking	-6588
▁thereto	-6589
▁trifles	-6590
▁venture	-6591
▁wronged	-6592
adventure	-6593
▁Brittany	-6594
▁Capulets	-6595
▁Carthage	-6596
▁Isabella	-6597
▁Pembroke	-6598
▁Scotland	-6599
▁Sometime	-6600
▁Tarpeian	-6601
▁Volscian	-6602
▁advanced	-6603
▁advocate	-6604
▁approved	-6605
▁attended	-6606
▁believed	-6607
▁blushing	-6608
▁branches	-6609
▁calamity	-6610
▁changing	-6611
▁chiefest	-6612
▁commands	-6613
▁commends	-6614
▁concerns	-6615
▁confeder	-6616
▁cracking	-6617
▁damnable	-6618
▁delicate	-6619
▁despised	-6620
▁distress	-6621
▁doubtful	-6622
▁downfall	-6623
▁drinking	-6624
▁enforced	-6625
▁entreaty	-6626
▁everlast	-6627
▁extremes	-6628
▁familiar	-6629
▁forehead	-6630
▁forsooth	-6631
▁humility	-6632
▁incensed	-6633
▁infected	-6634
▁learning	-6635
▁manifest	-6636
▁mischief	-6637
▁mountain	-6638
▁murdered	-6639
▁musician	-6640
▁nighting	-6641
▁northern	-6642
▁offences	-6643
▁perjured	-6644
▁prophecy	-6645
▁prophesy	-6646
▁proudest	-6647
▁provided	-6648
▁recreant	-6649
▁reported	-6650
▁sensible	-6651
▁singular	-6652
▁smallest	-6653
▁statutes	-6654
▁sweetest	-6655
▁swelling	-6656
▁unworthy	-6657
▁whoreson	-6658
▁wrinkled	-6659
▁yielding	-6660
▁Montagues	-6661
▁Tewksbury	-6662
▁Volscians	-6663
▁afterward	-6664
▁confessor	-6665
▁conqueror	-6666
▁discharge	-6667
▁disgraced	-6668
▁guiltless	-6669
▁injustice	-6670
▁innocence	-6671
▁interrupt	-6672
▁loathsome	-6673
▁multitude	-6674
▁murderous	-6675
▁ornaments	-6676
▁otherwise	-6677
▁plebeians	-6678
▁royalties	-6679
▁sacrament	-6680
▁safeguard	-6681
▁shoulders	-6682
▁suffering	-6683
▁thousands	-6684
▁unwilling	-6685
▁wonderful	-6686
▁ARCHBISHOP	-6687
▁Lieutenant	-6688
▁boisterous	-6689
▁compassion	-6690
▁conclusion	-6691
▁confession	-6692
▁confidence	-6693
▁considered	-6694
▁correction	-6695
▁corruption	-6696
▁counsellor	-6697
▁flatterers	-6698
▁friendship	-6699
▁henceforth	-6700
▁likelihood	-6701
▁marvellous	-6702
▁oppression	-6703
▁perfection	-6704
▁prosperity	-6705
▁redemption	-6706
▁revengeful	-6707
▁slanderous	-6708
▁sufferance	-6709
▁tenderness	-6710
▁visitation	-6711
▁whatsoever	-6712
▁whispering	-6713
▁brotherhood	-6714
▁ceremonious	-6715
▁consequence	-6716
▁displeasure	-6717
▁imagination	-6718
▁lamentation	-6719
▁proceedings	-6720
Be	-6721
He	-6722
St	-6723
cr	-6724
ex	-6725
lm	-6726
lu	-6727
ph	-6728
AGE	-6729
ANI	-6730
ONA	-6731
REY	-6732
The	-6733
ado	-6734
ais	-6735
ald	-6736
ank	-6737
asy	-6738
ato	-6739
aws	-6740
bid	-6741
cat	-6742
cel	-6743
cip	-6744
cis	-6745
civ	-6746
eks	-6747
eny	-6748
hur	-6749
idd	-6750
iel	-6751
imo	-6752
ims	-6753
iqu	-6754
isk	-6755
jud	-6756
key	-6757
lip	-6758
met	-6759
mph	-6760
ops	-6761
rge	-6762
ros	-6763
rup	-6764
ted	-6765
thw	-6766
uge	-6767
ule	-6768
ums	-6769
wit	-6770
▁Ag	-6771
▁Cy	-6772
▁Du	-6773
▁EM	-6774
▁Ro	-6775
▁av	-6776
▁hy	-6777
▁om	-6778
▁vi	-6779
Gain	-6780
This	-6781
adem	-6782
atri	-6783
azon	-6784
bell	-6785
bles	-6786
cast	-6787
cock	-6788
core	-6789
cund	-6790
duce	-6791
ebus	-6792
ffer	-6793
gage	-6794
ghts	-6795
gled	-6796
good	-6797
gory	-6798
gued	-6799
iner	-6800
inew	-6801
ingu	-6802
itty	-6803
ival	-6804
izab	-6805
kens	-6806
lled	-6807
look	-6808
loqu	-6809
love	-6810
miss	-6811
mpet	-6812
odow	-6813
olar	-6814
olve	-6815
omin	-6816
peci	-6817
phan	-6818
pped	-6819
ppet	-6820
pret	-6821
quet	-6822
quis	-6823
reth	-6824
rial	-6825
rief	-6826
rion	-6827
ropp	-6828
seem	-6829
seth	-6830
side	-6831
sion	-6832
sses	-6833
uced	-6834
umes	-6835
umny	-6836
umps	-6837
ungs	-6838
upon	-6839
urer	-6840
urvy	-6841
voke	-6842
will	-6843
xton	-6844
your	-6845
▁Any	-6846
▁Arm	-6847
▁Ass	-6848
▁Bad	-6849
▁Ban	-6850
▁Def	-6851
▁Dor	-6852
▁End	-6853
▁Fly	-6854
▁Ill	-6855
▁Ins	-6856
▁Jer	-6857
▁Jud	-6858
▁Jun	-6859
▁Lam	-6860
▁Pha	-6861
▁Pho	-6862
▁Red	-6863
▁Ren	-6864
▁Run	-6865
▁SUR	-6866
▁Sin	-6867
▁Tur	-6868
▁box	-6869
▁coz	-6870
▁ded	-6871
▁der	-6872
▁dil	-6873
▁ebb	-6874
▁fem	-6875
▁fet	-6876
▁fif	-6877
▁gaz	-6878
▁haw	-6879
▁ire	-6880
▁kna	-6881
▁mum	-6882
▁non	-6883
▁obt	-6884
▁pox	-6885
▁ren	-6886
▁stu	-6887
▁tax	-6888
▁tea	-6889
▁toe	-6890
▁ton	-6891
▁toy	-6892
▁tur	-6893
▁vig	-6894
ANIEL	-6895
Twill	-6896
aches	-6897
adise	-6898
alion	-6899
allel	-6900
andle	-6901
antle	-6902
asing	-6903
athom	-6904
blown	-6905
chool	-6906
craft	-6907
echer	-6908
eches	-6909
ethon	-6910
feits	-6911
glass	-6912
gnant	-6913
grown	-6914
habit	-6915
heard	-6916
holds	-6917
icial	-6918
iding	-6919
illed	-6920
isome	-6921
ivers	-6922
licit	-6923
lling	-6924
neath	-6925
nsion	-6926
opher	-6927
overy	-6928
plish	-6929
ptory	-6930
rails	-6931
rieve	-6932
runes	-6933
scals	-6934
scape	-6935
ships	-6936
stone	-6937
strel	-6938
thing	-6939
throw	-6940
tised	-6941
verse	-6942
versy	-6943
whelm	-6944
where	-6945
▁BONA	-6946
▁Back	-6947
▁Cher	-6948
▁Cold	-6949
▁DION	-6950
▁Fill	-6951
▁Fran	-6952
▁Gold	-6953
▁Harp	-6954
▁Herc	-6955
▁High	-6956
▁Holy	-6957
▁Host	-6958
▁Join	-6959
▁Just	-6960
▁Left	-6961
▁NATH	-6962
▁Obey	-6963
▁Open	-6964
▁PAGE	-6965
▁Pres	-6966
▁Prof	-6967
▁Rest	-6968
▁Urge	-6969
▁abod	-6970
▁abst	-6971
▁airy	-6972
▁alto	-6973
▁answ	-6974
▁arch	-6975
▁awry	-6976
▁beet	-6977
▁boon	-6978
▁bush	-6979
▁cann	-6980
▁card	-6981
▁cave	-6982
▁chaf	-6983
▁chap	-6984
▁chop	-6985
▁clap	-6986
▁coal	-6987
▁crew	-6988
▁cuck	-6989
▁dame	-6990
▁diet	-6991
▁doct	-6992
▁dumb	-6993
▁farm	-6994
▁feat	-6995
▁fest	-6996
▁fits	-6997
▁foil	-6998
▁fold	-6999
▁forn	-7000
▁gait	-7001
▁gaol	-7002
▁gape	-7003
▁geld	-7004
▁gulf	-7005
▁hall	-7006
▁halt	-7007
▁heap	-7008
▁hole	-7009
▁hood	-7010
▁idly	-7011
▁inve	-7012
▁jade	-7013
▁knit	-7014
▁lace	-7015
▁levy	-7016
▁liar	-7017
▁link	-7018
▁liqu	-7019
▁male	-7020
▁marr	-7021
▁mast	-7022
▁moan	-7023
▁muff	-7024
▁negl	-7025
▁obst	-7026
▁pate	-7027
▁pays	-7028
▁perf	-7029
▁pine	-7030
▁prec	-7031
▁puff	-7032
▁pull	-7033
▁rats	-7034
▁rent	-7035
▁ridd	-7036
▁rode	-7037
▁sear	-7038
▁sequ	-7039
▁sith	-7040
▁spar	-7041
▁sped	-7042
▁stem	-7043
▁sued	-7044
▁sugg	-7045
▁sung	-7046
▁syll	-7047
▁tink	-7048
▁ugly	-7049
▁unth	-7050
▁vine	-7051
▁warn	-7052
▁wasp	-7053
▁weal	-7054
▁weed	-7055
▁whet	-7056
Gainst	-7057
actors	-7058
ailing	-7059
aining	-7060
antime	-7061
apable	-7062
arison	-7063
asures	-7064
bearer	-7065
cedent	-7066
chelor	-7067
elting	-7068
erving	-7069
estern	-7070
franch	-7071
iquity	-7072
ivered	-7073
leness	-7074
liness	-7075
mongst	-7076
omenes	-7077
orizel	-7078
otless	-7079
ouches	-7080
piring	-7081
randam	-7082
ressed	-7083
rician	-7084
riment	-7085
strong	-7086
terate	-7087
ueless	-7088
uments	-7089
voided	-7090
witted	-7091
▁Again	-7092
▁Arise	-7093
▁Carry	-7094
▁Every	-7095
▁Fifth	-7096
▁Flore	-7097
▁Forth	-7098
▁Groom	-7099
▁Infer	-7100
▁Knock	-7101
▁Lodow	-7102
▁Lovel	-7103
▁Mercy	-7104
▁Percy	-7105
▁Seize	-7106
▁Shame	-7107
▁Sixth	-7108
▁Smile	-7109
▁Tarqu	-7110
▁Wales	-7111
▁Whate	-7112
▁Worse	-7113
▁Write	-7114
▁actor	-7115
▁admir	-7116
▁admit	-7117
▁afoot	-7118
▁afore	-7119
▁allay	-7120
▁aloof	-7121
▁amend	-7122
▁antic	-7123
▁apply	-7124
▁arbit	-7125
▁argos	-7126
▁armed	-7127
▁beads	-7128
▁befal	-7129
▁begot	-7130
▁blade	-7131
▁bleed	-7132
▁bodes	-7133
▁bount	-7134
▁brass	-7135
▁brawl	-7136
▁bribe	-7137
▁broad	-7138
▁budge	-7139
▁chest	-7140
▁climb	-7141
▁coals	-7142
▁crest	-7143
▁dared	-7144
▁decay	-7145
▁doors	-7146
▁doves	-7147
▁draws	-7148
▁drows	-7149
▁eloqu	-7150
▁embra	-7151
▁error	-7152
▁exact	-7153
▁fills	-7154
▁filth	-7155
▁flame	-7156
▁foret	-7157
▁graft	-7158
▁greyh	-7159
▁hatch	-7160
▁hazel	-7161
▁hears	-7162
▁hedge	-7163
▁heigh	-7164
▁herbs	-7165
▁holid	-7166
▁imped	-7167
▁impud	-7168
▁lends	-7169
▁locks	-7170
▁loins	-7171
▁loose	-7172
▁lungs	-7173
▁madly	-7174
▁magic	-7175
▁miles	-7176
▁musty	-7177
▁noses	-7178
▁notes	-7179
▁penny	-7180
▁perem	-7181
▁plate	-7182
▁prays	-7183
▁privy	-7184
▁pupil	-7185
▁quake	-7186
▁rages	-7187
▁rebel	-7188
▁relig	-7189
▁repet	-7190
▁ripen	-7191
▁rites	-7192
▁rocks	-7193
▁safer	-7194
▁sands	-7195
▁saucy	-7196
▁scape	-7197
▁scour	-7198
▁separ	-7199
▁shift	-7200
▁shout	-7201
▁siege	-7202
▁signs	-7203
▁sinew	-7204
▁slack	-7205
▁spilt	-7206
▁split	-7207
▁staff	-7208
▁stirs	-7209
▁sugar	-7210
▁tamed	-7211
▁tents	-7212
▁thres	-7213
▁token	-7214
▁tower	-7215
▁treat	-7216
▁tried	-7217
▁truer	-7218
▁unple	-7219
▁using	-7220
▁value	-7221
▁waken	-7222
▁wheel	-7223
▁whipt	-7224
enerate	-7225
entious	-7226
fulness	-7227
herited	-7228
itories	-7229
izabeth	-7230
kenbury	-7231
picious	-7232
shining	-7233
venient	-7234
▁Attend	-7235
▁Belike	-7236
▁Calais	-7237
▁Commit	-7238
▁Cursed	-7239
▁Darest	-7240
▁Direct	-7241
▁EMILIA	-7242
▁Emilia	-7243
▁Enough	-7244
▁Forbid	-7245
▁Greece	-7246
▁Hector	-7247
▁Herald	-7248
▁Neighb	-7249
▁Renown	-7250
▁Repent	-7251
▁SURREY	-7252
▁Twenty	-7253
▁Verily	-7254
▁agreed	-7255
▁allies	-7256
▁anchor	-7257
▁appell	-7258
▁ashore	-7259
▁assemb	-7260
▁attent	-7261
▁befits	-7262
▁beseem	-7263
▁beware	-7264
▁bishop	-7265
▁bleeds	-7266
▁bought	-7267
▁braved	-7268
▁canker	-7269
▁canopy	-7270
▁caused	-7271
▁centre	-7272
▁chains	-7273
▁chival	-7274
▁coldly	-7275
▁combat	-7276
▁confer	-7277
▁contri	-7278
▁create	-7279
▁darken	-7280
▁debase	-7281
▁deeper	-7282
▁deeply	-7283
▁defect	-7284
▁denial	-7285
▁device	-7286
▁diadem	-7287
▁dragon	-7288
▁dreamt	-7289
▁dwells	-7290
▁entire	-7291
▁events	-7292
▁famish	-7293
▁female	-7294
▁fights	-7295
▁firmly	-7296
▁fitted	-7297
▁forces	-7298
▁forest	-7299
▁fouler	-7300
▁gaoler	-7301
▁gloves	-7302
▁harlot	-7303
▁higher	-7304
▁homage	-7305
▁horror	-7306
▁hunger	-7307
▁impart	-7308
▁infirm	-7309
▁issued	-7310
▁jocund	-7311
▁killed	-7312
▁latest	-7313
▁limits	-7314
▁looker	-7315
▁louder	-7316
▁madest	-7317
▁madman	-7318
▁malign	-7319
▁marble	-7320
▁mellow	-7321
▁merely	-7322
▁minded	-7323
▁mutiny	-7324
▁napkin	-7325
▁naught	-7326
▁needle	-7327
▁nobler	-7328
▁nursed	-7329
▁obtain	-7330
▁orphan	-7331
▁pedant	-7332
▁permit	-7333
▁pledge	-7334
▁plucks	-7335
▁pocket	-7336
▁pounds	-7337
▁prerog	-7338
▁profan	-7339
▁prunes	-7340
▁puppet	-7341
▁quaint	-7342
▁queens	-7343
▁ragged	-7344
▁raging	-7345
▁rebuke	-7346
▁render	-7347
▁rescue	-7348
▁resort	-7349
▁rising	-7350
▁rivers	-7351
▁sayest	-7352
▁scorns	-7353
▁shower	-7354
▁shriek	-7355
▁shrink	-7356
▁silken	-7357
▁skulls	-7358
▁sleeps	-7359
▁sleepy	-7360
▁solely	-7361
▁spices	-7362
▁starve	-7363
▁strait	-7364
▁stream	-7365
▁street	-7366
▁succor	-7367
▁sunder	-7368
▁suppli	-7369
▁sweets	-7370
▁tailor	-7371
▁thorns	-7372
▁threes	-7373
▁trades	-7374
▁tumble	-7375
▁turned	-7376
▁unborn	-7377
▁unrest	-7378
▁vassal	-7379
▁volume	-7380
▁vulgar	-7381
▁widows	-7382
▁wilful	-7383
▁winged	-7384
▁wisest	-7385
▁woeful	-7386
▁wolves	-7387
ervation	-7388
ifferent	-7389
osterous	-7390
pecially	-7391
▁Advance	-7392
▁Amongst	-7393
▁Beshrew	-7394
▁Between	-7395
▁Betwixt	-7396
▁Condemn	-7397
▁Forbear	-7398
▁Francis	-7399
▁Grandam	-7400
▁Gregory	-7401
▁Masters	-7402
▁Measure	-7403
▁Phoebus	-7404
▁achieve	-7405
▁appoint	-7406
▁assault	-7407
▁baggage	-7408
▁banquet	-7409
▁beastly	-7410
▁beating	-7411
▁beguile	-7412
▁blister	-7413
▁calumny	-7414
▁capital	-7415
▁captive	-7416
▁changes	-7417
▁closely	-7418
▁conspir	-7419
▁contrad	-7420
▁cordial	-7421
▁council	-7422
▁counted	-7423
▁cousins	-7424
▁created	-7425
▁cuckold	-7426
▁curious	-7427
▁curtain	-7428
▁dangers	-7429
▁deceive	-7430
▁degrees	-7431
▁demands	-7432
▁direful	-7433
▁disobed	-7434
▁divided	-7435
▁divines	-7436
▁divorce	-7437
▁earldom	-7438
▁exclaim	-7439
▁faction	-7440
▁faintly	-7441
▁falsely	-7442
▁fasting	-7443
▁feeding	-7444
▁follies	-7445
▁footman	-7446
▁forsake	-7447
▁gentler	-7448
▁getting	-7449
▁glories	-7450
▁happier	-7451
▁haughty	-7452
▁hideous	-7453
▁highway	-7454
▁hurried	-7455
▁infring	-7456
▁inherit	-7457
▁knowest	-7458
▁lecture	-7459
▁lightly	-7460
▁longest	-7461
▁lustful	-7462
▁matters	-7463
▁merrily	-7464
▁mockery	-7465
▁mocking	-7466
▁natures	-7467
▁notwith	-7468
▁nourish	-7469
▁pardons	-7470
▁pastime	-7471
▁pattern	-7472
▁perjury	-7473
▁picture	-7474
▁plaints	-7475
▁procure	-7476
▁profits	-7477
▁pursued	-7478
▁raiment	-7479
▁rancour	-7480
▁rascals	-7481
▁recover	-7482
▁replied	-7483
▁reproof	-7484
▁rewards	-7485
▁roundly	-7486
▁scarlet	-7487
▁scholar	-7488
▁shelter	-7489
▁showers	-7490
▁smiling	-7491
▁society	-7492
▁solicit	-7493
▁spiders	-7494
▁suffice	-7495
▁superfl	-7496
▁suppose	-7497
▁supreme	-7498
▁tainted	-7499
▁threats	-7500
▁throats	-7501
▁tonight	-7502
▁tribune	-7503
▁tribute	-7504
▁undergo	-7505
▁villany	-7506
▁warning	-7507
▁wayward	-7508
▁weighty	-7509
▁wenches	-7510
▁western	-7511
▁whistle	-7512
▁wonders	-7513
mediately	-7514
perienced	-7515
▁Antiates	-7516
▁Consider	-7517
▁Dispatch	-7518
▁Doricles	-7519
▁Evermore	-7520
▁Florizel	-7521
▁Hercules	-7522
▁Lodowick	-7523
▁Meantime	-7524
▁Overdone	-7525
▁Phaethon	-7526
▁Thoughts	-7527
▁Touching	-7528
▁Welshmen	-7529
▁achieved	-7530
▁admitted	-7531
▁affright	-7532
▁ambition	-7533
▁appeared	-7534
▁bachelor	-7535
▁backward	-7536
▁bankrupt	-7537
▁baseness	-7538
▁bootless	-7539
▁brawling	-7540
▁breaking	-7541
▁breathes	-7542
▁breeding	-7543
▁chastity	-7544
▁choleric	-7545
▁comforts	-7546
▁confines	-7547
▁consumed	-7548
▁councils	-7549
▁counsels	-7550
▁delights	-7551
▁discords	-7552
▁disorder	-7553
▁distingu	-7554
▁division	-7555
▁drunkard	-7556
▁embraced	-7557
▁entrails	-7558
▁farthest	-7559
▁festival	-7560
▁fighting	-7561
▁frighted	-7562
▁fruitful	-7563
▁function	-7564
▁governor	-7565
▁harmless	-7566
▁husbands	-7567
▁imperial	-7568
▁indirect	-7569
▁inferior	-7570
▁injuries	-7571
▁intended	-7572
▁knightly	-7573
▁ladyship	-7574
▁mariners	-7575
▁medicine	-7576
▁merciful	-7577
▁millions	-7578
▁minstrel	-7579
▁miseries	-7580
▁mounting	-7581
▁mourning	-7582
▁needless	-7583
▁nobleman	-7584
▁peaceful	-7585
▁publicly	-7586
▁puissant	-7587
▁receives	-7588
▁regiment	-7589
▁remedies	-7590
▁required	-7591
▁requires	-7592
▁resolute	-7593
▁restored	-7594
▁returned	-7595
▁scarcely	-7596
▁scolding	-7597
▁stirring	-7598
▁stooping	-7599
▁strongly	-7600
▁strumpet	-7601
▁sunshine	-7602
▁tenderly	-7603
▁terrible	-7604
▁timeless	-7605
▁trembles	-7606
▁triumphs	-7607
▁unlawful	-7608
▁vineyard	-7609
▁welcomes	-7610
▁worthily	-7611
▁Affection	-7612
▁Cleomenes	-7613
▁Elizabeth	-7614
▁NATHANIEL	-7615
▁Patrician	-7616
▁amazement	-7617
▁blessings	-7618
▁caparison	-7619
▁concluded	-7620
▁confusion	-7621
▁consorted	-7622
▁counterpo	-7623
▁cowardice	-7624
▁creatures	-7625
▁delivered	-7626
▁disguised	-7627
▁dissemble	-7628
▁elsewhere	-7629
▁extremest	-7630
▁following	-7631
▁greetings	-7632
▁impatient	-7633
▁importune	-7634
▁injurious	-7635
▁insolence	-7636
▁insulting	-7637
▁lightness	-7638
▁merriment	-7639
▁mistaking	-7640
▁necessary	-7641
▁notorious	-7642
▁penitence	-7643
▁physician	-7644
▁poisonous	-7645
▁possessed	-7646
▁posterity	-7647
▁precedent	-7648
▁preserved	-7649
▁prisoners	-7650
▁reckoning	-7651
▁repossess	-7652
▁restraint	-7653
▁solemnity	-7654
▁testimony	-7655
▁treachery	-7656
▁troublous	-7657
▁unfeigned	-7658
▁utterance	-7659
▁witnesses	-7660
▁wrangling	-7661
▁Apothecary	-7662
▁Brakenbury	-7663
▁advertised	-7664
▁altogether	-7665
▁assistance	-7666
▁cheerfully	-7667
▁commanding	-7668
▁conditions	-7669
▁difference	-7670
▁discharged	-7671
▁distressed	-7672
▁expedition	-7673
▁headstrong	-7674
▁impatience	-7675
▁impediment	-7676
▁impression	-7677
▁inconstant	-7678
▁jealousies	-7679
▁knighthood	-7680
▁lieutenant	-7681
▁peremptory	-7682
▁persuasion	-7683
▁pestilence	-7684
▁pronounced	-7685
▁repetition	-7686
▁sisterhood	-7687
▁underneath	-7688
▁witchcraft	-7689
▁Christopher	-7690
▁acknowledge	-7691
▁chamberlain	-7692
▁comfortable	-7693
▁composition	-7694
▁controversy	-7695
▁forgiveness	-7696
▁grandfather	-7697
▁inclination	-7698
▁indifferent	-7699
▁interchange	-7700
▁nightingale	-7701
▁prerogative	-7702
▁territories	-7703
▁transported	-7704
▁apprehension	-7705
▁chastisement	-7706
▁schoolmaster	-7707
▁circumstances	-7708
▁understanding	-7709
▁notwithstanding	-7710
LU	-7711
We	-7712
bu	-7713
▁&	-7714
ISC	-7715
abb	-7716
azy	-7717
bes	-7718
bri	-7719
erw	-7720
fix	-7721
gia	-7722
gom	-7723
iby	-7724
ige	-7725
iod	-7726
las	-7727
leh	-7728
liv	-7729
pho	-7730
pol	-7731
qua	-7732
sia	-7733
soe	-7734
spo	-7735
ubs	-7736
umn	-7737
voc	-7738
▁Pe	-7739
▁ce	-7740
▁cy	-7741
▁eg	-7742
▁ib	-7743
▁na	-7744
ALIS	-7745
CISC	-7746
LUNT	-7747
Tell	-7748
acks	-7749
alls	-7750
alty	-7751
anks	-7752
apes	-7753
ashy	-7754
aved	-7755
bham	-7756
bled	-7757
body	-7758
cats	-7759
cipl	-7760
cued	-7761
dict	-7762
door	-7763
empl	-7764
eria	-7765
eyed	-7766
gone	-7767
hoop	-7768
hyme	-7769
ican	-7770
irls	-7771
itae	-7772
keep	-7773
lorn	-7774
lves	-7775
mary	-7776
mind	-7777
mony	-7778
once	-7779
ouls	-7780
peak	-7781
pery	-7782
phos	-7783
pire	-7784
ribe	-7785
roop	-7786
rung	-7787
tles	-7788
uity	-7789
ulte	-7790
urbs	-7791
urps	-7792
warn	-7793
ymph	-7794
▁Beg	-7795
▁Chi	-7796
▁Env	-7797
▁Err	-7798
▁Lud	-7799
My	-7800
my	-7801
ami	-7802
aus	-7803
bon	-7804
erp	-7805
isc	-7806
nel	-7807
oln	-7808
▁Ti	-7809
Good	-7810
Hear	-7811
ange	-7812
bast	-7813
geon	-7814
hers	-7815
inet	-7816
pter	-7817
qual	-7818
take	-7819
this	-7820
▁Bea	-7821
▁Dou	-7822
▁Dre	-7823
▁Far	-7824
▁Mab	-7825
▁Opp	-7826
▁Pit	-7827
▁Rag	-7828
▁Ref	-7829
▁Rus	-7830
▁Sel	-7831
▁Sub	-7832
▁Uly	-7833
▁Unb	-7834
▁Unc	-7835
▁Var	-7836
▁awe	-7837
▁baw	-7838
▁cas	-7839
▁cav	-7840
▁dol	-7841
▁dug	-7842
▁dun	-7843
▁egg	-7844
▁kit	-7845
▁map	-7846
▁nea	-7847
▁pry	-7848
▁pul	-7849
▁raw	-7850
▁rip	-7851
▁rod	-7852
▁roy	-7853
▁rub	-7854
▁sex	-7855
▁sly	-7856
▁spa	-7857
▁tum	-7858
▁utt	-7859
▁vap	-7860
▁vio	-7861
▁yew	-7862
Heart	-7863
Souls	-7864
abour	-7865
acket	-7866
agine	-7867
akers	-7868
areth	-7869
arlis	-7870
asciv	-7871
asite	-7872
assad	-7873
asted	-7874
ately	-7875
atics	-7876
auble	-7877
avish	-7878
bborn	-7879
bered	-7880
brain	-7881
ccess	-7882
ceipt	-7883
chard	-7884
child	-7885
doing	-7886
eases	-7887
efold	-7888
endom	-7889
ennel	-7890
erely	-7891
erman	-7892
ersha	-7893
ggard	-7894
gging	-7895
gress	-7896
guish	-7897
hance	-7898
hilip	-7899
ARL	-7900
alf	-7901
alo	-7902
cas	-7903
cts	-7904
dra	-7905
dur	-7906
fly	-7907
hra	-7908
▁el	-7909
aith	-7910
dent	-7911
geal	-7912
gher	-7913
happ	-7914
lord	-7915
lore	-7916
lous	-7917
pted	-7918
rian	-7919
▁Bar	-7920
▁Fer	-7921
▁Hap	-7922
▁Lad	-7923
▁Lat	-7924
▁Nat	-7925
▁gay	-7926
▁pir	-7927
▁sty	-7928
▁web	-7929
▁wra	-7930
arded	-7931
cible	-7932
iable	-7933
icide	-7934
icing	-7935
ieldy	-7936
igeia	-7937
ilver	-7938
imois	-7939
imple	-7940
iving	-7941
ivity	-7942
izard	-7943
jects	-7944
journ	-7945
ldren	-7946
lings	-7947
loyal	-7948
lphur	-7949
nders	-7950
odity	-7951
omest	-7952
oming	-7953
ongue	-7954
orsel	-7955
peror	-7956
piece	-7957
poses	-7958
prise	-7959
pture	-7960
quess	-7961
quiet	-7962
raign	-7963
reach	-7964
rings	-7965
rosby	-7966
stood	-7967
stool	-7968
thren	-7969
urity	-7970
urope	-7971
usale	-7972
using	-7973
ustle	-7974
usual	-7975
vener	-7976
verns	-7977
weary	-7978
weigh	-7979
wench	-7980
women	-7981
worth	-7982
ybalt	-7983
▁Acqu	-7984
▁Adam	-7985
▁Base	-7986
▁Bret	-7987
▁Care	-7988
▁Deep	-7989
▁Dick	-7990
▁Dion	-7991
▁EARL	-7992
▁FRAN	-7993
▁Fool	-7994
▁Gall	-7995
▁Girl	-7996
▁Glad	-7997
▁Half	-7998
▁Hard	-7999
te	-8000
wh	-8001
can	-8002
lex	-8003
nit	-8004
pse	-8005
usc	-8006
uto	-8007
bery	-8008
fend	-8009
ffic	-8010
ille	-8011
ilty	-8012
itan	-8013
mast	-8014
tsey	-8015
zine	-8016
▁Cot	-8017
▁Cut	-8018
▁Wor	-8019
▁ced	-8020
▁cri	-8021
▁fed	-8022
▁fen	-8023
▁fut	-8024
▁gle	-8025
▁hen	-8026
▁oce	-8027
anous	-8028
aving	-8029
ected	-8030
ently	-8031
lause	-8032
leven	-8033
olour	-8034
ozine	-8035
▁Bore	-8036
▁Fitz	-8037
▁Holl	-8038
▁Hung	-8039
▁Jule	-8040
▁Juno	-8041
▁Last	-8042
▁Leic	-8043
▁Less	-8044
▁Lift	-8045
▁Luke	-8046
▁Meet	-8047
▁Near	-8048
▁Nine	-8049
▁Pale	-8050
▁Ross	-8051
▁Sent	-8052
▁Staf	-8053
▁Step	-8054
▁Stir	-8055
▁Stop	-8056
▁Suff	-8057
▁Tend	-8058
▁Told	-8059
▁Trem	-8060
▁Weep	-8061
▁Went	-8062
▁adul	-8063
▁aery	-8064
▁agre	-8065
▁aqua	-8066
▁aust	-8067
▁bait	-8068
▁bale	-8069
▁barb	-8070
▁barr	-8071
▁bash	-8072
▁bate	-8073
▁bats	-8074
▁beho	-8075
▁bide	-8076
▁bier	-8077
▁bind	-8078
▁bone	-8079
▁bonn	-8080
▁bulk	-8081
▁calf	-8082
▁caus	-8083
▁cele	-8084
▁cert	-8085
▁chid	-8086
▁cony	-8087
▁crad	-8088
▁crut	-8089
▁cuff	-8090
▁curs	-8091
▁dial	-8092
▁dimm	-8093
▁doit	-8094
▁emul	-8095
▁exha	-8096
▁eyeb	-8097
▁fate	-8098
▁fees	-8099
'!	-8100
arr	-8101
ech	-8102
min	-8103
por	-8104
ris	-8105
▁Tr	-8106
▁ox	-8107
Fore	-8108
bred	-8109
hast	-8110
hear	-8111
ples	-8112
song	-8113
unch	-8114
vity	-8115
▁Die	-8116
▁Unw	-8117
▁esc	-8118
▁hab	-8119
▁hew	-8120
▁mow	-8121
▁nov	-8122
▁ost	-8123
▁phe	-8124
▁poo	-8125
atory	-8126
ifter	-8127
inite	-8128
oison	-8129
onour	-8130
oting	-8131
press	-8132
score	-8133
▁Sirs	-8134
▁file	-8135
▁flag	-8136
▁fowl	-8137
▁gear	-8138
▁gild	-8139
▁gilt	-8140
▁gnaw	-8141
▁grub	-8142
▁heal	-8143
▁hilt	-8144
▁hint	-8145
▁hook	-8146
▁howl	-8147
▁hush	-8148
▁ibat	-8149
▁keen	-8150
▁kern	-8151
▁lain	-8152
▁lame	-8153
▁lamp	-8154
▁lane	-8155
▁lass	-8156
▁lazy	-8157
▁limb	-8158
▁lurk	-8159
▁mart	-8160
▁mass	-8161
▁mete	-8162
▁ming	-8163
▁muse	-8164
▁mute	-8165
▁nuns	-8166
▁pals	-8167
▁park	-8168
▁peck	-8169
▁pens	-8170
▁pith	-8171
▁poll	-8172
▁raze	-8173
▁resp	-8174
▁ribb	-8175
▁road	-8176
▁rope	-8177
▁scra	-8178
▁skin	-8179
▁soar	-8180
▁stew	-8181
▁subm	-8182
▁sues	-8183
▁suns	-8184
▁surm	-8185
▁surn	-8186
▁swim	-8187
▁thra	-8188
▁thre	-8189
▁tire	-8190
▁toss	-8191
▁toys	-8192
▁trod	-8193
▁unaw	-8194
▁unlo	-8195
▁unsc	-8196
▁vehe	-8197
▁vest	-8198
▁ware	-8199
It	-8200
co	-8201
sy	-8202
'--	-8203
bel	-8204
cho	-8205
din	-8206
dis	-8207
ias	-8208
nut	-8209
ton	-8210
▁au	-8211
▁ew	-8212
book	-8213
oted	-8214
sick	-8215
tree	-8216
utus	-8217
▁Inf	-8218
▁Pil	-8219
▁Sad	-8220
▁ant	-8221
▁jar	-8222
▁mot	-8223
ackey	-8224
agate	-8225
agems	-8226
greed	-8227
pence	-8228
▁Seal	-8229
▁jump	-8230
▁rood	-8231
▁symp	-8232
▁wary	-8233
▁yard	-8234
Tybalt	-8235
antial	-8236
arling	-8237
atiate	-8238
attery	-8239
bering	-8240
boding	-8241
durate	-8242
echery	-8243
eliver	-8244
ellows	-8245
ension	-8246
enting	-8247
esters	-8248
eterat	-8249
favour	-8250
gomery	-8251
haniel	-8252
horson	-8253
iction	-8254
ierced	-8255
ighton	-8256
inance	-8257
inctly	-8258
iously	-8259
ironed	-8260
ixture	-8261
lehill	-8262
livion	-8263
makers	-8264
mbling	-8265
minded	-8266
oubted	-8267
oughby	-8268
overed	-8269
people	-8270
pherds	-8271
randon	-8272
reathe	-8273
rehend	-8274
retion	-8275
ristol	-8276
rolled	-8277
ruised	-8278
scaped	-8279
school	-8280
scribe	-8281
shapen	-8282
ternal	-8283
tinent	-8284
usalem	-8285
usters	-8286
vering	-8287
withal	-8288
▁Abbot	-8289
▁Afric	-8290
▁Alone	-8291
▁April	-8292
▁Awake	-8293
▁BLUNT	-8294
▁Black	-8295
▁Blind	-8296
▁Blood	-8297
▁Blush	-8298
▁Brave	-8299
▁Cheer	-8300
▁Const	-8301
▁Dukes	-8302
▁Exton	-8303
▁Found	-8304
▁Given	-8305
▁Guild	-8306
▁Helen	-8307
▁Irish	-8308
▁James	-8309
▁Knows	-8310
▁LORDS	-8311
▁Latin	-8312
▁Lives	-8313
▁Loved	-8314
▁Mount	-8315
▁Night	-8316
▁Place	-8317
▁Plain	-8318
▁Pluck	-8319
▁Proud	-8320
▁Quick	-8321
▁Revol	-8322
▁SALIS	-8323
▁Sland	-8324
▁Sleep	-8325
▁Small	-8326
▁Spoke	-8327
▁Susan	-8328
▁Takes	-8329
▁Tiber	-8330
▁Trans	-8331
▁Turks	-8332
▁White	-8333
▁aches	-8334
▁added	-8335
▁adder	-8336
▁adorn	-8337
▁agony	-8338
▁amity	-8339
▁annoy	-8340
▁asked	-8341
▁atone	-8342
▁awful	-8343
▁bandy	-8344
▁basil	-8345
▁bawdy	-8346
▁bench	-8347
▁bills	-8348
▁bites	-8349
▁blasp	-8350
▁blots	-8351
▁bonds	-8352
▁bonny	-8353
▁bragg	-8354
▁brine	-8355
▁built	-8356
▁chaff	-8357
▁chain	-8358
▁choke	-8359
▁chron	-8360
▁cleft	-8361
▁coats	-8362
▁cropp	-8363
▁curbs	-8364
▁daint	-8365
▁depth	-8366
▁dooms	-8367
▁dropp	-8368
▁edict	-8369
▁effem	-8370
▁endea	-8371
▁endow	-8372
▁ensue	-8373
▁estab	-8374
▁fails	-8375
▁fence	-8376
▁fifty	-8377
▁flour	-8378
▁forms	-8379
▁gamut	-8380
▁giant	-8381
▁girls	-8382
▁glove	-8383
▁goest	-8384
▁gorge	-8385
▁greed	-8386
▁grove	-8387
▁hardy	-8388
▁harms	-8389
▁haven	-8390
▁helms	-8391
▁herds	-8392
▁hills	-8393
▁hoped	-8394
▁impre	-8395
▁incur	-8396
▁influ	-8397
▁knell	-8398
▁lacks	-8399
▁liars	-8400
▁linen	-8401
▁longs	-8402
▁manly	-8403
▁masqu	-8404
▁moans	-8405
▁needy	-8406
▁niece	-8407
▁ninet	-8408
▁nymph	-8409
▁outst	-8410
▁parch	-8411
▁parle	-8412
▁pikes	-8413
▁piled	-8414
▁pines	-8415
▁plays	-8416
▁plent	-8417
▁ports	-8418
▁posts	-8419
▁pratt	-8420
▁quest	-8421
▁rates	-8422
▁rheum	-8423
▁rings	-8424
▁sails	-8425
▁scare	-8426
▁scars	-8427
▁senis	-8428
▁shine	-8429
▁shock	-8430
▁shunn	-8431
▁slide	-8432
▁smelt	-8433
▁sober	-8434
▁songs	-8435
▁space	-8436
▁spear	-8437
▁spell	-8438
▁spurn	-8439
▁stage	-8440
▁start	-8441
▁stole	-8442
▁strat	-8443
▁stray	-8444
▁strip	-8445
▁stuck	-8446
▁suret	-8447
▁surly	-8448
▁swine	-8449
▁tales	-8450
▁threw	-8451
▁tides	-8452
▁tunes	-8453
▁unacc	-8454
▁unfit	-8455
▁unity	-8456
▁unman	-8457
▁unpre	-8458
▁upper	-8459
▁usage	-8460
▁verge	-8461
▁vices	-8462
▁visor	-8463
▁wagon	-8464
▁walks	-8465
▁whate	-8466
aration	-8467
arlisle	-8468
bastian	-8469
cession	-8470
erwhelm	-8471
forward	-8472
igation	-8473
liction	-8474
minster	-8475
resseth	-8476
seeming	-8477
▁Amazon	-8478
▁Assist	-8479
▁Awaked	-8480
▁Banish	-8481
▁Become	-8482
▁Castle	-8483
▁Church	-8484
▁Cobham	-8485
▁Crosby	-8486
▁Europe	-8487
▁Except	-8488
▁Fellow	-8489
▁Forget	-8490
▁Hallow	-8491
▁Honest	-8492
▁Julius	-8493
▁Lammas	-8494
▁Little	-8495
▁Ludlow	-8496
▁Merely	-8497
▁Philip	-8498
▁Plashy	-8499
▁Player	-8500
▁Prodig	-8501
▁Redeem	-8502
▁Repair	-8503
▁Rescue	-8504
▁Russia	-8505
▁Sorrow	-8506
▁Throng	-8507
▁Tongue	-8508
▁Valent	-8509
▁Whence	-8510
▁Withal	-8511
▁Yonder	-8512
▁abuses	-8513
▁acting	-8514
▁adulte	-8515
▁ambush	-8516
▁argosy	-8517
▁ascend	-8518
▁attach	-8519
▁avouch	-8520
▁bauble	-8521
▁became	-8522
▁beetle	-8523
▁bewray	-8524
▁births	-8525
▁biting	-8526
▁blasts	-8527
▁blocks	-8528
▁bonnet	-8529
▁brazen	-8530
▁broils	-8531
▁buckle	-8532
▁burial	-8533
▁busied	-8534
▁bustle	-8535
▁candle	-8536
▁cannib	-8537
▁chafed	-8538
▁charms	-8539
▁cheers	-8540
▁chides	-8541
▁clergy	-8542
▁clothe	-8543
▁coffin	-8544
▁colder	-8545
▁commit	-8546
▁conver	-8547
▁courts	-8548
▁crimes	-8549
▁crutch	-8550
▁dainty	-8551
▁dances	-8552
▁daring	-8553
▁darkly	-8554
▁decree	-8555
▁digest	-8556
▁dishes	-8557
▁divers	-8558
▁divide	-8559
▁doings	-8560
▁drinks	-8561
▁driven	-8562
▁drowsy	-8563
▁ducats	-8564
▁eating	-8565
▁elders	-8566
▁encomp	-8567
▁enjoin	-8568
▁enjoys	-8569
▁enters	-8570
▁execut	-8571
▁expost	-8572
▁fabric	-8573
▁fathom	-8574
▁feeble	-8575
▁fester	-8576
▁fickle	-8577
▁fiends	-8578
▁filthy	-8579
▁fitter	-8580
▁flayed	-8581
▁fliers	-8582
▁flinty	-8583
▁floods	-8584
▁fourth	-8585
▁fruits	-8586
▁future	-8587
▁garlic	-8588
▁gentry	-8589
▁ginger	-8590
▁gotten	-8591
▁gratis	-8592
▁greets	-8593
▁handle	-8594
▁happen	-8595
▁harder	-8596
▁hearth	-8597
▁hounds	-8598
▁hourly	-8599
▁humane	-8600
▁impose	-8601
▁infamy	-8602
▁issues	-8603
▁jewels	-8604
▁justly	-8605
▁kennel	-8606
▁kitche	-8607
▁leader	-8608
▁lesson	-8609
▁levied	-8610
▁lineal	-8611
▁lively	-8612
▁mantle	-8613
▁mathem	-8614
▁melted	-8615
▁mirror	-8616
▁morsel	-8617
▁nearer	-8618
▁nerves	-8619
▁nettle	-8620
▁ordain	-8621
▁parcel	-8622
▁passes	-8623
▁penury	-8624
▁period	-8625
▁placed	-8626
▁planet	-8627
▁porter	-8628
▁potion	-8629
▁powder	-8630
▁presum	-8631
▁pricks	-8632
▁proofs	-8633
▁prover	-8634
▁purged	-8635
▁purses	-8636
▁quarre	-8637
▁rabble	-8638
▁rarest	-8639
▁refuge	-8640
▁region	-8641
▁rehear	-8642
▁relish	-8643
▁remiss	-8644
▁remote	-8645
▁repaid	-8646
▁revell	-8647
▁revers	-8648
▁revive	-8649
▁rigour	-8650
▁rogues	-8651
▁rumour	-8652
▁saddle	-8653
▁salute	-8654
▁scouts	-8655
▁seemed	-8656
▁shamed	-8657
▁sheets	-8658
▁shores	-8659
▁shouts	-8660
▁sickly	-8661
▁smiled	-8662
▁soften	-8663
▁softly	-8664
▁solace	-8665
▁spoils	-8666
▁starts	-8667
▁strain	-8668
▁strang	-8669
▁streak	-8670
▁stride	-8671
▁string	-8672
▁subdue	-8673
▁suborn	-8674
▁summon	-8675
▁supple	-8676
▁survey	-8677
▁talked	-8678
▁tatter	-8679
▁tellus	-8680
▁thorny	-8681
▁thrift	-8682
▁throng	-8683
▁tinker	-8684
▁titles	-8685
▁traged	-8686
▁tragic	-8687
▁treaty	-8688
▁treble	-8689
▁trudge	-8690
▁tumult	-8691
▁turtle	-8692
▁uneven	-8693
▁unwill	-8694
▁urging	-8695
▁usurer	-8696
▁vanish	-8697
▁verity	-8698
▁vigour	-8699
▁violet	-8700
▁waning	-8701
▁wasted	-8702
▁welkin	-8703
▁wheels	-8704
▁wheres	-8705
▁wildly	-8706
▁wishes	-8707
▁wooers	-8708
▁yellow	-8709
asonable	-8710
changing	-8711
cription	-8712
peration	-8713
ratitude	-8714
▁Bearing	-8715
▁Brandon	-8716
▁Breathe	-8717
▁Bristol	-8718
▁Brought	-8719
▁Delphos	-8720
▁Destroy	-8721
▁Dighton	-8722
▁Enforce	-8723
▁Forgive	-8724
▁Forrest	-8725
▁Happily	-8726
▁Heavens	-8727
▁Hostess	-8728
▁Imagine	-8729
▁Mariner	-8730
▁Meaning	-8731
▁Mercury	-8732
▁Princes	-8733
▁Seeking	-8734
▁Setting	-8735
▁Showing	-8736
▁Silence	-8737
▁Tarquin	-8738
▁Thither	-8739
▁Ulysses	-8740
▁Valeria	-8741
▁Witness	-8742
▁Wouldst	-8743
▁ability	-8744
▁amended	-8745
▁anguish	-8746
▁arrival	-8747
▁article	-8748
▁ballads	-8749
▁bargain	-8750
▁bashful	-8751
▁battery	-8752
▁beggary	-8753
▁begging	-8754
▁belongs	-8755
▁beshrew	-8756
▁besiege	-8757
▁bewitch	-8758
▁bondage	-8759
▁breaths	-8760
▁briefly	-8761
▁brittle	-8762
▁buzzard	-8763
▁calling	-8764
▁capable	-8765
▁carrion	-8766
▁clouded	-8767
▁coffers	-8768
▁compell	-8769
▁consort	-8770
▁consuls	-8771
▁consume	-8772
▁control	-8773
▁convent	-8774
▁convers	-8775
▁corners	-8776
▁courses	-8777
▁crowned	-8778
▁cushion	-8779
▁dastard	-8780
▁dealing	-8781
▁decrees	-8782
▁derived	-8783
▁deserts	-8784
▁desired	-8785
▁discipl	-8786
▁discred	-8787
▁dislike	-8788
▁distrib	-8789
▁doleful	-8790
▁doublet	-8791
▁doubted	-8792
▁duteous	-8793
▁effects	-8794
▁engross	-8795
▁evident	-8796
▁fairies	-8797
▁fitting	-8798
▁foaming	-8799
▁fooling	-8800
▁footing	-8801
▁forerun	-8802
▁forlorn	-8803
▁forsook	-8804
▁fresher	-8805
▁gainsay	-8806
▁glister	-8807
▁goodman	-8808
▁gossips	-8809
▁greatly	-8810
▁hatches	-8811
▁heavily	-8812
▁helmets	-8813
▁helping	-8814
▁highest	-8815
▁hostess	-8816
▁incense	-8817
▁infancy	-8818
▁inhabit	-8819
▁injured	-8820
▁instead	-8821
▁intends	-8822
▁justify	-8823
▁keeping	-8824
▁kissing	-8825
▁knavery	-8826
▁longing	-8827
▁lurking	-8828
▁mangled	-8829
▁mankind	-8830
▁message	-8831
▁mistook	-8832
▁nearest	-8833
▁nightly	-8834
▁ominous	-8835
▁opening	-8836
▁opposed	-8837
▁orchard	-8838
▁orderly	-8839
▁orphans	-8840
▁painful	-8841
▁parlous	-8842
▁partake	-8843
▁partial	-8844
▁peasant	-8845
▁perused	-8846
▁plotted	-8847
▁plucked	-8848
▁poorest	-8849
▁portion	-8850
▁praised	-8851
▁precise	-8852
▁presses	-8853
▁prodigy	-8854
▁produce	-8855
▁proffer	-8856
▁pursues	-8857
▁qualify	-8858
▁quality	-8859
▁quicken	-8860
▁receipt	-8861
▁recount	-8862
▁regreet	-8863
▁release	-8864
▁relieve	-8865
▁requite	-8866
▁resteth	-8867
▁returns	-8868
▁rightly	-8869
▁robbers	-8870
▁royally	-8871
▁sailors	-8872
▁scourge	-8873
▁seeking	-8874
▁seemeth	-8875
▁sending	-8876
▁serving	-8877
▁session	-8878
▁shorten	-8879
▁slender	-8880
▁smoking	-8881
▁soonest	-8882
▁spotted	-8883
▁sprites	-8884
▁stabbed	-8885
▁stripes	-8886
▁studied	-8887
▁studies	-8888
▁subdued	-8889
▁suburbs	-8890
▁sulphur	-8891
▁summers	-8892
▁surname	-8893
▁sweeten	-8894
▁swifter	-8895
▁swiftly	-8896
▁teeming	-8897
▁tending	-8898
▁thirsty	-8899
▁torches	-8900
▁traffic	-8901
▁turning	-8902
▁univers	-8903
▁unusual	-8904
▁violate	-8905
▁waiting	-8906
▁wealthy	-8907
▁wearing	-8908
▁whipped	-8909
▁winding	-8910
▁wishing	-8911
ascivious	-8912
beseeming	-8913
pretation	-8914
▁Abhorson	-8915
▁Accursed	-8916
▁Acquaint	-8917
▁Carlisle	-8918
▁Chertsey	-8919
▁Children	-8920
▁FRANCISC	-8921
▁Persuade	-8922
▁Ragozine	-8923
▁Renowned	-8924
▁Senators	-8925
▁Stafford	-8926
▁Standing	-8927
▁Thinking	-8928
▁Together	-8929
▁Yourself	-8930
▁abundant	-8931
▁affected	-8932
▁ambassad	-8933
▁applause	-8934
▁argument	-8935
▁articles	-8936
▁aspiring	-8937
▁assembly	-8938
▁bastardy	-8939
▁beauties	-8940
▁beggarly	-8941
▁beguiled	-8942
▁brethren	-8943
▁bringing	-8944
▁butchers	-8945
▁censured	-8946
▁ceremony	-8947
▁champion	-8948
▁charters	-8949
▁cheerful	-8950
▁chivalry	-8951
▁complete	-8952
▁confined	-8953
▁creation	-8954
▁creeping	-8955
▁criminal	-8956
▁crutches	-8957
▁daylight	-8958
▁deceased	-8959
▁delivery	-8960
▁detested	-8961
▁differen	-8962
▁directly	-8963
▁discreet	-8964
▁diseases	-8965
▁disguise	-8966
▁disloyal	-8967
▁disperse	-8968
▁disposed	-8969
▁drooping	-8970
▁drowning	-8971
▁dwelling	-8972
▁election	-8973
▁elements	-8974
▁embraces	-8975
▁enfranch	-8976
▁entering	-8977
▁exclaims	-8978
▁external	-8979
▁factious	-8980
▁fashions	-8981
▁fearless	-8982
▁feasting	-8983
▁foretell	-8984
▁freshest	-8985
▁fretting	-8986
▁frowning	-8987
▁handsome	-8988
▁homicide	-8989
▁hopeless	-8990
▁horrible	-8991
▁infinite	-8992
▁infringe	-8993
▁instance	-8994
▁interest	-8995
▁jointure	-8996
▁laboured	-8997
▁laughter	-8998
▁leanness	-8999
▁manacles	-9000
▁marquess	-9001
▁marrying	-9002
▁mightily	-9003
▁molehill	-9004
▁mutinies	-9005
▁nineteen	-9006
▁obdurate	-9007
▁oblivion	-9008
▁obscured	-9009
▁ordering	-9010
▁painting	-9011
▁paradise	-9012
▁parasite	-9013
▁pleaseth	-9014
▁posterns	-9015
▁pregnant	-9016
▁prevails	-9017
▁prodigal	-9018
▁profound	-9019
▁purposes	-9020
▁reckless	-9021
▁relation	-9022
▁reprieve	-9023
▁requital	-9024
▁reserved	-9025
▁resisted	-9026
▁respects	-9027
▁restrain	-9028
▁rosemary	-9029
▁security	-9030
▁severity	-9031
▁slanders	-9032
▁somebody	-9033
▁speeches	-9034
▁speedily	-9035
▁stealing	-9036
▁steterat	-9037
▁stinking	-9038
▁stubborn	-9039
▁stumbled	-9040
▁swearing	-9041
▁thorough	-9042
▁timorous	-9043
▁torments	-9044
▁toucheth	-9045
▁trencher	-9046
▁trenches	-9047
▁tumbling	-9048
▁unawares	-9049
▁ungentle	-9050
▁unjustly	-9051
▁unrevere	-9052
▁unthrift	-9053
▁vexation	-9054
▁visiting	-9055
▁warrants	-9056
▁watchful	-9057
▁womanish	-9058
▁worships	-9059
▁worthier	-9060
estershire	-9061
▁Condition	-9062
▁Fitzwater	-9063
▁Forthwith	-9064
▁Hallowmas	-9065
▁Jerusalem	-9066
▁Nathaniel	-9067
▁Perchance	-9068
▁Persuades	-9069
▁SALISBURY	-9070
▁Sebastian	-9071
▁abundance	-9072
▁accompany	-9073
▁agreement	-9074
▁ancestors	-9075
▁appellant	-9076
▁arguments	-9077
▁attorneys	-9078
▁beautiful	-9079
▁beginning	-9080
▁butterfly	-9081
▁certainly	-9082
▁clamorous	-9083
▁commodity	-9084
▁complices	-9085
▁consented	-9086
▁conserves	-9087
▁continued	-9088
▁customary	-9089
▁deformity	-9090
▁diligence	-9091
▁discovery	-9092
▁distemper	-9093
▁doubtless	-9094
▁eloquence	-9095
▁emulation	-9096
▁encourage	-9097
▁entreated	-9098
▁expressly	-9099
▁fantastic	-9100
▁fortnight	-9101
▁fortunate	-9102
▁heaviness	-9103
▁incapable	-9104
▁infirmity	-9105
▁innocency	-9106
▁innocents	-9107
▁insinuate	-9108
▁intercept	-9109
▁invention	-9110
▁lengthens	-9111
▁liberties	-9112
▁malicious	-9113
▁malignant	-9114
▁minstrels	-9115
▁momentary	-9116
▁moveables	-9117
▁murdering	-9118
▁obsequies	-9119
▁offenders	-9120
▁ordinance	-9121
▁overheard	-9122
▁overthrow	-9123
▁patiently	-9124
▁perchance	-9125
▁persuaded	-9126
▁petitions	-9127
▁pleasures	-9128
▁privately	-9129
▁qualities	-9130
▁residence	-9131
▁sacrifice	-9132
▁separated	-9133
▁shameless	-9134
▁shepherds	-9135
▁signories	-9136
▁sparkling	-9137
▁spectacle	-9138
▁strangely	-9139
▁subscribe	-9140
▁suppliant	-9141
▁surprised	-9142
▁temperate	-9143
▁threefold	-9144
▁threshold	-9145
▁throughly	-9146
▁transport	-9147
▁unavoided	-9148
▁uncertain	-9149
▁unluckily	-9150
▁villanous	-9151
▁whereupon	-9152
▁wondering	-9153
▁worthiest	-9154
▁Englishman	-9155
▁Montgomery	-9156
▁Pursuivant	-9157
▁Willoughby	-9158
▁accomplish	-9159
▁adulteress	-9160
▁affliction	-9161
▁afterwards	-9162
▁alteration	-9163
▁apothecary	-9164
▁approaches	-9165
▁changeling	-9166
▁charitable	-9167
▁companions	-9168
▁complaints	-9169
▁conspiracy	-9170
▁countryman	-9171
▁degenerate	-9172
▁detestable	-9173
▁discretion	-9174
▁disinherit	-9175
▁displeased	-9176
▁distinctly	-9177
▁effeminate	-9178
▁enterprise	-9179
▁especially	-9180
▁favourable	-9181
▁forefather	-9182
▁imposition	-9183
▁ingrateful	-9184
▁inveterate	-9185
▁lineaments	-9186
▁magistrate	-9187
▁maidenhead	-9188
▁manifested	-9189
▁meditation	-9190
▁physicians	-9191
▁proceeding	-9192
▁profession	-9193
▁prophecies	-9194
▁punishment	-9195
▁reasonable	-9196
▁reconciled	-9197
▁remembered	-9198
▁spectators	-9199
▁speechless	-9200
▁stratagems	-9201
▁strengthen	-9202
▁submission	-9203
▁temperance	-9204
▁tongueless	-9205
▁unaccustom	-9206
▁unpleasing	-9207
▁unprovided	-9208
▁victorious	-9209
▁worshipful	-9210
▁wrongfully	-9211
▁Christendom	-9212
▁Westminster	-9213
▁accusations	-9214
▁advancement	-9215
▁authorities	-9216
▁commandment	-9217
▁complexions	-9218
▁confederate	-9219
▁considering	-9220
▁countermand	-9221
▁deliverance	-9222
▁desperately	-9223
▁dissembling	-9224
▁distinguish	-9225
▁enforcement	-9226
▁everlasting	-9227
▁fantastical	-9228
▁fornication	-9229
▁immediately	-9230
▁inheritance	-9231
▁mathematics	-9232
▁necessities	-9233
▁preparation	-9234
▁resemblance	-9235
▁yesternight	-9236
▁acquaintance	-9237
▁disinherited	-9238
▁embracements	-9239
▁instructions	-9240
▁intercession	-9241
▁lamentations	-9242
▁peradventure	-9243
▁preposterous	-9244
▁wretchedness	-9245
EAS	-9246
OPH	-9247
URE	-9248
ogy	-9249
AUGH	-9250
Alas	-9251
Stay	-9252
Thus	-9253
True	-9254
acre	-9255
auph	-9256
boys	-9257
cote	-9258
dges	-9259
disp	-9260
dyed	-9261
ibal	-9262
ipod	-9263
lloa	-9264
mmer	-9265
much	-9266
opsa	-9267
pocr	-9268
recy	-9269
tico	-9270
vals	-9271
vels	-9272
xcom	-9273
zalo	-9274
▁Ens	-9275
▁Fla	-9276
▁Imm	-9277
▁err	-9278
▁sip	-9279
Faith	-9280
OPHER	-9281
affod	-9282
agued	-9283
arism	-9284
atisf	-9285
aucas	-9286
brary	-9287
chets	-9288
comed	-9289
cures	-9290
doubt	-9291
flies	-9292
ggest	-9293
goose	-9294
guing	-9295
hrase	-9296
idels	-9297
illyv	-9298
imbly	-9299
beat	-9300
gars	-9301
▁Spl	-9302
alley	-9303
black	-9304
blind	-9305
hampt	-9306
iping	-9307
kerel	-9308
locks	-9309
maids	-9310
maker	-9311
music	-9312
oever	-9313
ology	-9314
orpor	-9315
othed	-9316
pared	-9317
pired	-9318
proud	-9319
ramed	-9320
raybe	-9321
roses	-9322
sheet	-9323
shell	-9324
thest	-9325
uiced	-9326
urcha	-9327
uscad	-9328
utoly	-9329
utumn	-9330
ville	-9331
vived	-9332
▁Alex	-9333
▁Arch	-9334
▁Barb	-9335
▁Begg	-9336
▁Coun	-9337
▁Dece	-9338
▁Deny	-9339
▁Deuc	-9340
▁Dogs	-9341
▁Drop	-9342
▁Echo	-9343
▁Exam	-9344
▁Hann	-9345
▁Liby	-9346
▁Lucy	-9347
▁MEAS	-9348
▁Maid	-9349
▁Next	-9350
▁Requ	-9351
▁Self	-9352
▁Sham	-9353
▁Wash	-9354
▁Worc	-9355
▁ampl	-9356
▁apes	-9357
▁bias	-9358
▁camp	-9359
▁cape	-9360
▁clog	-9361
▁copy	-9362
▁corm	-9363
▁demi	-9364
▁digg	-9365
▁eats	-9366
▁eggs	-9367
▁fidd	-9368
▁gasp	-9369
▁hoop	-9370
▁hugg	-9371
▁indu	-9372
▁jars	-9373
▁larg	-9374
▁logs	-9375
▁lump	-9376
▁magn	-9377
▁malm	-9378
▁matt	-9379
▁medd	-9380
▁meek	-9381
▁navy	-9382
▁nurs	-9383
▁nuts	-9384
▁pars	-9385
▁pipe	-9386
▁pump	-9387
▁puny	-9388
▁rags	-9389
▁ribs	-9390
▁sinc	-9391
▁tape	-9392
▁unex	-9393
▁unpo	-9394
▁unsk	-9395
▁vein	-9396
▁waft	-9397
AUGHAN	-9398
acheth	-9399
▁bug	-9400
▁giv	-9401
▁ivy	-9402
KELEY	-9403
Whoop	-9404
asury	-9405
erily	-9406
hapen	-9407
iency	-9408
ildly	-9409
isans	-9410
oriol	-9411
ounts	-9412
▁Abra	-9413
▁bars	-9414
▁boat	-9415
▁boil	-9416
▁carc	-9417
▁choo	-9418
▁fade	-9419
▁gamb	-9420
▁hild	-9421
▁mudd	-9422
▁nodd	-9423
▁reek	-9424
▁rubs	-9425
▁void	-9426
Coriol	-9427
Verily	-9428
amples	-9429
anched	-9430
angled	-9431
appare	-9432
ashion	-9433
asping	-9434
atrice	-9435
avoury	-9436
bodied	-9437
cepter	-9438
closed	-9439
dinand	-9440
emaker	-9441
ements	-9442
erbear	-9443
erpast	-9444
erween	-9445
footed	-9446
geably	-9447
gealed	-9448
gments	-9449
gnable	-9450
hastly	-9451
hearts	-9452
heriff	-9453
hieves	-9454
ianced	-9455
icanor	-9456
illars	-9457
ipodes	-9458
ithmet	-9459
judged	-9460
mitted	-9461
monger	-9462
onzalo	-9463
otions	-9464
ottage	-9465
ouched	-9466
ourest	-9467
ourses	-9468
plight	-9469
queath	-9470
racted	-9471
raught	-9472
ringed	-9473
roying	-9474
shaped	-9475
spoken	-9476
stones	-9477
therea	-9478
thread	-9479
thwack	-9480
thwart	-9481
ticoat	-9482
twenty	-9483
uities	-9484
urally	-9485
uspect	-9486
utiful	-9487
vocate	-9488
weighs	-9489
winged	-9490
▁Bened	-9491
▁Bliss	-9492
▁Brief	-9493
▁Capel	-9494
▁Cotus	-9495
▁Count	-9496
▁Delay	-9497
▁Enjoy	-9498
▁Greek	-9499
HRI	-9500
ITUS	-9501
irts	-9502
mark	-9503
mock	-9504
nock	-9505
pray	-9506
▁Arg	-9507
▁Dev	-9508
▁Emb	-9509
HRIST	-9510
aketh	-9511
herds	-9512
ideth	-9513
itary	-9514
orged	-9515
▁Quit	-9516
▁adds	-9517
▁bits	-9518
▁chur	-9519
▁gird	-9520
▁glit	-9521
▁lawy	-9522
▁malc	-9523
▁semb	-9524
Charge	-9525
aching	-9526
venged	-9527
▁Below	-9528
▁Doing	-9529
▁Haply	-9530
▁Haste	-9531
▁Holla	-9532
▁Hover	-9533
▁Judas	-9534
▁Kates	-9535
▁Laugh	-9536
▁Looks	-9537
▁Negle	-9538
▁POMPH	-9539
▁Prick	-9540
▁Provo	-9541
▁Shake	-9542
▁Short	-9543
▁Sorry	-9544
▁Stabb	-9545
▁Stays	-9546
▁Stirr	-9547
▁TITUS	-9548
▁Tread	-9549
▁Troth	-9550
▁Tutor	-9551
▁Unshe	-9552
▁Words	-9553
▁Wrath	-9554
▁Wrong	-9555
▁abode	-9556
▁angle	-9557
▁aptly	-9558
▁arrog	-9559
▁baits	-9560
▁baked	-9561
▁barne	-9562
▁belie	-9563
▁blank	-9564
▁broil	-9565
▁bunch	-9566
▁cater	-9567
▁cavil	-9568
▁cedar	-9569
▁cheat	-9570
▁churl	-9571
▁clang	-9572
▁clubs	-9573
▁coral	-9574
▁covet	-9575
▁creep	-9576
▁cryst	-9577
▁cures	-9578
▁curfe	-9579
▁dally	-9580
▁daunt	-9581
▁doctr	-9582
▁domin	-9583
▁dregs	-9584
▁drive	-9585
▁drove	-9586
▁duell	-9587
▁dumps	-9588
▁eased	-9589
▁elbow	-9590
▁extem	-9591
▁extol	-9592
▁faded	-9593
▁famed	-9594
▁fasts	-9595
▁feels	-9596
▁feign	-9597
▁fitly	-9598
▁fixed	-9599
mew	-9600
fied	-9601
rons	-9602
udes	-9603
▁Jew	-9604
▁New	-9605
▁cog	-9606
anied	-9607
apert	-9608
cloth	-9609
elier	-9610
itied	-9611
meant	-9612
ossed	-9613
rants	-9614
retty	-9615
uding	-9616
▁Cret	-9617
▁Note	-9618
▁Prop	-9619
▁Vile	-9620
▁clos	-9621
▁coil	-9622
▁coin	-9623
▁fert	-9624
▁pile	-9625
▁tram	-9626
▁vail	-9627
▁wool	-9628
ediles	-9629
forter	-9630
hallow	-9631
illius	-9632
▁Allow	-9633
▁Grief	-9634
▁Venus	-9635
▁cakes	-9636
▁chaos	-9637
▁flung	-9638
▁freez	-9639
▁frequ	-9640
▁funer	-9641
▁gapes	-9642
▁glean	-9643
▁grate	-9644
▁guile	-9645
▁gusts	-9646
▁habil	-9647
▁hairs	-9648
▁hides	-9649
▁hunts	-9650
▁hurry	-9651
▁hurts	-9652
▁immod	-9653
▁ingen	-9654
▁insur	-9655
▁jades	-9656
▁jolly	-9657
▁kills	-9658
▁knots	-9659
▁lasts	-9660
▁leash	-9661
▁limed	-9662
▁meets	-9663
▁metho	-9664
▁mocks	-9665
▁moons	-9666
▁muddy	-9667
▁necks	-9668
▁ocean	-9669
▁ounce	-9670
▁owest	-9671
▁parag	-9672
▁parks	-9673
▁plots	-9674
▁poets	-9675
▁polit	-9676
▁prank	-9677
▁quaff	-9678
▁raged	-9679
▁range	-9680
▁refer	-9681
▁reins	-9682
▁rhyme	-9683
▁rival	-9684
▁rocky	-9685
▁roots	-9686
▁rusty	-9687
▁salve	-9688
▁seals	-9689
▁seats	-9690
▁seeds	-9691
▁shrug	-9692
▁shuts	-9693
▁simpl	-9694
▁skies	-9695
▁skull	-9696
▁smack	-9697
▁smear	-9698
▁smock	-9699
abs	-9700
igm	-9701
uft	-9702
aled	-9703
amps	-9704
aned	-9705
butt	-9706
ercy	-9707
rang	-9708
suck	-9709
▁Led	-9710
▁esp	-9711
▁jay	-9712
▁owl	-9713
alian	-9714
chequ	-9715
chest	-9716
ckets	-9717
icite	-9718
isons	-9719
mercy	-9720
perly	-9721
range	-9722
swear	-9723
uckle	-9724
▁Cuts	-9725
▁Pass	-9726
▁Spur	-9727
▁begs	-9728
▁biss	-9729
▁bolt	-9730
▁dart	-9731
▁grin	-9732
▁peep	-9733
▁pins	-9734
▁pren	-9735
▁ruff	-9736
▁rung	-9737
▁scri	-9738
▁size	-9739
▁tuft	-9740
▁untr	-9741
arable	-9742
rimony	-9743
valued	-9744
▁Heart	-9745
▁Learn	-9746
▁apple	-9747
▁lucky	-9748
▁prenz	-9749
▁prote	-9750
▁smoke	-9751
▁spawn	-9752
▁splin	-9753
▁stair	-9754
▁stony	-9755
▁strif	-9756
▁surpl	-9757
▁swarm	-9758
▁sways	-9759
▁swept	-9760
▁tails	-9761
▁tenor	-9762
▁tenth	-9763
▁tilth	-9764
▁tribe	-9765
▁trimm	-9766
▁unpar	-9767
▁unwho	-9768
▁usual	-9769
▁vanqu	-9770
▁vaunt	-9771
▁vials	-9772
▁viper	-9773
▁waded	-9774
▁waist	-9775
▁wealt	-9776
▁weeks	-9777
▁wiser	-9778
▁witty	-9779
▁wombs	-9780
▁wormw	-9781
▁wreak	-9782
Courage	-9783
ERKELEY	-9784
aculate	-9785
adition	-9786
ainties	-9787
antages	-9788
arewell	-9789
atesman	-9790
attling	-9791
berries	-9792
cessors	-9793
comfort	-9794
emember	-9795
ensible	-9796
erately	-9797
fellows	-9798
genders	-9799
How	-9800
rob	-9801
▁cu	-9802
Hold	-9803
avel	-9804
beit	-9805
crow	-9806
iron	-9807
izes	-9808
lead	-9809
serv	-9810
west	-9811
Bless	-9812
cease	-9813
iless	-9814
reech	-9815
rowns	-9816
three	-9817
▁Dull	-9818
▁Incl	-9819
▁arts	-9820
▁bull	-9821
▁cull	-9822
▁fitt	-9823
▁prig	-9824
▁remn	-9825
▁twig	-9826
▁warp	-9827
astery	-9828
ighing	-9829
kshire	-9830
thrown	-9831
ulling	-9832
urnish	-9833
▁Chide	-9834
▁House	-9835
▁Kings	-9836
▁bloss	-9837
▁bower	-9838
▁clout	-9839
▁corns	-9840
▁darts	-9841
▁dough	-9842
▁flout	-9843
▁gazed	-9844
▁guide	-9845
▁liver	-9846
▁perch	-9847
▁thigh	-9848
▁twigs	-9849
▁twist	-9850
ificial	-9851
ilities	-9852
incetin	-9853
itively	-9854
itution	-9855
jurious	-9856
keeping	-9857
masters	-9858
mercies	-9859
missive	-9860
odpiece	-9861
olution	-9862
ondrous	-9863
onition	-9864
otchets	-9865
pillars	-9866
pointed	-9867
politan	-9868
righted	-9869
riously	-9870
ropping	-9871
running	-9872
settled	-9873
staring	-9874
ucation	-9875
ucement	-9876
velling	-9877
venteen	-9878
vouring	-9879
wearied	-9880
▁Adrian	-9881
▁Almost	-9882
▁Argier	-9883
▁Autoly	-9884
▁Barnet	-9885
▁Became	-9886
▁Behind	-9887
▁Bloody	-9888
▁Boldly	-9889
▁Breton	-9890
▁CHRIST	-9891
▁Crowns	-9892
▁Desire	-9893
▁Divine	-9894
▁Doubly	-9895
▁During	-9896
▁Eleven	-9897
▁Engage	-9898
▁Exceed	-9899
An	-9900
uct	-9901
war	-9902
▁ps	-9903
When	-9904
atal	-9905
corn	-9906
igen	-9907
oise	-9908
ooch	-9909
ride	-9910
▁Inc	-9911
▁Oft	-9912
▁Oly	-9913
▁Roy	-9914
▁alt	-9915
▁ess	-9916
▁roe	-9917
celsa	-9918
eries	-9919
ifies	-9920
match	-9921
mouth	-9922
otent	-9923
oused	-9924
raise	-9925
sweet	-9926
uance	-9927
wness	-9928
▁Been	-9929
▁Inqu	-9930
▁Inst	-9931
▁List	-9932
▁Mort	-9933
▁Rise	-9934
▁Tick	-9935
▁Wise	-9936
▁asks	-9937
▁bede	-9938
▁curb	-9939
▁lave	-9940
▁tush	-9941
▁twin	-9942
corner	-9943
erness	-9944
urther	-9945
▁Olymp	-9946
▁Plays	-9947
▁Scorn	-9948
▁aband	-9949
▁ample	-9950
▁clime	-9951
▁cured	-9952
▁knack	-9953
▁misbe	-9954
hampton	-9955
ouncing	-9956
▁Ascend	-9957
▁Flower	-9958
▁Forced	-9959
▁Golden	-9960
▁Honour	-9961
▁Ladies	-9962
▁Lament	-9963
▁Matter	-9964
▁Mortal	-9965
▁Mortim	-9966
▁Namely	-9967
▁Pilate	-9968
▁Poison	-9969
▁Prefix	-9970
▁Pretty	-9971
▁Priami	-9972
▁Reason	-9973
▁Rebell	-9974
▁Relent	-9975
▁Resign	-9976
▁Robert	-9977
▁Saddle	-9978
▁Scurvy	-9979
▁Sicils	-9980
▁Simois	-9981
▁Sister	-9982
▁Spread	-9983
▁Strive	-9984
▁Temper	-9985
▁Twelve	-9986
▁Unfold	-9987
▁abides	-9988
▁abound	-9989
▁abstin	-9990
▁alarum	-9991
▁allied	-9992
▁argued	-9993
▁argues	-9994
▁arrive	-9995
▁assign	-9996
▁autumn	-9997
▁awaked	-9998
▁awaken	-9999
ipt	-10000
uel	-10001
▁Us	-10002
cold	-10003
dish	-10004
live	-10005
peer	-10006
stit	-10007
tide	-10008
yves	-10009
▁Mir	-10010
▁Sum	-10011
▁Win	-10012
▁bal	-10013
▁cel	-10014
▁coc	-10015
▁fel	-10016
▁ker	-10017
▁nut	-10018
▁sci	-10019
assed	-10020
cence	-10021
chess	-10022
creat	-10023
eling	-10024
idity	-10025
isher	-10026
▁Howe	-10027
▁Wish	-10028
▁acre	-10029
▁bene	-10030
▁bout	-10031
▁disf	-10032
▁fuel	-10033
▁maim	-10034
▁poet	-10035
▁sout	-10036
▁stee	-10037
auphin	-10038
gentle	-10039
▁Draws	-10040
▁deity	-10041
▁gyves	-10042
▁hoard	-10043
▁holes	-10044
▁hound	-10045
▁masks	-10046
▁pence	-10047
▁stake	-10048
ounding	-10049
reading	-10050
ressing	-10051
▁Mirand	-10052
▁Summon	-10053
▁Wrench	-10054
▁acquit	-10055
▁admire	-10056
▁babies	-10057
▁baited	-10058
▁barber	-10059
▁basely	-10060
▁beards	-10061
▁beaver	-10062
▁behove	-10063
▁bended	-10064
▁bestir	-10065
▁betake	-10066
▁bisson	-10067
▁blanks	-10068
▁bolder	-10069
▁bolted	-10070
▁bottle	-10071
▁bounds	-10072
▁brands	-10073
▁brawls	-10074
▁breech	-10075
▁bridle	-10076
▁briers	-10077
▁broach	-10078
▁brooch	-10079
▁brooks	-10080
▁bubble	-10081
▁builds	-10082
▁carbon	-10083
▁career	-10084
▁carved	-10085
▁carver	-10086
▁casque	-10087
▁causer	-10088
▁celebr	-10089
▁chairs	-10090
▁chapel	-10091
▁chests	-10092
▁cities	-10093
▁cleave	-10094
▁client	-10095
▁closet	-10096
▁cloven	-10097
▁clutch	-10098
▁cockle	-10099
yr	-10100
ody	-10101
bout	-10102
exor	-10103
fond	-10104
lies	-10105
pate	-10106
wall	-10107
wind	-10108
▁Ask	-10109
▁Dig	-10110
▁Ing	-10111
▁maw	-10112
▁mol	-10113
abond	-10114
heres	-10115
inary	-10116
liest	-10117
olate	-10118
ppers	-10119
ucing	-10120
▁Bare	-10121
▁Fred	-10122
▁Heir	-10123
▁Mond	-10124
▁Sout	-10125
▁Sure	-10126
▁bitt	-10127
▁dall	-10128
▁deem	-10129
▁dews	-10130
▁dive	-10131
▁eyed	-10132
▁flee	-10133
▁harp	-10134
▁irks	-10135
▁pond	-10136
▁pout	-10137
▁rubb	-10138
▁sums	-10139
▁swan	-10140
▁unbu	-10141
server	-10142
silver	-10143
volous	-10144
▁Taste	-10145
▁brood	-10146
▁cable	-10147
▁crupp	-10148
▁dates	-10149
▁fawns	-10150
▁horns	-10151
▁mista	-10152
▁quond	-10153
▁rayed	-10154
▁unres	-10155
▁usest	-10156
agabond	-10157
▁Freder	-10158
▁Friend	-10159
▁Monday	-10160
▁confli	-10161
▁conjur	-10162
▁contag	-10163
▁copest	-10164
▁cormor	-10165
▁counts	-10166
▁coxcom	-10167
▁cracks	-10168
▁cradle	-10169
▁crafts	-10170
▁cramps	-10171
▁curfew	-10172
▁daffod	-10173
▁damask	-10174
▁danced	-10175
▁denier	-10176
▁detain	-10177
▁devout	-10178
▁dieted	-10179
▁discom	-10180
▁disfig	-10181
▁dispro	-10182
▁dolour	-10183
▁dotard	-10184
▁doubly	-10185
▁doubts	-10186
▁drudge	-10187
▁eagles	-10188
▁easter	-10189
▁engine	-10190
▁ensign	-10191
▁entail	-10192
▁exiled	-10193
▁factor	-10194
▁farmer	-10195
▁faster	-10196
▁featly	-10197
▁fields	-10198
▁finely	-10199
ext	-10200
ics	-10201
lix	-10202
oro	-10203
▁Bu	-10204
aths	-10205
hips	-10206
ints	-10207
lars	-10208
omed	-10209
seed	-10210
tong	-10211
usty	-10212
▁Dry	-10213
▁Joy	-10214
▁gun	-10215
▁shy	-10216
heart	-10217
hoods	-10218
itter	-10219
rates	-10220
stain	-10221
▁Done	-10222
▁Fors	-10223
▁Safe	-10224
▁ache	-10225
▁conn	-10226
▁hent	-10227
▁lime	-10228
▁moth	-10229
▁wive	-10230
anting	-10231
▁Archb	-10232
▁Bless	-10233
▁Force	-10234
▁Light	-10235
▁Threw	-10236
▁Worth	-10237
▁acted	-10238
▁afire	-10239
▁bough	-10240
▁chequ	-10241
▁clerk	-10242
▁hates	-10243
▁pedig	-10244
▁proro	-10245
▁sheer	-10246
▁spies	-10247
▁spray	-10248
▁tithe	-10249
olation	-10250
tongued	-10251
unction	-10252
▁Seeing	-10253
▁choked	-10254
▁finest	-10255
▁finish	-10256
▁fishes	-10257
▁fleece	-10258
▁flying	-10259
▁foison	-10260
▁forged	-10261
▁forges	-10262
▁formal	-10263
▁freeze	-10264
▁furred	-10265
▁galled	-10266
▁garish	-10267
▁gavest	-10268
▁gazing	-10269
▁gillyv	-10270
▁gossip	-10271
▁grants	-10272
▁graver	-10273
▁guards	-10274
▁guides	-10275
▁hammer	-10276
▁haunts	-10277
▁heated	-10278
▁heaved	-10279
▁helped	-10280
▁hidden	-10281
▁highly	-10282
▁hoping	-10283
▁hypocr	-10284
▁images	-10285
▁impute	-10286
▁indict	-10287
▁indign	-10288
▁indust	-10289
▁inexor	-10290
▁infall	-10291
▁inside	-10292
▁invest	-10293
▁invite	-10294
▁judged	-10295
▁kersey	-10296
▁kindle	-10297
▁lackey	-10298
▁ladder	-10299
ids	-10300
ney	-10301
oan	-10302
ora	-10303
▁AL	-10304
▁Di	-10305
▁Es	-10306
▁ci	-10307
INAL	-10308
days	-10309
hank	-10310
heir	-10311
heth	-10312
ifle	-10313
imon	-10314
nard	-10315
reen	-10316
tern	-10317
test	-10318
thou	-10319
▁ALL	-10320
▁Alb	-10321
▁nep	-10322
▁pea	-10323
▁pru	-10324
▁ram	-10325
▁sew	-10326
amour	-10327
cipal	-10328
hange	-10329
inish	-10330
swoln	-10331
umbly	-10332
▁Fast	-10333
▁Nort	-10334
▁ally	-10335
▁beam	-10336
▁doff	-10337
▁fork	-10338
▁fume	-10339
▁owed	-10340
▁riot	-10341
▁rite	-10342
▁seed	-10343
▁sops	-10344
▁twos	-10345
aynard	-10346
berate	-10347
isheth	-10348
ortive	-10349
▁bells	-10350
▁brake	-10351
▁fined	-10352
▁nephe	-10353
▁scale	-10354
▁shuns	-10355
ARDINAL	-10356
falling	-10357
▁Albion	-10358
▁Change	-10359
▁Errone	-10360
▁Hacket	-10361
▁Longer	-10362
▁cipher	-10363
▁compet	-10364
▁easier	-10365
▁garter	-10366
▁lances	-10367
▁lastly	-10368
▁latter	-10369
▁liquid	-10370
▁listen	-10371
▁litter	-10372
▁losing	-10373
▁losses	-10374
▁madmen	-10375
▁makest	-10376
▁malady	-10377
▁manors	-10378
▁mature	-10379
▁medlar	-10380
▁merits	-10381
▁method	-10382
▁mettle	-10383
▁milder	-10384
▁mingle	-10385
▁misled	-10386
▁motive	-10387
▁muffle	-10388
▁multip	-10389
▁multit	-10390
▁mutual	-10391
▁nephew	-10392
▁nicely	-10393
▁novice	-10394
▁opport	-10395
▁orange	-10396
▁orders	-10397
▁ostent	-10398
▁overta	-10399
No	-10400
▁:	-10401
Sic	-10402
aub	-10403
cup	-10404
dex	-10405
iry	-10406
rav	-10407
sec	-10408
▁--	-10409
athy	-10410
eese	-10411
gger	-10412
mend	-10413
▁Bro	-10414
▁Day	-10415
▁Nea	-10416
▁Sea	-10417
▁Yor	-10418
▁mam	-10419
plain	-10420
would	-10421
▁Rain	-10422
▁Wear	-10423
▁ague	-10424
▁begn	-10425
▁gest	-10426
▁shin	-10427
abouts	-10428
active	-10429
bridge	-10430
▁assay	-10431
▁cloth	-10432
▁geese	-10433
▁gripe	-10434
▁index	-10435
▁jaunt	-10436
▁penet	-10437
▁saves	-10438
▁skins	-10439
▁stirr	-10440
▁talks	-10441
▁vitae	-10442
landers	-10443
▁Notice	-10444
▁denies	-10445
▁gilded	-10446
▁hoarse	-10447
▁lethar	-10448
▁logger	-10449
▁lowest	-10450
▁oppose	-10451
▁parley	-10452
▁paying	-10453
▁perfid	-10454
▁phrase	-10455
▁pieced	-10456
▁pillow	-10457
▁pirate	-10458
▁pities	-10459
▁plough	-10460
▁poetry	-10461
▁ponder	-10462
▁potent	-10463
▁prayed	-10464
▁precip	-10465
▁predom	-10466
▁prolix	-10467
▁proves	-10468
▁purest	-10469
▁purity	-10470
▁rankle	-10471
▁rashly	-10472
▁reduce	-10473
▁regent	-10474
▁relent	-10475
▁repeat	-10476
▁replen	-10477
▁retail	-10478
▁revoke	-10479
▁richer	-10480
▁richly	-10481
▁riddle	-10482
▁ridges	-10483
▁ripest	-10484
▁rivals	-10485
▁roared	-10486
▁rooted	-10487
▁rounds	-10488
▁rudely	-10489
▁sailor	-10490
▁savour	-10491
▁scared	-10492
▁scathe	-10493
▁scurvy	-10494
▁sedges	-10495
▁sequel	-10496
▁shades	-10497
▁shaped	-10498
▁sheath	-10499
aby	-10500
ifs	-10501
oil	-10502
rip	-10503
tri	-10504
▁LO	-10505
▁Wa	-10506
▁ep	-10507
▁la	-10508
Come	-10509
Rome	-10510
cked	-10511
erry	-10512
gent	-10513
ists	-10514
lant	-10515
rius	-10516
▁Cra	-10517
▁Fan	-10518
▁Gro	-10519
▁LOV	-10520
▁Pen	-10521
▁Pot	-10522
▁Tor	-10523
▁ply	-10524
▁rav	-10525
Romeo	-10526
arget	-10527
death	-10528
denly	-10529
hanks	-10530
heads	-10531
inent	-10532
ooing	-10533
ruple	-10534
▁Kiss	-10535
▁Potp	-10536
▁Thee	-10537
▁clip	-10538
▁dump	-10539
▁epit	-10540
▁ewes	-10541
▁hack	-10542
▁hiss	-10543
▁itch	-10544
▁meas	-10545
▁rift	-10546
▁triv	-10547
▁type	-10548
Thanks	-10549
ashing	-10550
honour	-10551
ledged	-10552
remacy	-10553
▁Keeps	-10554
▁LOVEL	-10555
▁Roger	-10556
▁banns	-10557
▁canon	-10558
▁disli	-10559
▁drugs	-10560
▁earls	-10561
▁fours	-10562
▁shoot	-10563
▁track	-10564
▁wield	-10565
▁Potpan	-10566
▁admits	-10567
▁afresh	-10568
▁blench	-10569
▁encamp	-10570
▁excels	-10571
▁fulfil	-10572
▁grudge	-10573
▁hereof	-10574
▁lessen	-10575
▁mended	-10576
▁mutton	-10577
▁robbed	-10578
▁setter	-10579
▁shamef	-10580
▁shrill	-10581
▁sinews	-10582
▁sinful	-10583
▁sleeve	-10584
▁slower	-10585
▁smells	-10586
▁soever	-10587
▁soothe	-10588
▁sorted	-10589
▁sparks	-10590
▁speeds	-10591
▁sprang	-10592
▁sprung	-10593
▁square	-10594
▁squire	-10595
▁stains	-10596
▁stalls	-10597
▁stamps	-10598
▁staves	-10599
azz	-10600
imy	-10601
ugh	-10602
why	-10603
▁Sk	-10604
▁Sl	-10605
▁Sn	-10606
hily	-10607
nity	-10608
pile	-10609
uman	-10610
vius	-10611
▁Aim	-10612
▁Fam	-10613
▁Hoo	-10614
▁Man	-10615
▁Sed	-10616
▁Unf	-10617
▁aus	-10618
▁coy	-10619
▁dul	-10620
etchy	-10621
human	-10622
uming	-10623
urned	-10624
utish	-10625
▁Cour	-10626
▁Ethi	-10627
▁Hour	-10628
▁Hugh	-10629
▁conv	-10630
▁dugs	-10631
▁flap	-10632
▁gore	-10633
▁noth	-10634
▁pies	-10635
▁rapt	-10636
▁unsw	-10637
▁wean	-10638
alties	-10639
sorrow	-10640
▁Abate	-10641
▁Spare	-10642
▁apish	-10643
▁brick	-10644
▁entit	-10645
▁falch	-10646
▁fling	-10647
▁mispl	-10648
▁scarf	-10649
pecting	-10650
reation	-10651
▁Accept	-10652
▁Reward	-10653
▁abomin	-10654
▁adders	-10655
▁detect	-10656
▁grains	-10657
▁sticks	-10658
▁stored	-10659
▁submit	-10660
▁sunset	-10661
▁surety	-10662
▁tables	-10663
▁tabour	-10664
▁tackle	-10665
▁taming	-10666
▁tempor	-10667
▁thrall	-10668
▁throws	-10669
▁thwack	-10670
▁thwart	-10671
▁tigers	-10672
▁transg	-10673
▁travel	-10674
▁tribes	-10675
▁truths	-10676
▁tutors	-10677
▁unable	-10678
▁undisc	-10679
▁unfelt	-10680
▁unfort	-10681
▁unhapp	-10682
▁unking	-10683
▁unknit	-10684
▁unposs	-10685
▁unsway	-10686
▁usurps	-10687
▁utters	-10688
▁venuto	-10689
▁verily	-10690
▁vestal	-10691
▁victor	-10692
▁vizard	-10693
▁waving	-10694
▁weaker	-10695
▁whores	-10696
▁willow	-10697
Citizens	-10698
Remember	-10699
Lo	-10700
ky	-10701
add	-10702
lay	-10703
omy	-10704
vex	-10705
▁Fe	-10706
Thou	-10707
cont	-10708
fast	-10709
flow	-10710
isit	-10711
late	-10712
ldst	-10713
orts	-10714
rave	-10715
▁Dra	-10716
▁Wot	-10717
▁bem	-10718
▁hal	-10719
▁ine	-10720
onted	-10721
▁Iron	-10722
▁Need	-10723
▁Wipe	-10724
▁Wood	-10725
▁foem	-10726
▁robe	-10727
▁subs	-10728
▁tore	-10729
hating	-10730
lected	-10731
simple	-10732
▁Drawn	-10733
▁Visit	-10734
▁couch	-10735
▁coven	-10736
▁heaps	-10737
▁ranks	-10738
▁rider	-10739
▁steer	-10740
▁tires	-10741
▁undes	-10742
deliver	-10743
longeth	-10744
▁Taking	-10745
▁chants	-10746
▁falter	-10747
▁groats	-10748
▁loveth	-10749
▁menace	-10750
▁openly	-10751
▁plight	-10752
▁puling	-10753
▁treads	-10754
▁uneasy	-10755
▁valley	-10756
▁visits	-10757
apparell	-10758
creature	-10759
ershades	-10760
ertainly	-10761
incetino	-10762
ittingly	-10763
kerchief	-10764
moreland	-10765
olerable	-10766
orporate	-10767
ubbering	-10768
uspected	-10769
▁AEdiles	-10770
▁Abraham	-10771
▁Account	-10772
▁Barbary	-10773
▁Baynard	-10774
▁Cheerly	-10775
▁Compare	-10776
▁Counsel	-10777
▁Culling	-10778
▁Deliver	-10779
▁Deserve	-10780
▁Desires	-10781
▁Despite	-10782
▁Dismiss	-10783
▁Dispose	-10784
▁Emperor	-10785
▁Endured	-10786
▁Examine	-10787
▁Falsely	-10788
▁Fellows	-10789
▁Flatter	-10790
▁Flavius	-10791
▁Florent	-10792
▁Forward	-10793
▁Further	-10794
▁Gonzalo	-10795
▁Herbert	-10796
▁Herself	-10797
▁Holding	-10798
▁Hungary	-10799
ii	-10800
ob	-10801
ux	-10802
Yea	-10803
haw	-10804
hic	-10805
Have	-10806
harm	-10807
pore	-10808
utor	-10809
viol	-10810
▁Ear	-10811
▁Lim	-10812
▁Mam	-10813
▁Ped	-10814
▁lag	-10815
▁oil	-10816
▁rar	-10817
▁rat	-10818
igate	-10819
inant	-10820
inkle	-10821
▁Fine	-10822
▁Free	-10823
▁Held	-10824
▁Land	-10825
▁Past	-10826
▁Sith	-10827
▁bled	-10828
▁cats	-10829
▁chin	-10830
▁dawn	-10831
▁hewn	-10832
▁punk	-10833
▁rice	-10834
▁runn	-10835
▁slug	-10836
▁thaw	-10837
▁toes	-10838
ieving	-10839
▁Earth	-10840
▁Libya	-10841
▁Mopsa	-10842
▁curds	-10843
▁deign	-10844
▁doers	-10845
▁extir	-10846
▁inher	-10847
▁prone	-10848
▁scarr	-10849
▁scrup	-10850
▁sheet	-10851
▁testy	-10852
▁wrapt	-10853
ittance	-10854
▁Adding	-10855
▁Scroop	-10856
▁befell	-10857
▁bloods	-10858
▁forego	-10859
▁ireful	-10860
▁mocked	-10861
▁nation	-10862
▁presag	-10863
▁saving	-10864
▁selves	-10865
▁swells	-10866
▁tokens	-10867
peakable	-10868
▁Inquire	-10869
▁Intends	-10870
▁Italian	-10871
▁Killing	-10872
▁Knowing	-10873
▁Letters	-10874
▁Looking	-10875
▁MEASURE	-10876
▁Marquis	-10877
▁Miranda	-10878
▁Nicanor	-10879
▁POMPHEY	-10880
▁Perform	-10881
▁Plainly	-10882
▁Present	-10883
▁Procure	-10884
▁Profess	-10885
▁Receive	-10886
▁Resolve	-10887
▁Sheriff	-10888
▁Sitting	-10889
▁Slander	-10890
▁Southam	-10891
▁Stephen	-10892
▁Success	-10893
▁Suffolk	-10894
▁Suggest	-10895
▁Therein	-10896
▁Thereon	-10897
▁Thieves	-10898
▁Tremble	-10899
su	-10900
xy	-10901
Sir	-10902
eaf	-10903
how	-10904
rid	-10905
you	-10906
alus	-10907
gery	-10908
shot	-10909
▁Ado	-10910
▁Rec	-10911
▁hay	-10912
▁orb	-10913
▁tot	-10914
esnes	-10915
fered	-10916
inest	-10917
onely	-10918
ushed	-10919
▁Fore	-10920
▁Kill	-10921
▁Laid	-10922
▁Pity	-10923
▁Rage	-10924
▁Shed	-10925
▁beck	-10926
▁buds	-10927
▁cloy	-10928
▁diff	-10929
▁disb	-10930
▁gale	-10931
▁lure	-10932
▁nost	-10933
▁purg	-10934
▁sadd	-10935
emning	-10936
orship	-10937
spring	-10938
▁Jacks	-10939
▁Tears	-10940
▁Turns	-10941
▁avail	-10942
▁brats	-10943
▁games	-10944
▁jests	-10945
▁renew	-10946
▁shipp	-10947
▁Sigeia	-10948
▁Softly	-10949
▁corpse	-10950
▁fetter	-10951
▁glance	-10952
▁inches	-10953
▁interr	-10954
▁liquor	-10955
▁nimbly	-10956
▁stings	-10957
▁target	-10958
▁writes	-10959
▁Unhappy	-10960
▁VAUGHAN	-10961
▁Varrius	-10962
▁Weeping	-10963
▁Whereby	-10964
▁Whoever	-10965
▁abandon	-10966
▁abroach	-10967
▁admiral	-10968
▁admired	-10969
▁adopted	-10970
▁adulter	-10971
▁aediles	-10972
▁affable	-10973
▁affects	-10974
▁alarums	-10975
▁allowed	-10976
▁ambling	-10977
▁anchors	-10978
▁answers	-10979
▁apology	-10980
▁appeach	-10981
▁approve	-10982
▁arguing	-10983
▁arraign	-10984
▁asunder	-10985
▁audible	-10986
▁augment	-10987
▁awaking	-10988
▁baleful	-10989
▁bestrew	-10990
▁bestrid	-10991
▁betters	-10992
▁blacker	-10993
▁bleared	-10994
▁blowing	-10995
▁blushes	-10996
▁borough	-10997
▁bottled	-10998
▁bravely	-10999
MEN	-11000
eing	-11001
▁fay	-11002
▁sol	-11003
rains	-11004
regia	-11005
round	-11006
▁Dead	-11007
▁Gave	-11008
▁Grim	-11009
▁Prov	-11010
▁dirt	-11011
▁Inter	-11012
▁Weigh	-11013
▁drain	-11014
▁plume	-11015
▁prede	-11016
▁razed	-11017
▁wooer	-11018
rection	-11019
▁accent	-11020
▁doting	-11021
▁nobody	-11022
▁unwise	-11023
ithmetic	-11024
▁Nightly	-11025
▁Thereof	-11026
▁accents	-11027
▁braving	-11028
▁breeder	-11029
▁brutish	-11030
▁buckler	-11031
▁cambric	-11032
▁cancell	-11033
▁carcass	-11034
▁carters	-11035
▁casting	-11036
▁channel	-11037
▁charter	-11038
▁cheques	-11039
▁chiefly	-11040
▁circled	-11041
▁citizen	-11042
▁combine	-11043
▁commune	-11044
▁concern	-11045
▁conduit	-11046
▁confine	-11047
▁congeal	-11048
▁contain	-11049
▁contend	-11050
▁contrar	-11051
▁correct	-11052
▁cottage	-11053
▁couched	-11054
▁cowards	-11055
▁crabbed	-11056
▁credent	-11057
▁crimson	-11058
▁crooked	-11059
▁crosses	-11060
▁cruelty	-11061
▁crupper	-11062
▁crystal	-11063
▁currish	-11064
▁cursing	-11065
▁cypress	-11066
▁decreed	-11067
▁defaced	-11068
▁defects	-11069
▁denying	-11070
▁depends	-11071
▁descant	-11072
▁devised	-11073
▁devoted	-11074
▁discern	-11075
▁dispose	-11076
▁dispute	-11077
▁distaff	-11078
▁doctors	-11079
▁doubled	-11080
▁dreaded	-11081
▁drowned	-11082
▁dullest	-11083
▁durance	-11084
▁eastern	-11085
▁elected	-11086
▁endless	-11087
▁ensuing	-11088
▁envying	-11089
▁equally	-11090
▁escaped	-11091
▁evening	-11092
▁exactly	-11093
▁exceeds	-11094
▁excused	-11095
▁excuses	-11096
▁exhales	-11097
▁fancies	-11098
▁feigned	-11099
▁figured	-11100
▁filling	-11101
▁finding	-11102
▁fitness	-11103
▁foolery	-11104
▁forbids	-11105
▁forfend	-11106
▁frailty	-11107
▁fraught	-11108
▁funeral	-11109
▁furious	-11110
▁gallops	-11111
▁gallows	-11112
▁garment	-11113
▁gasping	-11114
▁ghastly	-11115
▁grafted	-11116
▁gratify	-11117
▁gravity	-11118
▁grossly	-11119
▁haggard	-11120
▁handled	-11121
▁hangmen	-11122
▁hapless	-11123
▁harmful	-11124
▁hastily	-11125
▁hearers	-11126
▁hearken	-11127
▁heralds	-11128
▁heretic	-11129
▁holiday	-11130
▁hostile	-11131
▁howling	-11132
▁humours	-11133
▁hunting	-11134
▁impiety	-11135
▁implore	-11136
▁imports	-11137
▁incaged	-11138
▁incline	-11139
▁induced	-11140
▁inhuman	-11141
▁issuing	-11142
▁kernels	-11143
▁killing	-11144
▁kindest	-11145
▁kitchen	-11146
▁knights	-11147
▁labours	-11148
▁largess	-11149
▁lawless	-11150
▁lawyers	-11151
▁leading	-11152
▁leather	-11153
▁lechery	-11154
▁lessons	-11155
▁letting	-11156
▁library	-11157
▁licence	-11158
▁lighted	-11159
▁lolling	-11160
▁louring	-11161
▁malmsey	-11162
▁mansion	-11163
▁marches	-11164
▁mattock	-11165
▁meanest	-11166
▁melting	-11167
▁merited	-11168
▁million	-11169
▁miracle	-11170
▁misdeed	-11171
▁mortals	-11172
▁moulded	-11173
▁mounted	-11174
▁mourner	-11175
▁muffled	-11176
▁nettles	-11177
▁noisome	-11178
▁notable	-11179
▁observe	-11180
▁oppress	-11181
▁orators	-11182
▁oratory	-11183
▁ordered	-11184
▁orisons	-11185
▁outside	-11186
▁packing	-11187
▁pageant	-11188
▁palmers	-11189
▁palsied	-11190
▁panting	-11191
▁paragon	-11192
▁parcels	-11193
▁passado	-11194
▁payment	-11195
▁pelting	-11196
▁penalty	-11197
▁pensive	-11198
▁perfume	-11199
▁pinched	-11200
▁plagues	-11201
▁planted	-11202
▁players	-11203
▁politic	-11204
▁postern	-11205
▁posture	-11206
▁potency	-11207
▁pratest	-11208
▁prattle	-11209
▁praying	-11210
▁precept	-11211
▁prenzie	-11212
▁priests	-11213
▁privily	-11214
▁prolong	-11215
▁prompts	-11216
▁propose	-11217
▁proudly	-11218
▁proverb	-11219
▁proveth	-11220
▁provoke	-11221
▁publish	-11222
▁quietly	-11223
▁quondam	-11224
▁raising	-11225
▁reflect	-11226
▁refresh	-11227
▁remnant	-11228
▁rescued	-11229
▁respite	-11230
▁resting	-11231
▁revived	-11232
▁ribbons	-11233
▁robbery	-11234
▁running	-11235
▁sainted	-11236
▁savours	-11237
▁scepter	-11238
▁scruple	-11239
▁seconds	-11240
▁secrecy	-11241
▁setting	-11242
▁shamest	-11243
▁sharper	-11244
▁shelves	-11245
▁shields	-11246
▁shining	-11247
▁showing	-11248
▁shrieks	-11249
▁sighing	-11250
▁singing	-11251
▁singled	-11252
▁slavish	-11253
▁sleeves	-11254
▁slumber	-11255
▁sparing	-11256
▁spoiled	-11257
▁spright	-11258
▁squared	-11259
▁stables	-11260
▁starved	-11261
▁stately	-11262
▁station	-11263
▁stealth	-11264
▁stinted	-11265
▁stirrup	-11266
▁stories	-11267
▁strains	-11268
▁streaks	-11269
▁streams	-11270
▁strifes	-11271
▁strikes	-11272
▁surplus	-11273
▁tailors	-11274
▁testify	-11275
▁thereon	-11276
▁thimble	-11277
▁thrives	-11278
▁throngs	-11279
▁topmast	-11280
▁touches	-11281
▁tragedy	-11282
▁trained	-11283
▁trample	-11284
▁trident	-11285
▁trivial	-11286
▁trodden	-11287
▁trusted	-11288
▁tumbled	-11289
▁twofold	-11290
▁unclean	-11291
▁uncrown	-11292
▁unlucky	-11293
▁unquiet	-11294
▁unstain	-11295
▁unthank	-11296
▁upholds	-11297
▁uttered	-11298
▁verdict	-11299
▁veriest	-11300
▁victors	-11301
▁violets	-11302
▁volumes	-11303
▁vouches	-11304
▁wagging	-11305
▁wagoner	-11306
▁wailing	-11307
▁walking	-11308
▁wantons	-11309
▁wedlock	-11310
▁whoever	-11311
▁widower	-11312
▁winning	-11313
▁wisdoms	-11314
▁witless	-11315
▁working	-11316
▁wreaths	-11317
▁wrinkle	-11318
ercharged	-11319
▁Anointed	-11320
▁BERKELEY	-11321
▁Bestride	-11322
▁Bootless	-11323
▁CARDINAL	-11324
▁Cytherea	-11325
▁Daughter	-11326
▁December	-11327
▁Deserved	-11328
▁Deserves	-11329
▁Despised	-11330
▁Enforced	-11331
▁Florence	-11332
▁Forswear	-11333
▁Hannibal	-11334
▁Iniquity	-11335
▁Intended	-11336
▁Julietta	-11337
▁Mortimer	-11338
▁Pitchers	-11339
▁Prospero	-11340
▁Provided	-11341
▁Redeemer	-11342
▁Resolved	-11343
▁Sicinius	-11344
▁Thinkest	-11345
▁Untimely	-11346
▁Unworthy	-11347
▁Welshman	-11348
▁Whatever	-11349
▁Wondrous	-11350
▁abortive	-11351
▁accusers	-11352
▁accustom	-11353
▁addition	-11354
▁admiring	-11355
▁agreeing	-11356
▁allowing	-11357
▁answered	-11358
▁anything	-11359
▁arrested	-11360
▁assemble	-11361
▁assisted	-11362
▁audience	-11363
▁basilisk	-11364
▁beheaded	-11365
▁bestride	-11366
▁blasphem	-11367
▁bracelet	-11368
▁braggart	-11369
▁bruising	-11370
▁buildeth	-11371
▁captives	-11372
▁carriage	-11373
▁censures	-11374
▁choosing	-11375
▁cloister	-11376
▁clusters	-11377
▁cockerel	-11378
▁codpiece	-11379
▁combined	-11380
▁complots	-11381
▁conjured	-11382
▁consents	-11383
▁conspire	-11384
▁contains	-11385
▁contempl	-11386
▁contrive	-11387
▁converts	-11388
▁covering	-11389
▁crossing	-11390
▁cuckolds	-11391
▁curtains	-11392
▁cushions	-11393
▁dateless	-11394
▁dealings	-11395
▁declined	-11396
▁declines	-11397
▁dedicate	-11398
▁defiance	-11399
▁delivers	-11400
▁demesnes	-11401
▁departed	-11402
▁deposing	-11403
▁descried	-11404
▁desiring	-11405
▁destined	-11406
▁directed	-11407
▁disdains	-11408
▁dissolve	-11409
▁distance	-11410
▁divorced	-11411
▁doctrine	-11412
▁doublets	-11413
▁duellist	-11414
▁dwellest	-11415
▁enjoying	-11416
▁enrolled	-11417
▁entreats	-11418
▁estimate	-11419
▁eternity	-11420
▁evidence	-11421
▁examples	-11422
▁expected	-11423
▁eyebrows	-11424
▁eyesight	-11425
▁falchion	-11426
▁famously	-11427
▁feverous	-11428
▁flattery	-11429
▁followed	-11430
▁follower	-11431
▁foremost	-11432
▁forewarn	-11433
▁forfeits	-11434
▁formally	-11435
▁formerly	-11436
▁forsaken	-11437
▁forswore	-11438
▁fountain	-11439
▁frequent	-11440
▁furlongs	-11441
▁furthest	-11442
▁garlands	-11443
▁gorgeous	-11444
▁graceful	-11445
▁grateful	-11446
▁groaning	-11447
▁headlong	-11448
▁hearkens	-11449
▁herdsmen	-11450
▁holidame	-11451
▁honestly	-11452
▁horseman	-11453
▁humorous	-11454
▁huntsmen	-11455
▁imagined	-11456
▁impossib	-11457
▁impudent	-11458
▁infidels	-11459
▁inforced	-11460
▁inquired	-11461
▁insolent	-11462
▁instinct	-11463
▁interior	-11464
▁justices	-11465
▁kingdoms	-11466
▁lamented	-11467
▁languish	-11468
▁laughing	-11469
▁lectures	-11470
▁lethargy	-11471
▁lightens	-11472
▁lovelier	-11473
▁luckless	-11474
▁malapert	-11475
▁mannerly	-11476
▁masquers	-11477
▁massacre	-11478
▁meantime	-11479
▁misdoubt	-11480
▁monarchy	-11481
▁moralize	-11482
▁moveable	-11483
▁multiply	-11484
▁mutually	-11485
▁nativity	-11486
▁nearness	-11487
▁nothings	-11488
▁opposers	-11489
▁ornament	-11490
▁outstret	-11491
▁parallel	-11492
▁passages	-11493
▁pedigree	-11494
▁peerless	-11495
▁perfumed	-11496
▁pheasant	-11497
▁pictures	-11498
▁plucking	-11499
▁prettily	-11500
▁pricking	-11501
▁proceeds	-11502
▁progress	-11503
▁promises	-11504
▁province	-11505
▁punished	-11506
▁purblind	-11507
▁purposed	-11508
▁pursuing	-11509
▁quarrels	-11510
▁quarters	-11511
▁rashness	-11512
▁readiest	-11513
▁recorded	-11514
▁rehearse	-11515
▁released	-11516
▁religion	-11517
▁renounce	-11518
▁reproach	-11519
▁restless	-11520
▁revenues	-11521
▁revolted	-11522
▁runagate	-11523
▁securely	-11524
▁sedition	-11525
▁servitor	-11526
▁sessions	-11527
▁shameful	-11528
▁shearers	-11529
▁slippery	-11530
▁solemnly	-11531
▁soothing	-11532
▁sounding	-11533
▁southern	-11534
▁spacious	-11535
▁sportful	-11536
▁spotless	-11537
▁staggers	-11538
▁standers	-11539
▁stinging	-11540
▁stomachs	-11541
▁straitly	-11542
▁striving	-11543
▁strucken	-11544
▁studying	-11545
▁supposes	-11546
▁surcease	-11547
▁surfeits	-11548
▁surprise	-11549
▁sweeting	-11550
▁syllable	-11551
▁sympathy	-11552
▁teaching	-11553
▁temporal	-11554
▁testimon	-11555
▁thriving	-11556
▁tortoise	-11557
▁tortures	-11558
▁touching	-11559
▁treasury	-11560
▁troubles	-11561
▁ungovern	-11562
▁unhallow	-11563
▁unlikely	-11564
▁unpeople	-11565
▁unpitied	-11566
▁untaught	-11567
▁unwieldy	-11568
▁unwonted	-11569
▁vanquish	-11570
▁variable	-11571
▁vehement	-11572
▁verified	-11573
▁watching	-11574
▁weighing	-11575
▁welcomed	-11576
▁westward	-11577
▁wheresoe	-11578
▁whipping	-11579
▁woodcock	-11580
▁wormwood	-11581
▁wrinkles	-11582
Coriolanus	-11583
changeably	-11584
▁Alexander	-11585
▁Amazonian	-11586
▁Autolycus	-11587
▁Certainly	-11588
▁Deucalion	-11589
▁Environed	-11590
▁Erroneous	-11591
▁FRANCISCA	-11592
▁Ferdinand	-11593
▁Frederick	-11594
▁Guildhall	-11595
▁Injurious	-11596
▁Leicester	-11597
▁Mamillius	-11598
▁Neighbour	-11599
▁Ourselves	-11600
▁Pronounce	-11601
▁Sometimes	-11602
▁Supposing	-11603
▁Tendering	-11604
▁Unsheathe	-11605
▁Vincetino	-11606
▁Worcester	-11607
▁Yorkshire	-11608
▁accounted	-11609
▁adversary	-11610
▁affecting	-11611
▁affianced	-11612
▁afflicted	-11613
▁amendment	-11614
▁answering	-11615
▁appearing	-11616
▁arbitrate	-11617
▁arrogance	-11618
▁attainder	-11619
▁attentive	-11620
▁austerity	-11621
▁barbarism	-11622
▁begetting	-11623
▁beholders	-11624
▁beseeming	-11625
▁bitterest	-11626
▁boatswain	-11627
▁boundless	-11628
▁bounteous	-11629
▁bountiful	-11630
▁cannibals	-11631
▁carefully	-11632
▁certainty	-11633
▁champions	-11634
▁clergymen	-11635
▁collected	-11636
▁comforter	-11637
▁conducted	-11638
▁confessed	-11639
▁confident	-11640
▁confounds	-11641
▁congealed	-11642
▁conquered	-11643
▁contagion	-11644
▁contrived	-11645
▁convented	-11646
▁cormorant	-11647
▁courtship	-11648
▁coverture	-11649
▁credulous	-11650
▁crotchets	-11651
▁cupbearer	-11652
▁customers	-11653
▁daffodils	-11654
▁deceiving	-11655
▁declining	-11656
▁delicious	-11657
▁departing	-11658
▁depending	-11659
▁deserving	-11660
▁different	-11661
▁dishonest	-11662
▁dissolute	-11663
▁dissolved	-11664
▁distilled	-11665
▁dominions	-11666
▁education	-11667
▁embassage	-11668
▁embassies	-11669
▁encompass	-11670
▁engenders	-11671
▁establish	-11672
▁executing	-11673
▁extempore	-11674
▁fingering	-11675
▁firmament	-11676
▁fourscore	-11677
▁frivolous	-11678
▁fulfilled	-11679
▁functions	-11680
▁furnished	-11681
▁generally	-11682
▁gillyvors	-11683
▁graceless	-11684
▁gratulate	-11685
▁greyhound	-11686
▁grumbling	-11687
▁husbandry	-11688
▁impartial	-11689
▁ingenious	-11690
▁insatiate	-11691
▁justified	-11692
▁learnedly	-11693
▁leisurely	-11694
▁lingering	-11695
▁merciless	-11696
▁mischiefs	-11697
▁monastery	-11698
▁mortality	-11699
▁mountains	-11700
▁murderers	-11701
▁neglected	-11702
▁negligent	-11703
▁numbering	-11704
▁obstacles	-11705
▁officious	-11706
▁overboard	-11707
▁parchment	-11708
▁pardoning	-11709
▁parentage	-11710
▁partisans	-11711
▁patrimony	-11712
▁patroness	-11713
▁perceives	-11714
▁perdition	-11715
▁performed	-11716
▁pertinent	-11717
▁petticoat	-11718
▁plainness	-11719
▁plenteous	-11720
▁ponderous	-11721
▁principal	-11722
▁probation	-11723
▁professes	-11724
▁provision	-11725
▁purchased	-11726
▁qualified	-11727
▁quietness	-11728
▁receiving	-11729
▁recomfort	-11730
▁redoubted	-11731
▁rejoicing	-11732
▁religious	-11733
▁reprehend	-11734
▁resembles	-11735
▁reversion	-11736
▁righteous	-11737
▁semblance	-11738
▁seventeen	-11739
▁signified	-11740
▁sincerity	-11741
▁southward	-11742
▁specially	-11743
▁standards	-11744
▁statesman	-11745
▁stockings	-11746
▁stoutness	-11747
▁strangers	-11748
▁strengths	-11749
▁stripling	-11750
▁stumbling	-11751
▁successes	-11752
▁suggested	-11753
▁supremacy	-11754
▁swallowed	-11755
▁syllables	-11756
▁thankings	-11757
▁tradesmen	-11758
▁transform	-11759
▁traveller	-11760
▁treasures	-11761
▁unadvised	-11762
▁unbruised	-11763
▁universal	-11764
▁unsettled	-11765
▁untainted	-11766
▁unthrifty	-11767
▁violation	-11768
▁vouchsafe	-11769
▁wealthily	-11770
▁wearisome	-11771
▁withholds	-11772
▁worthless	-11773
▁yesterday	-11774
comfortable	-11775
▁Affliction	-11776
▁Archbishop	-11777
▁Benedicite	-11778
▁Conceiving	-11779
▁Convenient	-11780
▁Courageous	-11781
▁Gramercies	-11782
▁Henceforth	-11783
▁Lascivious	-11784
▁Neapolitan	-11785
▁Neighbours	-11786
▁Prodigious	-11787
▁Proportion	-11788
▁Prosperity	-11789
▁abominable	-11790
▁abstinence	-11791
▁acceptance	-11792
▁admonition	-11793
▁ambassador	-11794
▁apprehends	-11795
▁arithmetic	-11796
▁artificial	-11797
▁attendance	-11798
▁attendants	-11799
▁auspicious	-11800
▁birthright	-11801
▁butcheries	-11802
▁carelessly	-11803
▁characters	-11804
▁chattering	-11805
▁cockatrice	-11806
▁compliment	-11807
▁compounded	-11808
▁conquerors	-11809
▁continency	-11810
▁contracted	-11811
▁contradict	-11812
▁convenient	-11813
▁conveyance	-11814
▁courageous	-11815
▁deliberate	-11816
▁delightful	-11817
▁despairing	-11818
▁destroying	-11819
▁discipline	-11820
▁discourses	-11821
▁dishonours	-11822
▁dissension	-11823
▁distraught	-11824
▁encounters	-11825
▁endeavours	-11826
▁everything	-11827
▁excellence	-11828
▁experience	-11829
▁favourites	-11830
▁fellowship	-11831
▁foundation	-11832
▁generation	-11833
▁gentleness	-11834
▁glistering	-11835
▁glittering	-11836
▁greediness	-11837
▁greyhounds	-11838
▁guiltiness	-11839
▁hitherward	-11840
▁honourably	-11841
▁importance	-11842
▁importuned	-11843
▁increaseth	-11844
▁indictment	-11845
▁indirectly	-11846
▁inexorable	-11847
▁infallible	-11848
▁infectious	-11849
▁influences	-11850
▁insensible	-11851
▁instructed	-11852
▁intelligen	-11853
▁malcontent	-11854
▁methoughts	-11855
▁millstones	-11856
▁miscarried	-11857
▁neglecting	-11858
▁negligence	-11859
▁obsequious	-11860
▁packthread	-11861
▁pennyworth	-11862
▁personally	-11863
▁playfellow	-11864
▁preferment	-11865
▁proclaimed	-11866
▁promotions	-11867
▁prophetess	-11868
▁protection	-11869
▁protectors	-11870
▁pursuivant	-11871
▁recreation	-11872
▁restrained	-11873
▁sacrificed	-11874
▁salutation	-11875
▁scandalous	-11876
▁schoolboys	-11877
▁succeeders	-11878
▁succeeding	-11879
▁successful	-11880
▁sulphurous	-11881
▁thoroughly	-11882
▁throughout	-11883
▁tumultuous	-11884
▁unconstant	-11885
▁understood	-11886
▁ungracious	-11887
▁ungrateful	-11888
▁unparallel	-11889
▁unprepared	-11890
▁unreverent	-11891
▁unstanched	-11892
▁wilderness	-11893
▁CHRISTOPHER	-11894
▁Northampton	-11895
▁accompanied	-11896
▁appointment	-11897
▁battlements	-11898
▁benefactors	-11899
▁commendable	-11900
▁complaining	-11901
▁concealment	-11902
▁continuance	-11903
▁dangerously	-11904
▁desperation	-11905
▁differences	-11906
▁disgracious	-11907
▁disobedient	-11908
▁dissentious	-11909
▁dissolution	-11910
▁distraction	-11911
▁earnestness	-11912
▁experienced	-11913
▁expostulate	-11914
▁extremities	-11915
▁forbearance	-11916
▁forwardness	-11917
▁gentlewomen	-11918
▁habiliments	-11919
▁impregnable	-11920
▁incorporate	-11921
▁indignation	-11922
▁information	-11923
▁ingratitude	-11924
▁insinuating	-11925
▁instigation	-11926
▁interrupted	-11927
▁magistrates	-11928
▁maidenheads	-11929
▁necessaries	-11930
▁ostentation	-11931
▁possessions	-11932
▁predominant	-11933
▁presumption	-11934
▁profanation	-11935
▁quarrelling	-11936
▁remembering	-11937
▁stewardship	-11938
▁strangeness	-11939
▁substantial	-11940
▁substitutes	-11941
▁sufficiency	-11942
▁superfluity	-11943
▁superfluous	-11944
▁temperately	-11945
▁therewithal	-11946
▁undertaking	-11947
▁unfortunate	-11948
▁unspeakable	-11949
▁unsuspected	-11950
▁unwholesome	-11951
▁unwillingly	-11952
▁willingness	-11953
▁Christophero	-11954
▁Conspirators	-11955
▁Henceforward	-11956
▁Westmoreland	-11957
▁caterpillars	-11958
▁confederates	-11959
▁conversation	-11960
▁countenances	-11961
▁disobedience	-11962
▁dispositions	-11963
▁handkerchief	-11964
▁misadventure	-11965
▁predecessors	-11966
▁prescription	-11967
▁preservation	-11968
▁strawberries	-11969
▁contradiction	-11970
▁counterpoised	-11971
▁encouragement	-11972
▁everlastingly	-11973
▁forgetfulness	-11974
▁precipitation	-11975
▁transgression	-11976
▁unwillingness	-11977
▁interpretation	-11978
▁unthankfulness	-11979
▁Gloucestershire	-11980
▁interchangeably	-11981
cox	-11982
Deny	-11983
acob	-11984
baby	-11985
buzz	-11986
drag	-11987
eaux	-11988
geny	-11989
grav	-11990
hurt	-11991
igma	-11992
mete	-11993
mphs	-11994
obst	-11995
oifs	-11996
tney	-11997
usky	-11998
whom	-11999
ydra	-12000
▁Hyr	-12001
▁Vex	-12002
LEMEN	-12003
Still	-12004
Strat	-12005
absol	-12006
atomy	-12007
azzle	-12008
build	-12009
elaus	-12010
gnomy	-12011
iavel	-12012
imney	-12013
impse	-12014
iptoe	-12015
knock	-12016
mpery	-12017
omede	-12018
oseph	-12019
ravio	-12020
rhyme	-12021
riami	-12022
risen	-12023
tuned	-12024
umnia	-12025
urora	-12026
uxury	-12027
warks	-12028
whist	-12029
▁Agri	-12030
▁Airy	-12031
▁Cynt	-12032
▁Cypr	-12033
▁News	-12034
▁Ridd	-12035
▁Siby	-12036
▁Trit	-12037
▁Waft	-12038
▁Wait	-12039
▁Winc	-12040
▁anti	-12041
▁cadd	-12042
▁casa	-12043
▁daub	-12044
▁doxy	-12045
▁hews	-12046
▁hymn	-12047
▁inev	-12048
▁lids	-12049
▁mumm	-12050
▁oxen	-12051
▁oxli	-12052
▁paws	-12053
▁phee	-12054
▁prud	-12055
▁psal	-12056
▁rhet	-12057
▁team	-12058
▁wadd	-12059
Priami	-12060
Sigeia	-12061
Simois	-12062
TLEMEN	-12063
access	-12064
alogue	-12065
arists	-12066
asseth	-12067
breach	-12068
cknock	-12069
crated	-12070
edalus	-12071
elican	-12072
employ	-12073
ermane	-12074
ermans	-12075
fathom	-12076
geonly	-12077
hified	-12078
ishers	-12079
keeper	-12080
lackey	-12081
larums	-12082
mantle	-12083
mocked	-12084
nymphs	-12085
ommend	-12086
ougher	-12087
porter	-12088
ppersp	-12089
ptedly	-12090
ravely	-12091
recked	-12092
ridget	-12093
ropper	-12094
secute	-12095
stools	-12096
suited	-12097
ucting	-12098
uggard	-12099
ebos	-12100
offs	-12101
prop	-12102
▁Tug	-12103
albot	-12104
desby	-12105
offin	-12106
revoc	-12107
coffin	-12108
crazed	-12109
ditary	-12110
geable	-12111
offing	-12112
orizer	-12113
rieves	-12114
rilous	-12115
ugurer	-12116
walled	-12117
wooing	-12118
▁Adopt	-12119
▁Barth	-12120
▁Began	-12121
▁Bunch	-12122
▁Crass	-12123
▁Crete	-12124
▁Defor	-12125
▁Droop	-12126
▁Endue	-12127
▁Equal	-12128
▁Falls	-12129
▁Fatal	-12130
▁Hydra	-12131
▁Insol	-12132
▁Jeron	-12133
▁Jewry	-12134
▁Limit	-12135
▁Limps	-12136
▁Lusty	-12137
▁Manif	-12138
▁Merry	-12139
▁Needs	-12140
▁Penel	-12141
▁Pluto	-12142
▁Royal	-12143
▁Shuts	-12144
▁Sibyl	-12145
▁Simon	-12146
▁Slave	-12147
▁Sneak	-12148
▁Spurr	-12149
▁Trail	-12150
▁Unfit	-12151
▁Usurp	-12152
▁Worst	-12153
▁alias	-12154
▁auger	-12155
▁balms	-12156
▁bedew	-12157
▁boxes	-12158
▁bulks	-12159
▁celeb	-12160
▁claps	-12161
▁cuore	-12162
▁dedic	-12163
▁deriv	-12164
▁dials	-12165
▁ditty	-12166
▁ducat	-12167
▁dulce	-12168
▁emmew	-12169
▁essay	-12170
▁ewers	-12171
▁excel	-12172
▁fifes	-12173
▁folds	-12174
▁freer	-12175
▁fusty	-12176
▁gazes	-12177
▁gleek	-12178
▁havoc	-12179
▁hawth	-12180
▁hyper	-12181
▁jumps	-12182
▁logic	-12183
▁mints	-12184
▁moles	-12185
▁molto	-12186
▁moths	-12187
▁olive	-12188
▁palsy	-12189
▁plaus	-12190
▁puffs	-12191
▁reech	-12192
▁rents	-12193
▁rumou	-12194
▁scabs	-12195
▁sewed	-12196
▁slimy	-12197
▁sobri	-12198
▁stags	-12199
clip	-12200
iwork	-12201
▁gnar	-12202
fishes	-12203
orgive	-12204
stoned	-12205
▁Added	-12206
▁Graze	-12207
▁Quint	-12208
▁audit	-12209
▁eclip	-12210
▁gulls	-12211
▁porri	-12212
▁scald	-12213
▁shrub	-12214
▁stews	-12215
▁swims	-12216
▁taxes	-12217
▁tuned	-12218
▁unciv	-12219
▁viand	-12220
▁vigil	-12221
▁waned	-12222
▁waxes	-12223
▁wrung	-12224
Commend	-12225
Forgive	-12226
Sicilia	-12227
aedalus	-12228
amworth	-12229
arraign	-12230
atrices	-12231
aucasus	-12232
bellied	-12233
catched	-12234
catcher	-12235
chequer	-12236
childed	-12237
cluding	-12238
cussion	-12239
diments	-12240
dispers	-12241
dropper	-12242
ermatch	-12243
erpower	-12244
erweens	-12245
harming	-12246
igmatic	-12247
iliarly	-12248
imroses	-12249
inhabit	-12250
irlwind	-12251
itigate	-12252
lderman	-12253
lowered	-12254
mblings	-12255
niments	-12256
nointed	-12257
olumnia	-12258
omplish	-12259
onville	-12260
ordeaux	-12261
peopled	-12262
plagued	-12263
quality	-12264
quisite	-12265
roasted	-12266
service	-12267
shotten	-12268
stained	-12269
strings	-12270
sucking	-12271
ucullus	-12272
uscadel	-12273
verdict	-12274
whither	-12275
▁Agreed	-12276
▁Agripp	-12277
▁Belgia	-12278
▁Bianco	-12279
▁Bolder	-12280
▁Bretag	-12281
▁Broach	-12282
▁Brocas	-12283
▁Broken	-12284
▁Burton	-12285
▁Depart	-12286
▁Depose	-12287
▁Doctor	-12288
▁Dolour	-12289
▁Doting	-12290
▁Double	-12291
▁Ethiop	-12292
▁Fasten	-12293
▁Ferrer	-12294
▁Gallia	-12295
▁Gallop	-12296
▁Helena	-12297
▁Hiding	-12298
▁Holloa	-12299
beys	-12300
foes	-12301
warm	-12302
ycur	-12303
choes	-12304
itoes	-12305
olgot	-12306
ycurg	-12307
▁Duns	-12308
▁hawk	-12309
▁ista	-12310
▁spav	-12311
▁tuns	-12312
titoes	-12313
▁Begot	-12314
▁Finds	-12315
▁Plead	-12316
▁sessa	-12317
olgotha	-12318
ukewarm	-12319
▁Courts	-12320
▁Fairly	-12321
▁Greeks	-12322
▁Humbly	-12323
▁Hunger	-12324
▁Junius	-12325
▁Kindly	-12326
▁Lawful	-12327
▁Lycurg	-12328
▁Miscon	-12329
▁Oppose	-12330
▁Penker	-12331
▁Profan	-12332
▁Purcha	-12333
▁Pursue	-12334
▁Quoint	-12335
▁Relish	-12336
▁Revoke	-12337
▁Revolt	-12338
▁Satisf	-12339
▁Saving	-12340
▁School	-12341
▁Selves	-12342
▁Silver	-12343
▁Simple	-12344
▁Sugars	-12345
▁Talbot	-12346
▁Tetchy	-12347
▁Tickle	-12348
▁Triton	-12349
▁Tyrian	-12350
▁Unbind	-12351
▁Usurps	-12352
▁Varlet	-12353
▁Vilely	-12354
▁abhors	-12355
▁accomm	-12356
▁adorns	-12357
▁aggrav	-12358
▁alarms	-12359
▁ampler	-12360
▁annals	-12361
▁annual	-12362
▁arbitr	-12363
▁barded	-12364
▁bedazz	-12365
▁bedeck	-12366
▁bemoan	-12367
▁bigamy	-12368
▁billet	-12369
▁boasts	-12370
▁border	-12371
▁boughs	-12372
▁bouted	-12373
▁bruise	-12374
▁buzzed	-12375
▁cardin	-12376
▁cedars	-12377
▁celest	-12378
▁chafes	-12379
▁collar	-12380
▁demise	-12381
▁descry	-12382
▁disarm	-12383
▁domest	-12384
▁dowery	-12385
▁dulcet	-12386
▁dumbly	-12387
▁echoes	-12388
▁edicts	-12389
▁egally	-12390
▁elvish	-12391
▁empery	-12392
▁enthra	-12393
▁establ	-12394
▁extirp	-12395
▁foeman	-12396
▁foemen	-12397
▁folded	-12398
▁fornic	-12399
jax	-12400
webs	-12401
annul	-12402
apper	-12403
bbled	-12404
bwebs	-12405
dares	-12406
shaft	-12407
▁Ajax	-12408
▁Nips	-12409
▁bags	-12410
▁hips	-12411
▁snea	-12412
▁snip	-12413
annuls	-12414
ground	-12415
shaken	-12416
▁Filth	-12417
▁Guard	-12418
▁Guilt	-12419
▁dived	-12420
▁freck	-12421
▁maker	-12422
▁moods	-12423
▁savag	-12424
▁scowl	-12425
fitable	-12426
▁Attach	-12427
▁Ransom	-12428
▁Soundp	-12429
▁Wedges	-12430
▁franch	-12431
▁frosts	-12432
▁frosty	-12433
▁gazers	-12434
▁gelded	-12435
▁givest	-12436
▁godded	-12437
▁grassy	-12438
▁graybe	-12439
▁greasy	-12440
▁halber	-12441
▁halves	-12442
▁havens	-12443
▁hedges	-12444
▁hooded	-12445
▁hooted	-12446
▁hopest	-12447
▁hyperb	-12448
▁inviol	-12449
▁kernel	-12450
▁lamely	-12451
▁lavish	-12452
▁legion	-12453
▁levity	-12454
▁lifted	-12455
▁likest	-12456
▁locked	-12457
▁lockra	-12458
▁magnan	-12459
▁magnif	-12460
▁mammet	-12461
▁messes	-12462
▁meteor	-12463
▁mickle	-12464
▁minimo	-12465
▁misapp	-12466
▁miscar	-12467
▁moonsh	-12468
▁nicety	-12469
▁nonage	-12470
▁occupy	-12471
▁oceans	-12472
▁pantry	-12473
▁parlor	-12474
▁passed	-12475
▁paucas	-12476
▁persec	-12477
▁pestil	-12478
▁plumes	-12479
▁prefix	-12480
▁prints	-12481
▁psalms	-12482
▁puller	-12483
▁quiver	-12484
▁railer	-12485
▁rarity	-12486
▁raying	-12487
▁recoil	-12488
▁reechy	-12489
▁reflex	-12490
▁revels	-12491
▁rhetor	-12492
▁ropery	-12493
▁sauced	-12494
▁sconce	-12495
▁screen	-12496
▁select	-12497
▁sexton	-12498
▁shrubs	-12499
▁Owe	-12500
cases	-12501
gical	-12502
gnost	-12503
urers	-12504
▁bonf	-12505
olical	-12506
seller	-12507
waning	-12508
▁Cleop	-12509
▁Kneel	-12510
▁Raise	-12511
▁bathe	-12512
▁birch	-12513
▁invis	-12514
▁malef	-12515
▁warns	-12516
aptized	-12517
bearing	-12518
iterate	-12519
mongers	-12520
plotted	-12521
ratches	-12522
▁Afresh	-12523
▁Awakes	-12524
▁Awhile	-12525
▁Cleave	-12526
▁Nearer	-12527
▁Raised	-12528
▁Unhapp	-12529
▁costly	-12530
▁crafty	-12531
▁debate	-12532
▁enfold	-12533
▁hewing	-12534
▁leases	-12535
▁parson	-12536
▁scrape	-12537
▁shrugs	-12538
▁shrunk	-12539
▁smacks	-12540
▁smutch	-12541
▁societ	-12542
▁spirts	-12543
▁splits	-12544
▁sprays	-12545
▁stoned	-12546
▁strays	-12547
▁subsid	-12548
▁switch	-12549
▁sympat	-12550
▁taints	-12551
▁taketh	-12552
▁thinly	-12553
▁trifle	-12554
▁uglier	-12555
▁unhurt	-12556
▁unmann	-12557
▁unmask	-12558
▁unmind	-12559
▁unreal	-12560
▁unskil	-12561
▁untrus	-12562
▁urgent	-12563
▁ushers	-12564
▁velure	-12565
▁ventur	-12566
▁warder	-12567
▁weaved	-12568
▁wether	-12569
▁widens	-12570
▁widest	-12571
▁wizard	-12572
▁yarely	-12573
Cucullus	-12574
Sicinius	-12575
achiavel	-12576
asonably	-12577
aspiring	-12578
atisfied	-12579
cheering	-12580
contract	-12581
disposed	-12582
dragoned	-12583
dropping	-12584
echerous	-12585
edgeable	-12586
erthrown	-12587
erweighs	-12588
iguities	-12589
imonious	-12590
inescore	-12591
iscation	-12592
isemaker	-12593
isshapen	-12594
judgment	-12595
judicial	-12596
junction	-12597
knocking	-12598
lesomest	-12599
arib	-12600
negl	-12601
pipe	-12602
prit	-12603
serp	-12604
▁Hob	-12605
▁zod	-12606
dowry	-12607
ipple	-12608
proof	-12609
unuch	-12610
zzled	-12611
▁hipp	-12612
▁oaks	-12613
▁paly	-12614
aribel	-12615
armory	-12616
course	-12617
eaters	-12618
havior	-12619
▁Benef	-12620
▁Compr	-12621
▁Dares	-12622
▁Minos	-12623
▁drizz	-12624
▁mirac	-12625
▁pages	-12626
▁portc	-12627
▁potch	-12628
▁snowy	-12629
▁troll	-12630
▁wingd	-12631
▁zodia	-12632
fathers	-12633
garment	-12634
itulate	-12635
ouchsaf	-12636
rolling	-12637
serpina	-12638
▁Accord	-12639
▁Canker	-12640
▁Charge	-12641
▁Places	-12642
▁beguil	-12643
▁deceiv	-12644
▁eunuch	-12645
▁goaded	-12646
▁hipped	-12647
▁inquis	-12648
▁linens	-12649
▁matron	-12650
▁nipple	-12651
▁pheeze	-12652
▁portly	-12653
▁ribbon	-12654
▁rustic	-12655
▁rustle	-12656
▁undoes	-12657
▁weeder	-12658
▁zodiac	-12659
ervative	-12660
offences	-12661
ontinent	-12662
ordinary	-12663
raybeard	-12664
reditary	-12665
restrial	-12666
secrated	-12667
sheathed	-12668
sickness	-12669
spitable	-12670
staining	-12671
stantial	-12672
stitches	-12673
tattling	-12674
upturned	-12675
urgeonly	-12676
urrilous	-12677
violator	-12678
wounding	-12679
▁Address	-12680
▁Agrippa	-12681
▁Bridget	-12682
▁Bruised	-12683
▁Cherish	-12684
▁Cleopat	-12685
▁Conduct	-12686
▁Confirm	-12687
▁Cousins	-12688
▁Current	-12689
▁Deposed	-12690
▁Depress	-12691
▁Devised	-12692
▁Diomede	-12693
▁Dispark	-12694
▁Divided	-12695
▁Duchess	-12696
▁Embrace	-12697
▁Ensuing	-12698
▁Fancies	-12699
flaw	-12700
hrey	-12701
welt	-12702
elect	-12703
sprey	-12704
▁Berg	-12705
▁Runs	-12706
▁ensn	-12707
▁trop	-12708
graced	-12709
uscles	-12710
▁Brach	-12711
▁Brags	-12712
▁Dwelt	-12713
▁Laura	-12714
▁Seest	-12715
▁Slain	-12716
▁Unlaw	-12717
▁cooks	-12718
▁drier	-12719
▁globe	-12720
▁melts	-12721
▁splay	-12722
courage	-12723
pedient	-12724
umphrey	-12725
▁Bergam	-12726
▁Sandal	-12727
▁barric	-12728
▁blades	-12729
▁drives	-12730
▁furnit	-12731
▁ingots	-12732
▁osprey	-12733
▁scales	-12734
▁splend	-12735
▁squier	-12736
▁suckle	-12737
▁trophy	-12738
▁vaulty	-12739
▁warped	-12740
rections	-12741
unctions	-12742
▁Bergamo	-12743
▁Feather	-12744
▁Fewness	-12745
▁Forsake	-12746
▁Fridays	-12747
▁Gallows	-12748
▁Germans	-12749
▁Governs	-12750
▁Groping	-12751
▁Happier	-12752
▁Implore	-12753
▁Ingrate	-12754
▁Kentish	-12755
▁Lechery	-12756
▁Meeting	-12757
▁Milford	-12758
▁Misused	-12759
▁Neglect	-12760
▁Officed	-12761
▁Pierced	-12762
▁Pitiful	-12763
▁Provide	-12764
▁Provoke	-12765
▁Recover	-12766
▁Rescued	-12767
▁Sailing	-12768
▁Satisfy	-12769
▁Scandal	-12770
▁Scratch	-12771
▁Shamest	-12772
▁Springs	-12773
▁Strange	-12774
▁Suspect	-12775
▁Talkers	-12776
▁Tiberio	-12777
▁Tickled	-12778
▁Touches	-12779
▁Valance	-12780
▁Wafting	-12781
▁Wanting	-12782
▁Worship	-12783
▁abjects	-12784
▁aboding	-12785
▁accompl	-12786
▁aground	-12787
▁almsman	-12788
▁amazing	-12789
▁amounts	-12790
▁anatomy	-12791
▁appeals	-12792
▁aptness	-12793
▁arbitre	-12794
▁arrests	-12795
▁austere	-12796
▁avenged	-12797
▁balance	-12798
▁basilis	-12799
woe	-12800
ysm	-12801
?--'	-12802
lica	-12803
when	-12804
borne	-12805
hests	-12806
large	-12807
lical	-12808
▁Appl	-12809
Maries	-12810
ipping	-12811
olborn	-12812
reased	-12813
▁Abhor	-12814
▁Leads	-12815
▁Preys	-12816
▁Remit	-12817
▁abysm	-12818
▁oddly	-12819
▁slays	-12820
▁taker	-12821
▁woods	-12822
bsolute	-12823
erborne	-12824
iercing	-12825
topping	-12826
▁Prefer	-12827
▁Remove	-12828
▁Retire	-12829
▁Rights	-12830
▁convoy	-12831
▁misses	-12832
▁slowly	-12833
▁tested	-12834
▁unsafe	-12835
absolver	-12836
▁Accords	-12837
▁Applaud	-12838
▁Beloved	-12839
▁Favours	-12840
▁Holborn	-12841
▁Whisper	-12842
▁beetles	-12843
▁behests	-12844
▁beneath	-12845
▁benevol	-12846
▁bespeak	-12847
▁blotted	-12848
▁boiling	-12849
▁brinish	-12850
▁buckled	-12851
▁buttock	-12852
▁causest	-12853
▁caverns	-12854
▁charnel	-12855
▁chiders	-12856
▁chiding	-12857
▁chimney	-12858
▁chronic	-12859
▁cleanly	-12860
▁clients	-12861
▁closure	-12862
▁cobbled	-12863
▁cobwebs	-12864
▁coffins	-12865
▁collect	-12866
▁concord	-12867
▁connive	-12868
▁convict	-12869
▁cooling	-12870
▁copious	-12871
▁coronet	-12872
▁coxcomb	-12873
▁crafted	-12874
▁crammed	-12875
▁cricket	-12876
▁dallied	-12877
▁dashing	-12878
▁dawning	-12879
▁declare	-12880
▁detects	-12881
▁digging	-12882
▁dimming	-12883
▁discomf	-12884
▁disprop	-12885
▁diverse	-12886
▁dragons	-12887
▁driveth	-12888
▁drybeat	-12889
▁eminent	-12890
▁engrave	-12891
▁enlarge	-12892
▁epitome	-12893
▁escapes	-12894
▁espouse	-12895
▁essence	-12896
▁examine	-12897
▁extinct	-12898
▁fathoms	-12899
hung	-12900
leaf	-12901
owdy	-12902
pane	-12903
urdy	-12904
Scape	-12905
named	-12906
oteus	-12907
unged	-12908
▁Kept	-12909
▁Virg	-12910
▁diam	-12911
▁dote	-12912
▁fane	-12913
▁flex	-12914
▁lodg	-12915
affold	-12916
aluted	-12917
gorged	-12918
horses	-12919
hungry	-12920
idency	-12921
oothes	-12922
ormity	-12923
ricock	-12924
▁adopt	-12925
▁basin	-12926
▁diale	-12927
▁dowdy	-12928
▁ferry	-12929
▁fleer	-12930
▁paved	-12931
▁rainy	-12932
▁swung	-12933
moothes	-12934
ricocks	-12935
▁Cyprus	-12936
▁Insult	-12937
▁Rogero	-12938
▁Served	-12939
▁blamed	-12940
▁budger	-12941
▁denote	-12942
▁diaper	-12943
▁feebly	-12944
▁martyr	-12945
▁mourns	-12946
▁skills	-12947
▁spouts	-12948
▁stifle	-12949
▁sturdy	-12950
▁swayed	-12951
▁trouts	-12952
▁unwept	-12953
▁Filling	-12954
▁Grecian	-12955
▁Piteous	-12956
▁Plunged	-12957
▁Proteus	-12958
▁accuser	-12959
▁budding	-12960
▁carping	-12961
▁circums	-12962
▁dialect	-12963
▁diamond	-12964
▁digress	-12965
▁fertile	-12966
▁fisting	-12967
▁fixture	-12968
▁flecked	-12969
▁fleeter	-12970
▁flouted	-12971
▁forgery	-12972
▁fretted	-12973
▁gambold	-12974
▁gambols	-12975
▁germane	-12976
▁givings	-12977
▁glances	-12978
▁glimpse	-12979
▁gnarled	-12980
▁grassho	-12981
▁griping	-12982
▁halbert	-12983
▁haunted	-12984
▁heaping	-12985
▁hilding	-12986
▁hoarded	-12987
▁hooting	-12988
▁hottest	-12989
▁humbles	-12990
▁immoder	-12991
▁impaled	-12992
▁imprese	-12993
▁ingrate	-12994
▁inkling	-12995
▁irrevoc	-12996
▁jarring	-12997
▁knavish	-12998
▁lagging	-12999
cub	-13000
cuba	-13001
egas	-13002
pact	-13003
trib	-13004
ubim	-13005
chapp	-13006
dared	-13007
elids	-13008
ennet	-13009
hoped	-13010
iards	-13011
month	-13012
ubine	-13013
▁Bene	-13014
▁Defy	-13015
▁dewy	-13016
▁pinn	-13017
▁tips	-13018
beards	-13019
egasus	-13020
hysics	-13021
▁Apoll	-13022
▁Groan	-13023
▁Shave	-13024
▁enact	-13025
▁irons	-13026
▁larks	-13027
▁mills	-13028
▁poesy	-13029
▁rises	-13030
▁unsub	-13031
borough	-13032
haplain	-13033
oniards	-13034
tribune	-13035
uptuous	-13036
▁Bennet	-13037
▁Common	-13038
▁Hecuba	-13039
▁Poland	-13040
▁earned	-13041
▁enacts	-13042
▁loaths	-13043
▁sermon	-13044
▁shames	-13045
▁sharps	-13046
▁undesc	-13047
▁wonted	-13048
aphysics	-13049
cesoever	-13050
▁Apollos	-13051
▁Beneath	-13052
▁Compact	-13053
▁Cunning	-13054
▁Greater	-13055
▁Opinion	-13056
▁Pegasus	-13057
▁Prevent	-13058
▁Tedious	-13059
▁compact	-13060
▁eyelids	-13061
▁fawning	-13062
▁forcing	-13063
▁infects	-13064
▁lantern	-13065
▁leagues	-13066
▁leasing	-13067
▁lingers	-13068
▁lodgers	-13069
▁mainten	-13070
▁margent	-13071
▁martial	-13072
▁matches	-13073
▁matrons	-13074
▁measles	-13075
▁meddler	-13076
▁medlars	-13077
▁mermaid	-13078
▁merrier	-13079
▁mettest	-13080
▁misbeha	-13081
▁miscall	-13082
▁misgive	-13083
▁mixture	-13084
▁mummers	-13085
▁murrain	-13086
▁muzzled	-13087
▁napless	-13088
▁napping	-13089
▁naughty	-13090
▁nettled	-13091
▁nodding	-13092
▁notedly	-13093
▁nursery	-13094
▁nursing	-13095
▁objects	-13096
▁obscene	-13097
▁offered	-13098
▁omitted	-13099
Jesu	-13100
Sund	-13101
ekly	-13102
▁icy	-13103
eldom	-13104
paced	-13105
spear	-13106
spent	-13107
▁Load	-13108
▁edif	-13109
▁fund	-13110
▁opin	-13111
▁snat	-13112
Sunday	-13113
acrity	-13114
anchor	-13115
bursed	-13116
crates	-13117
thrift	-13118
unders	-13119
▁aunts	-13120
▁edges	-13121
▁feeds	-13122
▁froth	-13123
▁inund	-13124
▁knead	-13125
▁laced	-13126
▁lulls	-13127
▁paced	-13128
▁slips	-13129
▁stabs	-13130
▁taper	-13131
ergrown	-13132
jealous	-13133
omacher	-13134
racting	-13135
▁Albeit	-13136
▁Indian	-13137
▁Loaden	-13138
▁Pierce	-13139
▁Seldom	-13140
▁Sicily	-13141
▁cement	-13142
▁feeder	-13143
▁ravish	-13144
▁serpig	-13145
▁sheeps	-13146
▁warden	-13147
▁worshi	-13148
omachers	-13149
raidings	-13150
rustrate	-13151
▁Barthol	-13152
▁Betroth	-13153
▁Partake	-13154
▁Pleased	-13155
▁betroth	-13156
▁blossom	-13157
▁enchant	-13158
▁flowery	-13159
▁kneaded	-13160
▁outdone	-13161
▁pantler	-13162
▁pathway	-13163
▁peaches	-13164
▁pedlars	-13165
▁peereth	-13166
▁peering	-13167
▁pelican	-13168
▁perdura	-13169
▁persuad	-13170
▁pirates	-13171
▁pleader	-13172
▁plentif	-13173
▁porring	-13174
▁preferr	-13175
▁prelate	-13176
▁prescri	-13177
▁princox	-13178
▁progeny	-13179
▁psalter	-13180
▁pugging	-13181
▁puritan	-13182
▁quivers	-13183
▁racking	-13184
▁rainbow	-13185
▁rapture	-13186
▁redeems	-13187
▁reeling	-13188
▁rejourn	-13189
▁repeals	-13190
▁resists	-13191
▁revolts	-13192
▁richest	-13193
▁riddles	-13194
▁roarers	-13195
▁robbing	-13196
▁rougher	-13197
▁rubbing	-13198
▁rubbish	-13199
quean	-13200
▁Hope	-13201
▁verd	-13202
drench	-13203
eating	-13204
parted	-13205
▁Betid	-13206
▁Flock	-13207
▁Stamp	-13208
▁Stern	-13209
▁demig	-13210
▁rides	-13211
▁ridic	-13212
▁slipt	-13213
▁unbar	-13214
▁unbid	-13215
▁unbra	-13216
▁unfil	-13217
▁unlaw	-13218
▁unpol	-13219
▁waged	-13220
erthrow	-13221
handise	-13222
ivining	-13223
▁Repeal	-13224
▁Scorns	-13225
▁bearts	-13226
▁blinds	-13227
▁dismay	-13228
▁dismis	-13229
▁envied	-13230
▁glassy	-13231
▁holier	-13232
▁inclus	-13233
▁laughs	-13234
▁lining	-13235
▁marted	-13236
▁relief	-13237
▁tallow	-13238
▁unfill	-13239
▁unfurn	-13240
▁unlick	-13241
▁unpink	-13242
▁wrench	-13243
divining	-13244
otarists	-13245
▁Beating	-13246
▁Infused	-13247
▁aweless	-13248
▁banners	-13249
▁blindly	-13250
▁coining	-13251
▁demigod	-13252
▁garners	-13253
▁grating	-13254
▁imagery	-13255
▁lapwing	-13256
▁monthly	-13257
▁ruinate	-13258
▁rupture	-13259
▁rushing	-13260
▁sackbut	-13261
▁sapling	-13262
▁savoury	-13263
▁sciatic	-13264
▁screech	-13265
▁seasons	-13266
▁seduced	-13267
▁serpigo	-13268
▁shineth	-13269
▁shovels	-13270
▁shrived	-13271
▁shrouds	-13272
▁sinking	-13273
▁slights	-13274
▁smooths	-13275
▁snapper	-13276
▁spakest	-13277
▁spawned	-13278
▁spokest	-13279
▁stagger	-13280
▁starkly	-13281
▁started	-13282
▁steaded	-13283
▁steeped	-13284
▁stoutly	-13285
▁strings	-13286
▁stroked	-13287
▁studded	-13288
▁suggest	-13289
▁sunders	-13290
▁supplic	-13291
▁surpass	-13292
▁survive	-13293
▁sustain	-13294
▁swooned	-13295
▁tackled	-13296
▁taunted	-13297
▁thicker	-13298
▁thicket	-13299
neck	-13300
rtle	-13301
Where	-13302
breed	-13303
mitig	-13304
sleep	-13305
urden	-13306
▁Dash	-13307
▁Puts	-13308
▁baff	-13309
▁degr	-13310
▁eyne	-13311
▁palp	-13312
▁rote	-13313
▁simp	-13314
▁unsp	-13315
arians	-13316
mitage	-13317
pposed	-13318
▁Displ	-13319
▁Flies	-13320
▁Pedas	-13321
▁brunt	-13322
▁cites	-13323
▁hairy	-13324
▁plash	-13325
▁slash	-13326
▁studs	-13327
▁unsay	-13328
▁unsha	-13329
▁unshe	-13330
Content	-13331
ability	-13332
amental	-13333
enounce	-13334
nations	-13335
▁Consul	-13336
▁Pedasc	-13337
▁aiding	-13338
▁bedash	-13339
▁begnaw	-13340
▁captum	-13341
▁invect	-13342
▁myrtle	-13343
▁provin	-13344
▁ranges	-13345
▁settle	-13346
▁simply	-13347
▁source	-13348
▁sourly	-13349
▁stupid	-13350
anointed	-13351
breeding	-13352
enounced	-13353
sleeping	-13354
supposed	-13355
▁Consort	-13356
▁Inherit	-13357
▁arrives	-13358
▁baffled	-13359
▁begnawn	-13360
▁conjoin	-13361
▁fortify	-13362
▁limited	-13363
▁ranging	-13364
▁smilest	-13365
▁sucking	-13366
▁thrifty	-13367
▁thrills	-13368
▁thrusts	-13369
▁tinkers	-13370
▁topmost	-13371
▁topsail	-13372
▁touched	-13373
▁tougher	-13374
▁trimmed	-13375
▁twinkle	-13376
▁twisted	-13377
▁uncivil	-13378
▁unconst	-13379
▁unequal	-13380
▁unhorse	-13381
▁unloads	-13382
▁unloose	-13383
▁unmitig	-13384
▁unmusic	-13385
▁unscarr	-13386
▁unsever	-13387
▁unstaid	-13388
▁unstuff	-13389
▁unswept	-13390
▁untruth	-13391
▁unwares	-13392
▁usurers	-13393
▁valleys	-13394
▁vanquis	-13395
▁vapours	-13396
▁vessels	-13397
▁vesture	-13398
▁viewing	-13399
hne	-13400
tsy	-13401
;'--	-13402
cann	-13403
fume	-13404
▁Pub	-13405
angle	-13406
aphne	-13407
bbles	-13408
blets	-13409
rarch	-13410
rimis	-13411
uffic	-13412
▁Mean	-13413
▁Perj	-13414
▁Rude	-13415
▁Scal	-13416
▁Trim	-13417
▁baes	-13418
▁feod	-13419
▁gang	-13420
abriel	-13421
arthen	-13422
cannon	-13423
erleap	-13424
urrent	-13425
▁Cease	-13426
▁Craft	-13427
▁Cushi	-13428
▁Publi	-13429
▁Scars	-13430
▁Stuff	-13431
▁Trimm	-13432
▁butts	-13433
▁colts	-13434
▁feats	-13435
▁filed	-13436
▁harts	-13437
▁laund	-13438
▁lurks	-13439
▁lusts	-13440
▁stocc	-13441
ceitful	-13442
erville	-13443
▁Convey	-13444
▁Daphne	-13445
▁Takest	-13446
▁curtsy	-13447
▁empire	-13448
▁imprim	-13449
▁indite	-13450
▁laurel	-13451
▁lodges	-13452
▁mulled	-13453
▁smothe	-13454
▁warmth	-13455
alicious	-13456
▁Gabriel	-13457
▁Hearing	-13458
▁Perfume	-13459
▁Perjury	-13460
▁Publius	-13461
▁Scaling	-13462
▁Scaring	-13463
▁apprent	-13464
▁broiled	-13465
▁circuit	-13466
▁costard	-13467
▁differs	-13468
▁earthen	-13469
▁feodary	-13470
▁gangren	-13471
▁goblets	-13472
▁infants	-13473
▁overset	-13474
▁pebbles	-13475
▁spangle	-13476
▁stained	-13477
▁stoccat	-13478
▁vulgars	-13479
▁waiteth	-13480
▁warrior	-13481
▁waspish	-13482
▁waverer	-13483
▁whatsoe	-13484
▁whetted	-13485
▁whitest	-13486
▁withdra	-13487
▁wolvish	-13488
▁woollen	-13489
▁wrecked	-13490
▁zodiacs	-13491
achieving	-13492
achmakers	-13493
aditional	-13494
aducement	-13495
advantage	-13496
believing	-13497
braidings	-13498
disposing	-13499
strue	-13500
yster	-13501
▁Heav	-13502
▁Xant	-13503
▁shoe	-13504
opards	-13505
▁dusky	-13506
▁novel	-13507
▁obeys	-13508
▁piles	-13509
▁refus	-13510
▁shops	-13511
▁solem	-13512
▁sorts	-13513
▁unclo	-13514
omeness	-13515
steries	-13516
▁Cretan	-13517
▁Daring	-13518
▁Mended	-13519
▁Xanthi	-13520
▁aching	-13521
▁cloaks	-13522
▁emboss	-13523
▁grandm	-13524
▁listed	-13525
▁mutter	-13526
▁oftent	-13527
▁oyster	-13528
▁refell	-13529
▁shoots	-13530
▁steals	-13531
▁uncert	-13532
▁unclog	-13533
▁uncons	-13534
▁uncont	-13535
▁vainly	-13536
boarding	-13537
ceptacle	-13538
cupboard	-13539
gressing	-13540
▁Intents	-13541
▁Tyrants	-13542
▁antique	-13543
▁chopped	-13544
▁footboy	-13545
▁helding	-13546
▁islands	-13547
▁manacle	-13548
▁novelty	-13549
▁refusal	-13550
▁soaring	-13551
▁steeled	-13552
▁tempers	-13553
▁uncover	-13554
haritable	-13555
icatrices	-13556
initively	-13557
itigation	-13558
meritable	-13559
negligent	-13560
omparable	-13561
onstrance	-13562
ourisheth	-13563
pothecary	-13564
relenting	-13565
springing	-13566
uptuously	-13567
venerable	-13568
whistling	-13569
▁Abhorred	-13570
▁Advantag	-13571
▁Allaying	-13572
▁Apparent	-13573
▁Approach	-13574
▁Attorney	-13575
▁Bonville	-13576
▁Bordeaux	-13577
▁Caucasus	-13578
▁Chaplain	-13579
▁Commands	-13580
▁Condemns	-13581
▁Confound	-13582
▁Construe	-13583
▁Coppersp	-13584
▁Countess	-13585
▁Counting	-13586
▁Courtney	-13587
▁Currents	-13588
▁Cushions	-13589
▁Daedalus	-13590
▁Defiance	-13591
▁Deformed	-13592
▁Desolate	-13593
▁Disclaim	-13594
▁Disorder	-13595
▁Dreaming	-13596
▁Dropping	-13597
▁Dunsmore	-13598
▁Enfranch	-13599
oze	-13600
awns	-13601
ggle	-13602
hize	-13603
oked	-13604
▁aye	-13605
▁emm	-13606
▁zen	-13607
arned	-13608
brook	-13609
cover	-13610
dames	-13611
nical	-13612
revol	-13613
thony	-13614
uburn	-13615
▁dogg	-13616
▁maze	-13617
▁ooze	-13618
castle	-13619
editer	-13620
framed	-13621
sworth	-13622
▁AEsop	-13623
▁Armed	-13624
▁Cover	-13625
▁Offer	-13626
▁Spraw	-13627
▁Stony	-13628
▁apost	-13629
▁argue	-13630
▁furze	-13631
▁gowns	-13632
▁lawns	-13633
▁reeds	-13634
▁shady	-13635
▁stepp	-13636
▁urine	-13637
▁yoked	-13638
learned	-13639
raining	-13640
▁Belman	-13641
▁Belong	-13642
▁Sprawl	-13643
▁Stifle	-13644
▁apople	-13645
▁auburn	-13646
▁clocks	-13647
▁credul	-13648
▁deluge	-13649
▁family	-13650
▁impawn	-13651
▁reared	-13652
▁termed	-13653
▁zenith	-13654
emperate	-13655
rannical	-13656
reaching	-13657
sitively	-13658
▁Anthony	-13659
▁Bastard	-13660
▁Corrupt	-13661
▁Dispute	-13662
▁Mediter	-13663
▁Staying	-13664
▁apostle	-13665
▁billows	-13666
▁catched	-13667
▁deniest	-13668
▁dungeon	-13669
▁easiest	-13670
▁emmence	-13671
▁reputed	-13672
▁shivers	-13673
forcement	-13674
revolving	-13675
▁Bastards	-13676
▁Bosworth	-13677
▁Flanders	-13678
▁Forewarn	-13679
▁Golgotha	-13680
▁Gracious	-13681
▁Humphrey	-13682
▁Infusing	-13683
▁Insolent	-13684
▁Instinct	-13685
▁Kindness	-13686
▁Manifest	-13687
▁Mariners	-13688
▁Measured	-13689
▁Menelaus	-13690
▁Mistrust	-13691
▁Nobleman	-13692
▁Offended	-13693
▁Penelope	-13694
▁Procures	-13695
▁Provokes	-13696
▁Purchase	-13697
▁Refusing	-13698
▁Repented	-13699
pac	-13700
They	-13701
acer	-13702
acod	-13703
arac	-13704
▁Sac	-13705
acled	-13706
acock	-13707
dying	-13708
eking	-13709
hibit	-13710
orals	-13711
rized	-13712
▁Adon	-13713
▁Adri	-13714
▁idea	-13715
acides	-13716
acodem	-13717
alsmen	-13718
angles	-13719
assals	-13720
bingly	-13721
biting	-13722
finger	-13723
pacing	-13724
prized	-13725
reaker	-13726
turned	-13727
umbers	-13728
veying	-13729
▁Amity	-13730
▁Conqu	-13731
▁Dared	-13732
▁Flint	-13733
▁Fully	-13734
▁Sarac	-13735
▁Sicil	-13736
▁Whipt	-13737
▁bared	-13738
▁bened	-13739
▁frets	-13740
▁hymns	-13741
▁idles	-13742
▁occas	-13743
▁surre	-13744
▁waxen	-13745
breaker	-13746
vassals	-13747
▁Adonis	-13748
▁Custom	-13749
▁Exempt	-13750
▁Sacred	-13751
▁format	-13752
▁poking	-13753
▁simile	-13754
▁spying	-13755
▁surges	-13756
▁unfirm	-13757
acodemon	-13758
jectural	-13759
▁Conform	-13760
▁Conquer	-13761
▁Mangles	-13762
▁Seduced	-13763
▁benched	-13764
▁choking	-13765
▁defacer	-13766
▁easeful	-13767
▁exhibit	-13768
▁gravest	-13769
▁guiding	-13770
▁meacock	-13771
▁nayward	-13772
▁painter	-13773
▁reeking	-13774
▁satiety	-13775
▁tearing	-13776
▁AEacides	-13777
▁Adjudged	-13778
▁Adriatic	-13779
▁Bohemian	-13780
▁Conceive	-13781
▁Forspent	-13782
▁Revenged	-13783
▁Riddling	-13784
▁Saracens	-13785
▁Scorning	-13786
▁Seducing	-13787
▁Sicilian	-13788
▁Soldiers	-13789
▁Somewhat	-13790
▁Tamworth	-13791
▁Tarquins	-13792
▁Teaching	-13793
▁Thorough	-13794
▁Tickling	-13795
▁Torments	-13796
▁Unwieldy	-13797
▁Vagabond	-13798
▁Valentin	-13799
URS	-13800
URSE	-13801
erkin	-13802
thick	-13803
▁Blow	-13804
▁caut	-13805
▁laug	-13806
▁owls	-13807
▁unwe	-13808
rights	-13809
robate	-13810
ursors	-13811
▁Blown	-13812
▁Error	-13813
▁Fresh	-13814
▁Known	-13815
▁Money	-13816
▁NURSE	-13817
▁Taken	-13818
▁inshe	-13819
▁label	-13820
▁lurch	-13821
▁oaken	-13822
▁rated	-13823
▁rigor	-13824
▁surge	-13825
istingu	-13826
▁Falcon	-13827
▁Fright	-13828
▁Impute	-13829
▁Romano	-13830
▁angled	-13831
▁aright	-13832
▁butler	-13833
▁cautel	-13834
▁cleare	-13835
▁clears	-13836
▁coffer	-13837
▁galley	-13838
▁gallim	-13839
▁jerkin	-13840
▁lacked	-13841
▁rebate	-13842
▁rheums	-13843
▁unpath	-13844
rightful	-13845
romotion	-13846
▁Freshly	-13847
▁Unheard	-13848
▁catches	-13849
▁clearer	-13850
▁crossly	-13851
▁galleys	-13852
▁inshell	-13853
▁laughed	-13854
▁pockets	-13855
▁quitted	-13856
▁suppler	-13857
▁Distingu	-13858
▁Valentio	-13859
▁Villains	-13860
▁Virgilia	-13861
▁Watching	-13862
▁Xanthipp	-13863
▁abhorred	-13864
▁abstains	-13865
▁abstract	-13866
▁accommod	-13867
▁accuseth	-13868
▁advantag	-13869
▁afflicts	-13870
▁alacrity	-13871
▁alderman	-13872
▁alehouse	-13873
▁allaying	-13874
▁altering	-13875
▁altitude	-13876
▁amazedly	-13877
▁ambuscad	-13878
▁ancestry	-13879
▁apparell	-13880
▁argosies	-13881
▁arriving	-13882
▁attempts	-13883
▁avoiding	-13884
▁avouches	-13885
▁baldpate	-13886
▁beadsmen	-13887
▁becomest	-13888
▁becoming	-13889
▁beguiles	-13890
▁betossed	-13891
▁blameful	-13892
▁blasting	-13893
▁blinding	-13894
▁boasting	-13895
▁bonfires	-13896
▁bonneted	-13897
▁bowsprit	-13898
▁brandish	-13899
HILI	-13900
cern	-13901
coun	-13902
kels	-13903
soci	-13904
▁dip	-13905
▁vip	-13906
HILIP	-13907
amemn	-13908
counc	-13909
ombed	-13910
pated	-13911
ripol	-13912
robed	-13913
tired	-13914
▁Deck	-13915
▁Obed	-13916
▁fram	-13917
ripoli	-13918
strate	-13919
▁Bourn	-13920
▁Kated	-13921
▁Keepd	-13922
▁Sends	-13923
▁blend	-13924
▁bowls	-13925
▁docks	-13926
▁fraud	-13927
▁hired	-13928
amemnon	-13929
ernible	-13930
sainted	-13931
▁Abated	-13932
▁Associ	-13933
▁Dreams	-13934
▁Grapes	-13935
▁PHILIP	-13936
▁combed	-13937
▁frames	-13938
▁guided	-13939
▁interm	-13940
▁plated	-13941
▁quired	-13942
▁valued	-13943
▁vipers	-13944
councils	-13945
▁Concern	-13946
▁Deceive	-13947
▁Tidings	-13948
▁Tripoli	-13949
▁blended	-13950
▁bowling	-13951
▁cheated	-13952
▁contemn	-13953
▁eyeless	-13954
▁jogging	-13955
▁offends	-13956
▁shekels	-13957
▁sleekly	-13958
▁slewest	-13959
▁soothed	-13960
▁untired	-13961
▁visited	-13962
attainted	-13963
▁Absolute	-13964
▁Deceived	-13965
▁Keepdown	-13966
▁breaches	-13967
▁bulwarks	-13968
▁butchery	-13969
▁buzzards	-13970
▁calmness	-13971
▁cardinal	-13972
▁carouses	-13973
▁celerity	-13974
▁chaplain	-13975
▁chastely	-13976
▁cheapest	-13977
▁cherubim	-13978
▁chestnut	-13979
▁chopping	-13980
▁clangour	-13981
▁cleansed	-13982
▁cleaving	-13983
▁colliers	-13984
▁coloured	-13985
▁condemns	-13986
▁conflict	-13987
▁confutes	-13988
▁conjures	-13989
▁construe	-13990
▁converse	-13991
▁conveyed	-13992
▁corrects	-13993
▁covenant	-13994
▁coverlet	-13995
▁coxcombs	-13996
▁craftily	-13997
▁creating	-13998
▁creditor	-13999
gawd	-14000
ipes	-14001
lots	-14002
nker	-14003
poor	-14004
aited	-14005
awdry	-14006
overn	-14007
pipes	-14008
point	-14009
rusts	-14010
▁Abel	-14011
▁Arms	-14012
▁Pots	-14013
▁Scri	-14014
▁barn	-14015
▁bots	-14016
▁opes	-14017
▁unde	-14018
arming	-14019
gaited	-14020
gawded	-14021
iglots	-14022
oubled	-14023
ptuous	-14024
throws	-14025
tricks	-14026
▁Heavy	-14027
▁Plots	-14028
▁Tempt	-14029
▁agued	-14030
▁chats	-14031
▁crust	-14032
▁expir	-14033
▁expul	-14034
▁fines	-14035
▁hotly	-14036
▁peach	-14037
▁spots	-14038
▁spurr	-14039
▁troub	-14040
argaret	-14041
ngovern	-14042
ortions	-14043
parable	-14044
▁Aiming	-14045
▁Ensues	-14046
▁Griefs	-14047
▁Swills	-14048
▁bathed	-14049
▁blacks	-14050
▁burned	-14051
▁cannon	-14052
▁cleans	-14053
▁encert	-14054
▁exempt	-14055
▁grapes	-14056
▁gripes	-14057
▁hotter	-14058
▁member	-14059
▁modern	-14060
▁softer	-14061
▁tavern	-14062
▁tawdry	-14063
▁undeck	-14064
Margaret	-14065
erthrows	-14066
▁Pattern	-14067
▁Thrusts	-14068
▁attires	-14069
▁badness	-14070
▁bookish	-14071
▁feasted	-14072
▁giglots	-14073
▁infused	-14074
▁inquiry	-14075
▁lustier	-14076
▁pretext	-14077
▁rooting	-14078
▁undress	-14079
▁younker	-14080
separable	-14081
▁Imprimis	-14082
▁Scoffing	-14083
▁Speakest	-14084
▁Swarming	-14085
▁Ungovern	-14086
▁crickets	-14087
▁crushing	-14088
▁dallying	-14089
▁darkened	-14090
▁defended	-14091
▁degraded	-14092
▁demanded	-14093
▁descends	-14094
▁desirers	-14095
▁desolate	-14096
▁diligent	-14097
▁disliken	-14098
▁dislikes	-14099
beck	-14100
bels	-14101
oofs	-14102
tels	-14103
▁Aub	-14104
▁Reg	-14105
▁dub	-14106
grace	-14107
mency	-14108
rakes	-14109
urses	-14110
▁Bids	-14111
▁Cats	-14112
▁Chor	-14113
▁duly	-14114
▁garb	-14115
▁skit	-14116
▁wisp	-14117
rusion	-14118
seemly	-14119
▁Asses	-14120
▁China	-14121
▁Dally	-14122
▁Feast	-14123
▁Judge	-14124
▁Lifts	-14125
▁Swing	-14126
▁acorn	-14127
▁boats	-14128
▁crone	-14129
▁fives	-14130
▁hoofs	-14131
▁navel	-14132
▁reels	-14133
suckers	-14134
▁Aubrey	-14135
▁Beside	-14136
▁Chorus	-14137
▁HERBER	-14138
▁Hourly	-14139
▁Rebeck	-14140
▁Regard	-14141
▁Supper	-14142
▁Swinge	-14143
▁equals	-14144
▁flocks	-14145
▁forbad	-14146
▁libels	-14147
▁nurses	-14148
▁palate	-14149
▁propag	-14150
▁pushes	-14151
▁sicker	-14152
▁signet	-14153
▁wallow	-14154
▁weakly	-14155
andrakes	-14156
pectives	-14157
▁Already	-14158
▁Curster	-14159
▁HERBERT	-14160
▁Produce	-14161
▁Yielded	-14162
▁accompt	-14163
▁beseems	-14164
▁castles	-14165
▁cheered	-14166
▁cradled	-14167
▁feature	-14168
▁forgets	-14169
▁marries	-14170
▁reclaim	-14171
▁thanksg	-14172
▁worries	-14173
oderately	-14174
▁Unseemly	-14175
▁breasted	-14176
▁chattels	-14177
▁cheering	-14178
▁displace	-14179
▁disprove	-14180
▁distaffs	-14181
▁divideth	-14182
▁domestic	-14183
▁eclipsed	-14184
▁effected	-14185
▁effusion	-14186
▁eighteen	-14187
▁eloquent	-14188
▁empoison	-14189
▁enclosed	-14190
▁entombed	-14191
▁extended	-14192
▁fatigate	-14193
▁feathers	-14194
▁fetlocks	-14195
▁fiercely	-14196
▁figuring	-14197
▁finished	-14198
▁firmness	-14199
oils	-14200
vils	-14201
Boils	-14202
almly	-14203
evils	-14204
noble	-14205
urped	-14206
words	-14207
▁Joan	-14208
▁burr	-14209
▁corp	-14210
▁minn	-14211
▁oils	-14212
atents	-14213
before	-14214
idents	-14215
quench	-14216
theads	-14217
usions	-14218
▁Assay	-14219
▁Caper	-14220
▁agent	-14221
▁agile	-14222
▁aglet	-14223
▁bents	-14224
▁bolts	-14225
▁bourn	-14226
▁dames	-14227
▁satin	-14228
▁sects	-14229
▁whips	-14230
altiers	-14231
cricket	-14232
icehood	-14233
omander	-14234
patents	-14235
pingham	-14236
thening	-14237
usurped	-14238
▁Antony	-14239
▁Calmly	-14240
▁Guilty	-14241
▁actors	-14242
▁affied	-14243
▁agents	-14244
▁batten	-14245
▁blazon	-14246
▁carnal	-14247
▁damage	-14248
▁dishcl	-14249
▁effuse	-14250
▁maketh	-14251
▁pentec	-14252
▁perils	-14253
▁picked	-14254
▁sowing	-14255
▁stares	-14256
oltheads	-14257
▁Dauphin	-14258
▁Partlet	-14259
▁attends	-14260
▁ennoble	-14261
▁fielded	-14262
▁guarded	-14263
▁minnows	-14264
▁plainer	-14265
▁saddest	-14266
▁sinners	-14267
▁tearful	-14268
▁workman	-14269
▁zealous	-14270
quenching	-14271
▁Angelica	-14272
▁Claribel	-14273
▁Landlord	-14274
▁Petition	-14275
▁Saltiers	-14276
▁boundeth	-14277
▁caroused	-14278
▁corporal	-14279
▁flatness	-14280
▁fleeting	-14281
▁flexible	-14282
▁forceful	-14283
▁forenoon	-14284
▁fornicat	-14285
▁forthcom	-14286
▁freckled	-14287
▁freelier	-14288
▁freezeth	-14289
▁gainsays	-14290
▁gallants	-14291
▁gallimau	-14292
▁gamesome	-14293
▁gamester	-14294
▁glanders	-14295
▁gnarling	-14296
▁grinning	-14297
▁guardant	-14298
▁guiltier	-14299
uae	-14300
eeps	-14301
jump	-14302
play	-14303
void	-14304
▁Cop	-14305
oping	-14306
pline	-14307
vaunt	-14308
▁Coin	-14309
▁Remn	-14310
▁bugs	-14311
▁bump	-14312
▁coop	-14313
▁gash	-14314
▁gogs	-14315
▁hogs	-14316
▁slop	-14317
▁sobs	-14318
▁tuae	-14319
enched	-14320
eyeing	-14321
ipline	-14322
isaged	-14323
otched	-14324
riched	-14325
▁Avoid	-14326
▁Cophe	-14327
▁Steep	-14328
▁Whoop	-14329
▁brags	-14330
▁cases	-14331
▁feder	-14332
▁sinks	-14333
▁tying	-14334
▁wages	-14335
married	-14336
redible	-14337
visaged	-14338
▁Always	-14339
▁Avaunt	-14340
▁Cophet	-14341
▁Hoping	-14342
▁Resume	-14343
▁avails	-14344
▁distin	-14345
▁excess	-14346
▁grimly	-14347
▁incess	-14348
▁infold	-14349
▁judges	-14350
▁mechan	-14351
▁overgo	-14352
▁parish	-14353
▁pushed	-14354
▁squash	-14355
▁sweeps	-14356
icipline	-14357
indstone	-14358
umbering	-14359
▁Kissing	-14360
▁concept	-14361
▁despise	-14362
▁distant	-14363
▁distill	-14364
▁divides	-14365
▁habited	-14366
▁hellish	-14367
▁mockers	-14368
▁notched	-14369
devouring	-14370
rindstone	-14371
▁Cophetua	-14372
▁Howlings	-14373
▁Masterly	-14374
▁Remnants	-14375
▁enriched	-14376
▁federary	-14377
▁foreward	-14378
▁hairless	-14379
▁happened	-14380
▁hatching	-14381
▁hawthorn	-14382
▁heaviest	-14383
▁heavings	-14384
▁heedless	-14385
▁heighten	-14386
▁herdsman	-14387
▁hildings	-14388
▁hitherto	-14389
▁hoarding	-14390
▁hogshead	-14391
▁holiness	-14392
▁hovering	-14393
▁hypocris	-14394
▁idleness	-14395
▁immodest	-14396
▁impotent	-14397
▁inaccess	-14398
▁informal	-14399
shru	-14400
soil	-14401
▁hug	-14402
Madam	-14403
audis	-14404
inaca	-14405
irges	-14406
jured	-14407
meats	-14408
rages	-14409
shout	-14410
ulner	-14411
▁Subs	-14412
▁cels	-14413
▁huge	-14414
▁murm	-14415
▁ordn	-14416
▁runa	-14417
erning	-14418
harges	-14419
itched	-14420
itured	-14421
shrunk	-14422
vulner	-14423
waking	-14424
▁Seely	-14425
▁South	-14426
▁celsa	-14427
▁colic	-14428
▁drabs	-14429
▁marsh	-14430
▁paste	-14431
▁salut	-14432
▁unwas	-14433
▁wooes	-14434
savoury	-14435
▁Aurora	-14436
▁Binaca	-14437
▁Crying	-14438
▁Likely	-14439
▁Rideth	-14440
▁Smalus	-14441
▁Softer	-14442
▁cherry	-14443
▁dirges	-14444
▁jested	-14445
▁laudis	-14446
▁murmur	-14447
▁pastry	-14448
▁sinner	-14449
▁spared	-14450
▁trusts	-14451
▁unsoil	-14452
▁vision	-14453
▁winner	-14454
enitured	-14455
matching	-14456
▁Charges	-14457
▁Subscri	-14458
▁Unshout	-14459
▁abjured	-14460
▁drawing	-14461
▁empties	-14462
▁glosses	-14463
▁hardest	-14464
▁invited	-14465
▁runaway	-14466
▁superst	-14467
▁usuries	-14468
▁usurped	-14469
▁visitor	-14470
▁Supplied	-14471
▁goodlier	-14472
▁grounded	-14473
▁hardness	-14474
▁iniquity	-14475
▁inspired	-14476
▁insuffic	-14477
▁interims	-14478
▁invested	-14479
▁invocate	-14480
▁jaunting	-14481
▁jouncing	-14482
▁journeys	-14483
▁joyfully	-14484
▁kitchens	-14485
▁kneeling	-14486
▁lendings	-14487
▁leopards	-14488
▁lukewarm	-14489
▁lyingest	-14490
▁marcheth	-14491
▁masquing	-14492
▁measures	-14493
▁meddling	-14494
▁meekness	-14495
▁messages	-14496
▁milkmaid	-14497
▁milliner	-14498
▁mingling	-14499
lift	-14500
umbl	-14501
azing	-14502
blade	-14503
erers	-14504
hours	-14505
merit	-14506
swift	-14507
venty	-14508
▁Chop	-14509
▁Hush	-14510
▁Rush	-14511
▁Said	-14512
▁cutt	-14513
▁dung	-14514
▁nets	-14515
▁tund	-14516
abours	-14517
branch	-14518
hanced	-14519
inkets	-14520
itcher	-14521
lifted	-14522
manner	-14523
merits	-14524
otcher	-14525
rossly	-14526
▁Ancus	-14527
▁Clean	-14528
▁Haled	-14529
▁Hours	-14530
▁dungy	-14531
▁files	-14532
▁joins	-14533
▁unbow	-14534
itchery	-14535
umblest	-14536
vention	-14537
▁Abides	-14538
▁Ignomy	-14539
▁asketh	-14540
▁dispar	-14541
▁guider	-14542
▁opprob	-14543
▁plenty	-14544
▁posted	-14545
▁tiptoe	-14546
▁vaunts	-14547
anderers	-14548
meriting	-14549
treading	-14550
▁Berwick	-14551
▁Commune	-14552
▁Despair	-14553
▁Grossly	-14554
▁Himself	-14555
▁Tabours	-14556
▁approof	-14557
▁armours	-14558
▁askance	-14559
▁behalfs	-14560
▁bestial	-14561
▁blazing	-14562
▁botcher	-14563
▁burgher	-14564
▁coldest	-14565
▁disport	-14566
▁healthy	-14567
▁newness	-14568
▁pitched	-14569
▁seventy	-14570
▁tundish	-14571
▁Baptists	-14572
▁Bequeath	-14573
▁Unmanner	-14574
▁Whenever	-14575
▁adultery	-14576
▁demerits	-14577
▁heirless	-14578
▁magician	-14579
▁misdeeds	-14580
▁mistaken	-14581
▁mitigate	-14582
▁morality	-14583
▁mourners	-14584
▁mumbling	-14585
▁mutiners	-14586
▁narrowly	-14587
▁necklace	-14588
▁neighing	-14589
▁numbness	-14590
▁nuptials	-14591
▁nutshell	-14592
▁observer	-14593
▁offering	-14594
▁official	-14595
▁opinions	-14596
▁opportun	-14597
▁ordained	-14598
▁ordnance	-14599
bby	-14600
tenu	-14601
upis	-14602
▁Cog	-14603
arrel	-14604
ashes	-14605
shown	-14606
upied	-14607
widow	-14608
▁Rhes	-14609
▁Spir	-14610
▁defl	-14611
▁sowl	-14612
▁urch	-14613
arters	-14614
likely	-14615
reters	-14616
ullaby	-14617
▁Admit	-14618
▁Alike	-14619
▁Julio	-14620
▁Spies	-14621
▁hobby	-14622
▁lames	-14623
▁lunes	-14624
▁metre	-14625
▁sithe	-14626
acentio	-14627
ccupied	-14628
forming	-14629
preters	-14630
tenuate	-14631
widowed	-14632
▁Dashes	-14633
▁Intend	-14634
▁Plough	-14635
▁Rhesus	-14636
▁Strong	-14637
▁Switch	-14638
▁alters	-14639
▁defied	-14640
▁greedy	-14641
▁marked	-14642
▁misuse	-14643
▁monach	-14644
▁rarely	-14645
▁reform	-14646
▁requis	-14647
▁sadder	-14648
▁spites	-14649
▁surest	-14650
▁values	-14651
occupied	-14652
quarters	-14653
▁Quarrel	-14654
▁Spirits	-14655
▁Tybalts	-14656
▁conform	-14657
▁emptier	-14658
▁flaying	-14659
▁hedgeho	-14660
▁lullaby	-14661
▁mislike	-14662
▁mutable	-14663
▁nations	-14664
▁resides	-14665
▁sharing	-14666
▁sighted	-14667
▁unbroke	-14668
▁urchins	-14669
▁wanders	-14670
▁whereby	-14671
ertaining	-14672
upiscible	-14673
▁Divinely	-14674
▁Measures	-14675
▁Unlikely	-14676
▁deflower	-14677
▁generous	-14678
▁hedgehog	-14679
▁heretics	-14680
▁monachum	-14681
▁outgrown	-14682
▁outright	-14683
▁outstrip	-14684
▁overfond	-14685
▁overmuch	-14686
▁palpable	-14687
▁particip	-14688
▁particul	-14689
▁passions	-14690
▁pathways	-14691
▁perilous	-14692
▁personal	-14693
▁perverse	-14694
▁picklock	-14695
▁planched	-14696
▁planteth	-14697
▁pleaders	-14698
▁pointing	-14699
eym	-14700
cham	-14701
neas	-14702
unto	-14703
▁Exp	-14704
etera	-14705
icery	-14706
lague	-14707
ppery	-14708
riars	-14709
vator	-14710
zards	-14711
▁Hunt	-14712
▁Says	-14713
▁Seym	-14714
▁Subt	-14715
▁Tues	-14716
▁awed	-14717
▁barm	-14718
▁carp	-14719
▁fann	-14720
▁fatt	-14721
▁pike	-14722
▁vers	-14723
Friars	-14724
Plague	-14725
atches	-14726
igator	-14727
illery	-14728
yonder	-14729
▁Stars	-14730
▁agate	-14731
▁asker	-14732
▁denun	-14733
▁glues	-14734
▁major	-14735
▁pranc	-14736
▁punto	-14737
▁unapt	-14738
▁vowel	-14739
▁wards	-14740
chamber	-14741
gations	-14742
icester	-14743
▁AEneas	-14744
▁Subtly	-14745
▁Wonder	-14746
▁carous	-14747
▁getter	-14748
▁majest	-14749
▁obeyed	-14750
▁orient	-14751
▁perdon	-14752
▁pester	-14753
▁sawest	-14754
▁suppos	-14755
▁tended	-14756
▁versal	-14757
▁Conceit	-14758
▁Hunting	-14759
▁Seymour	-14760
▁Sojourn	-14761
▁Tuesday	-14762
▁burying	-14763
▁caetera	-14764
▁carpets	-14765
▁denunci	-14766
▁fatting	-14767
▁foppery	-14768
▁foulest	-14769
▁latches	-14770
▁lizards	-14771
▁spicery	-14772
▁spleens	-14773
regations	-14774
▁Cicester	-14775
▁Petrucio	-14776
▁Servants	-14777
▁hungerly	-14778
▁outrages	-14779
▁poisoner	-14780
▁poniards	-14781
▁porridge	-14782
▁portance	-14783
▁portcull	-14784
▁prancing	-14785
▁precepts	-14786
▁presages	-14787
▁pressing	-14788
▁privileg	-14789
▁procures	-14790
▁projects	-14791
[...]
