{
  "<pad>": 0,
  "<unk>": 1,
  "<s>": 2,
  "</s>": 3,
  "[MASK]": 4,
  "▁t": 5,
  "he": 6,
  "▁a": 7,
  "in": 8,
  "▁the": 9,
  "er": 10,
  "on": 11,
  "▁,": 12,
  "re": 13,
  "▁s": 14,
  "ed": 15,
  "▁w": 16,
  "▁o": 17,
  "nd": 18,
  "▁.": 19,
  "at": 20,
  "or": 21,
  "en": 22,
  "it": 23,
  "▁c": 24,
  "▁f": 25,
  "is": 26,
  "es": 27,
  "ar": 28,
  "▁b": 29,
  "▁of": 30,
  "an": 31,
  "▁in": 32,
  "al": 33,
  "ing": 34,
  "▁p": 35,
  "as": 36,
  "▁and": 37,
  "▁to": 38,
  "ic": 39,
  "ro": 40,
  "▁m": 41,
  "▁d": 42,
  "▁h": 43,
  "ion": 44,
  "le": 45,
  "ou": 46,
  "▁T": 47,
  "▁'": 48,
  "▁re": 49,
  "▁S": 50,
  "il": 51,
  "▁A": 52,
  "ent": 53,
  "▁th": 54,
  "st": 55,
  "▁1": 56,
  "el": 57,
  "▁l": 58,
  "▁C": 59,
  "om": 60,
  "▁n": 61,
  "▁e": 62,
  "am": 63,
  "ad": 64,
  "▁was": 65,
  "ac": 66,
  "▁M": 67,
  "▁on": 68,
  "ec": 69,
  "▁The": 70,
  "▁B": 71,
  "ly": 72,
  "ur": 73,
  "et": 74,
  "id": 75,
  "ol": 76,
  "▁g": 77,
  "im": 78,
  "▁I": 79,
  "▁for": 80,
  "ir": 81,
  "ig": 82,
  "iv": 83,
  "ter": 84,
  "ot": 85,
  "ut": 86,
  "▁H": 87,
  "▁as": 88,
  "us": 89,
  "ow": 90,
  "ith": 91,
  "ay": 92,
  "▁st": 93,
  "▁he": 94,
  "ver": 95,
  "▁P": 96,
  "▁with": 97,
  "▁2": 98,
  "▁be": 99,
  "ation": 100,
  "▁that": 101,
  "▁`": 102,
  "▁``": 103,
  "▁''": 104,
  "▁R": 105,
  "ce": 106,
  "▁D": 107,
  "un": 108,
  "em": 109,
  "▁wh": 110,
  "ch": 111,
  "▁by": 112,
  "▁W": 113,
  "th": 114,
  "▁F": 115,
  "▁al": 116,
  "▁)": 117,
  "▁(": 118,
  "ul": 119,
  "▁is": 120,
  "▁con": 121,
  "▁at": 122,
  "▁G": 123,
  "▁L": 124,
  "ers": 125,
  "ct": 126,
  "▁N": 127,
  "and": 128,
  "ain": 129,
  "▁an": 130,
  "os": 131,
  "▁19": 132,
  "▁it": 133,
  "her": 134,
  "rom": 135,
  "av": 136,
  "ag": 137,
  "um": 138,
  "est": 139,
  "▁J": 140,
  "00": 141,
  "▁his": 142,
  "▁r": 143,
  "▁E": 144,
  "od": 145,
  "ri": 146,
  "▁from": 147,
  "▁O": 148,
  "ist": 149,
  "▁com": 150,
  "ap": 151,
  "▁v": 152,
  "op": 153,
  "▁pro": 154,
  "ill": 155,
  "ore": 156,
  "if": 157,
  "up": 158,
  "ere": 159,
  "ld": 160,
  "ew": 161,
  "res": 162,
  "igh": 163,
  "ies": 164,
  "▁In": 165,
  "ber": 166,
  "ard": 167,
  "ort": 168,
  "art": 169,
  "▁de": 170,
  "ich": 171,
  "▁were": 172,
  "ak": 173,
  "▁se": 174,
  "ate": 175,
  "all": 176,
  "ab": 177,
  "ant": 178,
  "oc": 179,
  "ud": 180,
  "ong": 181,
  "▁ex": 182,
  "qu": 183,
  "▁ch": 184,
  "gh": 185,
  "▁or": 186,
  "▁K": 187,
  "ear": 188,
  "ess": 189,
  "ated": 190,
  "ip": 191,
  "ity": 192,
  "▁pl": 193,
  "▁sh": 194,
  "ive": 195,
  "ame": 196,
  "▁U": 197,
  "▁had": 198,
  "ect": 199,
  "se": 200,
  "our": 201,
  "ack": 202,
  "▁su": 203,
  "red": 204,
  "▁which": 205,
  "ast": 206,
  "▁St": 207,
  "▁k": 208,
  "ge": 209,
  "▁are": 210,
  "ment": 211,
  "▁le": 212,
  "und": 213,
  "ov": 214,
  "▁not": 215,
  "ian": 216,
  "ial": 217,
  "ell": 218,
  "ost": 219,
  "ight": 220,
  "▁sp": 221,
  "ia": 222,
  "ord": 223,
  "ust": 224,
  "▁tr": 225,
  "ary": 226,
  "ther": 227,
  "ine": 228,
  "rit": 229,
  "oun": 230,
  "▁y": 231,
  "ave": 232,
  "pt": 233,
  "ical": 234,
  "pp": 235,
  "▁un": 236,
  "cl": 237,
  "▁Ch": 238,
  "▁but": 239,
  "ould": 240,
  "fter": 241,
  "irst": 242,
  "ff": 243,
  "ous": 244,
  "▁200": 245,
  "▁V": 246,
  "cc": 247,
  "ish": 248,
  "te": 249,
  "▁3": 250,
  "so": 251,
  "ions": 252,
  "▁comp": 253,
  "ra": 254,
  "▁whe": 255,
  "ide": 256,
  "ub": 257,
  "ure": 258,
  "▁20": 259,
  "▁ro": 260,
  "▁ar": 261,
  "▁cont": 262,
  "▁;": 263,
  "▁first": 264,
  "wo": 265,
  "ie": 266,
  "▁her": 267,
  "▁its": 268,
  "▁their": 269,
  "ign": 270,
  "ue": 271,
  "ass": 272,
  "ok": 273,
  "▁int": 274,
  "ork": 275,
  "out": 276,
  "og": 277,
  "▁He": 278,
  "▁also": 279,
  "▁res": 280,
  "orm": 281,
  "▁cl": 282,
  "ater": 283,
  "▁–": 284,
  "▁ab": 285,
  "▁:": 286,
  "▁ad": 287,
  "ome": 288,
  "ond": 289,
  "age": 290,
  "hed": 291,
  "ry": 292,
  "mer": 293,
  "ire": 294,
  "▁us": 295,
  "low": 296,
  "pl": 297,
  "ime": 298,
  "ans": 299,
  "per": 300,
  "ru": 301,
  "du": 302,
  "▁per": 303,
  "▁who": 304,
  "▁have": 305,
  "▁Th": 306,
  "own": 307,
  "ally": 308,
  "▁one": 309,
  "ted": 310,
  "ile": 311,
  "▁sc": 312,
  "ugh": 313,
  "▁two": 314,
  "ance": 315,
  "▁rec": 316,
  "uring": 317,
  "▁18": 318,
  "ition": 319,
  "ree": 320,
  "iz": 321,
  "ts": 322,
  "port": 323,
  "ence": 324,
  "▁has": 325,
  "▁been": 326,
  "▁bec": 327,
  "▁ag": 328,
  "ough": 329,
  "▁app": 330,
  "▁part": 331,
  "▁Al": 332,
  "ice": 333,
  "▁en": 334,
  "▁j": 335,
  "▁over": 336,
  "▁201": 337,
  "▁this": 338,
  "ely": 339,
  "▁dis": 340,
  "ke": 341,
  "▁ser": 342,
  "clud": 343,
  "ember": 344,
  "ren": 345,
  "ach": 346,
  "ound": 347,
  "▁after": 348,
  "▁4": 349,
  "▁It": 350,
  "ace": 351,
  "ark": 352,
  "land": 353,
  "ations": 354,
  "over": 355,
  "▁they": 356,
  "ric": 357,
  "▁off": 358,
  "ade": 359,
  "ib": 360,
  "▁des": 361,
  "▁play": 362,
  "ction": 363,
  "▁other": 364,
  "ory": 365,
  "▁te": 366,
  "act": 367,
  "▁out": 368,
  "▁man": 369,
  "ced": 370,
  "▁includ": 371,
  "▁im": 372,
  "ress": 373,
  "▁up": 374,
  "▁year": 375,
  "ult": 376,
  "urn": 377,
  "man": 378,
  "ens": 379,
  "▁Y": 380,
  "ail": 381,
  "▁would": 382,
  "one": 383,
  "ind": 384,
  "wn": 385,
  "we": 386,
  "▁pre": 387,
  "▁into": 388,
  "ang": 389,
  "▁Un": 390,
  "ep": 391,
  "ite": 392,
  "oin": 393,
  "▁On": 394,
  "ward": 395,
  "▁him": 396,
  "▁she": 397,
  "ates": 398,
  "▁we": 399,
  "▁5": 400,
  "able": 401,
  "ased": 402,
  "end": 403,
  "▁time": 404,
  "ited": 405,
  "▁ev": 406,
  "ied": 407,
  "▁att": 408,
  "ever": 409,
  "ilm": 410,
  "amp": 411,
  "old": 412,
  "rough": 413,
  "are": 414,
  "▁comm": 415,
  "ors": 416,
  "oy": 417,
  "ons": 418,
  "▁all": 419,
  "▁more": 420,
  "ount": 421,
  "les": 422,
  "ase": 423,
  "▁inter": 424,
  "ood": 425,
  "aw": 426,
  "▁work": 427,
  "ered": 428,
  "ces": 429,
  "form": 430,
  "ild": 431,
  "▁new": 432,
  "ings": 433,
  "▁bet": 434,
  "▁Ar": 435,
  "ick": 436,
  "▁An": 437,
  "ose": 438,
  "▁when": 439,
  "ve": 440,
  "vel": 441,
  "▁sec": 442,
  "vi": 443,
  "way": 444,
  "▁fe": 445,
  "▁film": 446,
  "ake": 447,
  "ents": 448,
  "inal": 449,
  "aus": 450,
  "fer": 451,
  "ft": 452,
  "iss": 453,
  "att": 454,
  "reat": 455,
  "▁Mar": 456,
  "ved": 457,
  "▁rem": 458,
  "gan": 459,
  "▁cons": 460,
  "rop": 461,
  "▁during": 462,
  "rib": 463,
  "▁und": 464,
  "orth": 465,
  "▁again": 466,
  "▁dec": 467,
  "ason": 468,
  "ubl": 469,
  "▁most": 470,
  "▁gro": 471,
  "hip": 472,
  "ween": 473,
  "ix": 474,
  "oth": 475,
  "▁than": 476,
  "▁As": 477,
  "ollow": 478,
  "▁pr": 479,
  "▁only": 480,
  "▁ear": 481,
  "ob": 482,
  "▁them": 483,
  "▁game": 484,
  "▁ne": 485,
  "▁6": 486,
  "ey": 487,
  "▁sup": 488,
  "fore": 489,
  "▁199": 490,
  "▁New": 491,
  "▁about": 492,
  "ug": 493,
  "ath": 494,
  "▁ret": 495,
  "▁char": 496,
  "▁between": 497,
  "tern": 498,
  "outh": 499,
  "ational": 500,
  "▁later": 501,
  "▁under": 502,
  "▁Se": 503,
  "▁song": 504,
  "▁kn": 505,
  "hn": 506,
  "▁produ": 507,
  "orn": 508,
  "ton": 509,
  "ict": 510,
  "▁three": 511,
  "▁can": 512,
  "▁rele": 513,
  "aid": 514,
  "ron": 515,
  "▁act": 516,
  "▁through": 517,
  "als": 518,
  "▁so": 519,
  "▁col": 520,
  "ook": 521,
  "▁num": 522,
  "ters": 523,
  "▁while": 524,
  "▁me": 525,
  "▁qu": 526,
  "▁En": 527,
  "orld": 528,
  "▁7": 529,
  "meric": 530,
  "lect": 531,
  "▁end": 532,
  "ank": 533,
  "ock": 534,
  "▁cent": 535,
  "▁pos": 536,
  "000": 537,
  "▁rel": 538,
  "▁where": 539,
  "ral": 540,
  "▁ver": 541,
  "▁fl": 542,
  "▁sub": 543,
  "ck": 544,
  "ating": 545,
  "ular": 546,
  "▁acc": 547,
  "▁ass": 548,
  "▁pe": 549,
  "ener": 550,
  "▁Le": 551,
  "▁form": 552,
  "son": 553,
  "ived": 554,
  "▁reg": 555,
  "ames": 556,
  "ision": 557,
  "▁Americ": 558,
  "▁second": 559,
  "▁made": 560,
  "▁follow": 561,
  "▁bu": 562,
  "▁inc": 563,
  "hes": 564,
  "bum": 565,
  ",000": 566,
  "▁such": 567,
  "▁ep": 568,
  "ished": 569,
  "▁record": 570,
  "▁some": 571,
  "ool": 572,
  "▁am": 573,
  "▁def": 574,
  "ph": 575,
  "ained": 576,
  "▁four": 577,
  "▁mov": 578,
  "▁before": 579,
  "▁Com": 580,
  "hen": 581,
  "▁there": 582,
  "round": 583,
  "▁mus": 584,
  "▁Sp": 585,
  "ike": 586,
  "▁8": 587,
  "▁do": 588,
  "▁Jo": 589,
  "io": 590,
  "iel": 591,
  "▁writ": 592,
  "▁spec": 593,
  "▁day": 594,
  "▁season": 595,
  "ode": 596,
  "ros": 597,
  "▁ac": 598,
  "▁This": 599,
  "ident": 600,
  "▁9": 601,
  "owever": 602,
  "▁lar": 603,
  "▁At": 604,
  "▁team": 605,
  "▁album": 606,
  "ning": 607,
  "▁sy": 608,
  "▁years": 609,
  "▁/": 610,
  "▁Re": 611,
  "ics": 612,
  "ual": 613,
  "ily": 614,
  "▁ind": 615,
  "▁Sh": 616,
  "▁used": 617,
  "▁ent": 618,
  "▁call": 619,
  "▁publ": 620,
  "ten": 621,
  "▁being": 622,
  "▁gr": 623,
  "▁epis": 624,
  "led": 625,
  "▁10": 626,
  "ury": 627,
  "▁sur": 628,
  "▁high": 629,
  "▁then": 630,
  "ific": 631,
  "▁against": 632,
  "aj": 633,
  "other": 634,
  "▁loc": 635,
  "▁exp": 636,
  "ris": 637,
  "air": 638,
  "▁inv": 639,
  "anc": 640,
  "ious": 641,
  "▁sever": 642,
  "▁show": 643,
  "▁charac": 644,
  "▁number": 645,
  "▁bl": 646,
  "ince": 647,
  "▁add": 648,
  "▁co": 649,
  "ek": 650,
  "ane": 651,
  "ather": 652,
  "▁pres": 653,
  "ars": 654,
  "▁Brit": 655,
  "▁sing": 656,
  "velop": 657,
  "▁—": 658,
  "▁set": 659,
  "ause": 660,
  "▁lead": 661,
  "▁including": 662,
  "▁became": 663,
  "▁br": 664,
  "ject": 665,
  "▁After": 666,
  "▁no": 667,
  "ale": 668,
  "▁17": 669,
  "▁United": 670,
  "▁rep": 671,
  "ines": 672,
  "▁well": 673,
  "▁perform": 674,
  "▁found": 675,
  "▁both": 676,
  "ier": 677,
  "▁series": 678,
  "ober": 679,
  "ired": 680,
  "▁mon": 681,
  "ower": 682,
  "▁rece": 683,
  "▁pol": 684,
  "▁ship": 685,
  "▁back": 686,
  "▁She": 687,
  "erm": 688,
  "▁cap": 689,
  "ley": 690,
  "ement": 691,
  "▁Sc": 692,
  "▁198": 693,
  "ik": 694,
  "ures": 695,
  "ife": 696,
  "ram": 697,
  "ivers": 698,
  "▁Wh": 699,
  "pen": 700,
  "▁main": 701,
  "▁did": 702,
  "its": 703,
  "elf": 704,
  "iet": 705,
  "ert": 706,
  "▁12": 707,
  "az": 708,
  "ann": 709,
  "any": 710,
  "overn": 711,
  "ised": 712,
  "▁go": 713,
  "der": 714,
  "▁194": 715,
  "▁15": 716,
  "ared": 717,
  "ful": 718,
  "uch": 719,
  "▁cre": 720,
  "▁imp": 721,
  "ll": 722,
  "ven": 723,
  "iver": 724,
  "ities": 725,
  "▁Eng": 726,
  "tend": 727,
  "ting": 728,
  "▁John": 729,
  "▁said": 730,
  "ird": 731,
  "▁develop": 732,
  "irect": 733,
  "▁episode": 734,
  "▁mat": 735,
  "▁long": 736,
  "ute": 737,
  "▁Con": 738,
  "▁many": 739,
  "▁em": 740,
  "▁mill": 741,
  "▁contin": 742,
  "▁min": 743,
  "▁could": 744,
  "▁several": 745,
  "▁stud": 746,
  "▁met": 747,
  "ative": 748,
  "▁orig": 749,
  "▁dep": 750,
  "though": 751,
  "▁dif": 752,
  "ty": 753,
  "▁car": 754,
  "ash": 755,
  "ins": 756,
  "▁inst": 757,
  "ield": 758,
  "ouse": 759,
  "ah": 760,
  "olog": 761,
  "▁air": 762,
  "ise": 763,
  "emb": 764,
  "▁Br": 765,
  "▁bro": 766,
  "▁Ind": 767,
  "iam": 768,
  "view": 769,
  "til": 770,
  "▁16": 771,
  "ross": 772,
  "▁began": 773,
  "▁pop": 774,
  "▁sm": 775,
  "▁return": 776,
  "ually": 777,
  "▁Cl": 778,
  "ople": 779,
  "ued": 780,
  "▁Aust": 781,
  "▁any": 782,
  "▁comple": 783,
  "▁197": 784,
  "▁ob": 785,
  "▁war": 786,
  "chool": 787,
  "my": 788,
  "▁196": 789,
  "aking": 790,
  "▁known": 791,
  "ern": 792,
  "▁sign": 793,
  "ccess": 794,
  "ange": 795,
  "▁feat": 796,
  "▁trans": 797,
  "▁early": 798,
  "▁prov": 799,
  "▁Z": 800,
  "▁design": 801,
  "▁11": 802,
  "▁American": 803,
  "▁Fr": 804,
  "▁released": 805,
  "▁est": 806,
  "ized": 807,
  "▁desc": 808,
  "▁music": 809,
  "▁War": 810,
  "▁until": 811,
  "ists": 812,
  "▁bel": 813,
  "▁own": 814,
  "▁art": 815,
  "▁US": 816,
  "ism": 817,
  "oot": 818,
  "ided": 819,
  "▁fin": 820,
  "▁near": 821,
  "une": 822,
  "imes": 823,
  "▁dist": 824,
  "hy": 825,
  "eb": 826,
  "▁Bl": 827,
  "enn": 828,
  "▁pass": 829,
  "ially": 830,
  "▁inf": 831,
  "ured": 832,
  "▁eff": 833,
  "▁called": 834,
  "erson": 835,
  "▁May": 836,
  "▁resp": 837,
  "▁run": 838,
  "stem": 839,
  "osed": 840,
  "▁along": 841,
  "▁Col": 842,
  "▁crit": 843,
  "erman": 844,
  "rap": 845,
  "▁million": 846,
  "ments": 847,
  "ull": 848,
  "ium": 849,
  "xt": 850,
  "▁direct": 851,
  "▁down": 852,
  "▁these": 853,
  "vent": 854,
  "▁may": 855,
  "▁fam": 856,
  "▁ins": 857,
  "▁gener": 858,
  "▁British": 859,
  "▁offic": 860,
  "▁disc": 861,
  "ution": 862,
  "▁group": 863,
  "▁$": 864,
  "▁mil": 865,
  "▁open": 866,
  "cept": 867,
  "▁sim": 868,
  "ax": 869,
  "ger": 870,
  "gest": 871,
  "▁Aug": 872,
  "▁mod": 873,
  "els": 874,
  "ajor": 875,
  "▁Be": 876,
  "ink": 877,
  "▁De": 878,
  "▁success": 879,
  "ains": 880,
  "▁people": 881,
  "ible": 882,
  "▁Sept": 883,
  "▁August": 884,
  "▁September": 885,
  "▁land": 886,
  "▁same": 887,
  "▁count": 888,
  "▁govern": 889,
  "▁States": 890,
  "amed": 891,
  "ets": 892,
  "▁Ap": 893,
  "▁describ": 894,
  "▁13": 895,
  "▁str": 896,
  "▁character": 897,
  "uc": 898,
  "▁gu": 899,
  "▁because": 900,
  "▁poin": 901,
  "aining": 902,
  "aced": 903,
  "▁attack": 904,
  "▁took": 905,
  "▁though": 906,
  "▁Ad": 907,
  "▁For": 908,
  "▁All": 909,
  "▁use": 910,
  "aving": 911,
  "▁0": 912,
  "erv": 913,
  "▁Is": 914,
  "▁oper": 915,
  "▁Ju": 916,
  "▁km": 917,
  "▁start": 918,
  "wards": 919,
  "▁ann": 920,
  "ped": 921,
  "ner": 922,
  "ues": 923,
  "▁World": 924,
  "▁Oct": 925,
  "▁German": 926,
  "ove": 927,
  "▁vi": 928,
  "▁around": 929,
  "▁batt": 930,
  "▁occ": 931,
  "▁However": 932,
  "▁support": 933,
  "▁following": 934,
  "▁serv": 935,
  "▁Austral": 936,
  "yp": 937,
  "▁appear": 938,
  "▁const": 939,
  "▁Nov": 940,
  "▁Q": 941,
  "ruct": 942,
  "▁14": 943,
  "ene": 944,
  "▁hist": 945,
  "ically": 946,
  "▁win": 947,
  "▁prom": 948,
  "▁193": 949,
  "uss": 950,
  "▁six": 951,
  "▁October": 952,
  "ives": 953,
  "▁ed": 954,
  "▁195": 955,
  "▁received": 956,
  "▁system": 957,
  "▁Car": 958,
  "▁dr": 959,
  "▁ele": 960,
  "ret": 961,
  "▁ever": 962,
  "▁191": 963,
  "ility": 964,
  "▁north": 965,
  "▁small": 966,
  "▁each": 967,
  "▁consid": 968,
  "▁ext": 969,
  "ants": 970,
  "rol": 971,
  "get": 972,
  "▁]": 973,
  "▁will": 974,
  "ored": 975,
  "▁build": 976,
  "gin": 977,
  "oss": 978,
  "▁[": 979,
  "ately": 980,
  "▁Dec": 981,
  "▁York": 982,
  "anu": 983,
  "med": 984,
  "▁head": 985,
  "▁state": 986,
  "▁area": 987,
  "iving": 988,
  "▁Tr": 989,
  "ling": 990,
  "▁They": 991,
  "▁var": 992,
  "ox": 993,
  "▁partic": 994,
  "▁aut": 995,
  "▁By": 996,
  "▁North": 997,
  "▁%": 998,
  "ril": 999,
  "▁report": 1000,
  "▁June": 1001,
  "▁Me": 1002,
  "tle": 1003,
  "▁public": 1004,
  "▁mar": 1005,
  "▁conc": 1006,
  "▁city": 1007,
  "▁five": 1008,
  "ina": 1009,
  "▁July": 1010,
  "ording": 1011,
  "▁final": 1012,
  "▁major": 1013,
  "▁King": 1014,
  "ians": 1015,
  "▁like": 1016,
  "▁band": 1017,
  "▁single": 1018,
  "▁conf": 1019,
  "▁Pl": 1020,
  "▁Will": 1021,
  "ission": 1022,
  "sh": 1023,
  "▁rest": 1024,
  "▁ref": 1025,
  "▁November": 1026,
  "▁since": 1027,
  "ection": 1028,
  "ient": 1029,
  "ried": 1030,
  "inc": 1031,
  "raft": 1032,
  "esp": 1033,
  "oard": 1034,
  "▁Har": 1035,
  "urch": 1036,
  "▁March": 1037,
  "▁April": 1038,
  "▁week": 1039,
  "▁Mc": 1040,
  "▁allow": 1041,
  "▁world": 1042,
  "omet": 1043,
  "▁just": 1044,
  "▁last": 1045,
  "ected": 1046,
  "▁det": 1047,
  "▁hel": 1048,
  "▁turn": 1049,
  "ively": 1050,
  "por": 1051,
  "ified": 1052,
  "▁Gr": 1053,
  "aim": 1054,
  "▁Ed": 1055,
  "lish": 1056,
  "hest": 1057,
  "..": 1058,
  "vious": 1059,
  "rote": 1060,
  "▁left": 1061,
  "▁differ": 1062,
  "▁large": 1063,
  "by": 1064,
  "▁Comm": 1065,
  "▁Pr": 1066,
  "ague": 1067,
  "▁po": 1068,
  "▁vers": 1069,
  "▁med": 1070,
  "▁arr": 1071,
  "ales": 1072,
  "ilt": 1073,
  "▁During": 1074,
  "ional": 1075,
  "▁what": 1076,
  "▁...": 1077,
  "idge": 1078,
  "ats": 1079,
  "▁much": 1080,
  "▁Ge": 1081,
  "ined": 1082,
  "ble": 1083,
  "eng": 1084,
  "▁South": 1085,
  "rist": 1086,
  "empt": 1087,
  "▁adv": 1088,
  "▁sl": 1089,
  "avy": 1090,
  "▁30": 1091,
  "▁appro": 1092,
  "row": 1093,
  "▁another": 1094,
  "▁school": 1095,
  "▁due": 1096,
  "▁if": 1097,
  "aged": 1098,
  "▁book": 1099,
  "ural": 1100,
  "▁line": 1101,
  "ne": 1102,
  "▁incre": 1103,
  "▁played": 1104,
  "▁included": 1105,
  "▁December": 1106,
  "▁event": 1107,
  "▁south": 1108,
  "▁wrote": 1109,
  "▁When": 1110,
  "▁Can": 1111,
  "▁Ph": 1112,
  "ages": 1113,
  "▁Pro": 1114,
  "▁expl": 1115,
  "apan": 1116,
  "anuary": 1117,
  "ently": 1118,
  "ont": 1119,
  "▁January": 1120,
  "ball": 1121,
  "▁short": 1122,
  "▁Or": 1123,
  "▁century": 1124,
  "ony": 1125,
  "ple": 1126,
  "▁place": 1127,
  "▁child": 1128,
  "▁vis": 1129,
  "▁ph": 1130,
  "▁third": 1131,
  "▁month": 1132,
  "▁government": 1133,
  "rent": 1134,
  "▁class": 1135,
  "alf": 1136,
  "▁port": 1137,
  "▁II": 1138,
  "▁Eu": 1139,
  "oad": 1140,
  "▁Japan": 1141,
  "▁192": 1142,
  "▁death": 1143,
  "▁name": 1144,
  "▁tit": 1145,
  "▁eng": 1146,
  "▁prog": 1147,
  "▁camp": 1148,
  "▁prot": 1149,
  "▁power": 1150,
  "▁kill": 1151,
  "▁won": 1152,
  "ody": 1153,
  "ience": 1154,
  "ital": 1155,
  "▁previous": 1156,
  "▁elect": 1157,
  "▁review": 1158,
  "▁described": 1159,
  "▁lit": 1160,
  "▁requ": 1161,
  "oman": 1162,
  "▁track": 1163,
  "▁family": 1164,
  "▁bre": 1165,
  "▁opp": 1166,
  "▁home": 1167,
  "ott": 1168,
  "▁named": 1169,
  "ideo": 1170,
  "iven": 1171,
  "▁make": 1172,
  "▁led": 1173,
  "iversity": 1174,
  "▁even": 1175,
  "▁Te": 1176,
  "▁cour": 1177,
  "▁story": 1178,
  "▁right": 1179,
  "iod": 1180,
  "▁dem": 1181,
  "aff": 1182,
  "urther": 1183,
  "▁life": 1184,
  "▁men": 1185,
  "ister": 1186,
  "ached": 1187,
  "reen": 1188,
  "▁now": 1189,
  "ilar": 1190,
  "cy": 1191,
  "▁attempt": 1192,
  "▁games": 1193,
  "ged": 1194,
  "▁Bro": 1195,
  "ivision": 1196,
  "▁repl": 1197,
  "▁belie": 1198,
  "▁very": 1199,
  "ograp": 1200,
  "ays": 1201,
  "▁person": 1202,
  "embers": 1203,
  "omin": 1204,
  "▁Gu": 1205,
  "▁dam": 1206,
  "▁command": 1207,
  "ior": 1208,
  "▁top": 1209,
  "itions": 1210,
  "▁those": 1211,
  "▁poss": 1212,
  "rench": 1213,
  "ival": 1214,
  "▁His": 1215,
  "ebru": 1216,
  "▁And": 1217,
  "eter": 1218,
  "▁25": 1219,
  "▁There": 1220,
  "ebruary": 1221,
  "▁February": 1222,
  "▁next": 1223,
  "▁gun": 1224,
  "ched": 1225,
  "▁care": 1226,
  "riend": 1227,
  "▁still": 1228,
  "oci": 1229,
  "self": 1230,
  "▁best": 1231,
  "lu": 1232,
  "▁Europ": 1233,
  "line": 1234,
  "▁par": 1235,
  "aken": 1236,
  "ring": 1237,
  "ness": 1238,
  "▁join": 1239,
  "▁leg": 1240,
  "▁addition": 1241,
  "mp": 1242,
  "▁species": 1243,
  "▁organ": 1244,
  "▁National": 1245,
  "tended": 1246,
  "▁original": 1247,
  "ps": 1248,
  "▁capt": 1249,
  "hor": 1250,
  "▁deb": 1251,
  "▁iss": 1252,
  "alk": 1253,
  "▁Christ": 1254,
  "▁Bar": 1255,
  "au": 1256,
  "▁mark": 1257,
  "ature": 1258,
  "rew": 1259,
  "▁Fl": 1260,
  "▁period": 1261,
  "▁within": 1262,
  "▁effect": 1263,
  "▁former": 1264,
  "af": 1265,
  "▁sold": 1266,
  "▁although": 1267,
  "hel": 1268,
  "▁exper": 1269,
  "▁water": 1270,
  "▁view": 1271,
  "▁We": 1272,
  "▁Mus": 1273,
  "augh": 1274,
  "▁result": 1275,
  "uted": 1276,
  "▁init": 1277,
  "▁match": 1278,
  "▁Par": 1279,
  "ney": 1280,
  "▁Europe": 1281,
  "▁caus": 1282,
  "rodu": 1283,
  "ences": 1284,
  "▁late": 1285,
  "▁cur": 1286,
  "▁great": 1287,
  "▁dest": 1288,
  "▁members": 1289,
  "▁French": 1290,
  "ides": 1291,
  "▁2010": 1292,
  "ances": 1293,
  "isted": 1294,
  "▁William": 1295,
  "▁Am": 1296,
  "▁term": 1297,
  "▁role": 1298,
  "▁storm": 1299,
  "sp": 1300,
  "▁held": 1301,
  "ech": 1302,
  "yl": 1303,
  "▁came": 1304,
  "aster": 1305,
  "▁tri": 1306,
  "▁cr": 1307,
  "▁hand": 1308,
  "oon": 1309,
  "lev": 1310,
  "▁however": 1311,
  "▁mid": 1312,
  "▁built": 1313,
  "side": 1314,
  "▁real": 1315,
  "▁Geor": 1316,
  "▁days": 1317,
  "▁cover": 1318,
  "▁spe": 1319,
  "▁West": 1320,
  "ulation": 1321,
  "na": 1322,
  "▁polit": 1323,
  "▁my": 1324,
  "▁video": 1325,
  "▁estab": 1326,
  "let": 1327,
  "▁often": 1328,
  "omb": 1329,
  "▁you": 1330,
  "▁continued": 1331,
  "▁prop": 1332,
  "▁release": 1333,
  "▁Min": 1334,
  "▁old": 1335,
  "▁X": 1336,
  "itary": 1337,
  "▁local": 1338,
  "ham": 1339,
  "▁among": 1340,
  "ead": 1341,
  "▁wind": 1342,
  "br": 1343,
  "ropical": 1344,
  "▁town": 1345,
  "atic": 1346,
  "▁few": 1347,
  "▁present": 1348,
  "▁2009": 1349,
  "elt": 1350,
  "ense": 1351,
  "▁tw": 1352,
  "▁similar": 1353,
  "ract": 1354,
  "▁based": 1355,
  "akes": 1356,
  "▁stand": 1357,
  "read": 1358,
  "gy": 1359,
  "▁sk": 1360,
  "▁2008": 1361,
  "▁av": 1362,
  "▁2011": 1363,
  "▁post": 1364,
  "▁claim": 1365,
  "app": 1366,
  "▁Mich": 1367,
  "min": 1368,
  "cent": 1369,
  "▁21": 1370,
  "▁Her": 1371,
  "▁different": 1372,
  "▁&": 1373,
  "ator": 1374,
  "▁Dav": 1375,
  "ese": 1376,
  "▁control": 1377,
  "uck": 1378,
  "arm": 1379,
  "ops": 1380,
  "▁sug": 1381,
  "▁England": 1382,
  "tal": 1383,
  "▁beh": 1384,
  "▁No": 1385,
  "ung": 1386,
  "▁fre": 1387,
  ".5": 1388,
  "▁Air": 1389,
  "reet": 1390,
  "▁sent": 1391,
  "▁further": 1392,
  "ards": 1393,
  "-1": 1394,
  "omen": 1395,
  "▁way": 1396,
  "estern": 1397,
  "▁without": 1398,
  "▁100": 1399,
  "ves": 1400,
  "▁take": 1401,
  "ler": 1402,
  "me": 1403,
  "urs": 1404,
  "▁equ": 1405,
  "▁every": 1406,
  "▁El": 1407,
  "▁hum": 1408,
  "▁One": 1409,
  "ampions": 1410,
  "▁side": 1411,
  "ots": 1412,
  "▁moved": 1413,
  "par": 1414,
  "▁del": 1415,
  "▁City": 1416,
  "▁having": 1417,
  "▁considered": 1418,
  "▁version": 1419,
  "ering": 1420,
  "▁2007": 1421,
  "▁Although": 1422,
  "▁position": 1423,
  "▁ant": 1424,
  "▁24": 1425,
  "▁appe": 1426,
  "ruction": 1427,
  "roy": 1428,
  "▁Park": 1429,
  "ery": 1430,
  "▁road": 1431,
  "▁Cent": 1432,
  "ford": 1433,
  "▁English": 1434,
  "▁become": 1435,
  "ize": 1436,
  "▁mag": 1437,
  "gr": 1438,
  "▁Char": 1439,
  "▁cor": 1440,
  "atter": 1441,
  "▁Man": 1442,
  "▁plan": 1443,
  "▁Co": 1444,
  "ices": 1445,
  "▁el": 1446,
  "▁2012": 1447,
  "ront": 1448,
  "▁typ": 1449,
  "ches": 1450,
  "▁Ang": 1451,
  "resent": 1452,
  "▁announ": 1453,
  "▁invol": 1454,
  "▁suggest": 1455,
  "▁Count": 1456,
  "ai": 1457,
  "▁190": 1458,
  "▁fore": 1459,
  "▁club": 1460,
  "ones": 1461,
  "aul": 1462,
  "▁arm": 1463,
  "▁player": 1464,
  "▁house": 1465,
  "▁cast": 1466,
  "ald": 1467,
  "utes": 1468,
  "▁River": 1469,
  "craft": 1470,
  "con": 1471,
  "▁22": 1472,
  "to": 1473,
  "▁sound": 1474,
  "▁bas": 1475,
  "▁influ": 1476,
  "▁With": 1477,
  "sequ": 1478,
  "▁strong": 1479,
  "ape": 1480,
  "ondon": 1481,
  "▁Acc": 1482,
  "▁import": 1483,
  "▁production": 1484,
  "▁commun": 1485,
  "▁University": 1486,
  "▁half": 1487,
  "esc": 1488,
  "▁less": 1489,
  "▁given": 1490,
  "▁defe": 1491,
  "▁law": 1492,
  "iety": 1493,
  "vers": 1494,
  "ille": 1495,
  "▁written": 1496,
  "▁London": 1497,
  "rest": 1498,
  "anted": 1499,
  "▁gave": 1500,
  "▁company": 1501,
  "▁east": 1502,
  "ae": 1503,
  "▁trad": 1504,
  "▁pat": 1505,
  "▁While": 1506,
  "que": 1507,
  "aying": 1508,
  "yle": 1509,
  "▁tro": 1510,
  "▁rad": 1511,
  "ript": 1512,
  "▁total": 1513,
  "day": 1514,
  "▁vict": 1515,
  "▁never": 1516,
  "ef": 1517,
  "▁returned": 1518,
  "▁ke": 1519,
  "▁low": 1520,
  "▁comb": 1521,
  "iment": 1522,
  "ention": 1523,
  "▁west": 1524,
  "▁Canad": 1525,
  "ology": 1526,
  "▁order": 1527,
  "ailed": 1528,
  "▁Cal": 1529,
  "▁aff": 1530,
  "ying": 1531,
  "▁fact": 1532,
  "ories": 1533,
  "cess": 1534,
  "▁soc": 1535,
  "▁refer": 1536,
  "▁good": 1537,
  "▁chang": 1538,
  "▁went": 1539,
  "▁hig": 1540,
  "sc": 1541,
  "▁find": 1542,
  "ges": 1543,
  "▁tem": 1544,
  "▁program": 1545,
  "ably": 1546,
  "aly": 1547,
  "▁origin": 1548,
  "▁country": 1549,
  "▁published": 1550,
  "aun": 1551,
  "▁lost": 1552,
  "▁common": 1553,
  "▁stat": 1554,
  "oll": 1555,
  "ison": 1556,
  "▁fire": 1557,
  "▁Batt": 1558,
  "▁particular": 1559,
  "▁include": 1560,
  "▁stated": 1561,
  "▁High": 1562,
  "▁ships": 1563,
  "levision": 1564,
  "used": 1565,
  "atch": 1566,
  "▁23": 1567,
  "com": 1568,
  "▁youn": 1569,
  "ploy": 1570,
  "▁prof": 1571,
  "▁reported": 1572,
  "▁point": 1573,
  "▁friend": 1574,
  "echn": 1575,
  "▁level": 1576,
  "▁forces": 1577,
  "▁produced": 1578,
  "hing": 1579,
  "▁2006": 1580,
  "▁Sm": 1581,
  "off": 1582,
  "ours": 1583,
  "ington": 1584,
  "▁compet": 1585,
  "ument": 1586,
  "isc": 1587,
  "raw": 1588,
  "▁light": 1589,
  "▁using": 1590,
  "err": 1591,
  "ief": 1592,
  "▁project": 1593,
  "▁building": 1594,
  "aign": 1595,
  "▁Ab": 1596,
  "▁need": 1597,
  "irc": 1598,
  "▁According": 1599,
  "▁Sw": 1600,
  "ned": 1601,
  "▁recorded": 1602,
  "▁father": 1603,
  "▁should": 1604,
  "▁popular": 1605,
  "▁nort": 1606,
  "▁interest": 1607,
  "▁ord": 1608,
  "▁These": 1609,
  "osp": 1610,
  "▁press": 1611,
  "▁bus": 1612,
  "▁ide": 1613,
  "tain": 1614,
  "▁military": 1615,
  "▁fr": 1616,
  "▁ten": 1617,
  "iness": 1618,
  "▁times": 1619,
  "▁himself": 1620,
  "▁somet": 1621,
  "oyal": 1622,
  "▁lim": 1623,
  "▁battle": 1624,
  "ither": 1625,
  "▁author": 1626,
  "▁fun": 1627,
  "▁destroy": 1628,
  "yn": 1629,
  "urric": 1630,
  "outher": 1631,
  "ords": 1632,
  "▁Ne": 1633,
  "▁Australia": 1634,
  "▁Ass": 1635,
  "▁sit": 1636,
  "ampionship": 1637,
  "itive": 1638,
  "▁songs": 1639,
  "mit": 1640,
  "▁Gener": 1641,
  "▁critic": 1642,
  "▁Jack": 1643,
  "▁remained": 1644,
  "▁eight": 1645,
  "alth": 1646,
  "ensive": 1647,
  "▁months": 1648,
  "ks": 1649,
  "▁history": 1650,
  "▁sw": 1651,
  "▁career": 1652,
  "▁making": 1653,
  "▁Af": 1654,
  "eder": 1655,
  "▁anim": 1656,
  "work": 1657,
  "▁State": 1658,
  "outhern": 1659,
  "▁how": 1660,
  "▁service": 1661,
  "▁sol": 1662,
  "▁2013": 1663,
  "lear": 1664,
  "▁Ex": 1665,
  "ries": 1666,
  "ases": 1667,
  "cer": 1668,
  "▁Ear": 1669,
  "▁Pol": 1670,
  "▁ft": 1671,
  "▁read": 1672,
  "▁represent": 1673,
  "▁cross": 1674,
  "▁gl": 1675,
  "▁children": 1676,
  "▁performance": 1677,
  "astern": 1678,
  "▁ground": 1679,
  "▁development": 1680,
  "▁get": 1681,
  "quad": 1682,
  "▁Army": 1683,
  "▁died": 1684,
  "▁189": 1685,
  "▁gen": 1686,
  "ream": 1687,
  "▁characters": 1688,
  "▁James": 1689,
  "most": 1690,
  "▁Sec": 1691,
  "▁suff": 1692,
  "▁ste": 1693,
  "▁foot": 1694,
  "▁title": 1695,
  "▁27": 1696,
  "dom": 1697,
  "▁Dr": 1698,
  "▁chart": 1699,
  "eth": 1700,
  "▁national": 1701,
  "ael": 1702,
  "▁introdu": 1703,
  "▁pra": 1704,
  "▁reached": 1705,
  "▁Pres": 1706,
  "▁Sy": 1707,
  "▁across": 1708,
  "lands": 1709,
  "hern": 1710,
  "aur": 1711,
  "rick": 1712,
  "▁League": 1713,
  "fic": 1714,
  "▁Cor": 1715,
  "ublic": 1716,
  "▁tour": 1717,
  "▁developed": 1718,
  "▁announced": 1719,
  "▁50": 1720,
  "▁sum": 1721,
  "▁campaign": 1722,
  "▁28": 1723,
  "bs": 1724,
  "▁signific": 1725,
  "▁felt": 1726,
  "▁aircraft": 1727,
  "▁red": 1728,
  "▁away": 1729,
  "▁histor": 1730,
  "▁areas": 1731,
  "▁son": 1732,
  "▁relations": 1733,
  "ration": 1734,
  "▁force": 1735,
  "▁26": 1736,
  "ency": 1737,
  "▁noted": 1738,
  "▁Division": 1739,
  "▁promot": 1740,
  "▁’": 1741,
  "alt": 1742,
  "reg": 1743,
  "ressed": 1744,
  "▁Rec": 1745,
  "ression": 1746,
  "▁fav": 1747,
  "▁America": 1748,
  "▁Gl": 1749,
  "▁followed": 1750,
  "▁colle": 1751,
  "▁intern": 1752,
  "▁County": 1753,
  "▁successful": 1754,
  "▁Road": 1755,
  "urricane": 1756,
  "▁performed": 1757,
  "▁official": 1758,
  "▁George": 1759,
  "ole": 1760,
  "▁field": 1761,
  "field": 1762,
  "▁television": 1763,
  "▁40": 1764,
  "imately": 1765,
  "▁created": 1766,
  "▁Sup": 1767,
  "▁Ste": 1768,
  "▁seen": 1769,
  "ope": 1770,
  "▁fac": 1771,
  "▁begin": 1772,
  "ising": 1773,
  "▁coun": 1774,
  "ality": 1775,
  "▁full": 1776,
  "▁fle": 1777,
  "▁cond": 1778,
  "▁served": 1779,
  "lin": 1780,
  "▁night": 1781,
  "▁political": 1782,
  "play": 1783,
  "iber": 1784,
  "▁put": 1785,
  "▁Mad": 1786,
  "▁prim": 1787,
  "▁Japanese": 1788,
  "hem": 1789,
  "▁2005": 1790,
  "elling": 1791,
  "duct": 1792,
  "▁Rep": 1793,
  "▁conv": 1794,
  "▁val": 1795,
  "▁To": 1796,
  "▁star": 1797,
  "▁Mon": 1798,
  "abor": 1799,
  "iting": 1800,
  "lished": 1801,
  "▁General": 1802,
  "▁Comp": 1803,
  "▁East": 1804,
  "▁Rober": 1805,
  "▁Sim": 1806,
  "▁Russ": 1807,
  "▁help": 1808,
  "▁various": 1809,
  "▁too": 1810,
  "▁earl": 1811,
  "▁players": 1812,
  "▁rev": 1813,
  "▁list": 1814,
  "▁Street": 1815,
  "▁2014": 1816,
  "▁aud": 1817,
  "▁bo": 1818,
  "▁becom": 1819,
  "▁rock": 1820,
  "ana": 1821,
  "▁non": 1822,
  "▁aver": 1823,
  "ization": 1824,
  "▁trav": 1825,
  "▁station": 1826,
  "cast": 1827,
  "▁bar": 1828,
  "▁throughout": 1829,
  "▁let": 1830,
  "idence": 1831,
  "▁div": 1832,
  "▁Hen": 1833,
  "rict": 1834,
  "▁killed": 1835,
  "▁process": 1836,
  "▁see": 1837,
  "▁agre": 1838,
  "ecut": 1839,
  "▁thought": 1840,
  "of": 1841,
  "▁fem": 1842,
  "head": 1843,
  "ways": 1844,
  "▁able": 1845,
  "▁meet": 1846,
  "▁does": 1847,
  "▁tropical": 1848,
  "▁vol": 1849,
  "▁wid": 1850,
  "▁significant": 1851,
  "▁David": 1852,
  "ett": 1853,
  "▁Bill": 1854,
  "▁cop": 1855,
  "▁taken": 1856,
  "▁black": 1857,
  "▁discover": 1858,
  "▁entire": 1859,
  "▁miles": 1860,
  "▁special": 1861,
  "▁Phil": 1862,
  "▁look": 1863,
  "▁ident": 1864,
  "▁test": 1865,
  "▁techn": 1866,
  ".2": 1867,
  "▁Reg": 1868,
  "▁little": 1869,
  "umb": 1870,
  "ask": 1871,
  "▁cost": 1872,
  "olution": 1873,
  "aval": 1874,
  "▁fight": 1875,
  "▁cy": 1876,
  "▁appeared": 1877,
  "oice": 1878,
  "▁route": 1879,
  "▁Ser": 1880,
  "▁Rich": 1881,
  "urg": 1882,
  "irl": 1883,
  "▁award": 1884,
  "▁age": 1885,
  "epend": 1886,
  "▁coast": 1887,
  "enced": 1888,
  "ray": 1889,
  "▁mm": 1890,
  "▁Thom": 1891,
  "ought": 1892,
  "urb": 1893,
  "▁1,": 1894,
  "▁obs": 1895,
  "less": 1896,
  "ertain": 1897,
  "lected": 1898,
  "aves": 1899,
  "ster": 1900,
  "▁Mor": 1901,
  "▁established": 1902,
  "▁Sch": 1903,
  "ination": 1904,
  "▁coll": 1905,
  "▁front": 1906,
  "▁!": 1907,
  "acy": 1908,
  "▁points": 1909,
  "ius": 1910,
  "▁struct": 1911,
  "▁features": 1912,
  "▁rank": 1913,
  "▁caused": 1914,
  "cil": 1915,
  "▁You": 1916,
  "▁broad": 1917,
  "odes": 1918,
  "▁impro": 1919,
  "▁seven": 1920,
  "▁decl": 1921,
  "▁important": 1922,
  "gether": 1923,
  "▁together": 1924,
  "▁Australian": 1925,
  "▁Part": 1926,
  "uk": 1927,
  "iec": 1928,
  "blem": 1929,
  "▁body": 1930,
  "iers": 1931,
  "▁writing": 1932,
  "▁Act": 1933,
  "▁Afric": 1934,
  "▁general": 1935,
  "idd": 1936,
  "▁once": 1937,
  "▁started": 1938,
  "▁women": 1939,
  "▁member": 1940,
  "ample": 1941,
  "igned": 1942,
  "▁cult": 1943,
  "emy": 1944,
  "board": 1945,
  "▁esc": 1946,
  "▁decided": 1947,
  "here": 1948,
  "▁pain": 1949,
  "▁activ": 1950,
  "▁feet": 1951,
  "ators": 1952,
  "▁enc": 1953,
  "reek": 1954,
  "▁Per": 1955,
  "▁Qu": 1956,
  "▁hit": 1957,
  "▁saw": 1958,
  "▁arg": 1959,
  "▁completed": 1960,
  "▁mix": 1961,
  "▁grow": 1962,
  "▁Pe": 1963,
  "▁hold": 1964,
  "▁Royal": 1965,
  "▁eventually": 1966,
  "▁Em": 1967,
  "▁conn": 1968,
  "▁My": 1969,
  "rought": 1970,
  "iron": 1971,
  "itar": 1972,
  "▁stri": 1973,
  "▁instead": 1974,
  "▁arch": 1975,
  "ivil": 1976,
  "men": 1977,
  "aces": 1978,
  "▁ball": 1979,
  "hys": 1980,
  "ogn": 1981,
  "oney": 1982,
  "ush": 1983,
  "rison": 1984,
  "cing": 1985,
  "▁added": 1986,
  "▁pri": 1987,
  "▁redu": 1988,
  "▁188": 1989,
  "ects": 1990,
  "hic": 1991,
  "▁29": 1992,
  "▁er": 1993,
  "▁formed": 1994,
  "▁Port": 1995,
  "▁nov": 1996,
  "▁Black": 1997,
  "ivid": 1998,
  "▁tre": 1999,
  "▁cut": 2000,
  "conom": 2001,
  "▁House": 2002,
  "▁ask": 2003,
  "ells": 2004,
  ".1": 2005,
  "▁race": 2006,
  "▁opened": 2007,
  "▁manag": 2008,
  "▁modern": 2009,
  "▁rather": 2010,
  "▁others": 2011,
  "ara": 2012,
  "ament": 2013,
  "50": 2014,
  "ceed": 2015,
  "be": 2016,
  "▁crew": 2017,
  "▁population": 2018,
  "▁range": 2019,
  "int": 2020,
  "ata": 2021,
  "▁occur": 2022,
  "wood": 2023,
  "▁mot": 2024,
  "▁circ": 2025,
  "▁voc": 2026,
  "asing": 2027,
  "▁behind": 2028,
  "▁ren": 2029,
  "▁comment": 2030,
  "▁Michael": 2031,
  "▁mater": 2032,
  "▁located": 2033,
  "▁lik": 2034,
  "▁Med": 2035,
  "▁lack": 2036,
  "ades": 2037,
  "▁Indian": 2038,
  "▁subsequ": 2039,
  "▁fall": 2040,
  "aps": 2041,
  "gg": 2042,
  "▁2004": 2043,
  "arch": 2044,
  "▁186": 2045,
  "▁worked": 2046,
  "▁live": 2047,
  "▁loss": 2048,
  "▁School": 2049,
  "stit": 2050,
  "▁invest": 2051,
  "▁Intern": 2052,
  "▁site": 2053,
  "medi": 2054,
  "nder": 2055,
  "▁miss": 2056,
  "▁Nor": 2057,
  "unk": 2058,
  "▁action": 2059,
  "▁white": 2060,
  "▁problem": 2061,
  "▁2015": 2062,
  "▁France": 2063,
  "▁works": 2064,
  "▁originally": 2065,
  "▁reve": 2066,
  "▁guns": 2067,
  "▁insp": 2068,
  "▁surv": 2069,
  "▁heavy": 2070,
  "bert": 2071,
  "▁peak": 2072,
  "▁almost": 2073,
  "ming": 2074,
  "▁leading": 2075,
  "oint": 2076,
  "▁separ": 2077,
  "▁brother": 2078,
  "west": 2079,
  "ficult": 2080,
  "▁Some": 2081,
  "amb": 2082,
  "ements": 2083,
  "▁weeks": 2084,
  "▁base": 2085,
  "▁know": 2086,
  "▁effort": 2087,
  "▁damage": 2088,
  "anch": 2089,
  "▁Henry": 2090,
  "▁pred": 2091,
  "▁inj": 2092,
  "oring": 2093,
  "▁difficult": 2094,
  "▁relationship": 2095,
  "▁accom": 2096,
  "ee": 2097,
  "▁Ale": 2098,
  "▁close": 2099,
  "▁host": 2100,
  "aut": 2101,
  "▁scored": 2102,
  "ellow": 2103,
  "▁clos": 2104,
  "▁fourth": 2105,
  "▁accept": 2106,
  "oid": 2107,
  "▁mer": 2108,
  "▁party": 2109,
  "istic": 2110,
  "▁31": 2111,
  "▁stage": 2112,
  "▁associ": 2113,
  "▁brought": 2114,
  "▁engine": 2115,
  "▁Wash": 2116,
  "▁inform": 2117,
  "▁upon": 2118,
  "▁young": 2119,
  "▁least": 2120,
  "▁Desp": 2121,
  "▁bomb": 2122,
  "▁troops": 2123,
  "lic": 2124,
  "▁fif": 2125,
  "▁allowed": 2126,
  "▁scene": 2127,
  "▁Vir": 2128,
  "▁round": 2129,
  "▁case": 2130,
  "▁Best": 2131,
  "▁style": 2132,
  "▁wanted": 2133,
  "▁San": 2134,
  "▁pract": 2135,
  ".6": 2136,
  "▁provided": 2137,
  "▁mult": 2138,
  "▁vot": 2139,
  "angu": 2140,
  "▁towards": 2141,
  "▁ra": 2142,
  "▁Ag": 2143,
  "▁region": 2144,
  "▁reb": 2145,
  "ica": 2146,
  "iff": 2147,
  "▁king": 2148,
  "ened": 2149,
  "▁Red": 2150,
  "▁critics": 2151,
  "▁tradition": 2152,
  "go": 2153,
  "ula": 2154,
  "▁goal": 2155,
  "▁construction": 2156,
  "ex": 2157,
  "▁vill": 2158,
  "▁resul": 2159,
  "▁working": 2160,
  "▁quick": 2161,
  "ky": 2162,
  "▁either": 2163,
  "▁far": 2164,
  "▁mother": 2165,
  "▁example": 2166,
  "year": 2167,
  "-2": 2168,
  "ino": 2169,
  "▁Mil": 2170,
  "▁Paul": 2171,
  "ule": 2172,
  "▁President": 2173,
  "▁Cap": 2174,
  "ama": 2175,
  "▁creat": 2176,
  "▁mi": 2177,
  "▁laun": 2178,
  "▁Bel": 2179,
  "tr": 2180,
  "▁Que": 2181,
  "▁econom": 2182,
  "rey": 2183,
  "▁born": 2184,
  "▁army": 2185,
  "▁runs": 2186,
  "▁avail": 2187,
  "▁individ": 2188,
  "▁Robert": 2189,
  "▁featured": 2190,
  "uff": 2191,
  "ength": 2192,
  "▁playing": 2193,
  "▁187": 2194,
  "▁ter": 2195,
  "▁respect": 2196,
  "▁believed": 2197,
  ".7": 2198,
  "▁generally": 2199,
  "itch": 2200,
  "▁reach": 2201,
  "▁indust": 2202,
  "ude": 2203,
  "▁placed": 2204,
  "▁Cour": 2205,
  "▁Do": 2206,
  "▁human": 2207,
  "▁victory": 2208,
  "▁Follow": 2209,
  "azine": 2210,
  "▁business": 2211,
  "▁Washington": 2212,
  "enes": 2213,
  "▁profess": 2214,
  "▁neg": 2215,
  "▁Despite": 2216,
  "▁hon": 2217,
  "▁proper": 2218,
  "▁ve": 2219,
  "▁average": 2220,
  "val": 2221,
  "antic": 2222,
  "▁material": 2223,
  "▁office": 2224,
  "ourn": 2225,
  "▁2000": 2226,
  "ville": 2227,
  "▁Hol": 2228,
  "▁rail": 2229,
  "▁estim": 2230,
  "▁current": 2231,
  "co": 2232,
  "ze": 2233,
  "ills": 2234,
  "▁Following": 2235,
  "▁employ": 2236,
  "▁joined": 2237,
  "ential": 2238,
  "▁soon": 2239,
  "▁recogn": 2240,
  "▁events": 2241,
  "ving": 2242,
  ".4": 2243,
  "ago": 2244,
  "▁dou": 2245,
  "▁Other": 2246,
  "▁fig": 2247,
  "▁sour": 2248,
  "▁ce": 2249,
  ".3": 2250,
  "inn": 2251,
  "▁2003": 2252,
  "▁Ke": 2253,
  "▁foc": 2254,
  "▁free": 2255,
  "oor": 2256,
  "▁Angel": 2257,
  "aled": 2258,
  "▁mph": 2259,
  "▁stru": 2260,
  "osition": 2261,
  "▁particip": 2262,
  ".8": 2263,
  "▁Ham": 2264,
  "▁involved": 2265,
  "▁wife": 2266,
  "key": 2267,
  "▁Bo": 2268,
  "xic": 2269,
  "▁island": 2270,
  "ological": 2271,
  "▁finished": 2272,
  "fall": 2273,
  "quadron": 2274,
  "ander": 2275,
  "▁mass": 2276,
  "▁La": 2277,
  "▁Cup": 2278,
  "▁replaced": 2279,
  "earch": 2280,
  "leg": 2281,
  "artment": 2282,
  "chie": 2283,
  "aper": 2284,
  "▁particularly": 2285,
  "oms": 2286,
  "▁Hall": 2287,
  "BC": 2288,
  "cher": 2289,
  "▁rul": 2290,
  "now": 2291,
  "▁dev": 2292,
  "▁desp": 2293,
  "asion": 2294,
  "▁conduct": 2295,
  "ishing": 2296,
  "for": 2297,
  "▁fund": 2298,
  "▁Gro": 2299,
  "▁nomin": 2300,
  "aren": 2301,
  "▁saying": 2302,
  "▁Je": 2303,
  "▁contrib": 2304,
  "▁Mary": 2305,
  "▁Mal": 2306,
  "uel": 2307,
  "▁training": 2308,
  "▁southern": 2309,
  "▁hours": 2310,
  "▁z": 2311,
  "▁Lou": 2312,
  "like": 2313,
  "ecutive": 2314,
  "▁designed": 2315,
  "▁Mac": 2316,
  "iction": 2317,
  "arn": 2318,
  "erous": 2319,
  "▁Championship": 2320,
  "▁sex": 2321,
  "▁Play": 2322,
  "▁break": 2323,
  "▁highway": 2324,
  "▁Battle": 2325,
  "▁indic": 2326,
  "▁regular": 2327,
  "▁initially": 2328,
  "▁hor": 2329,
  "anned": 2330,
  "oul": 2331,
  "▁hard": 2332,
  "iding": 2333,
  "▁ly": 2334,
  "▁possible": 2335,
  "▁From": 2336,
  "▁European": 2337,
  "▁must": 2338,
  "▁shot": 2339,
  "▁Roman": 2340,
  "▁forced": 2341,
  "▁Wil": 2342,
  "▁available": 2343,
  "ki": 2344,
  "▁praised": 2345,
  "rated": 2346,
  "▁°": 2347,
  "▁Dan": 2348,
  "▁Rou": 2349,
  "▁Two": 2350,
  "▁dro": 2351,
  "▁Great": 2352,
  "▁turned": 2353,
  "▁earlier": 2354,
  "ights": 2355,
  "▁Mart": 2356,
  "▁sequ": 2357,
  "▁opening": 2358,
  "▁score": 2359,
  "▁percent": 2360,
  "▁Republic": 2361,
  "▁McC": 2362,
  "▁northern": 2363,
  ".9": 2364,
  "▁commer": 2365,
  "ply": 2366,
  "▁Cro": 2367,
  "▁Scott": 2368,
  "▁respons": 2369,
  "ipp": 2370,
  "▁hom": 2371,
  "face": 2372,
  "▁contr": 2373,
  "▁Val": 2374,
  "▁minutes": 2375,
  "itte": 2376,
  "▁Ber": 2377,
  "▁Kingdom": 2378,
  "back": 2379,
  "▁studio": 2380,
  "▁Colle": 2381,
  "ended": 2382,
  "anding": 2383,
  "▁remov": 2384,
  "ems": 2385,
  "▁Mag": 2386,
  "▁threat": 2387,
  "▁ended": 2388,
  "rian": 2389,
  "▁2001": 2390,
  "▁First": 2391,
  "▁appearance": 2392,
  "uture": 2393,
  "ateg": 2394,
  "▁super": 2395,
  "ification": 2396,
  "▁Music": 2397,
  "▁director": 2398,
  "itor": 2399,
  "alled": 2400,
  "▁court": 2401,
  "▁president": 2402,
  "heast": 2403,
  "asy": 2404,
  "bor": 2405,
  "▁ill": 2406,
  "ointed": 2407,
  "ocr": 2408,
  "▁social": 2409,
  "hib": 2410,
  "▁Virgin": 2411,
  "▁grad": 2412,
  "ios": 2413,
  "emor": 2414,
  "▁Game": 2415,
  "▁passed": 2416,
  "▁Thomas": 2417,
  "▁largest": 2418,
  "ship": 2419,
  "▁Pal": 2420,
  "uter": 2421,
  "▁units": 2422,
  "▁love": 2423,
  "▁Charles": 2424,
  "▁Navy": 2425,
  "▁Atl": 2426,
  "▁increased": 2427,
  "▁park": 2428,
  "▁hurricane": 2429,
  "▁hy": 2430,
  "▁priv": 2431,
  ".0": 2432,
  "ference": 2433,
  "▁change": 2434,
  "cial": 2435,
  "▁relig": 2436,
  "▁But": 2437,
  "▁Mo": 2438,
  "▁Rock": 2439,
  "▁exist": 2440,
  "▁novel": 2441,
  "rem": 2442,
  "antry": 2443,
  "▁Richard": 2444,
  "▁immedi": 2445,
  "▁keep": 2446,
  "▁White": 2447,
  "▁phys": 2448,
  "aughter": 2449,
  "▁2002": 2450,
  "▁central": 2451,
  "▁Alex": 2452,
  "▁Off": 2453,
  "▁past": 2454,
  "aker": 2455,
  "atural": 2456,
  "▁regard": 2457,
  "▁Star": 2458,
  "itz": 2459,
  "▁highest": 2460,
  "ston": 2461,
  "▁Sen": 2462,
  "▁better": 2463,
  "▁object": 2464,
  "▁bill": 2465,
  "sel": 2466,
  "▁length": 2467,
  "▁move": 2468,
  "▁taking": 2469,
  "iforn": 2470,
  "▁treat": 2471,
  "ique": 2472,
  "▁church": 2473,
  "▁Sing": 2474,
  "▁hous": 2475,
  "▁Award": 2476,
  "▁pers": 2477,
  "ears": 2478,
  "arily": 2479,
  "▁Sam": 2480,
  "▁Canada": 2481,
  "▁stop": 2482,
  "▁Smith": 2483,
  "▁Union": 2484,
  "oph": 2485,
  "▁according": 2486,
  "den": 2487,
  "▁quar": 2488,
  "▁positive": 2489,
  "▁Bay": 2490,
  "ecess": 2491,
  "▁disp": 2492,
  "▁quest": 2493,
  "▁winds": 2494,
  "▁outside": 2495,
  "▁piec": 2496,
  "▁Court": 2497,
  "▁Met": 2498,
  "ilities": 2499,
  "ands": 2500,
  "▁feel": 2501,
  "▁sym": 2502,
  "▁enough": 2503,
  "apt": 2504,
  "anded": 2505,
  "anks": 2506,
  "▁Church": 2507,
  "mon": 2508,
  "▁inn": 2509,
  "▁International": 2510,
  "▁Brown": 2511,
  "▁Associ": 2512,
  "ume": 2513,
  "ump": 2514,
  "▁pot": 2515,
  "▁meas": 2516,
  "▁independ": 2517,
  "agon": 2518,
  "▁cycl": 2519,
  "rup": 2520,
  "▁God": 2521,
  "reng": 2522,
  "▁signed": 2523,
  "pped": 2524,
  "▁failed": 2525,
  "▁slow": 2526,
  "▁Californ": 2527,
  "▁lower": 2528,
  "▁above": 2529,
  "edy": 2530,
  "ership": 2531,
  "ida": 2532,
  "▁ordered": 2533,
  "▁reviews": 2534,
  "elled": 2535,
  "▁achie": 2536,
  "▁subject": 2537,
  "etwork": 2538,
  "▁previously": 2539,
  "▁Island": 2540,
  "▁required": 2541,
  "▁going": 2542,
  "▁spent": 2543,
  "▁Vict": 2544,
  "▁contract": 2545,
  "▁Sl": 2546,
  "ma": 2547,
  "aint": 2548,
  "▁ap": 2549,
  "▁educ": 2550,
  "▁wall": 2551,
  "▁interview": 2552,
  "▁Cong": 2553,
  "ready": 2554,
  "▁itself": 2555,
  "▁think": 2556,
  "ittee": 2557,
  "time": 2558,
  "▁Ir": 2559,
  "oke": 2560,
  "▁esp": 2561,
  "erved": 2562,
  "het": 2563,
  "▁Route": 2564,
  "▁Dep": 2565,
  "▁whose": 2566,
  "▁Cr": 2567,
  "▁elements": 2568,
  "atin": 2569,
  "▁states": 2570,
  "lying": 2571,
  "ground": 2572,
  "▁Germany": 2573,
  "▁despite": 2574,
  "▁India": 2575,
  "osing": 2576,
  "▁Company": 2577,
  "uation": 2578,
  "usion": 2579,
  "▁cred": 2580,
  "▁told": 2581,
  "▁beginning": 2582,
  "▁Tom": 2583,
  "berg": 2584,
  "quare": 2585,
  "▁cru": 2586,
  "▁California": 2587,
  "alion": 2588,
  "▁Ac": 2589,
  "▁Jos": 2590,
  "▁rain": 2591,
  "▁assist": 2592,
  "ibility": 2593,
  "▁debut": 2594,
  "▁films": 2595,
  "▁langu": 2596,
  "▁beg": 2597,
  "▁directed": 2598,
  "▁That": 2599,
  "ows": 2600,
  "▁parts": 2601,
  "▁Res": 2602,
  "▁mean": 2603,
  "▁prob": 2604,
  "▁£": 2605,
  "▁nar": 2606,
  "▁wat": 2607,
  "▁Peter": 2608,
  "▁recording": 2609,
  "▁come": 2610,
  "▁speed": 2611,
  "▁clear": 2612,
  "▁Stud": 2613,
  "▁football": 2614,
  "▁NY": 2615,
  "▁abs": 2616,
  "▁asked": 2617,
  "nes": 2618,
  "▁?": 2619,
  "▁flow": 2620,
  "mar": 2621,
  "▁sil": 2622,
  "amer": 2623,
  "▁future": 2624,
  "▁prevent": 2625,
  "oviet": 2626,
  "▁Mexic": 2627,
  "▁UK": 2628,
  "▁phot": 2629,
  "onna": 2630,
  "▁nine": 2631,
  "▁Govern": 2632,
  "ids": 2633,
  "▁except": 2634,
  "van": 2635,
  "▁Up": 2636,
  "eal": 2637,
  "▁section": 2638,
  "▁transfer": 2639,
  "rief": 2640,
  "▁Mark": 2641,
  "▁rap": 2642,
  "isl": 2643,
  "▁pur": 2644,
  "▁Mer": 2645,
  "▁viol": 2646,
  "▁Christian": 2647,
  "acted": 2648,
  "▁Gold": 2649,
  "▁prem": 2650,
  "▁ey": 2651,
  "▁Art": 2652,
  "▁Britain": 2653,
  "▁bi": 2654,
  "▁groups": 2655,
  "airs": 2656,
  "▁already": 2657,
  "▁Hill": 2658,
  "ability": 2659,
  "▁give": 2660,
  "▁key": 2661,
  "asons": 2662,
  "onst": 2663,
  "hester": 2664,
  "▁poor": 2665,
  "minist": 2666,
  "ha": 2667,
  "▁Grand": 2668,
  "▁Pat": 2669,
  "▁lines": 2670,
  "ecially": 2671,
  "oo": 2672,
  "▁whom": 2673,
  "▁international": 2674,
  "▁carried": 2675,
  "▁quickly": 2676,
  "atory": 2677,
  "usp": 2678,
  "▁claimed": 2679,
  "unt": 2680,
  "▁cou": 2681,
  "▁additional": 2682,
  "▁access": 2683,
  "igan": 2684,
  "▁sea": 2685,
  "▁streng": 2686,
  "eck": 2687,
  "▁unc": 2688,
  "▁Soviet": 2689,
  "▁Hot": 2690,
  "ys": 2691,
  "ully": 2692,
  "▁center": 2693,
  "▁sometimes": 2694,
  "▁fort": 2695,
  "▁introduced": 2696,
  "▁league": 2697,
  "▁Most": 2698,
  "▁Dem": 2699,
  "▁money": 2700,
  "▁Frank": 2701,
  "▁occup": 2702,
  "▁College": 2703,
  "▁especially": 2704,
  "▁evidence": 2705,
  "▁anti": 2706,
  "▁op": 2707,
  "▁bridge": 2708,
  "▁musical": 2709,
  "▁gold": 2710,
  "▁female": 2711,
  "▁Times": 2712,
  "▁defeated": 2713,
  "▁frequ": 2714,
  "▁travel": 2715,
  "▁block": 2716,
  "▁pil": 2717,
  "▁Rob": 2718,
  "▁remain": 2719,
  "▁arrived": 2720,
  "▁1990": 2721,
  "▁shows": 2722,
  "▁che": 2723,
  "▁idea": 2724,
  "▁Ben": 2725,
  "▁-": 2726,
  "▁Chic": 2727,
  "▁might": 2728,
  "▁radio": 2729,
  "▁civil": 2730,
  "irth": 2731,
  "▁Span": 2732,
  "▁product": 2733,
  "▁discuss": 2734,
  "▁Force": 2735,
  "de": 2736,
  "▁usually": 2737,
  "▁becoming": 2738,
  "▁Coun": 2739,
  "ites": 2740,
  "▁Victor": 2741,
  "liam": 2742,
  "▁Soc": 2743,
  "▁minor": 2744,
  "▁lab": 2745,
  "▁larger": 2746,
  "II": 2747,
  "▁Pac": 2748,
  "▁pen": 2749,
  "▁env": 2750,
  "▁deal": 2751,
  "▁Western": 2752,
  "asc": 2753,
  "▁approx": 2754,
  "▁food": 2755,
  "▁latter": 2756,
  "tar": 2757,
  "▁suggested": 2758,
  "aring": 2759,
  "▁script": 2760,
  "▁community": 2761,
  "ulf": 2762,
  "han": 2763,
  "liament": 2764,
  "▁complet": 2765,
  "▁estimated": 2766,
  "gen": 2767,
  "aries": 2768,
  "▁remaining": 2769,
  "eum": 2770,
  "▁Virginia": 2771,
  "▁sat": 2772,
  "▁territ": 2773,
  "▁Just": 2774,
  "▁concern": 2775,
  "▁Mount": 2776,
  "▁western": 2777,
  "▁surround": 2778,
  "▁brief": 2779,
  "▁draw": 2780,
  "▁study": 2781,
  "▁magazine": 2782,
  "ises": 2783,
  "▁Bur": 2784,
  "porary": 2785,
  "ending": 2786,
  "▁flood": 2787,
  "▁issue": 2788,
  "NA": 2789,
  "ergy": 2790,
  "▁students": 2791,
  "su": 2792,
  "mir": 2793,
  "▁1970": 2794,
  "▁determ": 2795,
  "ption": 2796,
  "▁construct": 2797,
  "▁fleet": 2798,
  "omm": 2799,
  "▁lyric": 2800,
  "30": 2801,
  "inct": 2802,
  "▁decision": 2803,
  "▁wood": 2804,
  "▁consider": 2805,
  "▁den": 2806,
  "▁60": 2807,
  "onse": 2808,
  "ederal": 2809,
  "▁leaving": 2810,
  "erve": 2811,
  "ography": 2812,
  "▁prior": 2813,
  "▁liter": 2814,
  "change": 2815,
  "▁Tex": 2816,
  "▁bur": 2817,
  "▁Mill": 2818,
  "▁destroyed": 2819,
  "▁1999": 2820,
  "▁self": 2821,
  "incip": 2822,
  "ession": 2823,
  "▁police": 2824,
  "▁summer": 2825,
  "▁episodes": 2826,
  "▁appointed": 2827,
  "▁commercial": 2828,
  "▁Franc": 2829,
  "yr": 2830,
  "▁doc": 2831,
  "▁teams": 2832,
  "sy": 2833,
  "▁staff": 2834,
  "▁exc": 2835,
  "ournal": 2836,
  "▁guitar": 2837,
  "▁tar": 2838,
  "▁limited": 2839,
  "▁complete": 2840,
  "▁pay": 2841,
  "acing": 2842,
  "ga": 2843,
  "ension": 2844,
  "▁Los": 2845,
  "▁proposed": 2846,
  "▁Jackson": 2847,
  "igade": 2848,
  "nel": 2849,
  "▁personal": 2850,
  "ena": 2851,
  "win": 2852,
  "ests": 2853,
  "ores": 2854,
  "▁1980": 2855,
  "▁acqu": 2856,
  "▁Association": 2857,
  "ari": 2858,
  "▁changes": 2859,
  "▁prison": 2860,
  "▁entered": 2861,
  "▁Chicago": 2862,
  "▁intended": 2863,
  "iser": 2864,
  "AA": 2865,
  "▁investig": 2866,
  "▁market": 2867,
  "▁surface": 2868,
  "▁rights": 2869,
  "▁eastern": 2870,
  "atives": 2871,
  "▁lo": 2872,
  "▁transport": 2873,
  "▁Im": 2874,
  "▁Du": 2875,
  "▁agreed": 2876,
  "▁der": 2877,
  "▁emer": 2878,
  "ift": 2879,
  "▁nearly": 2880,
  "ires": 2881,
  "▁bow": 2882,
  "ulated": 2883,
  "▁provide": 2884,
  "mitted": 2885,
  "▁board": 2886,
  "▁movement": 2887,
  "▁35": 2888,
  "▁certain": 2889,
  "▁influence": 2890,
  "sen": 2891,
  "▁Over": 2892,
  "inent": 2893,
  "▁tax": 2894,
  "▁Film": 2895,
  "▁writer": 2896,
  "▁purch": 2897,
  "lymp": 2898,
  "▁big": 2899,
  "ronic": 2900,
  "enth": 2901,
  "▁division": 2902,
  "▁response": 2903,
  "inese": 2904,
  "▁Party": 2905,
  "▁fail": 2906,
  "▁overall": 2907,
  "▁If": 2908,
  "idents": 2909,
  "▁size": 2910,
  "▁Club": 2911,
  "▁Louis": 2912,
  "ili": 2913,
  "▁screen": 2914,
  "▁helped": 2915,
  "▁susp": 2916,
  "▁Awards": 2917,
  "▁scenes": 2918,
  "▁dark": 2919,
  "kn": 2920,
  "imum": 2921,
  "▁Many": 2922,
  "▁Hist": 2923,
  "▁effects": 2924,
  "▁cal": 2925,
  "▁river": 2926,
  "▁multip": 2927,
  "▁married": 2928,
  "▁Day": 2929,
  "▁trib": 2930,
  "▁Olymp": 2931,
  "▁Edward": 2932,
  "▁Pri": 2933,
  "▁Fle": 2934,
  "▁Flor": 2935,
  "▁184": 2936,
  "▁jud": 2937,
  "▁higher": 2938,
  "tt": 2939,
  "irm": 2940,
  "▁Green": 2941,
  "▁cat": 2942,
  "▁pressure": 2943,
  "▁create": 2944,
  "oe": 2945,
  "▁daughter": 2946,
  "▁awarded": 2947,
  "▁di": 2948,
  "▁arrang": 2949,
  "▁contro": 2950,
  "▁election": 2951,
  "ties": 2952,
  "▁commission": 2953,
  "arent": 2954,
  "▁Johnson": 2955,
  "▁planned": 2956,
  "atively": 2957,
  "can": 2958,
  "▁polic": 2959,
  "▁captured": 2960,
  "imate": 2961,
  "▁feature": 2962,
  "▁Spanish": 2963,
  "aded": 2964,
  "bers": 2965,
  "che": 2966,
  "▁thus": 2967,
  "▁deep": 2968,
  "▁diss": 2969,
  "▁longer": 2970,
  "▁countries": 2971,
  "60": 2972,
  "rd": 2973,
  "▁structure": 2974,
  "▁1998": 2975,
  "down": 2976,
  "▁Chinese": 2977,
  "▁conclud": 2978,
  "▁favor": 2979,
  "▁Cast": 2980,
  "▁compared": 2981,
  "rel": 2982,
  "▁fans": 2983,
  "▁increasing": 2984,
  "umn": 2985,
  "isions": 2986,
  "▁date": 2987,
  "▁approximately": 2988,
  "▁ult": 2989,
  "hold": 2990,
  "▁girl": 2991,
  "▁Council": 2992,
  "teen": 2993,
  "omer": 2994,
  "▁our": 2995,
  "olic": 2996,
  "▁supported": 2997,
  "▁Since": 2998,
  "▁room": 2999,
  "▁experience": 3000,
  "▁voice": 3001,
  "▁32": 3002,
  "▁broadcast": 3003,
  "▁running": 3004,
  "uz": 3005,
  "▁185": 3006,
  "order": 3007,
  "▁dead": 3008,
  "▁research": 3009,
  "▁stars": 3010,
  "▁tracks": 3011,
  "▁copies": 3012,
  "▁living": 3013,
  "▁withd": 3014,
  "pris": 3015,
  "thing": 3016,
  "▁Second": 3017,
  "▁changed": 3018,
  "▁Inf": 3019,
  "▁media": 3020,
  "dle": 3021,
  "▁Pacific": 3022,
  "▁Kore": 3023,
  "▁extended": 3024,
  "▁establish": 3025,
  "enty": 3026,
  "iles": 3027,
  "▁Emp": 3028,
  "bour": 3029,
  "ounds": 3030,
  "▁course": 3031,
  "▁shoot": 3032,
  "▁done": 3033,
  "▁space": 3034,
  "▁mostly": 3035,
  "raz": 3036,
  "▁bring": 3037,
  "ij": 3038,
  "▁Enter": 3039,
  "▁sport": 3040,
  "▁cm": 3041,
  "▁Sal": 3042,
  "▁bird": 3043,
  "▁Don": 3044,
  "▁Billboard": 3045,
  "ny": 3046,
  "▁suffered": 3047,
  "vin": 3048,
  "▁heav": 3049,
  "▁probably": 3050,
  "selves": 3051,
  "▁woman": 3052,
  "▁initial": 3053,
  "▁remains": 3054,
  "▁leader": 3055,
  "▁Mont": 3056,
  "▁themselves": 3057,
  "ounted": 3058,
  "▁visit": 3059,
  "▁1960": 3060,
  "▁Ital": 3061,
  "▁Song": 3062,
  "▁likely": 3063,
  "▁equip": 3064,
  "▁mixed": 3065,
  "▁Later": 3066,
  "▁approach": 3067,
  "▁health": 3068,
  "▁tons": 3069,
  "▁goals": 3070,
  "▁producer": 3071,
  "▁Sun": 3072,
  "tained": 3073,
  "▁subsequently": 3074,
  "iqu": 3075,
  "imin": 3076,
  "action": 3077,
  "ously": 3078,
  "▁1997": 3079,
  "▁soldiers": 3080,
  "▁emb": 3081,
  "▁whether": 3082,
  "▁lyrics": 3083,
  "▁leave": 3084,
  "▁dram": 3085,
  "▁always": 3086,
  "▁consist": 3087,
  "▁Bet": 3088,
  "▁weap": 3089,
  "hood": 3090,
  "▁really": 3091,
  "▁capital": 3092,
  "▁Congress": 3093,
  "▁Fort": 3094,
  "▁temper": 3095,
  "▁natural": 3096,
  "▁immediately": 3097,
  "▁complex": 3098,
  "▁face": 3099,
  "▁buildings": 3100,
  "oys": 3101,
  "writ": 3102,
  "▁wide": 3103,
  "▁intens": 3104,
  "▁includes": 3105,
  "▁concept": 3106,
  "pe": 3107,
  "ien": 3108,
  "▁fifth": 3109,
  "▁Love": 3110,
  "ospital": 3111,
  "itted": 3112,
  "▁chall": 3113,
  "▁Ev": 3114,
  "andon": 3115,
  "▁Both": 3116,
  "▁forward": 3117,
  "▁Sever": 3118,
  "▁quarter": 3119,
  "urt": 3120,
  "iant": 3121,
  "▁terms": 3122,
  "▁operations": 3123,
  "▁mach": 3124,
  "▁Texas": 3125,
  "▁battles": 3126,
  "ss": 3127,
  "▁Oper": 3128,
  "▁depart": 3129,
  "▁attend": 3130,
  "class": 3131,
  "▁syn": 3132,
  "▁Lit": 3133,
  "orning": 3134,
  "ams": 3135,
  "▁Kn": 3136,
  "ctor": 3137,
  "bre": 3138,
  "▁Ro": 3139,
  "▁Another": 3140,
  "▁Scot": 3141,
  "▁fell": 3142,
  "iation": 3143,
  "▁model": 3144,
  "▁compan": 3145,
  "▁Sea": 3146,
  "▁instr": 3147,
  "▁cele": 3148,
  "▁Lake": 3149,
  "ria": 3150,
  "bury": 3151,
  "yard": 3152,
  "▁private": 3153,
  "▁problems": 3154,
  "▁Town": 3155,
  "▁winning": 3156,
  "▁Mr": 3157,
  "▁mount": 3158,
  "▁officers": 3159,
  "▁increase": 3160,
  "well": 3161,
  "▁revealed": 3162,
  "▁Queen": 3163,
  "pan": 3164,
  "▁tow": 3165,
  "▁Old": 3166,
  "▁meeting": 3167,
  "lo": 3168,
  "▁majority": 3169,
  "▁adop": 3170,
  "▁Its": 3171,
  "▁location": 3172,
  "ibr": 3173,
  "▁kil": 3174,
  "▁via": 3175,
  "▁Ol": 3176,
  "uth": 3177,
  "vey": 3178,
  "▁Florida": 3179,
  "stant": 3180,
  "▁Wood": 3181,
  "▁got": 3182,
  "▁Pet": 3183,
  "iring": 3184,
  "▁flag": 3185,
  "aily": 3186,
  "▁appears": 3187,
  "▁conditions": 3188,
  "▁hop": 3189,
  "▁financ": 3190,
  "▁Not": 3191,
  "▁offered": 3192,
  "ging": 3193,
  "▁Jim": 3194,
  "▁something": 3195,
  "▁ran": 3196,
  "▁administ": 3197,
  "▁plans": 3198,
  "▁How": 3199,
  "known": 3200,
  "▁mur": 3201,
  "▁sch": 3202,
  "▁job": 3203,
  "▁damaged": 3204,
  "tered": 3205,
  "▁issued": 3206,
  "VD": 3207,
  "▁distrib": 3208,
  "▁China": 3209,
  "abit": 3210,
  "▁plot": 3211,
  "ste": 3212,
  "▁Canadian": 3213,
  "▁Law": 3214,
  "▁tor": 3215,
  "▁bene": 3216,
  "▁Earth": 3217,
  "etic": 3218,
  "▁Center": 3219,
  "ify": 3220,
  "riage": 3221,
  "venue": 3222,
  "▁altern": 3223,
  "oper": 3224,
  "▁Central": 3225,
  "▁discovered": 3226,
  "▁manager": 3227,
  "rial": 3228,
  "▁breed": 3229,
  "▁Atlantic": 3230,
  "iest": 3231,
  "▁Inter": 3232,
  "▁Cont": 3233,
  "umed": 3234,
  "▁coin": 3235,
  "▁removed": 3236,
  "lor": 3237,
  "▁45": 3238,
  "▁Mel": 3239,
  "▁takes": 3240,
  "▁cause": 3241,
  "▁composed": 3242,
  "▁focus": 3243,
  "▁Lord": 3244,
  "▁Africa": 3245,
  "ironment": 3246,
  "▁Tor": 3247,
  "adium": 3248,
  "▁network": 3249,
  "uf": 3250,
  "quar": 3251,
  "▁vir": 3252,
  "▁Kent": 3253,
  "80": 3254,
  "▁norm": 3255,
  "aches": 3256,
  "▁active": 3257,
  "▁finally": 3258,
  "hod": 3259,
  "▁Jew": 3260,
  "▁anc": 3261,
  "▁carry": 3262,
  "▁upper": 3263,
  "▁professional": 3264,
  "▁smaller": 3265,
  "▁services": 3266,
  "uries": 3267,
  "▁Step": 3268,
  "▁respectively": 3269,
  "▁Camp": 3270,
  "▁nature": 3271,
  "▁attempted": 3272,
  "▁slight": 3273,
  "▁Rail": 3274,
  "▁attacks": 3275,
  "ault": 3276,
  "▁Carol": 3277,
  "▁individual": 3278,
  "▁80": 3279,
  "▁yards": 3280,
  "▁occurred": 3281,
  "▁numerous": 3282,
  "▁mom": 3283,
  "▁Final": 3284,
  "▁flight": 3285,
  "▁App": 3286,
  "wh": 3287,
  "burg": 3288,
  "▁sal": 3289,
  "▁Sir": 3290,
  "20": 3291,
  "oes": 3292,
  "▁box": 3293,
  "ograph": 3294,
  "reater": 3295,
  "▁farm": 3296,
  "▁defeat": 3297,
  "▁deg": 3298,
  "▁Martin": 3299,
  "▁whole": 3300,
  "▁referred": 3301,
  "olk": 3302,
  "▁vehic": 3303,
  "▁status": 3304,
  "▁Mur": 3305,
  "▁amb": 3306,
  "rie": 3307,
  "aught": 3308,
  "▁associated": 3309,
  "▁shown": 3310,
  "▁collect": 3311,
  "uments": 3312,
  "▁coach": 3313,
  "▁Big": 3314,
  "▁makes": 3315,
  "ective": 3316,
  "▁Super": 3317,
  "uing": 3318,
  ",5": 3319,
  "▁Cam": 3320,
  "kin": 3321,
  "▁colon": 3322,
  "ka": 3323,
  "ails": 3324,
  "▁singer": 3325,
  "▁attacked": 3326,
  "▁Str": 3327,
  "▁ens": 3328,
  "▁contains": 3329,
  "▁language": 3330,
  "cean": 3331,
  "uals": 3332,
  "▁Under": 3333,
  "▁village": 3334,
  "▁lay": 3335,
  "izing": 3336,
  "▁type": 3337,
  "▁bad": 3338,
  "▁launched": 3339,
  "▁mission": 3340,
  "aging": 3341,
  "ortun": 3342,
  "ounts": 3343,
  "▁princip": 3344,
  "▁Penn": 3345,
  "▁numbers": 3346,
  "▁Angeles": 3347,
  "▁resulted": 3348,
  "gely": 3349,
  "▁dig": 3350,
  "▁1995": 3351,
  "estival": 3352,
  "▁Bow": 3353,
  "▁qual": 3354,
  "▁birth": 3355,
  "enant": 3356,
  "▁cand": 3357,
  "▁Group": 3358,
  "▁yet": 3359,
  "▁secret": 3360,
  "▁raised": 3361,
  "▁commented": 3362,
  "▁information": 3363,
  "▁III": 3364,
  "▁Empire": 3365,
  "bed": 3366,
  "reme": 3367,
  "vert": 3368,
  "▁DVD": 3369,
  "▁industry": 3370,
  "▁imm": 3371,
  "▁Serv": 3372,
  "▁sales": 3373,
  "▁needed": 3374,
  "▁officer": 3375,
  "▁assigned": 3376,
  "▁Squadron": 3377,
  "itation": 3378,
  "▁unable": 3379,
  "▁request": 3380,
  "▁giving": 3381,
  "▁listed": 3382,
  "▁Russian": 3383,
  "▁issues": 3384,
  "▁1996": 3385,
  "▁stay": 3386,
  "wide": 3387,
  "irection": 3388,
  "▁Rh": 3389,
  "▁cer": 3390,
  "ider": 3391,
  "▁scient": 3392,
  "▁primary": 3393,
  "▁ranked": 3394,
  "▁Miss": 3395,
  "▁Highway": 3396,
  "▁Rad": 3397,
  "▁attention": 3398,
  "▁earned": 3399,
  "urity": 3400,
  "ken": 3401,
  "▁artist": 3402,
  "▁incor": 3403,
  "▁largely": 3404,
  "▁Gar": 3405,
  "eph": 3406,
  "▁selected": 3407,
  "oly": 3408,
  "▁sen": 3409,
  "▁plant": 3410,
  "▁Ter": 3411,
  "▁celebr": 3412,
  "onic": 3413,
  "▁male": 3414,
  "ples": 3415,
  "▁ang": 3416,
  "▁below": 3417,
  "▁Year": 3418,
  "▁Italian": 3419,
  "▁moving": 3420,
  "▁Tur": 3421,
  "▁archit": 3422,
  "road": 3423,
  "▁friends": 3424,
  "▁Viet": 3425,
  "track": 3426,
  "oud": 3427,
  "▁Del": 3428,
  "▁Zeal": 3429,
  "▁pit": 3430,
  "▁2016": 3431,
  "▁link": 3432,
  "▁contem": 3433,
  "itude": 3434,
  "▁counter": 3435,
  "ady": 3436,
  "▁domin": 3437,
  "▁want": 3438,
  "▁trade": 3439,
  "▁audience": 3440,
  "▁refused": 3441,
  "▁sem": 3442,
  "▁kind": 3443,
  "▁Wales": 3444,
  "▁critical": 3445,
  "▁declared": 3446,
  "ections": 3447,
  "▁closed": 3448,
  "10": 3449,
  "▁Democr": 3450,
  "use": 3451,
  "▁enj": 3452,
  "▁Trans": 3453,
  "▁walk": 3454,
  "undred": 3455,
  "▁expected": 3456,
  "iled": 3457,
  "uated": 3458,
  "▁inspired": 3459,
  "inch": 3460,
  "bridge": 3461,
  "▁letter": 3462,
  "lection": 3463,
  "▁religious": 3464,
  "▁traditional": 3465,
  "anced": 3466,
  "▁prec": 3467,
  "▁newsp": 3468,
  "▁Mass": 3469,
  "▁legisl": 3470,
  "ounded": 3471,
  "▁exam": 3472,
  "▁blood": 3473,
  "▁depression": 3474,
  "▁Dist": 3475,
  "ighter": 3476,
  "light": 3477,
  "▁double": 3478,
  "▁Out": 3479,
  "▁saf": 3480,
  "▁i": 3481,
  "▁recover": 3482,
  "rug": 3483,
  "odies": 3484,
  "▁TV": 3485,
  "▁Zealand": 3486,
  "▁underst": 3487,
  "aine": 3488,
  "rown": 3489,
  "▁Tour": 3490,
  "▁ability": 3491,
  "edic": 3492,
  "▁standard": 3493,
  "ening": 3494,
  "ogue": 3495,
  "▁1994": 3496,
  "▁More": 3497,
  "▁Michigan": 3498,
  "▁1950": 3499,
  "▁reason": 3500,
  "▁directly": 3501,
  "arian": 3502,
  "▁method": 3503,
  "▁sister": 3504,
  "aped": 3505,
  "▁talk": 3506,
  "▁artic": 3507,
  "▁commander": 3508,
  "▁roy": 3509,
  "▁books": 3510,
  "▁disapp": 3511,
  "▁operation": 3512,
  "▁max": 3513,
  "▁constit": 3514,
  "ona": 3515,
  "▁meant": 3516,
  "▁Ox": 3517,
  "ector": 3518,
  "▁produce": 3519,
  "▁hot": 3520,
  "▁aw": 3521,
  "▁elected": 3522,
  "house": 3523,
  "▁rapid": 3524,
  "▁Cle": 3525,
  "▁180": 3526,
  "utch": 3527,
  "▁Bec": 3528,
  "▁sett": 3529,
  "▁purp": 3530,
  "▁attended": 3531,
  "isher": 3532,
  "icient": 3533,
  "▁Nort": 3534,
  "▁Test": 3535,
  "miral": 3536,
  "▁matches": 3537,
  "▁70": 3538,
  "▁middle": 3539,
  "▁covered": 3540,
  "▁question": 3541,
  "▁sched": 3542,
  "ette": 3543,
  "▁plat": 3544,
  "▁analy": 3545,
  "▁related": 3546,
  "ibly": 3547,
  "▁necess": 3548,
  "▁compl": 3549,
  "▁Several": 3550,
  "▁Rev": 3551,
  "▁centre": 3552,
  "▁Corps": 3553,
  "▁vocals": 3554,
  "shire": 3555,
  "▁continue": 3556,
  "▁Er": 3557,
  "ares": 3558,
  "▁account": 3559,
  "▁neigh": 3560,
  "▁Cath": 3561,
  "lit": 3562,
  "▁Sar": 3563,
  "▁prep": 3564,
  "▁nearby": 3565,
  "▁presented": 3566,
  "icted": 3567,
  "▁mention": 3568,
  "ims": 3569,
  "▁1940": 3570,
  "▁theat": 3571,
  "▁annual": 3572,
  "▁90": 3573,
  "iences": 3574,
  "▁separate": 3575,
  "aver": 3576,
  "▁Long": 3577,
  "▁document": 3578,
  "▁pow": 3579,
  "▁Lu": 3580,
  "▁thr": 3581,
  "ieut": 3582,
  "▁har": 3583,
  "acher": 3584,
  "▁word": 3585,
  "▁00": 3586,
  "▁Acad": 3587,
  "▁inters": 3588,
  "▁Midd": 3589,
  "▁Kenn": 3590,
  "▁fighting": 3591,
  "antasy": 3592,
  "▁Minister": 3593,
  "▁education": 3594,
  "▁watch": 3595,
  "ani": 3596,
  "▁grand": 3597,
  "▁constructed": 3598,
  "illed": 3599,
  "▁rate": 3600,
  "▁reduced": 3601,
  "40": 3602,
  "▁Mexico": 3603,
  "▁sevent": 3604,
  "▁Their": 3605,
  "▁African": 3606,
  "▁theme": 3607,
  "▁records": 3608,
  "70": 3609,
  "▁Fox": 3610,
  "▁combat": 3611,
  "▁resulting": 3612,
  "▁mor": 3613,
  "▁heart": 3614,
  "gl": 3615,
  "cel": 3616,
  "▁ris": 3617,
  "▁kept": 3618,
  "▁touch": 3619,
  "90": 3620,
  "▁Dis": 3621,
  "▁traff": 3622,
  "▁means": 3623,
  "vention": 3624,
  "echan": 3625,
  "oses": 3626,
  "▁stating": 3627,
  "ping": 3628,
  "▁text": 3629,
  "irmed": 3630,
  "▁enjoy": 3631,
  "▁serious": 3632,
  "▁competition": 3633,
  "pass": 3634,
  "▁purs": 3635,
  "ado": 3636,
  "▁pick": 3637,
  "▁begins": 3638,
  "▁cle": 3639,
  "▁Bu": 3640,
  "▁seem": 3641,
  "eway": 3642,
  "▁unit": 3643,
  "▁So": 3644,
  "ether": 3645,
  "▁+": 3646,
  "▁Wall": 3647,
  "▁tried": 3648,
  "▁drum": 3649,
  "▁Greek": 3650,
  "▁train": 3651,
  "▁dut": 3652,
  "▁repe": 3653,
  "ada": 3654,
  "▁compos": 3655,
  "▁advance": 3656,
  "▁1930": 3657,
  "▁forest": 3658,
  "▁abandon": 3659,
  "▁spir": 3660,
  "▁avoid": 3661,
  "▁accepted": 3662,
  "▁1992": 3663,
  "▁names": 3664,
  "▁fast": 3665,
  "▁inside": 3666,
  "▁direction": 3667,
  "anes": 3668,
  "arents": 3669,
  "▁highly": 3670,
  "awn": 3671,
  "ishop": 3672,
  "stitute": 3673,
  "▁rare": 3674,
  "▁Mic": 3675,
  "▁notes": 3676,
  "▁energy": 3677,
  "▁morning": 3678,
  "▁cas": 3679,
  "▁schools": 3680,
  "▁Bost": 3681,
  "▁Bob": 3682,
  "▁practice": 3683,
  "▁Fore": 3684,
  "vement": 3685,
  "ieutenant": 3686,
  "ya": 3687,
  "lict": 3688,
  "▁1993": 3689,
  "▁Madonna": 3690,
  "▁twenty": 3691,
  "▁dra": 3692,
  "right": 3693,
  "▁Wal": 3694,
  "▁efforts": 3695,
  "▁responsible": 3696,
  "▁showed": 3697,
  "▁Cross": 3698,
  "▁chap": 3699,
  "utions": 3700,
  "▁legal": 3701,
  "▁words": 3702,
  "aph": 3703,
  "▁thick": 3704,
  "▁nation": 3705,
  "▁Dar": 3706,
  "▁asp": 3707,
  "▁positions": 3708,
  "uit": 3709,
  "rier": 3710,
  "force": 3711,
  "▁Foot": 3712,
  "▁controvers": 3713,
  "▁Chris": 3714,
  "▁royal": 3715,
  "ita": 3716,
  "osen": 3717,
  "▁managed": 3718,
  "▁continues": 3719,
  "band": 3720,
  "ceeded": 3721,
  "imb": 3722,
  "▁Stone": 3723,
  "▁concert": 3724,
  "▁183": 3725,
  "ervation": 3726,
  "ecting": 3727,
  "▁Four": 3728,
  "▁houses": 3729,
  "▁conducted": 3730,
  "▁Dou": 3731,
  "claim": 3732,
  "ansion": 3733,
  "▁candid": 3734,
  "thel": 3735,
  "▁levels": 3736,
  "itt": 3737,
  "isation": 3738,
  "▁oil": 3739,
  "▁33": 3740,
  "▁Hel": 3741,
  "▁Sum": 3742,
  "▁Ann": 3743,
  "▁college": 3744,
  "▁Team": 3745,
  "▁lear": 3746,
  "▁rein": 3747,
  "▁1991": 3748,
  "▁Arch": 3749,
  "cend": 3750,
  "rical": 3751,
  "▁recomm": 3752,
  "▁marriage": 3753,
  "▁BC": 3754,
  "▁rat": 3755,
  "▁marked": 3756,
  "illery": 3757,
  "▁environment": 3758,
  "▁movie": 3759,
  "▁dom": 3760,
  "▁Manc": 3761,
  "▁Stan": 3762,
  "▁architect": 3763,
  "▁Matt": 3764,
  "▁reject": 3765,
  "▁dropped": 3766,
  "olf": 3767,
  "peror": 3768,
  "▁metal": 3769,
  "▁cyclone": 3770,
  "▁enemy": 3771,
  "▁variety": 3772,
  "load": 3773,
  "▁Time": 3774,
  "icip": 3775,
  "▁pair": 3776,
  "▁horse": 3777,
  "▁Tre": 3778,
  "▁championship": 3779,
  "▁News": 3780,
  "▁Arab": 3781,
  "earing": 3782,
  "thur": 3783,
  "▁schol": 3784,
  "▁edition": 3785,
  "▁economic": 3786,
  "▁Three": 3787,
  "hips": 3788,
  "▁ge": 3789,
  "▁cases": 3790,
  "▁metres": 3791,
  "▁starting": 3792,
  "▁forms": 3793,
  "▁portray": 3794,
  "▁distinct": 3795,
  "▁du": 3796,
  "▁Cons": 3797,
  "▁bank": 3798,
  "▁premi": 3799,
  "▁Des": 3800,
  "▁Scotland": 3801,
  "▁dism": 3802,
  "▁allowing": 3803,
  "▁uses": 3804,
  "▁Department": 3805,
  "▁performances": 3806,
  "▁becomes": 3807,
  "▁financial": 3808,
  "▁nuc": 3809,
  "based": 3810,
  "gypt": 3811,
  "▁500": 3812,
  "▁mess": 3813,
  "▁Games": 3814,
  "▁Secret": 3815,
  "▁cerem": 3816,
  "▁incorpor": 3817,
  "itiz": 3818,
  "▁Win": 3819,
  "▁kilomet": 3820,
  "▁vo": 3821,
  "ersey": 3822,
  "▁Creek": 3823,
  "▁cust": 3824,
  "▁Sat": 3825,
  "▁Haw": 3826,
  "▁ending": 3827,
  "▁strugg": 3828,
  "▁defend": 3829,
  "sis": 3830,
  "gian": 3831,
  "▁Stephen": 3832,
  "▁meaning": 3833,
  "▁science": 3834,
  "▁multiple": 3835,
  "ulations": 3836,
  "TV": 3837,
  "▁sides": 3838,
  "▁rule": 3839,
  "MS": 3840,
  "ols": 3841,
  "under": 3842,
  "udd": 3843,
  "▁inches": 3844,
  "▁Ever": 3845,
  "▁chief": 3846,
  "▁lived": 3847,
  "emorial": 3848,
  "ait": 3849,
  "▁Brad": 3850,
  "een": 3851,
  "▁featuring": 3852,
  "▁settle": 3853,
  "▁portion": 3854,
  "aud": 3855,
  "▁Jer": 3856,
  "▁suppl": 3857,
  "▁hundred": 3858,
  "▁symb": 3859,
  "sw": 3860,
  "▁federal": 3861,
  "▁univers": 3862,
  "▁source": 3863,
  "▁property": 3864,
  "▁Egypt": 3865,
  "▁Records": 3866,
  "▁Boston": 3867,
  "▁2,": 3868,
  "▁Oxford": 3869,
  "▁peaked": 3870,
  "▁encoun": 3871,
  "▁Parliament": 3872,
  "▁Arm": 3873,
  "▁Sil": 3874,
  "▁presence": 3875,
  "▁Tri": 3876,
  "▁arrest": 3877,
  "▁demonst": 3878,
  "▁primarily": 3879,
  "▁onto": 3880,
  "ih": 3881,
  "▁vocal": 3882,
  "cle": 3883,
  "▁Bre": 3884,
  "▁lif": 3885,
  "▁opportun": 3886,
  "▁Williams": 3887,
  "▁attempts": 3888,
  "▁potential": 3889,
  "▁respond": 3890,
  "▁contrast": 3891,
  "▁display": 3892,
  "ingu": 3893,
  "mark": 3894,
  "▁exhib": 3895,
  "▁things": 3896,
  "▁Ant": 3897,
  "▁ple": 3898,
  "▁tur": 3899,
  "sych": 3900,
  "▁Swed": 3901,
  "▁Society": 3902,
  "▁viewers": 3903,
  "▁Committee": 3904,
  "umber": 3905,
  "▁34": 3906,
  "▁figure": 3907,
  "▁powerful": 3908,
  "▁Kh": 3909,
  "fect": 3910,
  "▁concluded": 3911,
  "▁Sur": 3912,
  "▁Prince": 3913,
  "▁slightly": 3914,
  "▁Oh": 3915,
  "▁actually": 3916,
  "▁Go": 3917,
  "▁Infantry": 3918,
  "▁relatively": 3919,
  "eds": 3920,
  "war": 3921,
  "▁writers": 3922,
  "▁dise": 3923,
  "▁foreign": 3924,
  "▁Southern": 3925,
  "▁Bat": 3926,
  "▁target": 3927,
  "▁greater": 3928,
  "▁castle": 3929,
  "ressive": 3930,
  "▁traffic": 3931,
  "▁raid": 3932,
  "▁journal": 3933,
  "▁cho": 3934,
  "▁transferred": 3935,
  "▁Because": 3936,
  "▁observed": 3937,
  "ils": 3938,
  "▁opt": 3939,
  "▁Before": 3940,
  "▁amount": 3941,
  "▁collection": 3942,
  "ini": 3943,
  "born": 3944,
  "mission": 3945,
  "▁mel": 3946,
  "▁Captain": 3947,
  "St": 3948,
  "orses": 3949,
  "▁calling": 3950,
  "▁combined": 3951,
  "▁1944": 3952,
  "▁weaken": 3953,
  "▁37": 3954,
  "illa": 3955,
  "▁wor": 3956,
  "istry": 3957,
  "▁Jones": 3958,
  "▁struck": 3959,
  "▁Manchester": 3960,
  "▁Like": 3961,
  "▁tend": 3962,
  "uge": 3963,
  "inet": 3964,
  "▁tourn": 3965,
  "▁Pan": 3966,
  "▁Paris": 3967,
  "▁stories": 3968,
  "▁gained": 3969,
  "▁conver": 3970,
  "▁Den": 3971,
  "▁Ver": 3972,
  "▁Spec": 3973,
  "▁beat": 3974,
  "perial": 3975,
  "▁Vietn": 3976,
  "▁acting": 3977,
  "▁reform": 3978,
  "▁Harrison": 3979,
  "▁36": 3980,
  "▁plays": 3981,
  "▁ultimately": 3982,
  "stein": 3983,
  "▁Sol": 3984,
  "▁lot": 3985,
  "ees": 3986,
  "▁situation": 3987,
  "annel": 3988,
  "▁Major": 3989,
  "▁parents": 3990,
  "quarters": 3991,
  "cript": 3992,
  "▁founded": 3993,
  "aga": 3994,
  "▁Lee": 3995,
  "▁mechan": 3996,
  "▁waters": 3997,
  "▁Max": 3998,
  "▁Ott": 3999,
  "▁1941": 4000,
  "▁1942": 4001,
  "▁collabor": 4002,
  "alle": 4003,
  "▁BBC": 4004,
  "▁divided": 4005,
  "acts": 4006,
  "rate": 4007,
  "▁Jeff": 4008,
  "▁spot": 4009,
  "chest": 4010,
  "iance": 4011,
  "▁behav": 4012,
  "▁broke": 4013,
  "▁Fred": 4014,
  "▁Latin": 4015,
  "▁animals": 4016,
  "▁Battalion": 4017,
  "▁companies": 4018,
  "▁Academy": 4019,
  "▁vess": 4020,
  "▁Joseph": 4021,
  "▁maximum": 4022,
  "itan": 4023,
  "astic": 4024,
  "▁rough": 4025,
  "▁designated": 4026,
  "▁society": 4027,
  "▁adj": 4028,
  "▁log": 4029,
  "▁Croat": 4030,
  "▁Columb": 4031,
  "▁Luc": 4032,
  "▁dance": 4033,
  "▁mainly": 4034,
  "▁Commission": 4035,
  "▁completely": 4036,
  "▁ess": 4037,
  "▁thous": 4038,
  "▁encour": 4039,
  "▁independent": 4040,
  "▁gar": 4041,
  "ota": 4042,
  "iated": 4043,
  "▁say": 4044,
  "▁suc": 4045,
  "▁actions": 4046,
  "▁concent": 4047,
  "ala": 4048,
  "mond": 4049,
  "ellig": 4050,
  "town": 4051,
  "thlet": 4052,
  "ylvan": 4053,
  "▁actor": 4054,
  "▁your": 4055,
  "▁Italy": 4056,
  "▁1945": 4057,
  "▁Saint": 4058,
  "▁share": 4059,
  "▁Little": 4060,
  "▁49": 4061,
  "aling": 4062,
  "▁scoring": 4063,
  "-3": 4064,
  "▁Brigade": 4065,
  "ube": 4066,
  "▁Kr": 4067,
  "pson": 4068,
  "inem": 4069,
  "▁quality": 4070,
  "▁innings": 4071,
  "▁Gre": 4072,
  "▁Bridge": 4073,
  "▁Fin": 4074,
  "▁mem": 4075,
  "▁widely": 4076,
  "▁corn": 4077,
  "▁function": 4078,
  "eed": 4079,
  "▁impact": 4080,
  "▁Sk": 4081,
  "▁Tw": 4082,
  "▁Book": 4083,
  "▁winter": 4084,
  "cers": 4085,
  "▁write": 4086,
  "▁rating": 4087,
  "▁specific": 4088,
  "za": 4089,
  "mas": 4090,
  "▁strength": 4091,
  "▁confirmed": 4092,
  "▁webs": 4093,
  "▁today": 4094,
  "▁batter": 4095,
  "ux": 4096,
  "▁serve": 4097,
  "▁torped": 4098,
  "▁versions": 4099,
  "bo": 4100,
  "▁75": 4101,
  "ricket": 4102,
  "ips": 4103,
  "rowd": 4104,
  "▁300": 4105,
  "▁Boy": 4106,
  "▁Tim": 4107,
  "▁activity": 4108,
  "lam": 4109,
  "▁proved": 4110,
  "▁captain": 4111,
  "▁Van": 4112,
  "▁blue": 4113,
  "▁expressed": 4114,
  "▁sources": 4115,
  "▁background": 4116,
  "▁Wind": 4117,
  "AS": 4118,
  "HL": 4119,
  "rative": 4120,
  "▁greatest": 4121,
  "onn": 4122,
  "osaur": 4123,
  "▁recent": 4124,
  "▁38": 4125,
  "adel": 4126,
  "▁Youn": 4127,
  "▁conflict": 4128,
  "▁subsequent": 4129,
  "rupt": 4130,
  "▁Though": 4131,
  "▁Care": 4132,
  "▁Ray": 4133,
  "▁artists": 4134,
  "bit": 4135,
  "▁Series": 4136,
  "▁Chief": 4137,
  "▁explained": 4138,
  "▁181": 4139,
  "▁seg": 4140,
  "hew": 4141,
  "▁Show": 4142,
  "▁coming": 4143,
  "▁Pop": 4144,
  "▁interp": 4145,
  "▁pilot": 4146,
  "▁Entertain": 4147,
  "▁ir": 4148,
  "▁search": 4149,
  "iano": 4150,
  "itness": 4151,
  "▁naval": 4152,
  "▁Way": 4153,
  "olved": 4154,
  "oured": 4155,
  "▁Hal": 4156,
  "▁thir": 4157,
  "▁news": 4158,
  "▁seconds": 4159,
  "-19": 4160,
  "while": 4161,
  "▁1989": 4162,
  "▁Mat": 4163,
  "▁Good": 4164,
  "▁tells": 4165,
  "▁promoted": 4166,
  "▁Tod": 4167,
  "▁invasion": 4168,
  "iced": 4169,
  "▁boy": 4170,
  "▁Ma": 4171,
  "▁alongside": 4172,
  "▁sn": 4173,
  "▁sought": 4174,
  "▁identified": 4175,
  "rec": 4176,
  "▁passing": 4177,
  "▁Regiment": 4178,
  "▁179": 4179,
  "▁Victoria": 4180,
  "▁paid": 4181,
  "▁Histor": 4182,
  "▁Museum": 4183,
  "▁titled": 4184,
  "▁results": 4185,
  "▁Form": 4186,
  "▁Admiral": 4187,
  "▁nominated": 4188,
  "-4": 4189,
  "▁doing": 4190,
  "▁Line": 4191,
  "ibrary": 4192,
  "▁dedic": 4193,
  "ancy": 4194,
  "▁causing": 4195,
  "▁Football": 4196,
  "▁Def": 4197,
  "▁peace": 4198,
  "ategory": 4199,
  "▁albums": 4200,
  "rog": 4201,
  "▁hus": 4202,
  "▁policy": 4203,
  "▁ice": 4204,
  "▁seek": 4205,
  "▁platform": 4206,
  "▁Hor": 4207,
  "inson": 4208,
  "▁Charl": 4209,
  "▁Entertainment": 4210,
  "ining": 4211,
  "▁Service": 4212,
  "▁systems": 4213,
  "▁theory": 4214,
  "bur": 4215,
  "▁transl": 4216,
  "▁piece": 4217,
  "▁influenced": 4218,
  "▁bound": 4219,
  "▁older": 4220,
  "▁41": 4221,
  "▁pun": 4222,
  "▁send": 4223,
  "ero": 4224,
  "▁Ell": 4225,
  "▁Fleet": 4226,
  "▁trial": 4227,
  "▁Fre": 4228,
  "bon": 4229,
  "▁charge": 4230,
  "▁physical": 4231,
  "▁Light": 4232,
  "▁Aut": 4233,
  "▁Dun": 4234,
  "gu": 4235,
  "och": 4236,
  "▁Conf": 4237,
  "▁content": 4238,
  "▁reaching": 4239,
  "▁kg": 4240,
  "▁hands": 4241,
  "▁Through": 4242,
  "▁sixth": 4243,
  "▁instit": 4244,
  "▁Ca": 4245,
  "▁sust": 4246,
  "▁electric": 4247,
  "anta": 4248,
  "▁Carl": 4249,
  "▁Class": 4250,
  "▁Add": 4251,
  "reland": 4252,
  "▁cities": 4253,
  "▁culture": 4254,
  "▁debuted": 4255,
  "▁shortly": 4256,
  "▁Rog": 4257,
  "▁Avenue": 4258,
  "▁apparent": 4259,
  "ola": 4260,
  "▁Upon": 4261,
  "▁represented": 4262,
  "▁organization": 4263,
  "▁instrument": 4264,
  "▁favour": 4265,
  "▁soundtrack": 4266,
  "appen": 4267,
  "▁chem": 4268,
  "▁offer": 4269,
  "▁officially": 4270,
  "eld": 4271,
  "▁border": 4272,
  "▁mind": 4273,
  "▁pict": 4274,
  "itable": 4275,
  "▁county": 4276,
  "▁matter": 4277,
  "▁pattern": 4278,
  "▁artillery": 4279,
  "▁Far": 4280,
  "ylvania": 4281,
  "▁Valley": 4282,
  "▁prominent": 4283,
  "▁heavily": 4284,
  "oration": 4285,
  "▁weather": 4286,
  "olt": 4287,
  "▁says": 4288,
  "▁seasons": 4289,
  "▁Catholic": 4290,
  "▁green": 4291,
  "▁sense": 4292,
  "▁termin": 4293,
  "▁visited": 4294,
  "aven": 4295,
  "▁wild": 4296,
  "▁owned": 4297,
  "▁residents": 4298,
  "▁Bus": 4299,
  "▁Dam": 4300,
  "▁Ireland": 4301,
  "▁Ill": 4302,
  "ushed": 4303,
  "▁1920": 4304,
  "▁emot": 4305,
  "▁supp": 4306,
  "▁hospital": 4307,
  "▁Ry": 4308,
  "clus": 4309,
  "▁negot": 4310,
  "lers": 4311,
  "▁burn": 4312,
  "▁laid": 4313,
  "▁resc": 4314,
  "▁resist": 4315,
  "AF": 4316,
  "ordin": 4317,
  "▁path": 4318,
  "▁Bey": 4319,
  "▁require": 4320,
  "▁Tay": 4321,
  "▁argued": 4322,
  "▁drug": 4323,
  "▁weapons": 4324,
  "▁sexual": 4325,
  "▁Georg": 4326,
  "▁pal": 4327,
  "▁1943": 4328,
  "▁here": 4329,
  "▁image": 4330,
  "▁returning": 4331,
  "ote": 4332,
  "urban": 4333,
  "▁officials": 4334,
  "▁Jul": 4335,
  "abeth": 4336,
  "▁Eliz": 4337,
  "▁Norm": 4338,
  "▁distance": 4339,
  "rich": 4340,
  "▁Nin": 4341,
  "acity": 4342,
  "onents": 4343,
  "essions": 4344,
  "▁prepar": 4345,
  "▁hero": 4346,
  "▁capture": 4347,
  "▁Hard": 4348,
  "▁true": 4349,
  "▁square": 4350,
  "stone": 4351,
  "▁poet": 4352,
  "▁stone": 4353,
  "▁Ram": 4354,
  "▁ahead": 4355,
  "unction": 4356,
  "▁couple": 4357,
  "▁Hurricane": 4358,
  "ighth": 4359,
  "▁Direct": 4360,
  "▁worldwide": 4361,
  "▁gas": 4362,
  "▁wing": 4363,
  "▁consisted": 4364,
  "▁Di": 4365,
  "ayer": 4366,
  "acement": 4367,
  "▁Middle": 4368,
  "▁injury": 4369,
  "▁toward": 4370,
  "▁Jon": 4371,
  "pool": 4372,
  "rong": 4373,
  "▁1987": 4374,
  "▁aired": 4375,
  "▁trying": 4376,
  "▁territory": 4377,
  "▁don": 4378,
  "▁studies": 4379,
  "▁sout": 4380,
  "▁horses": 4381,
  "ruit": 4382,
  "▁student": 4383,
  "ental": 4384,
  "ocked": 4385,
  "▁crowd": 4386,
  "▁leaders": 4387,
  "aved": 4388,
  "▁hour": 4389,
  "▁contemporary": 4390,
  "▁Liber": 4391,
  "▁equipment": 4392,
  "▁claims": 4393,
  "▁district": 4394,
  "▁criticized": 4395,
  "▁eas": 4396,
  "ror": 4397,
  "▁exped": 4398,
  "▁stra": 4399,
  "▁surrounding": 4400,
  "▁Rom": 4401,
  "▁propos": 4402,
  "▁spread": 4403,
  "▁Top": 4404,
  "▁exec": 4405,
  "▁stre": 4406,
  "▁pan": 4407,
  "▁Homer": 4408,
  "▁guest": 4409,
  "▁occasion": 4410,
  "▁182": 4411,
  "amber": 4412,
  "azz": 4413,
  "▁150": 4414,
  "▁Dutch": 4415,
  "▁senior": 4416,
  "▁rainfall": 4417,
  "▁Americans": 4418,
  "▁appearances": 4419,
  "hi": 4420,
  "anna": 4421,
  "▁displ": 4422,
  "▁fully": 4423,
  "▁surpris": 4424,
  "rael": 4425,
  "▁hall": 4426,
  "▁reign": 4427,
  "▁singles": 4428,
  "enge": 4429,
  "▁pack": 4430,
  "▁twice": 4431,
  "▁therefore": 4432,
  "▁formation": 4433,
  "▁Dev": 4434,
  "▁grew": 4435,
  "▁shell": 4436,
  "▁Kar": 4437,
  "anger": 4438,
  "▁citiz": 4439,
  "izes": 4440,
  "▁doub": 4441,
  "▁fellow": 4442,
  "ockey": 4443,
  "▁simply": 4444,
  "▁figures": 4445,
  "▁reference": 4446,
  "▁Young": 4447,
  "century": 4448,
  "▁growth": 4449,
  "▁historian": 4450,
  "▁typically": 4451,
  "ano": 4452,
  "▁Rod": 4453,
  "▁master": 4454,
  "▁machine": 4455,
  "▁Northern": 4456,
  "▁emph": 4457,
  "▁frequently": 4458,
  "arden": 4459,
  "then": 4460,
  "▁paper": 4461,
  "▁chose": 4462,
  "▁escape": 4463,
  "▁Carolina": 4464,
  "▁dyn": 4465,
  "▁Holly": 4466,
  "▁adapt": 4467,
  "▁District": 4468,
  "▁Mod": 4469,
  "omers": 4470,
  "▁ox": 4471,
  "▁Field": 4472,
  "▁speech": 4473,
  "▁Os": 4474,
  "▁Bond": 4475,
  "▁Andrew": 4476,
  "la": 4477,
  "uct": 4478,
  "▁Tem": 4479,
  "▁magn": 4480,
  "▁attract": 4481,
  "▁Of": 4482,
  "▁Che": 4483,
  "▁Penns": 4484,
  "▁split": 4485,
  "ners": 4486,
  "▁Life": 4487,
  "▁pieces": 4488,
  "resp": 4489,
  "▁appl": 4490,
  "▁surre": 4491,
  "▁northeast": 4492,
  "▁Marsh": 4493,
  "ias": 4494,
  "▁iron": 4495,
  "▁Daniel": 4496,
  "▁follows": 4497,
  "embly": 4498,
  "▁alone": 4499,
  "▁billion": 4500,
  "uls": 4501,
  "▁Work": 4502,
  "▁wick": 4503,
  "▁trees": 4504,
  "▁leaves": 4505,
  "▁tournament": 4506,
  "▁god": 4507,
  "▁comes": 4508,
  "▁moment": 4509,
  "ports": 4510,
  "isf": 4511,
  "▁reports": 4512,
  "▁stations": 4513,
  "ym": 4514,
  "set": 4515,
  "orter": 4516,
  "▁passes": 4517,
  "▁opposition": 4518,
  "▁42": 4519,
  "▁Fer": 4520,
  "▁accident": 4521,
  "the": 4522,
  "▁husband": 4523,
  "▁university": 4524,
  "add": 4525,
  "rect": 4526,
  "▁Beat": 4527,
  "ifying": 4528,
  "eller": 4529,
  "▁remark": 4530,
  "▁unknown": 4531,
  "▁Lew": 4532,
  "▁eth": 4533,
  "ading": 4534,
  "▁murder": 4535,
  "▁benef": 4536,
  "▁Alexander": 4537,
  "▁executive": 4538,
  "agn": 4539,
  "▁Alb": 4540,
  "▁step": 4541,
  "▁39": 4542,
  "ampion": 4543,
  "▁Gal": 4544,
  "▁chosen": 4545,
  "igg": 4546,
  "▁cert": 4547,
  "edd": 4548,
  "ura": 4549,
  "▁dog": 4550,
  "▁tun": 4551,
  "▁medical": 4552,
  "▁website": 4553,
  "rid": 4554,
  "uous": 4555,
  "▁Guard": 4556,
  "resh": 4557,
  "itled": 4558,
  "▁opposed": 4559,
  "▁accompan": 4560,
  "uled": 4561,
  "▁Bart": 4562,
  "▁phil": 4563,
  "▁Studios": 4564,
  "▁risk": 4565,
  "▁contest": 4566,
  "▁hun": 4567,
  "ager": 4568,
  "emic": 4569,
  "fully": 4570,
  "▁label": 4571,
  "▁editor": 4572,
  "▁newly": 4573,
  "▁communic": 4574,
  "▁authority": 4575,
  "elve": 4576,
  "▁severe": 4577,
  "▁Scottish": 4578,
  "▁Wilson": 4579,
  "▁adopted": 4580,
  "▁affected": 4581,
  "clusion": 4582,
  "▁Sub": 4583,
  "▁Post": 4584,
  "▁ring": 4585,
  "illy": 4586,
  "▁Short": 4587,
  "▁prompt": 4588,
  "lement": 4589,
  "lines": 4590,
  "▁Each": 4591,
  "▁cell": 4592,
  "▁birds": 4593,
  "ographer": 4594,
  "▁floor": 4595,
  "ables": 4596,
  "▁1988": 4597,
  "▁earth": 4598,
  "▁attrib": 4599,
  "▁Mike": 4600,
  "▁happen": 4601,
  "gar": 4602,
  "antly": 4603,
  "ucky": 4604,
  "▁opin": 4605,
  "ocated": 4606,
  "▁governor": 4607,
  "▁55": 4608,
  "TC": 4609,
  "▁Duke": 4610,
  "▁actors": 4611,
  "▁planet": 4612,
  "▁Fantasy": 4613,
  "▁activities": 4614,
  "▁Polish": 4615,
  "▁ut": 4616,
  "▁bal": 4617,
  "▁extra": 4618,
  "▁Taylor": 4619,
  "▁railway": 4620,
  "▁basis": 4621,
  "ufact": 4622,
  "▁coal": 4623,
  "▁value": 4624,
  "▁wounded": 4625,
  "▁Ros": 4626,
  "▁fuel": 4627,
  "▁draft": 4628,
  "▁element": 4629,
  "▁Government": 4630,
  "▁Colon": 4631,
  "▁condition": 4632,
  "enger": 4633,
  "▁Det": 4634,
  "udget": 4635,
  "ev": 4636,
  "arts": 4637,
  "▁honor": 4638,
  "▁defense": 4639,
  "▁setting": 4640,
  "▁Festival": 4641,
  "▁bul": 4642,
  "▁fired": 4643,
  "utation": 4644,
  "▁Senate": 4645,
  "▁losing": 4646,
  "▁workers": 4647,
  "▁treatment": 4648,
  "isco": 4649,
  "▁Bab": 4650,
  "▁Eastern": 4651,
  "▁nothing": 4652,
  "▁experiment": 4653,
  "imet": 4654,
  "more": 4655,
  "▁bit": 4656,
  "▁deploy": 4657,
  "▁producers": 4658,
  "▁Pennsylvania": 4659,
  "uses": 4660,
  "▁unf": 4661,
  "▁maintained": 4662,
  "▁Gi": 4663,
  "ancing": 4664,
  "▁MD": 4665,
  "▁swe": 4666,
  "▁Girl": 4667,
  "▁Week": 4668,
  "▁Commun": 4669,
  "aming": 4670,
  "onent": 4671,
  "FA": 4672,
  "▁agg": 4673,
  "▁hyd": 4674,
  "estic": 4675,
  "uman": 4676,
  "▁orders": 4677,
  "▁weight": 4678,
  "stitution": 4679,
  "▁Tech": 4680,
  "▁herself": 4681,
  "▁rear": 4682,
  "▁liber": 4683,
  "akers": 4684,
  "▁rival": 4685,
  "▁emphas": 4686,
  "▁Islands": 4687,
  "▁Governor": 4688,
  "▁Elizabeth": 4689,
  "onc": 4690,
  "▁compar": 4691,
  "▁sail": 4692,
  "▁sle": 4693,
  "▁walls": 4694,
  "▁casual": 4695,
  "▁Joe": 4696,
  "isters": 4697,
  "▁operated": 4698,
  "▁newspaper": 4699,
  "ilies": 4700,
  "ivity": 4701,
  "▁disease": 4702,
  "▁manufact": 4703,
  "ledge": 4704,
  "▁Inst": 4705,
  "▁Night": 4706,
  "▁Card": 4707,
  "▁Hung": 4708,
  "▁rang": 4709,
  "▁guard": 4710,
  "▁extend": 4711,
  "▁terr": 4712,
  "▁filming": 4713,
  "anda": 4714,
  "▁contained": 4715,
  "andy": 4716,
  "imens": 4717,
  "▁bodies": 4718,
  "▁48": 4719,
  "▁native": 4720,
  "▁growing": 4721,
  "▁arms": 4722,
  "▁Christmas": 4723,
  "▁System": 4724,
  "▁advanced": 4725,
  "▁Ocean": 4726,
  "▁lives": 4727,
  "▁Albert": 4728,
  "▁extr": 4729,
  "▁column": 4730,
  "▁squadron": 4731,
  "▁consecutive": 4732,
  "▁evac": 4733,
  "▁camer": 4734,
  "▁sens": 4735,
  "▁silver": 4736,
  "▁receive": 4737,
  "▁participated": 4738,
  "-5": 4739,
  "era": 4740,
  "▁fan": 4741,
  "▁vote": 4742,
  "▁spirit": 4743,
  "▁famous": 4744,
  "ricult": 4745,
  "▁Spain": 4746,
  "▁roads": 4747,
  "▁Corn": 4748,
  "▁agreement": 4749,
  "gend": 4750,
  "▁Jud": 4751,
  "standing": 4752,
  "▁fair": 4753,
  "▁Civil": 4754,
  "▁filmed": 4755,
  "▁sequence": 4756,
  "▁firm": 4757,
  "▁Allied": 4758,
  "▁capacity": 4759,
  "▁ur": 4760,
  "pton": 4761,
  "▁advant": 4762,
  "room": 4763,
  "▁1986": 4764,
  "▁supply": 4765,
  "▁rom": 4766,
  "▁Orig": 4767,
  "met": 4768,
  "▁bass": 4769,
  "▁tree": 4770,
  "▁Harry": 4771,
  "▁psych": 4772,
  "▁minute": 4773,
  "▁elev": 4774,
  "▁Mean": 4775,
  "▁entr": 4776,
  "orship": 4777,
  "ocks": 4778,
  "▁launch": 4779,
  "▁Coast": 4780,
  "▁faced": 4781,
  "▁WW": 4782,
  "▁bey": 4783,
  "▁Crit": 4784,
  "▁feed": 4785,
  "▁homes": 4786,
  "▁serving": 4787,
  "ety": 4788,
  "▁creating": 4789,
  "▁doll": 4790,
  "▁council": 4791,
  "▁possibly": 4792,
  "▁Tra": 4793,
  "▁negative": 4794,
  "▁Cat": 4795,
  "▁Jac": 4796,
  "▁inh": 4797,
  "▁What": 4798,
  "▁drive": 4799,
  "▁granted": 4800,
  "isers": 4801,
  "▁weak": 4802,
  "▁Further": 4803,
  "▁incident": 4804,
  ",500": 4805,
  "istics": 4806,
  "▁Clark": 4807,
  "▁beyond": 4808,
  "▁fought": 4809,
  "▁Operation": 4810,
  "▁task": 4811,
  "▁spect": 4812,
  "▁extensive": 4813,
  "▁necessary": 4814,
  "iny": 4815,
  "▁successfully": 4816,
  "edom": 4817,
  "▁Pers": 4818,
  "▁briefly": 4819,
  "▁failure": 4820,
  "▁retired": 4821,
  "▁Wat": 4822,
  "▁offensive": 4823,
  "▁spring": 4824,
  "▁believe": 4825,
  "▁Lo": 4826,
  "iner": 4827,
  "stream": 4828,
  "▁Doctor": 4829,
  "▁Bul": 4830,
  "▁pet": 4831,
  "▁enter": 4832,
  "▁Arthur": 4833,
  "▁Pen": 4834,
  "water": 4835,
  "▁Lind": 4836,
  "▁color": 4837,
  "▁habit": 4838,
  "▁Wild": 4839,
  "▁Institute": 4840,
  "▁Republican": 4841,
  "▁contact": 4842,
  "▁improved": 4843,
  "▁inte": 4844,
  "haps": 4845,
  "▁1939": 4846,
  "▁chair": 4847,
  "▁places": 4848,
  "▁historical": 4849,
  "oln": 4850,
  "▁tower": 4851,
  "▁flying": 4852,
  "▁strike": 4853,
  "▁Men": 4854,
  "▁ends": 4855,
  "▁killing": 4856,
  "▁Blue": 4857,
  "▁solo": 4858,
  "▁animal": 4859,
  "▁Mid": 4860,
  "▁1968": 4861,
  "▁Live": 4862,
  "▁turns": 4863,
  "▁applic": 4864,
  "oles": 4865,
  "▁Cub": 4866,
  "ico": 4867,
  "▁Ohio": 4868,
  "▁load": 4869,
  "▁Castle": 4870,
  "▁Jersey": 4871,
  "▁administration": 4872,
  "wing": 4873,
  "▁era": 4874,
  "▁Board": 4875,
  "▁Square": 4876,
  "▁straight": 4877,
  "▁narrow": 4878,
  "▁perman": 4879,
  "▁express": 4880,
  "ić": 4881,
  "▁Mir": 4882,
  "▁prin": 4883,
  "iot": 4884,
  "imal": 4885,
  "▁mob": 4886,
  "▁repeated": 4887,
  "▁Cambridge": 4888,
  "▁Israel": 4889,
  "▁measure": 4890,
  "▁IS": 4891,
  "appy": 4892,
  "▁Hit": 4893,
  "avalry": 4894,
  "▁delay": 4895,
  "▁achieved": 4896,
  "▁individuals": 4897,
  "acks": 4898,
  "outs": 4899,
  "▁ast": 4900,
  "▁Braz": 4901,
  "omy": 4902,
  "▁rid": 4903,
  "▁heard": 4904,
  "mosp": 4905,
  "▁unsu": 4906,
  "adelph": 4907,
  "▁paralle": 4908,
  "▁ancient": 4909,
  "ima": 4910,
  "▁commonly": 4911,
  "ype": 4912,
  "fort": 4913,
  "▁kilometres": 4914,
  "▁eye": 4915,
  "ishes": 4916,
  "▁data": 4917,
  "ienced": 4918,
  "▁landing": 4919,
  "▁criticism": 4920,
  "▁chor": 4921,
  "friend": 4922,
  "oma": 4923,
  "roll": 4924,
  "▁gives": 4925,
  "▁yellow": 4926,
  "▁Hy": 4927,
  "ella": 4928,
  "▁Elect": 4929,
  "▁Philadelph": 4930,
  "▁Home": 4931,
  "▁Sher": 4932,
  "▁normal": 4933,
  "rif": 4934,
  "▁diam": 4935,
  "▁Are": 4936,
  "▁Land": 4937,
  "▁roles": 4938,
  "▁caught": 4939,
  "▁degree": 4940,
  "▁regarded": 4941,
  "▁table": 4942,
  "▁Georgia": 4943,
  "▁dismiss": 4944,
  "▁describes": 4945,
  "▁kick": 4946,
  "▁genus": 4947,
  "▁seventh": 4948,
  "▁challeng": 4949,
  "▁leadership": 4950,
  "uate": 4951,
  "ented": 4952,
  "▁contain": 4953,
  "▁interchange": 4954,
  "▁Sund": 4955,
  "ava": 4956,
  "▁mis": 4957,
  "iana": 4958,
  "▁ideas": 4959,
  "▁abandoned": 4960,
  "▁1985": 4961,
  "▁torpedo": 4962,
  "▁SR": 4963,
  "▁broken": 4964,
  "▁franch": 4965,
  "▁Philadelphia": 4966,
  "▁headquarters": 4967,
  "BA": 4968,
  "▁Gall": 4969,
  "▁Gil": 4970,
  "▁Germ": 4971,
  "▁43": 4972,
  "▁47": 4973,
  "▁1984": 4974,
  "▁imag": 4975,
  "▁Never": 4976,
  "▁poll": 4977,
  "▁Irish": 4978,
  "▁drop": 4979,
  "restling": 4980,
  "▁65": 4981,
  "umes": 4982,
  "▁Due": 4983,
  "▁progress": 4984,
  "▁Exp": 4985,
  "▁dial": 4986,
  "▁twelve": 4987,
  "▁determined": 4988,
  "▁CD": 4989,
  "▁Ly": 4990,
  "aith": 4991,
  "etts": 4992,
  "▁Even": 4993,
  "▁Secretary": 4994,
  "▁household": 4995,
  "▁Among": 4996,
  "▁Ul": 4997,
  "▁fat": 4998,
  "▁lands": 4999,
  "▁1967": 5000,
  "▁committee": 5001,
  "▁rejected": 5002,
  "▁authorities": 5003,
  "▁Us": 5004,
  "▁Liver": 5005,
  "▁finds": 5006,
  "▁explos": 5007,
  "▁Mul": 5008,
  "bl": 5009,
  "gn": 5010,
  "▁quite": 5011,
  "▁Bru": 5012,
  "▁Cy": 5013,
  "▁Les": 5014,
  "▁sets": 5015,
  "▁provides": 5016,
  "iday": 5017,
  "ourney": 5018,
  "▁armed": 5019,
  "▁sports": 5020,
  "▁arrival": 5021,
  "▁shark": 5022,
  "▁street": 5023,
  "▁acquired": 5024,
  "apers": 5025,
  "▁Columbia": 5026,
  "▁expanded": 5027,
  "▁Tropical": 5028,
  "ms": 5029,
  "▁Fe": 5030,
  "▁glob": 5031,
  "▁drama": 5032,
  "▁battalion": 5033,
  "▁purchased": 5034,
  "attle": 5035,
  "▁Brazil": 5036,
  "▁crossing": 5037,
  "kins": 5038,
  "uting": 5039,
  "▁beaut": 5040,
  "agement": 5041,
  "▁effective": 5042,
  "ba": 5043,
  "▁entirely": 5044,
  "▁unp": 5045,
  "▁advert": 5046,
  "▁formula": 5047,
  "ii": 5048,
  "erc": 5049,
  "ipl": 5050,
  "▁Linc": 5051,
  "▁upgr": 5052,
  "▁singing": 5053,
  "▁expansion": 5054,
  "▁bott": 5055,
  "▁soft": 5056,
  "iments": 5057,
  "▁finish": 5058,
  "▁recently": 5059,
  "▁dedicated": 5060,
  "hens": 5061,
  "▁Prot": 5062,
  "oted": 5063,
  "▁Lar": 5064,
  "▁deliver": 5065,
  "▁SS": 5066,
  "inals": 5067,
  "▁Writ": 5068,
  "▁learn": 5069,
  "igr": 5070,
  "inity": 5071,
  "▁Early": 5072,
  "▁Meanwhile": 5073,
  "▁51": 5074,
  "▁infantry": 5075,
  "▁suggests": 5076,
  "▁vehicles": 5077,
  "Americ": 5078,
  "▁unique": 5079,
  "ifically": 5080,
  "▁families": 5081,
  "etball": 5082,
  "▁Album": 5083,
  "▁plants": 5084,
  "▁prefer": 5085,
  "▁52": 5086,
  "Station": 5087,
  "▁Mov": 5088,
  "ingly": 5089,
  "▁Ash": 5090,
  "▁Also": 5091,
  "▁strik": 5092,
  "▁Lincoln": 5093,
  "▁currently": 5094,
  "▁decre": 5095,
  "▁creation": 5096,
  "▁Leg": 5097,
  "▁article": 5098,
  "▁Anderson": 5099,
  "▁flooding": 5100,
  "▁locations": 5101,
  "▁PlayStation": 5102,
  "▁ca": 5103,
  "▁Hay": 5104,
  "▁fix": 5105,
  "▁resemb": 5106,
  "▁Liverpool": 5107,
  "▁islands": 5108,
  ",2": 5109,
  "-6": 5110,
  "▁44": 5111,
  "▁Ven": 5112,
  "▁withdraw": 5113,
  "▁roof": 5114,
  "▁defin": 5115,
  "▁computer": 5116,
  "▁aim": 5117,
  "▁comedy": 5118,
  "▁46": 5119,
  "▁Fam": 5120,
  "illing": 5121,
  "▁Tam": 5122,
  "icial": 5123,
  "▁Burn": 5124,
  "▁intellig": 5125,
  "▁Lieutenant": 5126,
  "▁End": 5127,
  "▁consists": 5128,
  "▁try": 5129,
  "ulate": 5130,
  "▁la": 5131,
  "▁1969": 5132,
  "amin": 5133,
  "▁1983": 5134,
  "▁Chap": 5135,
  "▁Steve": 5136,
  "▁comic": 5137,
  "▁thing": 5138,
  "▁mentioned": 5139,
  "▁accompanied": 5140,
  "▁Wars": 5141,
  "▁mist": 5142,
  "▁orchest": 5143,
  "▁Jenn": 5144,
  "▁Turn": 5145,
  "▁philos": 5146,
  "▁Bor": 5147,
  "▁Kel": 5148,
  "▁suppor": 5149,
  "▁younger": 5150,
  "▁acad": 5151,
  "▁fish": 5152,
  "▁Addition": 5153,
  "▁management": 5154,
  "ceived": 5155,
  "▁atmosp": 5156,
  "▁budget": 5157,
  "▁egg": 5158,
  "▁security": 5159,
  "▁sort": 5160,
  "▁northwest": 5161,
  "uzz": 5162,
  "▁eyes": 5163,
  "awa": 5164,
  "▁Ep": 5165,
  "▁Six": 5166,
  "▁why": 5167,
  "▁labor": 5168,
  "ns": 5169,
  "hol": 5170,
  "▁Balt": 5171,
  "▁Dark": 5172,
  "▁Mah": 5173,
  "▁Once": 5174,
  "▁types": 5175,
  "▁Russia": 5176,
  "▁containing": 5177,
  "▁structures": 5178,
  "fl": 5179,
  "▁Mot": 5180,
  "▁Pot": 5181,
  "▁1972": 5182,
  "▁squad": 5183,
  "racted": 5184,
  "▁advantage": 5185,
  "▁1914": 5186,
  "▁escort": 5187,
  "▁lic": 5188,
  "atures": 5189,
  "▁extrem": 5190,
  "oz": 5191,
  "▁performing": 5192,
  "worth": 5193,
  "▁hired": 5194,
  "▁Revolution": 5195,
  "▁commissioned": 5196,
  "▁Rol": 5197,
  "▁hair": 5198,
  "▁unus": 5199,
  "iations": 5200,
  "respond": 5201,
  "▁Nintend": 5202,
  "▁ceremony": 5203,
  "▁nob": 5204,
  "▁expedition": 5205,
  "▁Head": 5206,
  "▁defence": 5207,
  "▁purpose": 5208,
  "▁1979": 5209,
  "▁1982": 5210,
  "▁chance": 5211,
  "▁nuclear": 5212,
  "mouth": 5213,
  "▁Order": 5214,
  "▁Prime": 5215,
  "▁Common": 5216,
  "▁120": 5217,
  "▁fresh": 5218,
  "▁graph": 5219,
  "▁mouth": 5220,
  "▁belong": 5221,
  "▁height": 5222,
  "▁Nintendo": 5223,
  "▁touchdown": 5224,
  "bound": 5225,
  "▁react": 5226,
  "uan": 5227,
  "▁pros": 5228,
  "▁calls": 5229,
  "▁branch": 5230,
  "▁178": 5231,
  "▁1918": 5232,
  "▁Korean": 5233,
  "▁closely": 5234,
  "▁convers": 5235,
  "zant": 5236,
  "osa": 5237,
  "▁1964": 5238,
  "▁1966": 5239,
  "▁Storm": 5240,
  "▁elimin": 5241,
  "bar": 5242,
  "▁bat": 5243,
  "▁Brook": 5244,
  "▁powers": 5245,
  "▁trains": 5246,
  "▁perfect": 5247,
  "▁reflect": 5248,
  "▁protect": 5249,
  "▁64": 5250,
  "heim": 5251,
  "rons": 5252,
  "▁Sound": 5253,
  "▁titles": 5254,
  "mod": 5255,
  "▁shooting": 5256,
  "▁Francisco": 5257,
  "▁opportunity": 5258,
  "▁facilities": 5259,
  "▁strengthen": 5260,
  "▁Arg": 5261,
  "▁mut": 5262,
  "apore": 5263,
  "▁fiction": 5264,
  "▁Asia": 5265,
  "▁Rome": 5266,
  "▁alle": 5267,
  "▁defensive": 5268,
  "state": 5269,
  "▁Earl": 5270,
  "▁wave": 5271,
  "▁popularity": 5272,
  "wall": 5273,
  "▁Vol": 5274,
  "▁intensity": 5275,
  "▁citizens": 5276,
  "box": 5277,
  "mun": 5278,
  "burgh": 5279,
  "▁roll": 5280,
  "▁#": 5281,
  "▁adding": 5282,
  "agan": 5283,
  "▁Hun": 5284,
  "▁Shak": 5285,
  "▁Lewis": 5286,
  "▁choice": 5287,
  "ua": 5288,
  "avel": 5289,
  "▁illust": 5290,
  "▁simple": 5291,
  "▁contributed": 5292,
  "▁1971": 5293,
  "▁shall": 5294,
  "▁Byzant": 5295,
  "▁cultural": 5296,
  "▁mic": 5297,
  "lim": 5298,
  "▁tim": 5299,
  "essed": 5300,
  "▁tail": 5301,
  "▁shared": 5302,
  "▁motor": 5303,
  "▁observ": 5304,
  "▁rapidly": 5305,
  "▁Press": 5306,
  "▁merch": 5307,
  "▁recognized": 5308,
  "▁session": 5309,
  "▁prepared": 5310,
  "▁Singapore": 5311,
  "▁Bad": 5312,
  "▁Syd": 5313,
  "▁1,000": 5314,
  "▁Grant": 5315,
  "▁exact": 5316,
  "▁piano": 5317,
  "▁Olympic": 5318,
  "zer": 5319,
  "▁Ka": 5320,
  "▁Gib": 5321,
  "ashion": 5322,
  "▁engaged": 5323,
  "▁Pu": 5324,
  "▁teach": 5325,
  "▁mountain": 5326,
  "▁prote": 5327,
  "▁Railway": 5328,
  "▁occupied": 5329,
  "▁Hollywood": 5330,
  "▁aid": 5331,
  "▁Office": 5332,
  "▁organized": 5333,
  "▁providing": 5334,
  "ran": 5335,
  "inth": 5336,
  "▁deck": 5337,
  "▁viewed": 5338,
  "▁notable": 5339,
  "▁Carey": 5340,
  "▁unsuccess": 5341,
  "▁cry": 5342,
  "▁sac": 5343,
  "▁protected": 5344,
  "▁53": 5345,
  "▁Germans": 5346,
  "▁NHL": 5347,
  "inger": 5348,
  "▁Only": 5349,
  "▁People": 5350,
  "▁Pre": 5351,
  "amm": 5352,
  "ware": 5353,
  "▁knew": 5354,
  "▁Chart": 5355,
  "▁worth": 5356,
  "▁Emperor": 5357,
  "▁scholars": 5358,
  "iate": 5359,
  "▁von": 5360,
  "▁cart": 5361,
  "▁goes": 5362,
  "▁Brian": 5363,
  "▁scheduled": 5364,
  "▁Democratic": 5365,
  "bro": 5366,
  "▁Lis": 5367,
  "opher": 5368,
  "▁resident": 5369,
  "▁selection": 5370,
  "FL": 5371,
  "▁centuries": 5372,
  "▁Conference": 5373,
  "▁conference": 5374,
  "▁Special": 5375,
  "▁focused": 5376,
  "▁Var": 5377,
  "▁supporting": 5378,
  "án": 5379,
  "▁wa": 5380,
  "▁Jean": 5381,
  "▁roughly": 5382,
  "▁correspond": 5383,
  "▁themes": 5384,
  "eral": 5385,
  "▁bands": 5386,
  "▁sites": 5387,
  "theless": 5388,
  "▁Disney": 5389,
  "▁charts": 5390,
  "▁UN": 5391,
  "▁Child": 5392,
  "▁dry": 5393,
  "▁lap": 5394,
  "▁1974": 5395,
  "▁moder": 5396,
  "▁Av": 5397,
  "▁significantly": 5398,
  "gers": 5399,
  "▁concer": 5400,
  "▁parallel": 5401,
  "▁400": 5402,
  "▁Conn": 5403,
  "▁descend": 5404,
  "▁mounted": 5405,
  "▁rob": 5406,
  "▁Summer": 5407,
  "▁approved": 5408,
  "▁developing": 5409,
  "▁Jr": 5410,
  "▁Sa": 5411,
  "▁Daily": 5412,
  "▁pitch": 5413,
  "▁experienced": 5414,
  "▁1973": 5415,
  "▁Gulf": 5416,
  "▁adult": 5417,
  "▁secondary": 5418,
  "▁177": 5419,
  "▁Tro": 5420,
  "▁Nick": 5421,
  "oncé": 5422,
  "▁Miller": 5423,
  "▁gameplay": 5424,
  "osl": 5425,
  "▁Lady": 5426,
  "ologist": 5427,
  "▁visual": 5428,
  "▁cricket": 5429,
  "▁digital": 5430,
  "▁perhaps": 5431,
  "▁holding": 5432,
  "col": 5433,
  "onder": 5434,
  "▁Princ": 5435,
  "▁witness": 5436,
  "▁Kir": 5437,
  "▁Jewish": 5438,
  "▁employed": 5439,
  "▁storyline": 5440,
  "enc": 5441,
  "cles": 5442,
  "iful": 5443,
  "▁Serb": 5444,
  "▁brown": 5445,
  "▁throw": 5446,
  "▁casualties": 5447,
  "▁publication": 5448,
  "▁Bell": 5449,
  "▁awards": 5450,
  "▁motion": 5451,
  "▁symbol": 5452,
  "▁economy": 5453,
  "achus": 5454,
  "unior": 5455,
  "▁cold": 5456,
  "▁distingu": 5457,
  "ropri": 5458,
  "▁Walter": 5459,
  "▁assault": 5460,
  "▁Ret": 5461,
  "▁undert": 5462,
  "rett": 5463,
  "▁vac": 5464,
  "▁letters": 5465,
  "▁receiving": 5466,
  "ults": 5467,
  "▁adap": 5468,
  "▁gain": 5469,
  "▁save": 5470,
  "▁Broad": 5471,
  "▁regions": 5472,
  "▁Between": 5473,
  "ilton": 5474,
  "▁Public": 5475,
  "▁Spring": 5476,
  "▁industrial": 5477,
  "ules": 5478,
  "▁Davis": 5479,
  "▁resistance": 5480,
  "▁Bas": 5481,
  "▁Beyoncé": 5482,
  "▁97": 5483,
  "rence": 5484,
  "▁missing": 5485,
  "▁Kentucky": 5486,
  "▁ec": 5487,
  "omic": 5488,
  "▁enjoyed": 5489,
  "▁getting": 5490,
  "▁reasons": 5491,
  "▁Lab": 5492,
  "▁rot": 5493,
  "▁drew": 5494,
  "▁substant": 5495,
  "wick": 5496,
  "▁1965": 5497,
  "▁compris": 5498,
  "▁renamed": 5499,
  "▁instruct": 5500,
  "▁converted": 5501,
  "▁rise": 5502,
  "▁sand": 5503,
  "▁looking": 5504,
  "omew": 5505,
  "▁cab": 5506,
  "-9": 5507,
  "wise": 5508,
  "yles": 5509,
  "ients": 5510,
  "▁Down": 5511,
  "▁seat": 5512,
  "▁Point": 5513,
  "▁existing": 5514,
  "oh": 5515,
  "▁protection": 5516,
  "rig": 5517,
  "rets": 5518,
  "▁rac": 5519,
  "▁Greg": 5520,
  "▁rules": 5521,
  "▁Philipp": 5522,
  "▁transform": 5523,
  "▁1917": 5524,
  "▁1975": 5525,
  "▁steam": 5526,
  "▁selling": 5527,
  "▁reputation": 5528,
  "put": 5529,
  "▁nick": 5530,
  "▁enl": 5531,
  "▁Bank": 5532,
  "▁Water": 5533,
  "ali": 5534,
  "▁Key": 5535,
  "itors": 5536,
  "ignment": 5537,
  "▁stages": 5538,
  "▁lb": 5539,
  "▁nor": 5540,
  "▁heads": 5541,
  "▁urban": 5542,
  "▁anything": 5543,
  "inking": 5544,
  "va": 5545,
  "▁1946": 5546,
  "▁Whit": 5547,
  "▁agent": 5548,
  "▁franchise": 5549,
  "▁responded": 5550,
  "▁edge": 5551,
  "▁learned": 5552,
  "▁technology": 5553,
  "▁Ken": 5554,
  "▁Mas": 5555,
  "▁Nap": 5556,
  "▁limit": 5557,
  "▁Indust": 5558,
  "ora": 5559,
  "yer": 5560,
  "▁ven": 5561,
  "▁myth": 5562,
  "▁losses": 5563,
  "yph": 5564,
  "▁HMS": 5565,
  "▁Norway": 5566,
  "rin": 5567,
  "▁harm": 5568,
  "▁paint": 5569,
  "▁poem": 5570,
  "▁Massachus": 5571,
  "▁ign": 5572,
  "▁Massachusetts": 5573,
  "▁Ha": 5574,
  "onia": 5575,
  "▁boat": 5576,
  "▁Women": 5577,
  "▁steel": 5578,
  "ato": 5579,
  "▁Run": 5580,
  "▁Fair": 5581,
  "▁Gord": 5582,
  "▁Ross": 5583,
  "▁cars": 5584,
  "▁injured": 5585,
  "▁stadium": 5586,
  "vest": 5587,
  "athan": 5588,
  "▁Sand": 5589,
  "▁alternative": 5590,
  ",3": 5591,
  "▁−": 5592,
  "oir": 5593,
  "▁Die": 5594,
  "▁semi": 5595,
  "▁Sydney": 5596,
  "▁belief": 5597,
  "▁painting": 5598,
  "▁operating": 5599,
  "▁temperature": 5600,
  "asty": 5601,
  "ilding": 5602,
  "▁Station": 5603,
  "▁Mos": 5604,
  "▁fit": 5605,
  "▁Walk": 5606,
  "▁Command": 5607,
  "▁standing": 5608,
  "▁Supreme": 5609,
  "▁actress": 5610,
  ",4": 5611,
  "▁Radio": 5612,
  "▁domestic": 5613,
  "▁Fall": 5614,
  "▁daily": 5615,
  "▁analysis": 5616,
  "▁brothers": 5617,
  "▁intersection": 5618,
  "▁overl": 5619,
  "▁Golden": 5620,
  "▁personnel": 5621,
  "▁succeeded": 5622,
  "hat": 5623,
  "▁Su": 5624,
  "▁sun": 5625,
  "▁allows": 5626,
  "▁introduction": 5627,
  ",6": 5628,
  "▁row": 5629,
  "▁card": 5630,
  "▁youth": 5631,
  "gal": 5632,
  "zen": 5633,
  "▁1976": 5634,
  "▁credited": 5635,
  "▁Bra": 5636,
  "▁Ten": 5637,
  "break": 5638,
  "▁buried": 5639,
  "ographic": 5640,
  "▁1981": 5641,
  "▁Bern": 5642,
  "▁Hart": 5643,
  "▁literature": 5644,
  "▁Moore": 5645,
  "▁cited": 5646,
  "▁drawn": 5647,
  "lane": 5648,
  "▁van": 5649,
  "▁shape": 5650,
  "▁Colonel": 5651,
  "▁connected": 5652,
  "▁McG": 5653,
  "▁flu": 5654,
  "▁freeway": 5655,
  "▁AD": 5656,
  "▁Prov": 5657,
  "▁calc": 5658,
  "▁volume": 5659,
  "otic": 5660,
  "▁showing": 5661,
  "▁MTV": 5662,
  "▁pul": 5663,
  "▁regarding": 5664,
  "eper": 5665,
  "▁Abb": 5666,
  "▁estate": 5667,
  "▁replace": 5668,
  "▁increasingly": 5669,
  "▁About": 5670,
  "▁submar": 5671,
  "▁declined": 5672,
  "▁existence": 5673,
  "run": 5674,
  "ko": 5675,
  "▁Sel": 5676,
  "▁1915": 5677,
  "▁earliest": 5678,
  "▁reaction": 5679,
  "pet": 5680,
  "sey": 5681,
  "▁Mu": 5682,
  "▁Ron": 5683,
  "aka": 5684,
  "▁trip": 5685,
  "▁stopped": 5686,
  ",7": 5687,
  "▁hyp": 5688,
  "iable": 5689,
  "season": 5690,
  "▁Let": 5691,
  "istol": 5692,
  "▁trail": 5693,
  "▁exchange": 5694,
  "▁54": 5695,
  "▁turning": 5696,
  "▁specifically": 5697,
  "▁isol": 5698,
  "▁proceed": 5699,
  "iro": 5700,
  "ador": 5701,
  "iter": 5702,
  "▁opinion": 5703,
  "bell": 5704,
  "▁lov": 5705,
  "iling": 5706,
  "▁Han": 5707,
  "istan": 5708,
  "▁cells": 5709,
  "organ": 5710,
  "onym": 5711,
  "unte": 5712,
  "▁Naval": 5713,
  "▁knots": 5714,
  "▁Airport": 5715,
  "▁journey": 5716,
  "▁boats": 5717,
  "eg": 5718,
  "inary": 5719,
  "unicip": 5720,
  "▁collected": 5721,
  "ulpt": 5722,
  "ashed": 5723,
  "▁Base": 5724,
  "▁consequ": 5725,
  ",1": 5726,
  "foot": 5727,
  "▁Poland": 5728,
  "▁stream": 5729,
  "AR": 5730,
  "▁cool": 5731,
  "come": 5732,
  "atre": 5733,
  "iform": 5734,
  "▁easily": 5735,
  "▁teacher": 5736,
  "ira": 5737,
  "▁1977": 5738,
  "▁rhy": 5739,
  "▁acts": 5740,
  "▁virt": 5741,
  "▁depth": 5742,
  "▁lasted": 5743,
  "▁sustained": 5744,
  "▁hits": 5745,
  "▁rend": 5746,
  "engers": 5747,
  "▁approached": 5748,
  "▁equal": 5749,
  "▁seems": 5750,
  "▁agricult": 5751,
  "long": 5752,
  "▁ban": 5753,
  "▁shel": 5754,
  "▁appoint": 5755,
  "▁landfall": 5756,
  "▁indicated": 5757,
  "▁IV": 5758,
  "ader": 5759,
  "ansas": 5760,
  "psons": 5761,
  "▁wealth": 5762,
  "▁acres": 5763,
  "▁views": 5764,
  "▁Instead": 5765,
  "eke": 5766,
  "verse": 5767,
  "▁core": 5768,
  "▁constitution": 5769,
  "ati": 5770,
  "▁Jes": 5771,
  "▁exerc": 5772,
  "▁towns": 5773,
  "▁Simpsons": 5774,
  "▁projects": 5775,
  "▁settlement": 5776,
  "▁tact": 5777,
  "▁err": 5778,
  "▁1916": 5779,
  "▁patrol": 5780,
  "▁entitled": 5781,
  "-8": 5782,
  "▁tall": 5783,
  "▁scale": 5784,
  "▁routes": 5785,
  "▁Imperial": 5786,
  "▁weakened": 5787,
  ",8": 5788,
  "BN": 5789,
  "▁decade": 5790,
  "▁candidate": 5791,
  "▁battery": 5792,
  "ta": 5793,
  "▁Kim": 5794,
  "▁genre": 5795,
  "apes": 5796,
  "▁uns": 5797,
  "cious": 5798,
  "▁Independ": 5799,
  "life": 5800,
  "▁Sus": 5801,
  "▁1948": 5802,
  "▁Const": 5803,
  "▁athlet": 5804,
  "▁Ottoman": 5805,
  "apped": 5806,
  "▁Anth": 5807,
  "▁trust": 5808,
  "ushing": 5809,
  "▁occas": 5810,
  "▁Justice": 5811,
  "▁Olympics": 5812,
  "▁retained": 5813,
  "▁1978": 5814,
  "▁appeal": 5815,
  "▁sections": 5816,
  "eman": 5817,
  "▁resour": 5818,
  "▁applied": 5819,
  "▁items": 5820,
  "▁museum": 5821,
  "AT": 5822,
  "▁Hon": 5823,
  "tical": 5824,
  "▁laws": 5825,
  "▁designs": 5826,
  "American": 5827,
  "eless": 5828,
  "▁Barb": 5829,
  "▁select": 5830,
  "▁planning": 5831,
  "eler": 5832,
  "▁retire": 5833,
  "▁Vietnam": 5834,
  "▁ways": 5835,
  "▁voted": 5836,
  "uration": 5837,
  "▁Bon": 5838,
  "▁Gra": 5839,
  "▁Jay": 5840,
  "▁writes": 5841,
  "▁Shortly": 5842,
  "▁Cape": 5843,
  "▁Bos": 5844,
  "othes": 5845,
  "▁1963": 5846,
  "▁Prem": 5847,
  "ctions": 5848,
  "▁Dream": 5849,
  "iration": 5850,
  "▁message": 5851,
  "▁southeast": 5852,
  "▁1919": 5853,
  "▁bought": 5854,
  "▁maintain": 5855,
  "▁Vi": 5856,
  "▁Bal": 5857,
  "inois": 5858,
  "▁synt": 5859,
  "▁joint": 5860,
  "▁secure": 5861,
  "▁coastal": 5862,
  "▁Arts": 5863,
  "issance": 5864,
  "▁safety": 5865,
  "▁improve": 5866,
  "icks": 5867,
  "ivered": 5868,
  "▁cinem": 5869,
  "▁Review": 5870,
  "▁proposal": 5871,
  "aked": 5872,
  "▁Att": 5873,
  "▁Ger": 5874,
  "▁bor": 5875,
  "▁engines": 5876,
  "▁arranged": 5877,
  "▁scientific": 5878,
  "▁160": 5879,
  "▁UTC": 5880,
  "▁install": 5881,
  "har": 5882,
  "▁tal": 5883,
  "ender": 5884,
  "▁supplies": 5885,
  "leton": 5886,
  "ropol": 5887,
  "▁reduce": 5888,
  "▁knowledge": 5889,
  "▁catch": 5890,
  "▁violence": 5891,
  "hus": 5892,
  "avig": 5893,
  "▁bed": 5894,
  "▁camera": 5895,
  "▁causes": 5896,
  "▁depend": 5897,
  "emies": 5898,
  "▁address": 5899,
  "produ": 5900,
  "▁Bowl": 5901,
  "▁baseball": 5902,
  "▁programs": 5903,
  "▁assistant": 5904,
  "▁Fire": 5905,
  "▁Pict": 5906,
  "ivalent": 5907,
  "▁consisting": 5908,
  "▁playoff": 5909,
  "▁entrance": 5910,
  "adow": 5911,
  "▁volcan": 5912,
  "lee": 5913,
  "▁Ob": 5914,
  "▁arc": 5915,
  "▁details": 5916,
  "cont": 5917,
  "▁Who": 5918,
  "▁Cart": 5919,
  "▁1936": 5920,
  "▁deaths": 5921,
  "▁Naz": 5922,
  "idden": 5923,
  "bourne": 5924,
  "▁Rhodes": 5925,
  "▁sculpt": 5926,
  "▁statement": 5927,
  "▁models": 5928,
  "▁Confeder": 5929,
  "▁survived": 5930,
  "▁delivered": 5931,
  "▁Jan": 5932,
  "▁Ball": 5933,
  "▁males": 5934,
  "iger": 5935,
  "▁finding": 5936,
  "▁politics": 5937,
  "BS": 5938,
  "▁neut": 5939,
  "▁invited": 5940,
  "▁promotion": 5941,
  "ras": 5942,
  "▁IG": 5943,
  "▁overse": 5944,
  "▁parties": 5945,
  "▁composition": 5946,
  "▁meters": 5947,
  "▁implement": 5948,
  "▁Ast": 5949,
  "▁1938": 5950,
  "▁Stew": 5951,
  "▁mort": 5952,
  "▁emerg": 5953,
  "▁hydro": 5954,
  "▁reserve": 5955,
  "▁Maryland": 5956,
  "ez": 5957,
  "aki": 5958,
  "▁Ok": 5959,
  "▁1962": 5960,
  "▁ones": 5961,
  "▁evening": 5962,
  "▁controlled": 5963,
  "-0": 5964,
  "chers": 5965,
  "senal": 5966,
  "▁gross": 5967,
  "western": 5968,
  "▁online": 5969,
  "▁extremely": 5970,
  "▁installed": 5971,
  "▁Here": 5972,
  "▁stret": 5973,
  "▁exclus": 5974,
  "▁promote": 5975,
  "▁studied": 5976,
  "▁Nic": 5977,
  "▁register": 5978,
  "▁everything": 5979,
  "▁Band": 5980,
  "▁rebu": 5981,
  "▁prisoners": 5982,
  "osis": 5983,
  "▁Cur": 5984,
  "▁flat": 5985,
  "▁56": 5986,
  "▁Pass": 5987,
  "▁Plan": 5988,
  "▁wars": 5989,
  "▁advent": 5990,
  "char": 5991,
  "▁convin": 5992,
  "▁Constant": 5993,
  "▁remainder": 5994,
  "▁Init": 5995,
  "▁offers": 5996,
  "▁carrying": 5997,
  "iat": 5998,
  "lan": 5999,
  "▁bask": 6000,
  "▁humans": 6001,
  "▁gradually": 6002,
  "mann": 6003,
  "▁Norwe": 6004,
  "▁Gordon": 6005,
  "▁Mulder": 6006,
  "wich": 6007,
  "▁store": 6008,
  "▁Howard": 6009,
  "AC": 6010,
  "▁AC": 6011,
  "▁Alf": 6012,
  "▁VII": 6013,
  "after": 6014,
  "▁Vill": 6015,
  "ervative": 6016,
  "▁winner": 6017,
  "▁Univers": 6018,
  "▁females": 6019,
  "▁Beach": 6020,
  "▁producing": 6021,
  "▁independence": 6022,
  "▁85": 6023,
  "▁Ari": 6024,
  "ads": 6025,
  "▁impl": 6026,
  "insula": 6027,
  "▁Songs": 6028,
  "▁somew": 6029,
  "▁interested": 6030,
  "▁Main": 6031,
  "erted": 6032,
  "▁Prog": 6033,
  "▁tick": 6034,
  "▁defined": 6035,
  "▁Director": 6036,
  "ifications": 6037,
  "▁Age": 6038,
  "osite": 6039,
  "▁capable": 6040,
  "▁Moon": 6041,
  "▁admitted": 6042,
  "▁principal": 6043,
  "▁snow": 6044,
  "iversary": 6045,
  "ieval": 6046,
  "▁Tony": 6047,
  "▁combination": 6048,
  "▁Nel": 6049,
  "▁emp": 6050,
  "▁accur": 6051,
  "▁revolution": 6052,
  "▁rated": 6053,
  "▁Hitler": 6054,
  "▁Rem": 6055,
  "▁deleg": 6056,
  "▁products": 6057,
  "▁importance": 6058,
  "iege": 6059,
  "ophy": 6060,
  "▁Bir": 6061,
  "level": 6062,
  "▁Staff": 6063,
  "▁bottom": 6064,
  "izations": 6065,
  "▁Ra": 6066,
  "iller": 6067,
  "▁adapted": 6068,
  "▁auth": 6069,
  "▁apart": 6070,
  "▁owner": 6071,
  "▁watched": 6072,
  "▁threatened": 6073,
  "▁dates": 6074,
  "▁rural": 6075,
  "▁concerns": 6076,
  "▁ago": 6077,
  "▁wearing": 6078,
  "aints": 6079,
  "▁download": 6080,
  "▁entering": 6081,
  "▁internal": 6082,
  "▁ble": 6083,
  "▁price": 6084,
  "▁Portug": 6085,
  "▁recalled": 6086,
  "▁extension": 6087,
  "hr": 6088,
  "ighters": 6089,
  "▁Theatre": 6090,
  "▁crossed": 6091,
  "▁kingdom": 6092,
  "▁descript": 6093,
  "▁nomination": 6094,
  "arp": 6095,
  "▁et": 6096,
  "▁crime": 6097,
  "▁milit": 6098,
  "▁1961": 6099,
  "▁acid": 6100,
  "▁cann": 6101,
  "▁typical": 6102,
  "▁×": 6103,
  "▁Pit": 6104,
  "▁Rel": 6105,
  "▁crown": 6106,
  "▁funds": 6107,
  "▁opera": 6108,
  "▁restaur": 6109,
  "▁regiment": 6110,
  "▁76": 6111,
  "▁Od": 6112,
  "▁McK": 6113,
  "▁1953": 6114,
  "iy": 6115,
  "▁shut": 6116,
  "▁aspects": 6117,
  ",9": 6118,
  "▁vent": 6119,
  "▁duties": 6120,
  "▁images": 6121,
  "entially": 6122,
  "▁retreat": 6123,
  "▁arrested": 6124,
  "▁religion": 6125,
  "anean": 6126,
  "ensus": 6127,
  "▁challenge": 6128,
  "▁portrayed": 6129,
  "▁considerable": 6130,
  "ela": 6131,
  "ilation": 6132,
  "heastern": 6133,
  "ja": 6134,
  "▁sufficient": 6135,
  "ician": 6136,
  "▁Indiana": 6137,
  "▁Adams": 6138,
  "rete": 6139,
  "▁Well": 6140,
  "▁medal": 6141,
  "▁Scully": 6142,
  "▁fashion": 6143,
  "▁consum": 6144,
  "▁returns": 6145,
  "▁Nar": 6146,
  "▁tell": 6147,
  "▁Norwegian": 6148,
  "▁investigation": 6149,
  "star": 6150,
  "▁Cop": 6151,
  "▁IGN": 6152,
  "▁ham": 6153,
  "▁Kong": 6154,
  "▁clim": 6155,
  "▁valley": 6156,
  "▁Mountain": 6157,
  "▁obtained": 6158,
  "▁sell": 6159,
  "▁preced": 6160,
  "BI": 6161,
  "reck": 6162,
  "rell": 6163,
  "▁Inc": 6164,
  "▁note": 6165,
  "▁sole": 6166,
  "▁denied": 6167,
  "▁charges": 6168,
  "▁correct": 6169,
  "▁composer": 6170,
  "▁tank": 6171,
  "▁Maria": 6172,
  "▁conqu": 6173,
  "▁commanded": 6174,
  "▁controversy": 6175,
  "▁distribution": 6176,
  "-7": 6177,
  "night": 6178,
  "▁frag": 6179,
  "▁corner": 6180,
  "▁integr": 6181,
  "▁posted": 6182,
  "ione": 6183,
  "iques": 6184,
  "▁Dougl": 6185,
  "▁faith": 6186,
  "▁ruled": 6187,
  "▁Sunday": 6188,
  "▁vessels": 6189,
  "▁Illinois": 6190,
  "▁Alan": 6191,
  "▁Back": 6192,
  "▁Robinson": 6193,
  "lik": 6194,
  "▁Circ": 6195,
  "▁zone": 6196,
  "▁solid": 6197,
  "▁Mexican": 6198,
  "▁decades": 6199,
  "aks": 6200,
  "oli": 6201,
  "▁Ur": 6202,
  "book": 6203,
  "▁Sav": 6204,
  "▁1957": 6205,
  "▁tanks": 6206,
  "▁Kennedy": 6207,
  "▁Stadium": 6208,
  "AAF": 6209,
  "▁aer": 6210,
  "▁fly": 6211,
  "▁Eric": 6212,
  "▁entry": 6213,
  "▁Gram": 6214,
  "▁Your": 6215,
  "weight": 6216,
  "▁>": 6217,
  "▁clean": 6218,
  "▁survey": 6219,
  "▁cong": 6220,
  "▁Arsenal": 6221,
  "▁someone": 6222,
  "▁pup": 6223,
  "▁outer": 6224,
  "▁Assembly": 6225,
  "▁minister": 6226,
  "▁recommended": 6227,
  "wan": 6228,
  "erto": 6229,
  "hetic": 6230,
  "espread": 6231,
  "▁colour": 6232,
  "▁starts": 6233,
  "poration": 6234,
  "▁permanent": 6235,
  "▁57": 6236,
  "▁ISBN": 6237,
  "▁Leon": 6238,
  "▁stock": 6239,
  "▁occurs": 6240,
  "▁Roger": 6241,
  "▁actual": 6242,
  "▁department": 6243,
  "▁Coll": 6244,
  "▁fict": 6245,
  "yphoon": 6246,
  "▁basic": 6247,
  "claimed": 6248,
  "▁manner": 6249,
  "▁temple": 6250,
  "uro": 6251,
  "▁Hug": 6252,
  "▁hope": 6253,
  "▁Power": 6254,
  "▁Forest": 6255,
  "▁settled": 6256,
  "▁transition": 6257,
  "iley": 6258,
  "▁Nether": 6259,
  "▁thousands": 6260,
  "cknow": 6261,
  "▁Video": 6262,
  "▁glass": 6263,
  "aret": 6264,
  "▁Jane": 6265,
  "▁noting": 6266,
  "▁enemies": 6267,
  "▁Magazine": 6268,
  "▁identity": 6269,
  "▁Gun": 6270,
  "▁Now": 6271,
  "▁decline": 6272,
  "▁concerned": 6273,
  "▁completion": 6274,
  "▁Id": 6275,
  "ooth": 6276,
  "▁armor": 6277,
  "▁relief": 6278,
  "▁freedom": 6279,
  "ivals": 6280,
  "▁nest": 6281,
  "▁improv": 6282,
  "▁brigade": 6283,
  "▁segment": 6284,
  "icit": 6285,
  "ekend": 6286,
  "▁soul": 6287,
  "▁swim": 6288,
  "▁terminus": 6289,
  "aug": 6290,
  "▁dated": 6291,
  "▁expect": 6292,
  "velopment": 6293,
  "▁cloud": 6294,
  "▁formal": 6295,
  "▁breeding": 6296,
  "▁<": 6297,
  "ordan": 6298,
  "▁1937": 6299,
  "iminal": 6300,
  "▁circum": 6301,
  "▁disturb": 6302,
  "▁regional": 6303,
  "▁connection": 6304,
  "▁Five": 6305,
  "▁shots": 6306,
  "▁sequel": 6307,
  "▁committed": 6308,
  "▁fruit": 6309,
  "▁remix": 6310,
  "▁grounds": 6311,
  "▁Roy": 6312,
  "▁Lenn": 6313,
  "▁subs": 6314,
  "▁decor": 6315,
  "▁phase": 6316,
  "▁campus": 6317,
  "lets": 6318,
  "▁Low": 6319,
  "▁spin": 6320,
  "▁involving": 6321,
  "▁parliament": 6322,
  "wen": 6323,
  "rophy": 6324,
  "▁blow": 6325,
  "atinum": 6326,
  "▁opposite": 6327,
  "iva": 6328,
  "burn": 6329,
  "▁possibility": 6330,
  "ami": 6331,
  "law": 6332,
  "spec": 6333,
  "▁alt": 6334,
  "▁1910": 6335,
  "▁duty": 6336,
  "▁foss": 6337,
  "▁autom": 6338,
  "▁headed": 6339,
  "▁exception": 6340,
  "▁Hou": 6341,
  "▁Pur": 6342,
  "aware": 6343,
  "osaurus": 6344,
  "▁assumed": 6345,
  "umin": 6346,
  "▁Kevin": 6347,
  "▁Today": 6348,
  "▁penal": 6349,
  "▁demand": 6350,
  "▁Stanley": 6351,
  "▁purchase": 6352,
  "alog": 6353,
  "▁Kat": 6354,
  "▁Ak": 6355,
  "▁acknow": 6356,
  "15": 6357,
  "▁hip": 6358,
  "acter": 6359,
  "▁skin": 6360,
  "▁Indones": 6361,
  "▁Hamilton": 6362,
  "▁attached": 6363,
  "▁certified": 6364,
  "▁Po": 6365,
  "▁1956": 6366,
  "▁Ryan": 6367,
  "▁prey": 6368,
  "▁Simon": 6369,
  "agonist": 6370,
  "▁serves": 6371,
  "▁Rolling": 6372,
  "eing": 6373,
  "▁WWE": 6374,
  "▁intention": 6375,
  "▁southwest": 6376,
  "▁supporters": 6377,
  "IA": 6378,
  "▁Ut": 6379,
  "▁Gill": 6380,
  "▁poly": 6381,
  "▁objects": 6382,
  "▁Dig": 6383,
  "▁Tar": 6384,
  "▁Engine": 6385,
  "▁downtown": 6386,
  "▁populations": 6387,
  "iterr": 6388,
  "▁hang": 6389,
  "▁spons": 6390,
  "▁Singles": 6391,
  "▁accused": 6392,
  "▁describing": 6393,
  "25": 6394,
  "▁Adam": 6395,
  "▁Bush": 6396,
  "▁courts": 6397,
  "▁slowly": 6398,
  "▁reading": 6399,
  "avia": 6400,
  "▁Andy": 6401,
  "▁Found": 6402,
  "▁charged": 6403,
  "▁passengers": 6404,
  "osh": 6405,
  "▁95": 6406,
  "▁FA": 6407,
  "veland": 6408,
  "▁commit": 6409,
  "▁debate": 6410,
  "uty": 6411,
  "▁Pear": 6412,
  "▁Tenn": 6413,
  "▁Weekly": 6414,
  "▁missed": 6415,
  "▁technical": 6416,
  "▁Throughout": 6417,
  "▁Korea": 6418,
  "agues": 6419,
  "▁door": 6420,
  "▁widespread": 6421,
  "body": 6422,
  "▁dipl": 6423,
  "▁gall": 6424,
  "▁Unlike": 6425,
  "▁Bry": 6426,
  "regon": 6427,
  "▁warm": 6428,
  "▁dress": 6429,
  "▁classes": 6430,
  "▁Cleveland": 6431,
  "▁requested": 6432,
  "▁votes": 6433,
  "▁finishing": 6434,
  "ca": 6435,
  "minute": 6436,
  "▁Philip": 6437,
  "▁premiere": 6438,
  "▁musicians": 6439,
  "▁Douglas": 6440,
  "▁Loc": 6441,
  "▁din": 6442,
  "▁heat": 6443,
  "▁memory": 6444,
  "▁strongly": 6445,
  "▁programme": 6446,
  "▁250": 6447,
  "▁Sweden": 6448,
  "▁literary": 6449,
  "▁occasionally": 6450,
  "▁1.5": 6451,
  "achel": 6452,
  "going": 6453,
  "▁10,000": 6454,
  "▁Beatles": 6455,
  "iterranean": 6456,
  "▁properties": 6457,
  "▁replacement": 6458,
  "▁incorporated": 6459,
  "▁Space": 6460,
  "▁behavior": 6461,
  "▁sessions": 6462,
  "▁supposed": 6463,
  "borne": 6464,
  "▁Marc": 6465,
  "▁tele": 6466,
  "▁Feder": 6467,
  "▁accommod": 6468,
  "▁classified": 6469,
  "▁Web": 6470,
  "▁hosted": 6471,
  "▁vehicle": 6472,
  "▁Memorial": 6473,
  "▁Ba": 6474,
  "▁Morgan": 6475,
  "▁driving": 6476,
  "▁divisions": 6477,
  "Ar": 6478,
  "▁vary": 6479,
  "▁Every": 6480,
  "▁Nelson": 6481,
  "▁strateg": 6482,
  "▁evolution": 6483,
  "▁Mediterranean": 6484,
  "riers": 6485,
  "▁mode": 6486,
  "▁Argent": 6487,
  "▁bringing": 6488,
  "▁attracted": 6489,
  "▁atmosphere": 6490,
  "real": 6491,
  "▁flo": 6492,
  "enses": 6493,
  "▁answ": 6494,
  "▁Bruce": 6495,
  "▁dissip": 6496,
  "point": 6497,
  "risis": 6498,
  "▁oldest": 6499,
  "oyd": 6500,
  "▁Ira": 6501,
  "idges": 6502,
  "▁Rain": 6503,
  "▁Rose": 6504,
  "▁folk": 6505,
  "▁Master": 6506,
  "▁Project": 6507,
  "▁ratings": 6508,
  "▁unusual": 6509,
  "▁memorial": 6510,
  "▁circulation": 6511,
  "pro": 6512,
  "▁Der": 6513,
  "hered": 6514,
  "▁eleven": 6515,
  "upt": 6516,
  "▁Sky": 6517,
  "▁departure": 6518,
  "iece": 6519,
  "▁Oregon": 6520,
  "▁alleged": 6521,
  "▁differences": 6522,
  "ece": 6523,
  "▁ash": 6524,
  "▁canc": 6525,
  "▁ment": 6526,
  "▁Anton": 6527,
  "▁attributed": 6528,
  "▁Bol": 6529,
  "▁Raj": 6530,
  "▁Sab": 6531,
  "▁Freder": 6532,
  "▁effectively": 6533,
  "▁responsibility": 6534,
  "nic": 6535,
  "▁tries": 6536,
  "▁Temple": 6537,
  "▁Francis": 6538,
  "▁equivalent": 6539,
  "lig": 6540,
  "▁1947": 6541,
  "▁1954": 6542,
  "▁fine": 6543,
  "▁hill": 6544,
  "▁hotel": 6545,
  "rations": 6546,
  "▁feeling": 6547,
  "▁recovered": 6548,
  "▁1958": 6549,
  "▁moves": 6550,
  "▁spoke": 6551,
  "▁Around": 6552,
  "▁global": 6553,
  "▁superv": 6554,
  "▁champion": 6555,
  "▁highlight": 6556,
  "▁Additionally": 6557,
  "11": 6558,
  "▁ha": 6559,
  "▁Dal": 6560,
  "▁none": 6561,
  "▁torn": 6562,
  "▁aboard": 6563,
  "▁wickets": 6564,
  "ji": 6565,
  "▁74": 6566,
  "▁fear": 6567,
  "▁Ho": 6568,
  "▁Cab": 6569,
  "▁derived": 6570,
  "aza": 6571,
  "▁sam": 6572,
  "▁shop": 6573,
  "▁costs": 6574,
  "▁protest": 6575,
  "▁neighbor": 6576,
  "▁assistance": 6577,
  "▁filled": 6578,
  "▁funding": 6579,
  "▁neither": 6580,
  "▁1952": 6581,
  "othing": 6582,
  "▁shore": 6583,
  "▁Within": 6584,
  "ker": 6585,
  "▁NBA": 6586,
  "itzer": 6587,
  "▁Again": 6588,
  "▁missions": 6589,
  "▁destruction": 6590,
  "oral": 6591,
  "▁deem": 6592,
  "▁satisf": 6593,
  "▁stayed": 6594,
  "▁Channel": 6595,
  "nce": 6596,
  "uble": 6597,
  "▁110": 6598,
  "▁Bah": 6599,
  "▁Gen": 6600,
  "▁1935": 6601,
  "hedral": 6602,
  "▁sounds": 6603,
  "▁Federal": 6604,
  "▁injuries": 6605,
  "▁restored": 6606,
  "▁battleships": 6607,
  "▁Finn": 6608,
  "▁Bristol": 6609,
  "▁cavalry": 6610,
  "▁Constitution": 6611,
  "▁58": 6612,
  "udden": 6613,
  "▁Marine": 6614,
  "▁thirty": 6615,
  "sex": 6616,
  "▁sons": 6617,
  "thm": 6618,
  "olec": 6619,
  "▁Nich": 6620,
  "▁clubs": 6621,
  "▁Row": 6622,
  "▁Jordan": 6623,
  "▁Scient": 6624,
  "▁classic": 6625,
  "▁Es": 6626,
  "▁Allen": 6627,
  "▁superior": 6628,
  "▁”": 6629,
  "▁Lanc": 6630,
  "▁begun": 6631,
  "▁outbreak": 6632,
  "▁association": 6633,
  "ipe": 6634,
  "▁Stand": 6635,
  "pective": 6636,
  "ructure": 6637,
  "▁reception": 6638,
  "ubb": 6639,
  "isms": 6640,
  "inton": 6641,
  "ewhere": 6642,
  "▁Prior": 6643,
  "▁recru": 6644,
  "▁Norman": 6645,
  "▁Journal": 6646,
  "▁otherwise": 6647,
  "aired": 6648,
  "▁crash": 6649,
  "olished": 6650,
  "▁seemed": 6651,
  "▁passage": 6652,
  "▁remember": 6653,
  "▁spok": 6654,
  "writer": 6655,
  "▁wrong": 6656,
  "▁province": 6657,
  "▁Cas": 6658,
  "abled": 6659,
  "▁rose": 6660,
  "▁eighth": 6661,
  "▁warning": 6662,
  "▁Military": 6663,
  "po": 6664,
  "game": 6665,
  "▁Hell": 6666,
  "emeter": 6667,
  "▁chorus": 6668,
  "▁History": 6669,
  "▁regularly": 6670,
  "▁72": 6671,
  "acent": 6672,
  "ategy": 6673,
  "oster": 6674,
  "teenth": 6675,
  "▁sailed": 6676,
  "▁Matthew": 6677,
  "▁methods": 6678,
  "▁difficulty": 6679,
  "▁inspiration": 6680,
  "▁intelligence": 6681,
  "don": 6682,
  "ige": 6683,
  "sole": 6684,
  "▁tied": 6685,
  "▁Kelly": 6686,
  "RA": 6687,
  "elsh": 6688,
  "▁Mit": 6689,
  "▁gal": 6690,
  "▁Dean": 6691,
  "▁Pier": 6692,
  "▁Treat": 6693,
  "▁desire": 6694,
  "▁fields": 6695,
  "▁Nations": 6696,
  "orney": 6697,
  "▁dream": 6698,
  "▁ready": 6699,
  "▁predecess": 6700,
  "▁reinforce": 6701,
  "▁59": 6702,
  "anny": 6703,
  "anth": 6704,
  "▁Phill": 6705,
  "▁intercept": 6706,
  "▁Sin": 6707,
  "▁Color": 6708,
  "▁rooms": 6709,
  "▁Morris": 6710,
  "rim": 6711,
  "▁1955": 6712,
  "▁accounts": 6713,
  "▁recognition": 6714,
  "ache": 6715,
  "agre": 6716,
  "▁persu": 6717,
  "▁Science": 6718,
  "▁greatly": 6719,
  "▁crop": 6720,
  "▁shif": 6721,
  "▁volunte": 6722,
  "▁animated": 6723,
  "▁fictional": 6724,
  "▁premiered": 6725,
  "▁Spe": 6726,
  "▁eggs": 6727,
  "▁medic": 6728,
  "▁NC": 6729,
  "▁interpret": 6730,
  "▁73": 6731,
  "▁175": 6732,
  "▁Edu": 6733,
  "▁dang": 6734,
  "▁77": 6735,
  "heme": 6736,
  "▁fal": 6737,
  "inder": 6738,
  "▁Mars": 6739,
  "▁communities": 6740,
  "▁Gh": 6741,
  "▁Budd": 6742,
  "▁Ford": 6743,
  "▁Marg": 6744,
  "▁brain": 6745,
  "▁theatre": 6746,
  "▁claiming": 6747,
  "▁Sn": 6748,
  "nings": 6749,
  "▁1959": 6750,
  "▁divers": 6751,
  "▁DE": 6752,
  "pper": 6753,
  "▁1951": 6754,
  "▁teen": 6755,
  "▁separated": 6756,
  "▁AI": 6757,
  "▁Az": 6758,
  "▁Imp": 6759,
  "▁ille": 6760,
  "▁picture": 6761,
  "place": 6762,
  "▁income": 6763,
  "▁Research": 6764,
  "▁materials": 6765,
  "▁cul": 6766,
  "▁Conc": 6767,
  "▁Iron": 6768,
  "▁convinced": 6769,
  "part": 6770,
  "abil": 6771,
  "▁hal": 6772,
  "▁quant": 6773,
  "▁emerged": 6774,
  "▁movements": 6775,
  "aser": 6776,
  "▁scrap": 6777,
  "▁ancest": 6778,
  "▁Thompson": 6779,
  "▁Byzantine": 6780,
  "12": 6781,
  "irds": 6782,
  "▁vide": 6783,
  "▁sale": 6784,
  "▁check": 6785,
  "▁Winter": 6786,
  "▁batting": 6787,
  "▁Centre": 6788,
  "▁determine": 6789,
  "▁entertain": 6790,
  "ici": 6791,
  "▁hol": 6792,
  "▁Wright": 6793,
  "▁bright": 6794,
  "▁Netherlands": 6795,
  "onto": 6796,
  "▁tom": 6797,
  "▁Lisa": 6798,
  "▁pure": 6799,
  "▁inner": 6800,
  "▁Patrick": 6801,
  "▁monarch": 6802,
  "nold": 6803,
  "▁Fame": 6804,
  "▁Jacob": 6805,
  "▁discussed": 6806,
  "using": 6807,
  "▁Prof": 6808,
  "▁else": 6809,
  "▁turb": 6810,
  "▁nickn": 6811,
  "▁depict": 6812,
  "▁ensure": 6813,
  "▁Iraq": 6814,
  "▁stood": 6815,
  "▁assemb": 6816,
  "▁cruiser": 6817,
  "▁visible": 6818,
  "▁Gri": 6819,
  "power": 6820,
  "▁1933": 6821,
  "▁Third": 6822,
  "▁63": 6823,
  "▁looked": 6824,
  "▁Brother": 6825,
  "▁temporary": 6826,
  "▁lake": 6827,
  "▁flank": 6828,
  "▁classification": 6829,
  "▁66": 6830,
  "▁1949": 6831,
  "▁leads": 6832,
  "▁streets": 6833,
  "▁modified": 6834,
  "▁historians": 6835,
  "ses": 6836,
  "▁mo": 6837,
  "roit": 6838,
  "▁Welsh": 6839,
  "Man": 6840,
  "▁od": 6841,
  "asure": 6842,
  "itter": 6843,
  "▁adults": 6844,
  "▁immediate": 6845,
  "▁encouraged": 6846,
  "▁62": 6847,
  "▁remn": 6848,
  "▁suit": 6849,
  "▁engineer": 6850,
  "▁equipped": 6851,
  "agle": 6852,
  "▁Along": 6853,
  "▁Puerto": 6854,
  "▁credit": 6855,
  "ban": 6856,
  "▁Ele": 6857,
  "▁Dick": 6858,
  "▁praise": 6859,
  "▁Network": 6860,
  "▁basketball": 6861,
  "ón": 6862,
  "▁Dor": 6863,
  "▁Thus": 6864,
  "▁raise": 6865,
  "▁Batman": 6866,
  "▁weapon": 6867,
  "chang": 6868,
  "pping": 6869,
  "▁massive": 6870,
  "▁chemical": 6871,
  "▁resources": 6872,
  "▁unsuccessful": 6873,
  "aya": 6874,
  "ogen": 6875,
  "▁reviewer": 6876,
  "▁Recording": 6877,
  "▁discovery": 6878,
  "▁Turk": 6879,
  "▁weekend": 6880,
  "▁Transport": 6881,
  "▁involvement": 6882,
  "irt": 6883,
  "▁CE": 6884,
  "pany": 6885,
  "▁Jews": 6886,
  "▁gone": 6887,
  "▁sees": 6888,
  "▁Harris": 6889,
  "▁Premier": 6890,
  "▁Russell": 6891,
  "▁appropri": 6892,
  "active": 6893,
  "▁Hawai": 6894,
  "▁worst": 6895,
  "▁opponents": 6896,
  "▁surviving": 6897,
  "omot": 6898,
  "▁Croatian": 6899,
  "▁relative": 6900,
  "▁strategy": 6901,
  "▁dismissed": 6902,
  "▁Television": 6903,
  "▁continuing": 6904,
  "gun": 6905,
  "owa": 6906,
  "olph": 6907,
  "oen": 6908,
  "rum": 6909,
  "▁Heart": 6910,
  "▁colony": 6911,
  "▁Holy": 6912,
  "▁needs": 6913,
  "▁Anthony": 6914,
  "▁believes": 6915,
  "▁anniversary": 6916,
  "bec": 6917,
  "▁ic": 6918,
  "▁die": 6919,
  "▁1921": 6920,
  "▁pregn": 6921,
  "▁facility": 6922,
  "▁somewhat": 6923,
  "▁temperatures": 6924,
  "▁61": 6925,
  "▁Labor": 6926,
  "▁meets": 6927,
  "ossible": 6928,
  "▁narrative": 6929,
  "▁ton": 6930,
  "▁Bishop": 6931,
  "▁falling": 6932,
  "▁everyone": 6933,
  "▁Ark": 6934,
  "▁USS": 6935,
  "uther": 6936,
  "▁lies": 6937,
  "encies": 6938,
  "▁Murray": 6939,
  "▁Toronto": 6940,
  "▁medieval": 6941,
  "ivan": 6942,
  "▁1912": 6943,
  "▁Mort": 6944,
  "▁girls": 6945,
  "▁trials": 6946,
  "▁elections": 6947,
  "▁convection": 6948,
  "ultane": 6949,
  "▁Domin": 6950,
  "▁plane": 6951,
  "▁airport": 6952,
  "▁deployed": 6953,
  "▁standards": 6954,
  "▁conclusion": 6955,
  "▁documentary": 6956,
  "mate": 6957,
  "▁1900": 6958,
  "▁reserv": 6959,
  "▁absence": 6960,
  "▁climate": 6961,
  "▁reality": 6962,
  "ixon": 6963,
  "▁Int": 6964,
  "▁Palace": 6965,
  "▁interests": 6966,
  "fire": 6967,
  "ugosl": 6968,
  "urches": 6969,
  "▁consp": 6970,
  "▁loyal": 6971,
  "▁dating": 6972,
  "▁happened": 6973,
  "▁techniques": 6974,
  "▁Techn": 6975,
  "▁category": 6976,
  "▁emergency": 6977,
  "lyn": 6978,
  "▁67": 6979,
  "▁dub": 6980,
  "▁1934": 6981,
  "▁Gaga": 6982,
  "▁Horn": 6983,
  "▁grant": 6984,
  "▁judge": 6985,
  "▁penalty": 6986,
  "▁adaptation": 6987,
  "▁Lyn": 6988,
  "▁Open": 6989,
  "▁hear": 6990,
  "▁mine": 6991,
  "▁Silver": 6992,
  "▁passenger": 6993,
  "▁Wy": 6994,
  "ture": 6995,
  "▁Nob": 6996,
  "▁Gard": 6997,
  "▁Library": 6998,
  "▁surrounded": 6999,
  "▁stands": 7000,
  "▁footage": 7001,
  "▁forming": 7002,
  "una": 7003,
  "▁rum": 7004,
  "▁Glob": 7005,
  "▁Front": 7006,
  "▁hoped": 7007,
  "▁ninth": 7008,
  "▁Detroit": 7009,
  "▁establishment": 7010,
  "▁Bed": 7011,
  "▁library": 7012,
  "▁distributed": 7013,
  "arsh": 7014,
  "▁Hend": 7015,
  "▁Rick": 7016,
  "▁belt": 7017,
  "▁fled": 7018,
  "▁wins": 7019,
  "▁Spears": 7020,
  "▁synthes": 7021,
  "▁appearing": 7022,
  "equ": 7023,
  "▁Niel": 7024,
  "▁biggest": 7025,
  "▁classical": 7026,
  "gets": 7027,
  "hire": 7028,
  "▁Whe": 7029,
  "▁Jesus": 7030,
  "▁accompl": 7031,
  "▁attempting": 7032,
  "aire": 7033,
  "▁130": 7034,
  "ternal": 7035,
  "▁academic": 7036,
  "▁afterwards": 7037,
  "▁photograph": 7038,
  "car": 7039,
  "opes": 7040,
  "ronze": 7041,
  "▁absor": 7042,
  "▁grass": 7043,
  "▁wings": 7044,
  "▁rescue": 7045,
  "▁Roberts": 7046,
  "▁convent": 7047,
  "▁delayed": 7048,
  "▁acknowled": 7049,
  "▁Da": 7050,
  "▁Ta": 7051,
  "▁Tok": 7052,
  "▁municip": 7053,
  "usic": 7054,
  "▁Jam": 7055,
  "▁lat": 7056,
  "▁Anne": 7057,
  "▁Media": 7058,
  "▁alien": 7059,
  "▁Croatia": 7060,
  "▁bombard": 7061,
  "▁architecture": 7062,
  "▁NFL": 7063,
  "▁map": 7064,
  "▁Carter": 7065,
  "▁Knight": 7066,
  "▁fitted": 7067,
  "▁formerly": 7068,
  "▁graphics": 7069,
  "apse": 7070,
  "icide": 7071,
  "▁NBC": 7072,
  "▁successor": 7073,
  "▁DNA": 7074,
  "▁Hospital": 7075,
  "▁Dog": 7076,
  "edding": 7077,
  "wealth": 7078,
  "li": 7079,
  "▁Belg": 7080,
  "▁Jason": 7081,
  "▁races": 7082,
  "▁crosses": 7083,
  "▁existed": 7084,
  "▁inhabit": 7085,
  "▁difference": 7086,
  "aska": 7087,
  "onds": 7088,
  "▁Bou": 7089,
  "imore": 7090,
  "▁1913": 7091,
  "▁Benn": 7092,
  "▁Born": 7093,
  "▁RAAF": 7094,
  "▁depicted": 7095,
  "▁PA": 7096,
  "▁ru": 7097,
  "acre": 7098,
  "▁Pow": 7099,
  "▁doct": 7100,
  "▁holds": 7101,
  "▁diplom": 7102,
  "▁owners": 7103,
  "raf": 7104,
  "▁fer": 7105,
  "▁kid": 7106,
  "▁chairman": 7107,
  "▁suffering": 7108,
  "▁Li": 7109,
  "▁Pak": 7110,
  "▁squ": 7111,
  "ester": 7112,
  "▁Bang": 7113,
  "coming": 7114,
  "▁veter": 7115,
  "▁archae": 7116,
  "▁concur": 7117,
  "▁surviv": 7118,
  "▁Chamber": 7119,
  "▁Similar": 7120,
  "▁partner": 7121,
  "▁Mun": 7122,
  "▁sight": 7123,
  "▁Sports": 7124,
  "▁favorite": 7125,
  "▁apparently": 7126,
  "▁controversial": 7127,
  "ois": 7128,
  "ski": 7129,
  "▁Sant": 7130,
  "▁Berlin": 7131,
  "DS": 7132,
  "fare": 7133,
  "▁Cooper": 7134,
  "atically": 7135,
  "▁commemor": 7136,
  "usted": 7137,
  "▁Santa": 7138,
  "▁Parker": 7139,
  "▁anyone": 7140,
  "uts": 7141,
  "▁deemed": 7142,
  "▁interior": 7143,
  "term": 7144,
  "▁Armen": 7145,
  "▁Produ": 7146,
  "▁Houston": 7147,
  "▁Indians": 7148,
  "▁Swedish": 7149,
  "▁fighter": 7150,
  "▁journalist": 7151,
  "zy": 7152,
  "iliar": 7153,
  "▁partn": 7154,
  "▁legend": 7155,
  "▁languages": 7156,
  "ito": 7157,
  "▁PC": 7158,
  "rine": 7159,
  "▁Get": 7160,
  "▁buy": 7161,
  "▁vul": 7162,
  "ooking": 7163,
  "▁Evans": 7164,
  "▁colonial": 7165,
  "▁historic": 7166,
  "▁convention": 7167,
  "eping": 7168,
  "oming": 7169,
  "▁defended": 7170,
  "▁informed": 7171,
  "▁questions": 7172,
  "tic": 7173,
  "▁99": 7174,
  "vens": 7175,
  "scape": 7176,
  "▁2,000": 7177,
  "▁Family": 7178,
  "▁Yugosl": 7179,
  "▁longest": 7180,
  "▁hundreds": 7181,
  "uster": 7182,
  "▁legislation": 7183,
  "▁x": 7184,
  "▁eat": 7185,
  "▁rich": 7186,
  "▁molec": 7187,
  "▁Somers": 7188,
  "▁seeing": 7189,
  "▁secured": 7190,
  "agu": 7191,
  "▁FI": 7192,
  "hess": 7193,
  "▁Cru": 7194,
  "▁Cry": 7195,
  "▁chapter": 7196,
  "▁reportedly": 7197,
  "35": 7198,
  "▁Last": 7199,
  "▁code": 7200,
  "▁renew": 7201,
  "▁authors": 7202,
  "▁romantic": 7203,
  "exp": 7204,
  "▁mathem": 7205,
  "bu": 7206,
  "osure": 7207,
  "▁feud": 7208,
  "▁inher": 7209,
  "▁operate": 7210,
  "ES": 7211,
  "anton": 7212,
  "▁1911": 7213,
  "▁dens": 7214,
  "▁closer": 7215,
  "▁rebell": 7216,
  "▁scheme": 7217,
  "▁measures": 7218,
  "▁railroad": 7219,
  "▁Commander": 7220,
  "▁childhood": 7221,
  "▁presidential": 7222,
  "vis": 7223,
  "noon": 7224,
  "olis": 7225,
  "▁Bure": 7226,
  "▁boil": 7227,
  "▁legs": 7228,
  "▁stead": 7229,
  "▁channel": 7230,
  "▁intense": 7231,
  "▁87": 7232,
  "lock": 7233,
  "▁vision": 7234,
  "▁territories": 7235,
  "▁Commonwealth": 7236,
  "▁1929": 7237,
  "▁Xbox": 7238,
  "apping": 7239,
  "▁maint": 7240,
  "▁Having": 7241,
  "▁representing": 7242,
  "▁san": 7243,
  "orial": 7244,
  "▁1932": 7245,
  "▁Merc": 7246,
  "▁carrier": 7247,
  "▁mainstream": 7248,
  "aste": 7249,
  "▁Yan": 7250,
  "▁tra": 7251,
  "▁Princess": 7252,
  "▁attacking": 7253,
  "▁prevented": 7254,
  "mad": 7255,
  "▁Late": 7256,
  "▁giant": 7257,
  "emetery": 7258,
  "related": 7259,
  "▁Muslim": 7260,
  "▁astron": 7261,
  "▁cancer": 7262,
  "▁watching": 7263,
  "aria": 7264,
  "iami": 7265,
  "▁Est": 7266,
  "▁bab": 7267,
  "▁Islam": 7268,
  "▁Sarah": 7269,
  "▁sudden": 7270,
  "▁throne": 7271,
  "▁resigned": 7272,
  "mill": 7273,
  "▁agree": 7274,
  ",0": 7275,
  "shaped": 7276,
  "▁audio": 7277,
  "▁siege": 7278,
  "▁behavi": 7279,
  "▁skills": 7280,
  "▁wooden": 7281,
  "▁Baltimore": 7282,
  "▁arrangement": 7283,
  "obi": 7284,
  "rait": 7285,
  "▁1926": 7286,
  "▁Trib": 7287,
  "▁painted": 7288,
  "▁Melbourne": 7289,
  "ds": 7290,
  "▁1927": 7291,
  "ogether": 7292,
  "▁Advent": 7293,
  "▁pushed": 7294,
  "▁notably": 7295,
  "▁references": 7296,
  "mes": 7297,
  "▁sed": 7298,
  "▁vic": 7299,
  "ribed": 7300,
  "▁Disc": 7301,
  "▁Free": 7302,
  "▁detail": 7303,
  "▁starred": 7304,
  "▁Ts": 7305,
  "▁gets": 7306,
  "▁ride": 7307,
  "▁intent": 7308,
  "▁experiences": 7309,
  "udes": 7310,
  "▁carbon": 7311,
  "▁enthus": 7312,
  "rad": 7313,
  "▁coins": 7314,
  "▁assass": 7315,
  "▁excess": 7316,
  "▁Clinton": 7317,
  "▁achieve": 7318,
  "▁influences": 7319,
  "lie": 7320,
  "▁ML": 7321,
  "icop": 7322,
  "iens": 7323,
  "onies": 7324,
  "▁Vice": 7325,
  "▁Greece": 7326,
  "▁Police": 7327,
  "▁Gilbert": 7328,
  "▁Initially": 7329,
  "utt": 7330,
  "▁1931": 7331,
  "▁convoy": 7332,
  "ologists": 7333,
  "▁instruments": 7334,
  "omp": 7335,
  "indu": 7336,
  "▁Ult": 7337,
  "▁Pope": 7338,
  "▁easy": 7339,
  "▁depos": 7340,
  "tenance": 7341,
  "▁factor": 7342,
  "▁poetry": 7343,
  "▁rarely": 7344,
  "▁dialogue": 7345,
  "▁garrison": 7346,
  "▁thousand": 7347,
  "▁Ey": 7348,
  "▁bon": 7349,
  "▁navig": 7350,
  "oto": 7351,
  "ching": 7352,
  "▁Category": 7353,
  "jo": 7354,
  "arked": 7355,
  "▁Miami": 7356,
  "▁alleg": 7357,
  "▁ocean": 7358,
  "▁resign": 7359,
  "▁moderate": 7360,
  "▁generation": 7361,
  "▁influential": 7362,
  "▁participate": 7363,
  "▁Tal": 7364,
  "▁Queens": 7365,
  "▁Ministry": 7366,
  "▁simultane": 7367,
  "away": 7368,
  "raph": 7369,
  "usal": 7370,
  "▁Heavy": 7371,
  "▁deter": 7372,
  "▁Author": 7373,
  "▁pointed": 7374,
  "▁whereas": 7375,
  "helm": 7376,
  "▁pin": 7377,
  "ipped": 7378,
  "stances": 7379,
  "▁proced": 7380,
  "▁Nielsen": 7381,
  "▁announce": 7382,
  "▁executed": 7383,
  "▁accompany": 7384,
  "stic": 7385,
  "▁gay": 7386,
  "eenth": 7387,
  "▁underw": 7388,
  "▁vessel": 7389,
  "▁Somerset": 7390,
  "▁adjacent": 7391,
  "▁Jess": 7392,
  "▁drums": 7393,
  "▁extent": 7394,
  "▁trained": 7395,
  "▁emotional": 7396,
  "▁Nevertheless": 7397,
  "▁1922": 7398,
  "▁bats": 7399,
  "▁spend": 7400,
  "▁retirement": 7401,
  "▁thereafter": 7402,
  "▁characteristics": 7403,
  "SP": 7404,
  "da": 7405,
  "atus": 7406,
  "▁Cook": 7407,
  "▁Asian": 7408,
  "▁union": 7409,
  "▁gather": 7410,
  "▁reveals": 7411,
  "▁preferred": 7412,
  "▁specimens": 7413,
  "▁USD": 7414,
  "ullivan": 7415,
  "sea": 7416,
  "▁ster": 7417,
  "▁thin": 7418,
  "▁brand": 7419,
  "▁goods": 7420,
  "achment": 7421,
  "▁Warner": 7422,
  "▁criminal": 7423,
  "▁learning": 7424,
  "▁withdrew": 7425,
  "▁residential": 7426,
  "▁environmental": 7427,
  "yo": 7428,
  "mates": 7429,
  "▁happy": 7430,
  "ropolitan": 7431,
  "▁restrict": 7432,
  "▁visitors": 7433,
  "▁impressed": 7434,
  "▁destroyers": 7435,
  "▁Corporation": 7436,
  "elle": 7437,
  "orous": 7438,
  "▁Educ": 7439,
  "▁symp": 7440,
  "▁veget": 7441,
  "igration": 7442,
  "▁offices": 7443,
  "▁permission": 7444,
  "dy": 7445,
  "igen": 7446,
  "▁Guy": 7447,
  "▁plate": 7448,
  "▁hearing": 7449,
  "▁releases": 7450,
  "ods": 7451,
  "▁outf": 7452,
  "▁pull": 7453,
  "attered": 7454,
  "▁refuge": 7455,
  "▁housing": 7456,
  "▁Wrestling": 7457,
  "▁employees": 7458,
  "▁surrender": 7459,
  "idel": 7460,
  "rees": 7461,
  "▁flew": 7462,
  "etime": 7463,
  "▁Stock": 7464,
  "▁remove": 7465,
  "▁victims": 7466,
  "▁diameter": 7467,
  "▁neck": 7468,
  "▁ridge": 7469,
  "▁landed": 7470,
  "▁Stewart": 7471,
  "▁chronic": 7472,
  "▁detailed": 7473,
  "▁Frederick": 7474,
  "otes": 7475,
  "▁beach": 7476,
  "▁formally": 7477,
  "▁imprison": 7478,
  "▁instance": 7479,
  "▁battleship": 7480,
  "▁Carib": 7481,
  "borough": 7482,
  "▁novels": 7483,
  "▁tempor": 7484,
  "▁joining": 7485,
  "icians": 7486,
  "▁factors": 7487,
  "▁constant": 7488,
  "igs": 7489,
  "phy": 7490,
  "▁Cz": 7491,
  "ogan": 7492,
  "▁Iowa": 7493,
  "▁junior": 7494,
  "▁uniform": 7495,
  "▁cruisers": 7496,
  "▁afternoon": 7497,
  "▁relationships": 7498,
  "isd": 7499,
  "bean": 7500,
  "▁Anglo": 7501,
  "▁pounds": 7502,
  "▁departed": 7503,
  "▁describe": 7504,
  "▁frequent": 7505,
  "▁spending": 7506,
  "▁universe": 7507,
  "hatt": 7508,
  "▁Obs": 7509,
  "▁Rey": 7510,
  "▁picked": 7511,
  "▁Marshall": 7512,
  "▁82": 7513,
  "▁device": 7514,
  "▁enters": 7515,
  "▁encountered": 7516,
  "cop": 7517,
  "idi": 7518,
  "▁RAF": 7519,
  "▁fil": 7520,
  "▁tie": 7521,
  "otype": 7522,
  "▁treated": 7523,
  "▁traveled": 7524,
  "▁Raw": 7525,
  "▁fur": 7526,
  "▁driver": 7527,
  "▁videos": 7528,
  "chen": 7529,
  "▁600": 7530,
  "▁recur": 7531,
  "▁sympt": 7532,
  "▁exposed": 7533,
  "▁publicly": 7534,
  "▁78": 7535,
  "▁Oak": 7536,
  "▁sky": 7537,
  "▁1925": 7538,
  "▁alco": 7539,
  "▁huge": 7540,
  "▁chain": 7541,
  "▁Origin": 7542,
  "▁finale": 7543,
  "▁criticised": 7544,
  "alo": 7545,
  "amese": 7546,
  "▁excell": 7547,
  "▁Simpson": 7548,
  "▁reprodu": 7549,
  "▁festival": 7550,
  "enh": 7551,
  "▁68": 7552,
  "acle": 7553,
  "rele": 7554,
  "umph": 7555,
  "▁Anna": 7556,
  "▁Bull": 7557,
  "▁Dave": 7558,
  "▁jump": 7559,
  "▁Giants": 7560,
  "▁linked": 7561,
  "▁periods": 7562,
  "FC": 7563,
  "▁Ah": 7564,
  "▁partly": 7565,
  "▁Seattle": 7566,
  "▁reconst": 7567,
  "▁Colorado": 7568,
  "ée": 7569,
  "ila": 7570,
  "ante": 7571,
  "▁Know": 7572,
  "▁Lennon": 7573,
  "▁prompted": 7574,
  "▁neighborhood": 7575,
  "▁jur": 7576,
  "▁upd": 7577,
  "▁1890": 7578,
  "▁Hans": 7579,
  "▁climb": 7580,
  "▁speak": 7581,
  "▁strip": 7582,
  "▁verse": 7583,
  "▁hunting": 7584,
  "▁policies": 7585,
  "▁animation": 7586,
  "▁uncertain": 7587,
  "ls": 7588,
  "▁tot": 7589,
  "▁reun": 7590,
  "▁tests": 7591,
  "▁Malays": 7592,
  "▁honour": 7593,
  "▁collaps": 7594,
  "▁personality": 7595,
  "unes": 7596,
  "▁toll": 7597,
  "ricted": 7598,
  "▁bypass": 7599,
  "▁upgraded": 7600,
  "tty": 7601,
  "▁benefit": 7602,
  "▁bridges": 7603,
  "▁comments": 7604,
  "▁negotiations": 7605,
  "MA": 7606,
  "oked": 7607,
  "▁lob": 7608,
  "prise": 7609,
  "▁Chronic": 7610,
  "▁representative": 7611,
  "hand": 7612,
  "▁2.5": 7613,
  "▁Death": 7614,
  "▁locomot": 7615,
  "▁churches": 7616,
  "▁submarine": 7617,
  "ellite": 7618,
  "icy": 7619,
  "▁Buff": 7620,
  "▁Trek": 7621,
  "▁fung": 7622,
  "▁Player": 7623,
  "▁compete": 7624,
  "▁examples": 7625,
  "▁understand": 7626,
  "▁substantial": 7627,
  "nest": 7628,
  "▁bear": 7629,
  "▁Samuel": 7630,
  "▁drawing": 7631,
  "▁testing": 7632,
  "▁publisher": 7633,
  "▁Development": 7634,
  "▁MP": 7635,
  "▁USA": 7636,
  "odore": 7637,
  "orage": 7638,
  "inction": 7639,
  "▁Express": 7640,
  "▁Lawrence": 7641,
  "hour": 7642,
  "▁140": 7643,
  "▁Lim": 7644,
  "chell": 7645,
  "▁stem": 7646,
  "atched": 7647,
  "▁diagn": 7648,
  "▁Austria": 7649,
  "▁breaking": 7650,
  "▁paintings": 7651,
  "▁reviewers": 7652,
  "ican": 7653,
  "roke": 7654,
  "▁Aud": 7655,
  "acked": 7656,
  "▁diff": 7657,
  "▁lose": 7658,
  "▁Crown": 7659,
  "text": 7660,
  "▁Canal": 7661,
  "▁relie": 7662,
  "▁Social": 7663,
  "▁doctor": 7664,
  "▁stable": 7665,
  "▁technique": 7666,
  "▁engineering": 7667,
  "kes": 7668,
  "rot": 7669,
  "▁Horse": 7670,
  "▁Forces": 7671,
  "▁driven": 7672,
  "▁format": 7673,
  "▁extreme": 7674,
  "▁nations": 7675,
  "no": 7676,
  "ygen": 7677,
  "▁els": 7678,
  "▁Buck": 7679,
  "▁Lane": 7680,
  "imeter": 7681,
  "ounced": 7682,
  "▁Profess": 7683,
  "▁elsewhere": 7684,
  "▁Foundation": 7685,
  "rain": 7686,
  "▁Sym": 7687,
  "▁boys": 7688,
  "▁agents": 7689,
  "ilst": 7690,
  "▁Soon": 7691,
  "▁mamm": 7692,
  "▁unn": 7693,
  "▁Wing": 7694,
  "▁rates": 7695,
  "▁refers": 7696,
  "▁taught": 7697,
  "▁helping": 7698,
  "▁1928": 7699,
  "▁Then": 7700,
  "▁util": 7701,
  "▁divor": 7702,
  "▁explo": 7703,
  "▁radar": 7704,
  "▁seats": 7705,
  "▁teeth": 7706,
  "▁Minnes": 7707,
  "▁Napole": 7708,
  "▁Belgium": 7709,
  "▁forcing": 7710,
  "▁recommend": 7711,
  "▁tub": 7712,
  "alions": 7713,
  "▁tribute": 7714,
  "▁creative": 7715,
  "▁normally": 7716,
  "▁protagonist": 7717,
  "abb": 7718,
  "olas": 7719,
  "rows": 7720,
  "▁Hand": 7721,
  "▁bases": 7722,
  "▁shear": 7723,
  "uscript": 7724,
  "▁Franklin": 7725,
  "▁Ot": 7726,
  "▁bes": 7727,
  "sters": 7728,
  "▁Real": 7729,
  "▁diet": 7730,
  "viation": 7731,
  "▁apprec": 7732,
  "▁rivers": 7733,
  "▁turrets": 7734,
  "mers": 7735,
  "▁Deb": 7736,
  "▁phr": 7737,
  "▁mand": 7738,
  "▁styles": 7739,
  "▁complic": 7740,
  "▁windows": 7741,
  "14": 7742,
  "aws": 7743,
  "ennis": 7744,
  "▁Tower": 7745,
  "▁truck": 7746,
  "▁concerts": 7747,
  "▁opponent": 7748,
  "onnaissance": 7749,
  "▁eliminated": 7750,
  "ouri": 7751,
  "▁Son": 7752,
  "▁1908": 7753,
  "▁1924": 7754,
  "▁Charlie": 7755,
  "▁moments": 7756,
  "▁Hamp": 7757,
  "▁aged": 7758,
  "▁safe": 7759,
  "▁Treaty": 7760,
  "▁pilots": 7761,
  "▁precip": 7762,
  "▁minimum": 7763,
  "▁partially": 7764,
  "▁travelled": 7765,
  "▁appointment": 7766,
  "eu": 7767,
  "▁1.2": 7768,
  "▁sure": 7769,
  "endment": 7770,
  "▁anticip": 7771,
  "▁assists": 7772,
  "▁covering": 7773,
  "▁Op": 7774,
  "▁ju": 7775,
  "▁Benj": 7776,
  "▁Much": 7777,
  "▁hull": 7778,
  "▁3,000": 7779,
  "▁wrest": 7780,
  "▁window": 7781,
  "▁isolated": 7782,
  "mile": 7783,
  "▁surf": 7784,
  "▁twin": 7785,
  "▁overs": 7786,
  "ographical": 7787,
  "▁alignment": 7788,
  "▁electronic": 7789,
  "▁96": 7790,
  "▁asks": 7791,
  "▁proport": 7792,
  "▁maintenance": 7793,
  "▁difficulties": 7794,
  "▁176": 7795,
  "▁1909": 7796,
  "▁sank": 7797,
  "▁covers": 7798,
  "munition": 7799,
  "▁Alab": 7800,
  "▁Rand": 7801,
  "▁Laure": 7802,
  "▁innov": 7803,
  "▁medium": 7804,
  "▁prohib": 7805,
  "▁Guardian": 7806,
  "▁Christopher": 7807,
  "rep": 7808,
  "▁DC": 7809,
  "▁moral": 7810,
  "▁Caribbean": 7811,
  "uda": 7812,
  "▁pric": 7813,
  "▁falls": 7814,
  "▁multi": 7815,
  "▁advice": 7816,
  "▁minimal": 7817,
  "▁fighters": 7818,
  "▁dominated": 7819,
  "▁submitted": 7820,
  "▁Æ": 7821,
  "▁Story": 7822,
  "▁cycle": 7823,
  "▁Shakesp": 7824,
  "▁Township": 7825,
  "▁arriving": 7826,
  "▁organizations": 7827,
  "icts": 7828,
  "▁Khan": 7829,
  "▁helicop": 7830,
  "▁approval": 7831,
  "▁occupation": 7832,
  "▁copy": 7833,
  "▁dynasty": 7834,
  "▁89": 7835,
  "▁Ian": 7836,
  "▁adm": 7837,
  "▁Dead": 7838,
  "▁impossible": 7839,
  "▁Kal": 7840,
  "▁Organ": 7841,
  "▁canal": 7842,
  "▁Alfred": 7843,
  "▁Walker": 7844,
  "▁crisis": 7845,
  "▁rhythm": 7846,
  "▁rounds": 7847,
  "▁keeping": 7848,
  "▁telling": 7849,
  "▁monument": 7850,
  "boy": 7851,
  "▁79": 7852,
  "▁CR": 7853,
  "iders": 7854,
  "▁truth": 7855,
  "▁resear": 7856,
  "atherine": 7857,
  "▁AR": 7858,
  "▁McD": 7859,
  "scale": 7860,
  "▁Banks": 7861,
  "▁smooth": 7862,
  "▁treaty": 7863,
  "▁Alabama": 7864,
  "▁Senator": 7865,
  "▁Benjamin": 7866,
  "▁purposes": 7867,
  "▁Vietnamese": 7868,
  "▁recordings": 7869,
  "▁Thor": 7870,
  "▁phen": 7871,
  "urance": 7872,
  "▁Dance": 7873,
  "▁advoc": 7874,
  "▁Garden": 7875,
  "▁Call": 7876,
  "▁absol": 7877,
  "▁advis": 7878,
  "▁Aff": 7879,
  "▁Fal": 7880,
  "overs": 7881,
  "▁Bros": 7882,
  "▁murd": 7883,
  "▁Event": 7884,
  "▁repair": 7885,
  "▁Digital": 7886,
  "roc": 7887,
  "▁98": 7888,
  "ctic": 7889,
  "▁wear": 7890,
  "▁Yanke": 7891,
  "▁marry": 7892,
  "▁Albums": 7893,
  "▁teaching": 7894,
  "▁Championships": 7895,
  "zz": 7896,
  "▁ax": 7897,
  "idae": 7898,
  "ugby": 7899,
  "▁Michel": 7900,
  "▁storms": 7901,
  "▁indicate": 7902,
  "▁Minnesota": 7903,
  "ng": 7904,
  "▁Mach": 7905,
  "▁Kansas": 7906,
  "▁instrumental": 7907,
  "▁1,5": 7908,
  "▁wet": 7909,
  "▁ammunition": 7910,
  "sk": 7911,
  "▁Hu": 7912,
  "otten": 7913,
  "▁Hills": 7914,
  "ishment": 7915,
  "▁Modern": 7916,
  "▁fishing": 7917,
  "-10": 7918,
  "▁mir": 7919,
  "eline": 7920,
  "hattan": 7921,
  "▁lists": 7922,
  "▁competed": 7923,
  "▁Wol": 7924,
  "▁orb": 7925,
  "▁pool": 7926,
  "father": 7927,
  "▁waves": 7928,
  "▁Grammy": 7929,
  "▁Kurt": 7930,
  "▁signs": 7931,
  "▁ethnic": 7932,
  "▁resumed": 7933,
  "▁dangerous": 7934,
  "iac": 7935,
  "▁ped": 7936,
  "▁villages": 7937,
  "ean": 7938,
  "▁Cold": 7939,
  "▁overw": 7940,
  "▁hockey": 7941,
  "▁designer": 7942,
  "▁Manhattan": 7943,
  "▁encounter": 7944,
  "▁sequences": 7945,
  "▁“": 7946,
  "ogy": 7947,
  "▁EP": 7948,
  "▁Ty": 7949,
  "▁grown": 7950,
  "▁Tenness": 7951,
  "▁suicide": 7952,
  "▁argument": 7953,
  "sky": 7954,
  "storm": 7955,
  "▁grav": 7956,
  "▁elabor": 7957,
  "▁dollars": 7958,
  "▁seeking": 7959,
  "▁collapse": 7960,
  "▁favorable": 7961,
  "▁manuscript": 7962,
  "▁Ban": 7963,
  "▁gat": 7964,
  "rupted": 7965,
  "▁filed": 7966,
  "▁cooper": 7967,
  "▁pulled": 7968,
  "▁consult": 7969,
  "▁signing": 7970,
  "▁Represent": 7971,
  "▁vice": 7972,
  "▁foundation": 7973,
  "CA": 7974,
  "rolled": 7975,
  "▁acted": 7976,
  "▁facing": 7977,
  "▁serial": 7978,
  "▁repairs": 7979,
  "13": 7980,
  "ti": 7981,
  "gery": 7982,
  "▁Mario": 7983,
  "▁values": 7984,
  "▁functions": 7985,
  "▁*": 7986,
  "lah": 7987,
  "▁danc": 7988,
  "▁jazz": 7989,
  "▁mile": 7990,
  "▁tone": 7991,
  "▁Camer": 7992,
  "selling": 7993,
  "▁asking": 7994,
  "▁defeating": 7995,
  "▁victories": 7996,
  "▁description": 7997,
  "ques": 7998,
  "▁Roc": 7999,
  "▁Hockey": 8000,
  "▁lowest": 8001,
  "▁option": 8002,
  "▁balance": 8003,
  "▁coordin": 8004,
  "▁emperor": 8005,
  "▁Industry": 8006,
  "▁Tennessee": 8007,
  "▁scientists": 8008,
  "rix": 8009,
  "xual": 8010,
  "▁800": 8011,
  "▁Ice": 8012,
  "▁Lad": 8013,
  "style": 8014,
  "▁Hong": 8015,
  "▁Rang": 8016,
  "▁suspended": 8017,
  "▁Dw": 8018,
  "▁1923": 8019,
  "incial": 8020,
  "ivated": 8021,
  "▁tunnel": 8022,
  "▁Alexand": 8023,
  "▁credits": 8024,
  "▁restaurant": 8025,
  "nik": 8026,
  "▁liqu": 8027,
  "ecraft": 8028,
  "▁Diego": 8029,
  "ensions": 8030,
  "▁underground": 8031,
  "lar": 8032,
  "▁1.6": 8033,
  "▁Tan": 8034,
  "▁sunk": 8035,
  "▁usual": 8036,
  "▁decides": 8037,
  "▁symptoms": 8038,
  "▁occasions": 8039,
  "▁professor": 8040,
  "▁Australians": 8041,
  "fe": 8042,
  "▁93": 8043,
  "▁170": 8044,
  "▁Rap": 8045,
  "▁1905": 8046,
  "▁parent": 8047,
  "▁subjects": 8048,
  "icer": 8049,
  "unch": 8050,
  "▁ske": 8051,
  "uable": 8052,
  "▁1906": 8053,
  "▁overt": 8054,
  "▁Ll": 8055,
  "▁Si": 8056,
  "▁UE": 8057,
  "weet": 8058,
  "▁Div": 8059,
  "▁Hop": 8060,
  "osevel": 8061,
  "▁poison": 8062,
  "▁Missouri": 8063,
  "▁attendance": 8064,
  "anium": 8065,
  "▁1904": 8066,
  "▁alter": 8067,
  "▁inaug": 8068,
  "alities": 8069,
  "▁Critics": 8070,
  "▁abilities": 8071,
  "▁1907": 8072,
  "▁Trust": 8073,
  "▁degrees": 8074,
  "▁Roosevel": 8075,
  "▁struggle": 8076,
  "▁beautiful": 8077,
  "▁na": 8078,
  "eare": 8079,
  "issue": 8080,
  "▁page": 8081,
  "▁dispute": 8082,
  "▁funeral": 8083,
  "▁survive": 8084,
  "▁preserved": 8085,
  "agh": 8086,
  "▁Dur": 8087,
  "▁rig": 8088,
  "▁Hind": 8089,
  "forced": 8090,
  "▁wreck": 8091,
  "▁violent": 8092,
  "▁designation": 8093,
  "ele": 8094,
  "▁nom": 8095,
  "▁Beck": 8096,
  "▁Switzer": 8097,
  "▁Campbell": 8098,
  "▁assisted": 8099,
  "▁displayed": 8100,
  "isp": 8101,
  "rus": 8102,
  "▁Fem": 8103,
  "▁Tun": 8104,
  "▁trend": 8105,
  "▁poorly": 8106,
  "▁unlike": 8107,
  "▁habitat": 8108,
  "▁Margaret": 8109,
  "▁Lam": 8110,
  "▁Nash": 8111,
  "iveness": 8112,
  "▁Country": 8113,
  "▁documents": 8114,
  "▁88": 8115,
  "▁Comb": 8116,
  "▁Human": 8117,
  "▁skull": 8118,
  "CC": 8119,
  "▁92": 8120,
  "amic": 8121,
  "orph": 8122,
  "▁Nag": 8123,
  "▁Mack": 8124,
  "▁Snow": 8125,
  "▁lect": 8126,
  "▁Kings": 8127,
  "▁Tamil": 8128,
  "▁simpl": 8129,
  "▁escaped": 8130,
  "▁percentage": 8131,
  "uv": 8132,
  "▁Bh": 8133,
  "rawn": 8134,
  "▁Ext": 8135,
  "▁Area": 8136,
  "▁wedding": 8137,
  "▁audiences": 8138,
  "▁Switzerland": 8139,
  "▁Gab": 8140,
  "▁Hud": 8141,
  "▁Shel": 8142,
  "▁Mississ": 8143,
  "▁concrete": 8144,
  "▁schedule": 8145,
  "▁Nat": 8146,
  "▁Fried": 8147,
  "▁prime": 8148,
  "▁changing": 8149,
  "▁controll": 8150,
  "▁newspapers": 8151,
  "▁partnership": 8152,
  "▁agricultural": 8153,
  "▁understanding": 8154,
  "vy": 8155,
  "eton": 8156,
  "reated": 8157,
  "▁flash": 8158,
  "species": 8159,
  "▁refere": 8160,
  "▁bombers": 8161,
  "▁Shakespeare": 8162,
  "oking": 8163,
  "▁Brun": 8164,
  "▁adopt": 8165,
  "▁aimed": 8166,
  "▁aware": 8167,
  "▁engagement": 8168,
  "▁possession": 8169,
  "Star": 8170,
  "roid": 8171,
  "▁McL": 8172,
  "▁keyboard": 8173,
  "16": 8174,
  "▁hat": 8175,
  "mented": 8176,
  "▁categ": 8177,
  "▁Warren": 8178,
  "▁custom": 8179,
  "▁lacked": 8180,
  "▁notice": 8181,
  "▁closing": 8182,
  "▁Roosevelt": 8183,
  "cho": 8184,
  "rams": 8185,
  "obile": 8186,
  "▁Blood": 8187,
  "▁Satur": 8188,
  "▁elder": 8189,
  "ulating": 8190,
  "▁deliber": 8191,
  "▁junction": 8192,
  "▁reflected": 8193,
  "▁collaboration": 8194,
  "overe": 8195,
  "▁dies": 8196,
  "▁forty": 8197,
  "▁neutral": 8198,
  "▁Montreal": 8199,
  "rm": 8200,
  "▁py": 8201,
  "▁Dod": 8202,
  "▁Lucas": 8203,
  "▁Athlet": 8204,
  "▁amongst": 8205,
  "▁Mitchell": 8206,
  "▁Portland": 8207,
  "unc": 8208,
  "▁Hero": 8209,
  "▁Czech": 8210,
  "▁cryst": 8211,
  "▁Health": 8212,
  "▁imperial": 8213,
  "▁situated": 8214,
  "▁residence": 8215,
  "▁candidates": 8216,
  "▁Construction": 8217,
  "die": 8218,
  "▁84": 8219,
  "mith": 8220,
  "▁Hotel": 8221,
  "▁tenth": 8222,
  "▁speaking": 8223,
  "▁lieutenant": 8224,
  "▁interesting": 8225,
  "fish": 8226,
  "▁Halo": 8227,
  "▁behalf": 8228,
  "▁corpor": 8229,
  "▁Turkish": 8230,
  "▁earning": 8231,
  "▁scholar": 8232,
  "▁disaster": 8233,
  "▁platinum": 8234,
  "▁mountains": 8235,
  "▁resolution": 8236,
  "ilty": 8237,
  "▁Ple": 8238,
  "▁ben": 8239,
  "▁Cole": 8240,
  "▁anch": 8241,
  "orious": 8242,
  "▁Steven": 8243,
  "▁Historic": 8244,
  "▁Sullivan": 8245,
  "▁flagship": 8246,
  "▁Peninsula": 8247,
  "gate": 8248,
  "▁wore": 8249,
  "urally": 8250,
  "▁vulner": 8251,
  "▁amounts": 8252,
  "▁pitched": 8253,
  "▁feelings": 8254,
  "TA": 8255,
  "▁94": 8256,
  "▁Fran": 8257,
  "▁Josh": 8258,
  "▁arts": 8259,
  "▁evil": 8260,
  "▁Billy": 8261,
  "▁reven": 8262,
  "resents": 8263,
  "▁willing": 8264,
  "▁suitable": 8265,
  "athy": 8266,
  "▁Joh": 8267,
  "▁lem": 8268,
  "itated": 8269,
  "▁Blues": 8270,
  "▁Record": 8271,
  "▁oxygen": 8272,
  "▁100,000": 8273,
  "▁Wilhelm": 8274,
  "▁artwork": 8275,
  "▁electron": 8276,
  "▁familiar": 8277,
  "▁preparation": 8278,
  "agg": 8279,
  "artney": 8280,
  "▁Chand": 8281,
  "▁Medal": 8282,
  "▁badly": 8283,
  "▁Labour": 8284,
  "▁discip": 8285,
  "▁shells": 8286,
  "▁expensive": 8287,
  "▁Philippines": 8288,
  "▁temporarily": 8289,
  "▁contributions": 8290,
  "rov": 8291,
  "▁Lin": 8292,
  "▁bay": 8293,
  "▁Apple": 8294,
  "▁false": 8295,
  "▁mental": 8296,
  "▁statue": 8297,
  "▁bowling": 8298,
  "▁offering": 8299,
  "▁generated": 8300,
  "▁survivors": 8301,
  "95": 8302,
  "▁wel": 8303,
  "▁erupt": 8304,
  "▁quiet": 8305,
  "▁margin": 8306,
  "▁comfort": 8307,
  "▁Children": 8308,
  "▁inhabitants": 8309,
  "rome": 8310,
  "▁Mes": 8311,
  "▁loan": 8312,
  "ellect": 8313,
  "asts": 8314,
  "▁Cob": 8315,
  "▁frig": 8316,
  "▁pron": 8317,
  "▁span": 8318,
  "▁vast": 8319,
  "▁Barry": 8320,
  "▁ninet": 8321,
  "inental": 8322,
  "overeign": 8323,
  "▁backing": 8324,
  "▁earthqu": 8325,
  "▁illness": 8326,
  "▁completing": 8327,
  "▁represents": 8328,
  "gro": 8329,
  "rator": 8330,
  "▁marks": 8331,
  "▁saved": 8332,
  "▁registered": 8333,
  "▁suggesting": 8334,
  "▁quarterback": 8335,
  "▁distinguished": 8336,
  "▁sector": 8337,
  "▁forests": 8338,
  "▁militia": 8339,
  "▁surprise": 8340,
  "▁explosion": 8341,
  "wa": 8342,
  "adi": 8343,
  "▁VI": 8344,
  "▁kW": 8345,
  "agen": 8346,
  "▁spr": 8347,
  "▁1880": 8348,
  "▁Anim": 8349,
  "▁Baby": 8350,
  "▁Wolf": 8351,
  "inding": 8352,
  "▁orbit": 8353,
  "▁affili": 8354,
  "▁voiced": 8355,
  "▁touring": 8356,
  "▁merchant": 8357,
  "▁businesses": 8358,
  "▁compilation": 8359,
  "▁perspective": 8360,
  "▁bot": 8361,
  "rates": 8362,
  "▁Mess": 8363,
  "▁Friend": 8364,
  "▁Stevens": 8365,
  "▁Egyptian": 8366,
  "▁replacing": 8367,
  "▁mart": 8368,
  "asters": 8369,
  "▁drove": 8370,
  "▁assess": 8371,
  "ylan": 8372,
  "omber": 8373,
  "▁5,000": 8374,
  "▁cargo": 8375,
  "onymous": 8376,
  "olve": 8377,
  "otton": 8378,
  "▁Near": 8379,
  "▁exit": 8380,
  "▁patterns": 8381,
  "▁86": 8382,
  "inea": 8383,
  "reted": 8384,
  "▁1903": 8385,
  "▁prosp": 8386,
  "▁armored": 8387,
  "py": 8388,
  "▁soil": 8389,
  "orders": 8390,
  "▁banks": 8391,
  "▁institutions": 8392,
  "quir": 8393,
  "piece": 8394,
  "▁tack": 8395,
  "▁fifty": 8396,
  "▁ideal": 8397,
  "▁rising": 8398,
  "▁signal": 8399,
  "▁Building": 8400,
  "▁Interstate": 8401,
  "▁operational": 8402,
  "tha": 8403,
  "aron": 8404,
  "▁1901": 8405,
  "▁nucle": 8406,
  "▁controls": 8407,
  "▁remnants": 8408,
  "▁entertainment": 8409,
  "amps": 8410,
  "ifer": 8411,
  "ocking": 8412,
  "▁wider": 8413,
  "▁execut": 8414,
  "▁obvious": 8415,
  "▁Austrian": 8416,
  "▁Education": 8417,
  "▁Louisiana": 8418,
  "▁Originally": 8419,
  "cru": 8420,
  "ippi": 8421,
  "ectic": 8422,
  "▁Phoen": 8423,
  "▁feels": 8424,
  "▁fallen": 8425,
  "▁worship": 8426,
  "EC": 8427,
  "rating": 8428,
  "▁exclud": 8429,
  "▁firing": 8430,
  "▁fifteen": 8431,
  "▁predomin": 8432,
  "▁grey": 8433,
  "▁protein": 8434,
  "▁recognised": 8435,
  "18": 8436,
  "ika": 8437,
  "uma": 8438,
  "▁Maur": 8439,
  "▁Nazi": 8440,
  "▁Ward": 8441,
  "▁Guide": 8442,
  "▁Oklah": 8443,
  "▁peaking": 8444,
  "▁thinking": 8445,
  "imen": 8446,
  "▁Seven": 8447,
  "▁Small": 8448,
  "▁Palest": 8449,
  "▁argues": 8450,
  "▁coverage": 8451,
  "▁philosophy": 8452,
  "▁characterized": 8453,
  "▁Lov": 8454,
  "▁Cuba": 8455,
  "▁Hindu": 8456,
  "▁print": 8457,
  "▁recip": 8458,
  "▁affair": 8459,
  "▁flights": 8460,
  "▁targets": 8461,
  "▁perceived": 8462,
  "ova": 8463,
  "▁Dom": 8464,
  "▁Hem": 8465,
  "▁gust": 8466,
  "▁fixed": 8467,
  "▁grade": 8468,
  "▁mines": 8469,
  "issions": 8470,
  "▁parish": 8471,
  "▁restricted": 8472,
  "▁simultaneously": 8473,
  "mi": 8474,
  "▁Ku": 8475,
  "ivia": 8476,
  "okes": 8477,
  "atics": 8478,
  "▁subt": 8479,
  "▁liked": 8480,
  "▁inland": 8481,
  "▁clearly": 8482,
  "▁distinctive": 8483,
  "▁gang": 8484,
  "▁initi": 8485,
  "▁Flight": 8486,
  "▁chapel": 8487,
  "▁explain": 8488,
  "▁founder": 8489,
  "▁spotted": 8490,
  "▁civilian": 8491,
  "▁conscious": 8492,
  "▁subspecies": 8493,
  "▁demonstrated": 8494,
  "▁Pa": 8495,
  "▁Amy": 8496,
  "▁cous": 8497,
  "▁Dylan": 8498,
  "▁Native": 8499,
  "▁Edwards": 8500,
  "▁Program": 8501,
  "▁affairs": 8502,
  "eor": 8503,
  "inian": 8504,
  "▁Atlanta": 8505,
  "▁measured": 8506,
  "icate": 8507,
  "▁justice": 8508,
  "sequently": 8509,
  "dale": 8510,
  "eded": 8511,
  "olid": 8512,
  "andal": 8513,
  "▁Vinc": 8514,
  "aughters": 8515,
  "hard": 8516,
  "▁Ped": 8517,
  "bishop": 8518,
  "ieties": 8519,
  "▁Bureau": 8520,
  "▁arrive": 8521,
  "▁reluct": 8522,
  "▁spiritual": 8523,
  "abs": 8524,
  "ori": 8525,
  "▁NO": 8526,
  "lings": 8527,
  "▁Grey": 8528,
  "▁useful": 8529,
  "▁Administ": 8530,
  "▁Jonathan": 8531,
  "▁boundary": 8532,
  "▁interact": 8533,
  "▁cancelled": 8534,
  "▁69": 8535,
  "orer": 8536,
  "▁1,2": 8537,
  "▁ABC": 8538,
  "found": 8539,
  "▁draf": 8540,
  "▁genetic": 8541,
  "▁Oklahoma": 8542,
  "▁meetings": 8543,
  "▁solution": 8544,
  "▁repeatedly": 8545,
  "▁Cow": 8546,
  "phony": 8547,
  "▁Kirk": 8548,
  "▁Ring": 8549,
  "▁Dragon": 8550,
  "▁Person": 8551,
  "▁horror": 8552,
  "▁Non": 8553,
  "▁Edge": 8554,
  "▁bulk": 8555,
  "▁Obama": 8556,
  "▁excav": 8557,
  "writing": 8558,
  "▁choose": 8559,
  "▁palace": 8560,
  "inations": 8561,
  "▁acceler": 8562,
  "19": 8563,
  "oned": 8564,
  "uary": 8565,
  "▁Rih": 8566,
  "▁rub": 8567,
  "angle": 8568,
  "▁Magn": 8569,
  "▁Soul": 8570,
  "▁rout": 8571,
  "▁condem": 8572,
  "▁dramatic": 8573,
  "▁explains": 8574,
  "▁intellect": 8575,
  "roph": 8576,
  "▁femin": 8577,
  "▁ranks": 8578,
  "▁autobi": 8579,
  "▁faster": 8580,
  "▁carriers": 8581,
  "▁depending": 8582,
  "▁Confederate": 8583,
  "▁reconnaissance": 8584,
  "rage": 8585,
  "ridge": 8586,
  "▁Harv": 8587,
  "▁maneu": 8588,
  "▁Denmark": 8589,
  "▁Rihanna": 8590,
  "▁evolved": 8591,
  "▁biographer": 8592,
  "din": 8593,
  "▁Rico": 8594,
  "▁drugs": 8595,
  "▁patron": 8596,
  "▁Persian": 8597,
  "▁behaviour": 8598,
  "▁Mississippi": 8599,
  "▁strengthened": 8600,
  "rac": 8601,
  "▁slaves": 8602,
  "▁disagre": 8603,
  "▁striking": 8604,
  "▁vertical": 8605,
  "▁westward": 8606,
  "▁apartment": 8607,
  "▁excellent": 8608,
  "▁1870": 8609,
  "▁pace": 8610,
  "▁frust": 8611,
  "mingham": 8612,
  "▁culmin": 8613,
  "▁riders": 8614,
  "▁exactly": 8615,
  "▁Eventually": 8616,
  "zona": 8617,
  "▁Prize": 8618,
  "▁poems": 8619,
  "▁string": 8620,
  "▁alliance": 8621,
  "▁northward": 8622,
  "▁battalions": 8623,
  "vant": 8624,
  "▁Sony": 8625,
  "apolis": 8626,
  "▁bombs": 8627,
  "▁Saturday": 8628,
  "▁visiting": 8629,
  "▁Furthermore": 8630,
  "▁communication": 8631,
  "17": 8632,
  "rant": 8633,
  "▁Lex": 8634,
  "▁meat": 8635,
  "▁crews": 8636,
  "▁cancel": 8637,
  "▁garden": 8638,
  "▁Perform": 8639,
  "▁alcohol": 8640,
  "▁Federation": 8641,
  "▁households": 8642,
  "lain": 8643,
  "▁Mrs": 8644,
  "▁Nik": 8645,
  "▁Vik": 8646,
  "▁vel": 8647,
  "esses": 8648,
  "▁Pitts": 8649,
  "▁phone": 8650,
  "▁Graham": 8651,
  "▁colonies": 8652,
  "▁dominant": 8653,
  "▁intensified": 8654,
  "▁Micro": 8655,
  "▁oblig": 8656,
  "▁armour": 8657,
  "▁Hungary": 8658,
  "▁Outstanding": 8659,
  "▁application": 8660,
  "▁Liz": 8661,
  "▁tag": 8662,
  "▁tru": 8663,
  "▁Such": 8664,
  "▁obst": 8665,
  "▁Independent": 8666,
  "▁Tokyo": 8667,
  "▁coinc": 8668,
  "▁bronze": 8669,
  "▁shield": 8670,
  "▁theater": 8671,
  "▁Business": 8672,
  "LC": 8673,
  "oa": 8674,
  "rik": 8675,
  "umps": 8676,
  "▁Ren": 8677,
  "▁Vis": 8678,
  "▁rit": 8679,
  "▁Ridge": 8680,
  "▁citing": 8681,
  "▁obtain": 8682,
  "▁retain": 8683,
  "▁Arizona": 8684,
  "▁artistic": 8685,
  "▁exhibition": 8686,
  "▁friendship": 8687,
  "▁institution": 8688,
  "▁predecessor": 8689,
  "erk": 8690,
  "▁Cher": 8691,
  "▁Dest": 8692,
  "▁Lang": 8693,
  "▁sick": 8694,
  "▁synd": 8695,
  "▁thor": 8696,
  "▁doubt": 8697,
  "▁removal": 8698,
  "▁struggled": 8699,
  "▁Tag": 8700,
  "▁kit": 8701,
  "▁Brig": 8702,
  "▁Gary": 8703,
  "▁drink": 8704,
  "▁tight": 8705,
  "▁Indies": 8706,
  "▁racing": 8707,
  "▁terror": 8708,
  "▁sisters": 8709,
  "formation": 8710,
  "▁alternate": 8711,
  "▁directors": 8712,
  "▁conservative": 8713,
  "oven": 8714,
  "▁360": 8715,
  "anches": 8716,
  "▁Nixon": 8717,
  "▁20,000": 8718,
  "▁Internet": 8719,
  "arth": 8720,
  "▁125": 8721,
  "▁Cra": 8722,
  "▁dece": 8723,
  "estyle": 8724,
  "▁Tracy": 8725,
  "▁threw": 8726,
  "▁succeed": 8727,
  "▁portions": 8728,
  "▁satellite": 8729,
  "case": 8730,
  "urer": 8731,
  "▁Ton": 8732,
  "▁Bomb": 8733,
  "oustic": 8734,
  "▁panel": 8735,
  "uations": 8736,
  "▁pursue": 8737,
  "▁prepare": 8738,
  "▁typhoon": 8739,
  "▁Baseball": 8740,
  "▁audition": 8741,
  "▁Na": 8742,
  "▁Wor": 8743,
  "▁pale": 8744,
  "▁Harvey": 8745,
  "▁altered": 8746,
  "▁compens": 8747,
  "▁demands": 8748,
  "▁fastest": 8749,
  "ascar": 8750,
  "ateur": 8751,
  "▁strict": 8752,
  "▁surrend": 8753,
  "▁playoffs": 8754,
  "elli": 8755,
  "grad": 8756,
  "owed": 8757,
  "rose": 8758,
  "owned": 8759,
  "▁boss": 8760,
  "estone": 8761,
  "▁frame": 8762,
  "▁creator": 8763,
  "▁trouble": 8764,
  "▁practices": 8765,
  "▁Birmingham": 8766,
  "▁circumstances": 8767,
  "▁wait": 8768,
  "ulture": 8769,
  "▁chamber": 8770,
  "▁armament": 8771,
  "ello": 8772,
  "▁105": 8773,
  "azing": 8774,
  "ancell": 8775,
  "▁whilst": 8776,
  "▁Writing": 8777,
  "▁sitting": 8778,
  "▁Railroad": 8779,
  "▁severely": 8780,
  "▁tex": 8781,
  "adier": 8782,
  "▁1902": 8783,
  "▁Gene": 8784,
  "▁Lith": 8785,
  "▁wants": 8786,
  "▁waiting": 8787,
  "▁ownership": 8788,
  "▁Ye": 8789,
  "▁Maj": 8790,
  "▁Abbey": 8791,
  "▁alive": 8792,
  "▁surge": 8793,
  "▁Leslie": 8794,
  "▁reaches": 8795,
  "▁attained": 8796,
  "▁rebellion": 8797,
  "arr": 8798,
  "pha": 8799,
  "emen": 8800,
  "▁bid": 8801,
  "eland": 8802,
  "▁gard": 8803,
  "▁brill": 8804,
  "▁yield": 8805,
  "▁retail": 8806,
  "▁Bernard": 8807,
  "▁athletes": 8808,
  "▁friendly": 8809,
  "▁comparison": 8810,
  "avery": 8811,
  "▁Todd": 8812,
  "▁pages": 8813,
  "▁roots": 8814,
  "▁wheel": 8815,
  "▁allies": 8816,
  "42": 8817,
  "▁Py": 8818,
  "acon": 8819,
  "▁Mik": 8820,
  "▁Clar": 8821,
  "▁sket": 8822,
  "▁demanded": 8823,
  "inter": 8824,
  "▁looks": 8825,
  "▁mining": 8826,
  "▁illegal": 8827,
  "▁Universal": 8828,
  "▁believing": 8829,
  "▁administrative": 8830,
  "IS": 8831,
  "▁Bi": 8832,
  "itis": 8833,
  "tery": 8834,
  "▁Jup": 8835,
  "▁cod": 8836,
  "▁voy": 8837,
  "entle": 8838,
  "▁gate": 8839,
  "▁plus": 8840,
  "▁Jimmy": 8841,
  "▁surpass": 8842,
  "▁musician": 8843,
  "▁Connectic": 8844,
  "▁McCartney": 8845,
  "▁orchestra": 8846,
  "45": 8847,
  "hu": 8848,
  "imm": 8849,
  "▁Hur": 8850,
  "pound": 8851,
  "▁Less": 8852,
  "▁loop": 8853,
  "▁Murphy": 8854,
  "▁armies": 8855,
  "▁context": 8856,
  "▁insisted": 8857,
  "uki": 8858,
  "▁12-": 8859,
  "ifies": 8860,
  "▁Hann": 8861,
  "▁Shaw": 8862,
  "ruption": 8863,
  "▁matters": 8864,
  "▁indicating": 8865,
  "OS": 8866,
  "bra": 8867,
  "pow": 8868,
  "folk": 8869,
  "soft": 8870,
  "▁Pil": 8871,
  "▁Bath": 8872,
  "▁mush": 8873,
  "▁Keith": 8874,
  "▁placing": 8875,
  "▁Democrats": 8876,
  "▁Connecticut": 8877,
  "arant": 8878,
  "▁breat": 8879,
  "▁Players": 8880,
  "▁storage": 8881,
  "▁predicted": 8882,
  "▁secretary": 8883,
  "▁restoration": 8884,
  "IV": 8885,
  "▁DS": 8886,
  "ista": 8887,
  "yrus": 8888,
  "ested": 8889,
  "ported": 8890,
  "▁affect": 8891,
  "▁stores": 8892,
  "▁closest": 8893,
  "▁multipl": 8894,
  "▁partial": 8895,
  "▁articles": 8896,
  "▁deterior": 8897,
  "▁initiated": 8898,
  "▁Pars": 8899,
  "▁UEFA": 8900,
  "▁navy": 8901,
  "▁propag": 8902,
  "▁console": 8903,
  "irty": 8904,
  "▁Rub": 8905,
  "▁Wag": 8906,
  "▁Dall": 8907,
  "▁Gray": 8908,
  "▁Roll": 8909,
  "idency": 8910,
  "▁cannon": 8911,
  "▁neighb": 8912,
  "▁pretty": 8913,
  "▁triple": 8914,
  "▁casting": 8915,
  "▁circuit": 8916,
  "▁rebuilt": 8917,
  "odox": 8918,
  "▁Fif": 8919,
  "▁Hugh": 8920,
  "azines": 8921,
  "ennium": 8922,
  "▁Madag": 8923,
  "▁stick": 8924,
  "▁bacter": 8925,
  "▁hidden": 8926,
  "▁revers": 8927,
  "▁ranging": 8928,
  "▁readers": 8929,
  "▁phenomen": 8930,
  "▁promised": 8931,
  "▁campaigns": 8932,
  "▁theatrical": 8933,
  "▁nominations": 8934,
  "Ch": 8935,
  "ni": 8936,
  "occ": 8937,
  "otte": 8938,
  "▁Ald": 8939,
  "▁horiz": 8940,
  "▁acclaim": 8941,
  "▁forecast": 8942,
  "▁highways": 8943,
  "▁specimen": 8944,
  "▁objective": 8945,
  "▁establishing": 8946,
  "enna": 8947,
  "▁Pap": 8948,
  "▁Tel": 8949,
  "itals": 8950,
  "▁revol": 8951,
  "▁Rachel": 8952,
  "▁blocks": 8953,
  "▁revenue": 8954,
  "▁sending": 8955,
  "▁overwhel": 8956,
  "▁=": 8957,
  "stan": 8958,
  "▁jobs": 8959,
  "▁insects": 8960,
  "▁overseas": 8961,
  "▁similarly": 8962,
  "WC": 8963,
  "oga": 8964,
  "▁Haz": 8965,
  "▁net": 8966,
  "▁Farm": 8967,
  "▁democr": 8968,
  "▁artific": 8969,
  "▁decisions": 8970,
  "▁approaching": 8971,
  "held": 8972,
  "icle": 8973,
  "oons": 8974,
  "ultan": 8975,
  "▁Baker": 8976,
  "▁Griff": 8977,
  "▁kings": 8978,
  "▁Territ": 8979,
  "▁agency": 8980,
  "▁output": 8981,
  "▁planets": 8982,
  "▁Delaware": 8983,
  "▁champions": 8984,
  "▁underwent": 8985,
  "iph": 8986,
  "uese": 8987,
  "tario": 8988,
  "▁Wayne": 8989,
  "▁pione": 8990,
  "▁bombing": 8991,
  "▁heading": 8992,
  "boat": 8993,
  "▁cup": 8994,
  "▁orn": 8995,
  "rient": 8996,
  "▁debt": 8997,
  "▁ports": 8998,
  "▁Oliver": 8999,
  "▁aerial": 9000,
  "▁listen": 9001,
  "cription": 9002,
  "▁Phoenix": 9003,
  "▁Windows": 9004,
  "▁remarked": 9005,
  "▁guitarist": 9006,
  "jan": 9007,
  "rast": 9008,
  "▁Chel": 9009,
  "▁Iran": 9010,
  "▁hook": 9011,
  "▁Peace": 9012,
  "▁abund": 9013,
  "▁basin": 9014,
  "▁bonus": 9015,
  "▁diver": 9016,
  "▁lanes": 9017,
  "itively": 9018,
  "▁Johnny": 9019,
  "▁decide": 9020,
  "▁dissipated": 9021,
  "▁115": 9022,
  "▁Spir": 9023,
  "▁drag": 9024,
  "▁ruling": 9025,
  "▁compliment": 9026,
  "▁conversion": 9027,
  "▁acknowledged": 9028,
  "fr": 9029,
  "acc": 9030,
  "▁Sak": 9031,
  "▁Pink": 9032,
  "▁amid": 9033,
  "▁exha": 9034,
  "▁Perry": 9035,
  "▁tubes": 9036,
  "▁confron": 9037,
  "▁surgery": 9038,
  "▁Morrison": 9039,
  "▁neighbour": 9040,
  "▁seriously": 9041,
  "▁concentrated": 9042,
  "eff": 9043,
  "▁Kl": 9044,
  "warf": 9045,
  "▁Len": 9046,
  "▁gap": 9047,
  "inces": 9048,
  "▁markets": 9049,
  "▁defences": 9050,
  "▁enlisted": 9051,
  "▁execution": 9052,
  "▁qualified": 9053,
  "22": 9054,
  "75": 9055,
  "▁Bach": 9056,
  "▁funny": 9057,
  "aircraft": 9058,
  "regation": 9059,
  "▁Ontario": 9060,
  "▁annually": 9061,
  "▁increases": 9062,
  "▁Madagascar": 9063,
  "je": 9064,
  "asa": 9065,
  "idal": 9066,
  "▁Sig": 9067,
  "▁forg": 9068,
  "▁Scout": 9069,
  "▁Spart": 9070,
  "▁guilty": 9071,
  "▁factory": 9072,
  "▁Champions": 9073,
  "pent": 9074,
  "rous": 9075,
  "▁Kit": 9076,
  "▁McM": 9077,
  "▁rif": 9078,
  "ipper": 9079,
  "▁plain": 9080,
  "▁jurisd": 9081,
  "▁supple": 9082,
  "▁talent": 9083,
  "▁Bradman": 9084,
  "▁Enterprise": 9085,
  "▁demolished": 9086,
  "▁personally": 9087,
  "cks": 9088,
  "▁71": 9089,
  "▁Edin": 9090,
  "▁sung": 9091,
  "▁mayor": 9092,
  "▁memor": 9093,
  "▁tribes": 9094,
  "▁drivers": 9095,
  "▁flowers": 9096,
  "▁printed": 9097,
  "▁radical": 9098,
  "▁wrestling": 9099,
  "38": 9100,
  "aja": 9101,
  "cut": 9102,
  "▁Kap": 9103,
  "Files": 9104,
  "▁Patt": 9105,
  "▁happ": 9106,
  "aments": 9107,
  "strong": 9108,
  "▁Alice": 9109,
  "olition": 9110,
  "▁curren": 9111,
  "▁shorter": 9112,
  "▁pictures": 9113,
  "▁shipping": 9114,
  "▁observations": 9115,
  "irts": 9116,
  "▁duo": 9117,
  "▁prove": 9118,
  "▁Comple": 9119,
  "▁extrat": 9120,
  "▁stress": 9121,
  "▁Napoleon": 9122,
  "▁elevation": 9123,
  "▁publishing": 9124,
  "annon": 9125,
  "shore": 9126,
  "▁Gate": 9127,
  "▁Karl": 9128,
  "eneral": 9129,
  "aro": 9130,
  "imp": 9131,
  "week": 9132,
  "▁Lost": 9133,
  "▁bare": 9134,
  "▁subst": 9135,
  "▁Jupiter": 9136,
  "▁Broadway": 9137,
  "▁realized": 9138,
  "▁collapsed": 9139,
  "▁organised": 9140,
  "▁provision": 9141,
  "▁700": 9142,
  "atern": 9143,
  "▁Boys": 9144,
  "▁Cycl": 9145,
  "▁Marie": 9146,
  "▁grave": 9147,
  "▁hosts": 9148,
  "▁slave": 9149,
  "▁counties": 9150,
  "▁essential": 9151,
  "▁discussion": 9152,
  "▁extratropical": 9153,
  "hop": 9154,
  "▁sq": 9155,
  "hous": 9156,
  "▁165": 9157,
  "autical": 9158,
  "▁Defence": 9159,
  "▁birthday": 9160,
  "▁clothing": 9161,
  "▁watershed": 9162,
  "▁Convention": 9163,
  "▁colleagues": 9164,
  "▁originated": 9165,
  "▁Christianity": 9166,
  "onica": 9167,
  "▁Manu": 9168,
  "▁salt": 9169,
  "itudes": 9170,
  "▁accum": 9171,
  "▁chest": 9172,
  "imetres": 9173,
  "▁Triple": 9174,
  "ensively": 9175,
  "▁replied": 9176,
  "▁arrangements": 9177,
  "ania": 9178,
  "▁Æthel": 9179,
  "▁Dwight": 9180,
  "▁engage": 9181,
  "▁explan": 9182,
  "▁switch": 9183,
  "▁identify": 9184,
  "▁magazines": 9185,
  "▁Portuguese": 9186,
  "▁Ay": 9187,
  "▁Ko": 9188,
  "▁Ve": 9189,
  "yler": 9190,
  "▁Cre": 9191,
  "▁cad": 9192,
  "aders": 9193,
  "▁brick": 9194,
  "▁Arnold": 9195,
  "▁Hudson": 9196,
  "▁mainland": 9197,
  "▁defending": 9198,
  "aux": 9199,
  "▁Om": 9200,
  "▁Fat": 9201,
  "▁1899": 9202,
  "▁stops": 9203,
  "▁Canter": 9204,
  "▁Legend": 9205,
  "▁continu": 9206,
  "▁fantasy": 9207,
  "▁liberal": 9208,
  "▁origins": 9209,
  "▁soldier": 9210,
  "▁employment": 9211,
  "▁announcement": 9212,
  "44": 9213,
  "▁Inn": 9214,
  "▁Jar": 9215,
  "ulous": 9216,
  "venth": 9217,
  "▁solar": 9218,
  "▁travels": 9219,
  "▁Edinburgh": 9220,
  "▁daughters": 9221,
  "▁expression": 9222,
  "ricts": 9223,
  "▁coff": 9224,
  "▁fill": 9225,
  "▁expand": 9226,
  "▁connect": 9227,
  "▁guarant": 9228,
  "▁discovers": 9229,
  "▁evacuated": 9230,
  "▁strategic": 9231,
  "pty": 9232,
  "▁Lt": 9233,
  "math": 9234,
  "▁Fel": 9235,
  "▁Mint": 9236,
  "▁baby": 9237,
  "▁corps": 9238,
  "▁Turner": 9239,
  "▁expert": 9240,
  "▁Village": 9241,
  "▁delivery": 9242,
  "▁monaster": 9243,
  "▁aggressive": 9244,
  "▁appropriate": 9245,
  "ghan": 9246,
  "▁Ral": 9247,
  "▁TNA": 9248,
  "▁bone": 9249,
  "▁outd": 9250,
  "▁Mother": 9251,
  "▁Leonard": 9252,
  "▁Yankees": 9253,
  "▁volumes": 9254,
  "▁Champion": 9255,
  "▁connecting": 9256,
  "▁membership": 9257,
  "SA": 9258,
  "dr": 9259,
  "▁μ": 9260,
  "▁ski": 9261,
  "ensed": 9262,
  "▁Bobby": 9263,
  "▁steps": 9264,
  "▁Allies": 9265,
  "▁Trophy": 9266,
  "▁erected": 9267,
  "▁swimming": 9268,
  "bal": 9269,
  "▁sad": 9270,
  "angel": 9271,
  "throp": 9272,
  "▁legit": 9273,
  "▁Friday": 9274,
  "▁dancing": 9275,
  "▁imagery": 9276,
  "▁organisation": 9277,
  "OT": 9278,
  "arc": 9279,
  "sts": 9280,
  "otyp": 9281,
  "▁Lat": 9282,
  "eding": 9283,
  "▁renov": 9284,
  "▁feather": 9285,
  "▁acoustic": 9286,
  "▁Hampshire": 9287,
  "▁stationed": 9288,
  "▁mac": 9289,
  "▁Cost": 9290,
  "▁Diam": 9291,
  "▁rede": 9292,
  "▁prize": 9293,
  "▁uncom": 9294,
  "▁ballad": 9295,
  "▁dubbed": 9296,
  "▁ongoing": 9297,
  "▁marketing": 9298,
  "▁concentration": 9299,
  "cons": 9300,
  "▁Goth": 9301,
  "▁scen": 9302,
  "▁magic": 9303,
  "ecution": 9304,
  "▁Foreign": 9305,
  "▁withdrawal": 9306,
  "pop": 9307,
  "▁Opp": 9308,
  "▁Rab": 9309,
  "▁cyl": 9310,
  "hears": 9311,
  "igenous": 9312,
  "▁samples": 9313,
  "▁walking": 9314,
  "▁external": 9315,
  "▁Yorkshire": 9316,
  "▁battlecru": 9317,
  "▁advertising": 9318,
  "▁legislature": 9319,
  "▁experimental": 9320,
  "MI": 9321,
  "oker": 9322,
  "▁NCAA": 9323,
  "▁horn": 9324,
  "▁Drive": 9325,
  "▁venue": 9326,
  "▁Davies": 9327,
  "▁reveal": 9328,
  "▁turret": 9329,
  "▁requires": 9330,
  "▁Catherine": 9331,
  "▁promotional": 9332,
  "▁interpretation": 9333,
  "inf": 9334,
  "▁RP": 9335,
  "elta": 9336,
  "hist": 9337,
  "▁Box": 9338,
  "▁Isa": 9339,
  "▁Our": 9340,
  "▁pel": 9341,
  "asant": 9342,
  "▁1893": 9343,
  "ingham": 9344,
  "keeper": 9345,
  "▁beats": 9346,
  "▁desert": 9347,
  "▁seized": 9348,
  "▁discont": 9349,
  "▁donated": 9350,
  "▁drinking": 9351,
  "▁graduated": 9352,
  "▁Canterbury": 9353,
  "aman": 9354,
  "mund": 9355,
  "▁Tol": 9356,
  "▁Lion": 9357,
  "▁dict": 9358,
  "▁liquid": 9359,
  "▁confirm": 9360,
  "▁youngest": 9361,
  "▁landscape": 9362,
  "▁provincial": 9363,
  "▁considering": 9364,
  "ür": 9365,
  "-20": 9366,
  "iffs": 9367,
  "▁Tak": 9368,
  "agger": 9369,
  "iracy": 9370,
  "▁Hold": 9371,
  "porting": 9372,
  "▁Thunder": 9373,
  "pike": 9374,
  "▁Meg": 9375,
  "ouver": 9376,
  "readn": 9377,
  "▁coup": 9378,
  "▁glac": 9379,
  "raction": 9380,
  "▁ranking": 9381,
  "▁wealthy": 9382,
  "▁scattered": 9383,
  "▁representatives": 9384,
  "36": 9385,
  "spe": 9386,
  "▁NAS": 9387,
  "▁Nad": 9388,
  "▁shr": 9389,
  "enesis": 9390,
  "▁Craig": 9391,
  "▁Those": 9392,
  "▁raids": 9393,
  "ception": 9394,
  "▁Rights": 9395,
  "▁circle": 9396,
  "▁Finally": 9397,
  "▁gathered": 9398,
  "▁settlers": 9399,
  "▁supplied": 9400,
  "▁Hungarian": 9401,
  "▁consistent": 9402,
  "▁investigate": 9403,
  "▁conventional": 9404,
  "▁Tob": 9405,
  "ethel": 9406,
  "▁1860": 9407,
  "▁Mans": 9408,
  "▁spac": 9409,
  "▁Girls": 9410,
  "▁layer": 9411,
  "▁offense": 9412,
  "▁founding": 9413,
  "▁praising": 9414,
  "39": 9415,
  "gie": 9416,
  "east": 9417,
  "olen": 9418,
  "▁Joy": 9419,
  "▁Nine": 9420,
  "▁Ship": 9421,
  "▁Marvel": 9422,
  "▁limits": 9423,
  "pled": 9424,
  "▁Jun": 9425,
  "overed": 9426,
  "▁uncle": 9427,
  "▁tenure": 9428,
  "▁exposure": 9429,
  "▁starring": 9430,
  "▁Chronicle": 9431,
  "▁component": 9432,
  "▁indicates": 9433,
  "▁relocated": 9434,
  "axon": 9435,
  "▁Sle": 9436,
  "▁Years": 9437,
  "▁recre": 9438,
  "▁parody": 9439,
  "▁persons": 9440,
  "▁compounds": 9441,
  "▁Queensland": 9442,
  "▁translation": 9443,
  "def": 9444,
  "haw": 9445,
  "olly": 9446,
  "otal": 9447,
  "▁Eug": 9448,
  "▁1898": 9449,
  "▁heir": 9450,
  "▁kiss": 9451,
  "▁Protest": 9452,
  "▁Reserve": 9453,
  "▁Brothers": 9454,
  "▁permitted": 9455,
  "▁referring": 9456,
  "▁Depression": 9457,
  "▁commanding": 9458,
  "ocy": 9459,
  "▁cub": 9460,
  "▁Ches": 9461,
  "▁brig": 9462,
  "▁caps": 9463,
  "▁Pearl": 9464,
  "▁Flying": 9465,
  "▁reward": 9466,
  "▁trough": 9467,
  "expected": 9468,
  "▁putting": 9469,
  "▁reverse": 9470,
  "▁fortress": 9471,
  "▁commentary": 9472,
  "▁Fu": 9473,
  "▁scr": 9474,
  "utton": 9475,
  "▁Andre": 9476,
  "▁Hardy": 9477,
  "▁Polit": 9478,
  "▁camps": 9479,
  "▁Return": 9480,
  "▁unclear": 9481,
  "bow": 9482,
  "osm": 9483,
  "▁AP": 9484,
  "▁tip": 9485,
  "▁Bosn": 9486,
  "rising": 9487,
  "▁Marge": 9488,
  "▁Terry": 9489,
  "▁anime": 9490,
  "▁guide": 9491,
  "▁sharp": 9492,
  "ivation": 9493,
  "ags": 9494,
  "▁Set": 9495,
  "▁Stu": 9496,
  "eared": 9497,
  "irates": 9498,
  "▁danger": 9499,
  "▁therap": 9500,
  "▁dressed": 9501,
  "▁Original": 9502,
  "▁improvements": 9503,
  "erg": 9504,
  "▁Mem": 9505,
  "▁Stef": 9506,
  "▁tort": 9507,
  "▁lawyer": 9508,
  "▁varied": 9509,
  "▁visits": 9510,
  "etheless": 9511,
  "▁Belgian": 9512,
  "▁reorgan": 9513,
  "▁attitude": 9514,
  "▁components": 9515,
  "▁contribution": 9516,
  "▁Wii": 9517,
  "▁mal": 9518,
  "▁1897": 9519,
  "▁Chen": 9520,
  "▁Mosc": 9521,
  "▁Potter": 9522,
  "▁regime": 9523,
  "▁weekly": 9524,
  "▁Bennett": 9525,
  "▁strongest": 9526,
  "▁educational": 9527,
  "rip": 9528,
  "▁dogs": 9529,
  "▁Geoff": 9530,
  "▁taxes": 9531,
  "▁Guitar": 9532,
  "▁burial": 9533,
  "▁merely": 9534,
  "▁assembly": 9535,
  "▁emphasis": 9536,
  "▁JT": 9537,
  "avor": 9538,
  "ashes": 9539,
  "▁Laur": 9540,
  "▁bath": 9541,
  "▁cock": 9542,
  "▁furn": 9543,
  "▁gray": 9544,
  "encing": 9545,
  "▁recon": 9546,
  "▁airing": 9547,
  "▁aspect": 9548,
  "▁mobile": 9549,
  "▁Pakistan": 9550,
  "▁competing": 9551,
  "hin": 9552,
  "hyl": 9553,
  "▁id": 9554,
  "rama": 9555,
  "▁les": 9556,
  "anner": 9557,
  "itage": 9558,
  "▁Owen": 9559,
  "▁seed": 9560,
  "▁Begin": 9561,
  "▁incom": 9562,
  "amental": 9563,
  "▁Hughes": 9564,
  "▁topped": 9565,
  "▁Princip": 9566,
  "▁comprom": 9567,
  "▁proceeded": 9568,
  "▁radiation": 9569,
  "▁precipitation": 9570,
  "27": 9571,
  "▁Emmy": 9572,
  "▁Lock": 9573,
  "▁sang": 9574,
  "ibilities": 9575,
  "▁Cov": 9576,
  "▁Dub": 9577,
  "acles": 9578,
  "aters": 9579,
  "▁1896": 9580,
  "▁beam": 9581,
  "▁bond": 9582,
  "person": 9583,
  "▁fewer": 9584,
  "▁melody": 9585,
  "▁Cricket": 9586,
  "▁failing": 9587,
  "▁flooded": 9588,
  "▁portrayal": 9589,
  "▁celebrated": 9590,
  "▁questioned": 9591,
  "odge": 9592,
  "▁Mand": 9593,
  "▁Type": 9594,
  "▁users": 9595,
  "▁thirteen": 9596,
  "▁governments": 9597,
  "▁transported": 9598,
  "onge": 9599,
  "▁Got": 9600,
  "month": 9601,
  "uzzle": 9602,
  "cribed": 9603,
  "▁burned": 9604,
  "▁empire": 9605,
  "▁recall": 9606,
  "▁hypothes": 9607,
  "26": 9608,
  "bel": 9609,
  "▁Say": 9610,
  "▁Beng": 9611,
  "▁Publ": 9612,
  "▁obsc": 9613,
  "▁flows": 9614,
  "▁traded": 9615,
  "▁stronger": 9616,
  "▁Argentina": 9617,
  "▁assembled": 9618,
  "▁photographs": 9619,
  "▁surrendered": 9620,
  "85": 9621,
  "ović": 9622,
  "▁Abd": 9623,
  "riors": 9624,
  "▁Vanc": 9625,
  "▁wish": 9626,
  "▁Larry": 9627,
  "ologies": 9628,
  "▁raising": 9629,
  "▁Campaign": 9630,
  "▁reducing": 9631,
  "▁warnings": 9632,
  "▁Community": 9633,
  "▁3.5": 9634,
  "▁talks": 9635,
  "▁virus": 9636,
  "▁boilers": 9637,
  "▁charity": 9638,
  "▁Microsoft": 9639,
  "▁Vancouver": 9640,
  "▁publications": 9641,
  "▁91": 9642,
  "join": 9643,
  "▁unw": 9644,
  "phone": 9645,
  "▁Mend": 9646,
  "▁branches": 9647,
  "37": 9648,
  "onald": 9649,
  "▁encl": 9650,
  "▁banned": 9651,
  "▁bishop": 9652,
  "▁endors": 9653,
  "▁reduction": 9654,
  "▁productions": 9655,
  "▁81": 9656,
  "eyer": 9657,
  "▁Mong": 9658,
  "▁cens": 9659,
  "istent": 9660,
  "▁Darwin": 9661,
  "▁fossil": 9662,
  "▁movies": 9663,
  "▁Harvard": 9664,
  "▁carries": 9665,
  "▁sixteen": 9666,
  "▁trading": 9667,
  "▁protests": 9668,
  "▁profession": 9669,
  "▁06": 9670,
  "▁Kan": 9671,
  "▁Tit": 9672,
  "▁Kate": 9673,
  "▁Rangers": 9674,
  "▁predict": 9675,
  "▁tactics": 9676,
  "▁software": 9677,
  "▁photography": 9678,
  "nt": 9679,
  "▁Ec": 9680,
  "iper": 9681,
  "▁Nev": 9682,
  "▁Juan": 9683,
  "▁Jerry": 9684,
  "▁Where": 9685,
  "▁Donald": 9686,
  "▁toured": 9687,
  "▁unless": 9688,
  "▁Cameron": 9689,
  "▁accompanying": 9690,
  "▁£1": 9691,
  "▁Lib": 9692,
  "▁Prom": 9693,
  "ffield": 9694,
  "rehens": 9695,
  "▁Sweet": 9696,
  "▁loved": 9697,
  "iciency": 9698,
  "▁fisher": 9699,
  "▁hydrogen": 9700,
  "▁challenged": 9701,
  "49": 9702,
  "AN": 9703,
  "cott": 9704,
  "illo": 9705,
  "▁Mond": 9706,
  "▁elig": 9707,
  "▁worn": 9708,
  "▁Beaut": 9709,
  "▁penet": 9710,
  "▁autumn": 9711,
  "▁wicket": 9712,
  "▁Nicholas": 9713,
  "▁accurate": 9714,
  "▁brilliant": 9715,
  "▁requirements": 9716,
  "és": 9717,
  "uez": 9718,
  "uras": 9719,
  "▁Gor": 9720,
  "▁Pic": 9721,
  "▁Prix": 9722,
  "▁mini": 9723,
  "▁punk": 9724,
  "▁Honor": 9725,
  "▁Mason": 9726,
  "▁Dallas": 9727,
  "▁prices": 9728,
  "▁Norfolk": 9729,
  "▁relatives": 9730,
  "▁intersects": 9731,
  "▁Administration": 9732,
  "▁Bak": 9733,
  "▁Pam": 9734,
  "grade": 9735,
  "▁Sega": 9736,
  "itched": 9737,
  "▁exter": 9738,
  "assador": 9739,
  "▁Lithuan": 9740,
  "▁columns": 9741,
  "▁warfare": 9742,
  "▁Mountains": 9743,
  "▁adventure": 9744,
  "▁exclusively": 9745,
  "ioc": 9746,
  "pler": 9747,
  "▁Kam": 9748,
  "▁Rat": 9749,
  "andom": 9750,
  "onian": 9751,
  "▁Bald": 9752,
  "hammad": 9753,
  "▁Chile": 9754,
  "▁Monte": 9755,
  "▁edited": 9756,
  "▁blocked": 9757,
  "▁talking": 9758,
  "▁confront": 9759,
  "▁identical": 9760,
  "urd": 9761,
  "type": 9762,
  "▁Rud": 9763,
  "rooms": 9764,
  "umble": 9765,
  "umped": 9766,
  "▁coat": 9767,
  "cially": 9768,
  "▁lawsu": 9769,
  "▁devast": 9770,
  "▁ranges": 9771,
  "▁sample": 9772,
  "ellation": 9773,
  "▁contend": 9774,
  "▁Malaysia": 9775,
  "▁nautical": 9776,
  "▁continuous": 9777,
  "▁developers": 9778,
  "ugg": 9779,
  "▁lie": 9780,
  "▁Craw": 9781,
  "▁soph": 9782,
  "atever": 9783,
  "▁Swift": 9784,
  "▁charter": 9785,
  "▁Pittsburgh": 9786,
  "▁definition": 9787,
  "▁opportunities": 9788,
  "rob": 9789,
  "tes": 9790,
  "▁Apoll": 9791,
  "▁Reich": 9792,
  "▁cousin": 9793,
  "released": 9794,
  "▁Mission": 9795,
  "▁advised": 9796,
  "▁fourteen": 9797,
  "▁patients": 9798,
  "▁qualifying": 9799,
  "▁connections": 9800,
  "▁legislative": 9801,
  "▁conservation": 9802,
  "▁MI": 9803,
  "beat": 9804,
  "▁Anc": 9805,
  "▁Rio": 9806,
  "▁Som": 9807,
  "adesh": 9808,
  "▁Maya": 9809,
  "▁blues": 9810,
  "▁march": 9811,
  "▁noble": 9812,
  "▁upset": 9813,
  "▁Living": 9814,
  "▁Collins": 9815,
  "asm": 9816,
  "▁AS": 9817,
  "▁pap": 9818,
  "ensis": 9819,
  "▁Bird": 9820,
  "▁Deep": 9821,
  "▁Swiss": 9822,
  "▁bones": 9823,
  "▁crops": 9824,
  "▁sings": 9825,
  "▁wished": 9826,
  "▁arrives": 9827,
  "▁cleared": 9828,
  "▁thunder": 9829,
  "▁uranium": 9830,
  "▁Professor": 9831,
  "▁Sheffield": 9832,
  "▁aftermath": 9833,
  "▁unexpected": 9834,
  "▁programming": 9835,
  "▁constitutional": 9836,
  "legraph": 9837,
  "▁mature": 9838,
  "▁airfield": 9839,
  "▁platforms": 9840,
  "▁signature": 9841,
  "▁′": 9842,
  "▁3-": 9843,
  "ieth": 9844,
  "▁Dyn": 9845,
  "isive": 9846,
  "itely": 9847,
  "▁Utah": 9848,
  "screen": 9849,
  "▁conce": 9850,
  "▁texts": 9851,
  "▁promin": 9852,
  "▁Overall": 9853,
  "▁understood": 9854,
  "▁Ax": 9855,
  "▁Link": 9856,
  "▁Cyrus": 9857,
  "▁Lloyd": 9858,
  "▁creek": 9859,
  "▁rocks": 9860,
  "itarian": 9861,
  "▁Agency": 9862,
  "▁Burton": 9863,
  "▁backed": 9864,
  "▁spaces": 9865,
  "▁wonder": 9866,
  "ications": 9867,
  "▁courses": 9868,
  "▁dispers": 9869,
  "▁enthusi": 9870,
  "▁shifted": 9871,
  "▁Victorian": 9872,
  "eto": 9873,
  "▁vs": 9874,
  "illes": 9875,
  "▁prev": 9876,
  "▁Upper": 9877,
  "▁Works": 9878,
  "▁manga": 9879,
  "▁pairs": 9880,
  "▁ruler": 9881,
  "▁Afghan": 9882,
  "▁dollar": 9883,
  "▁indeed": 9884,
  "▁Antonio": 9885,
  "▁powered": 9886,
  "▁displays": 9887,
  "▁Brazilian": 9888,
  "▁estimates": 9889,
  "▁vulnerable": 9890,
  "86": 9891,
  "razy": 9892,
  "▁Mix": 9893,
  "▁web": 9894,
  "▁isot": 9895,
  "▁Hawaii": 9896,
  "▁aggreg": 9897,
  "▁invent": 9898,
  "▁towers": 9899,
  "▁reforms": 9900,
  "▁terrain": 9901,
  "▁sovereign": 9902,
  "▁electricity": 9903,
  "▁maintaining": 9904,
  "ayan": 9905,
  "rien": 9906,
  "▁Ker": 9907,
  "▁Las": 9908,
  "▁nit": 9909,
  "▁Curt": 9910,
  "▁Prim": 9911,
  "▁quad": 9912,
  "▁redes": 9913,
  "▁copper": 9914,
  "▁Finland": 9915,
  "▁handled": 9916,
  "▁Training": 9917,
  "▁commanders": 9918,
  "▁reinforcements": 9919,
  "atra": 9920,
  "▁Lem": 9921,
  "▁Thr": 9922,
  "▁Howe": 9923,
  "▁forth": 9924,
  "▁unlik": 9925,
  "▁revised": 9926,
  "▁sailing": 9927,
  "▁impression": 9928,
  "▁₹": 9929,
  "▁MS": 9930,
  "▁155": 9931,
  "▁Pad": 9932,
  "▁Trail": 9933,
  "▁ceased": 9934,
  "▁arguing": 9935,
  "▁hitting": 9936,
  "▁provinces": 9937,
  "▁earthquake": 9938,
  "▁mechanical": 9939,
  "46": 9940,
  "ais": 9941,
  "affe": 9942,
  "▁Blu": 9943,
  "▁Oslo": 9944,
  "▁fulf": 9945,
  "▁garn": 9946,
  "▁pole": 9947,
  "icated": 9948,
  "▁Still": 9949,
  "▁shift": 9950,
  "▁stuff": 9951,
  "▁fairly": 9952,
  "▁voices": 9953,
  "▁Fleming": 9954,
  "▁Liberal": 9955,
  "▁devices": 9956,
  "▁Indonesia": 9957,
  "▁characteristic": 9958,
  "ME": 9959,
  "ye": 9960,
  "embr": 9961,
  "oded": 9962,
  "▁Cad": 9963,
  "inded": 9964,
  "castle": 9965,
  "▁clock": 9966,
  "▁skill": 9967,
  "anguage": 9968,
  "▁ticket": 9969,
  "minister": 9970,
  "▁Heritage": 9971,
  "▁exercise": 9972,
  "▁exclusive": 9973,
  "▁recurring": 9974,
  "cal": 9975,
  "seud": 9976,
  "▁Gon": 9977,
  "backs": 9978,
  "▁cartoon": 9979,
  "sa": 9980,
  "▁ing": 9981,
  "▁1850": 9982,
  "▁Past": 9983,
  "▁Race": 9984,
  "▁lock": 9985,
  "▁Steel": 9986,
  "igrants": 9987,
  "▁accord": 9988,
  "▁induct": 9989,
  "▁shares": 9990,
  "ationally": 9991,
  "▁practical": 9992,
  "▁artificial": 9993,
  "ön": 9994,
  "lad": 9995,
  "rod": 9996,
  "▁Ric": 9997,
  "▁Hunt": 9998,
  "▁infl": 9999,
  "itious": 10000,
  "▁sweet": 10001,
  "▁Guinea": 10002,
  "▁papers": 10003,
  "▁explicit": 10004,
  "▁petition": 10005,
  "▁considers": 10006,
  "▁preparing": 10007,
  "▁architectural": 10008,
  "▁participation": 10009,
  "OC": 10010,
  "▁Ni": 10011,
  "▁Tig": 10012,
  "▁Clay": 10013,
  "▁Emer": 10014,
  "▁push": 10015,
  "aching": 10016,
  "ambers": 10017,
  "ussion": 10018,
  "▁stere": 10019,
  "▁phrase": 10020,
  "▁attending": 10021,
  "▁promoting": 10022,
  "▁withdrawn": 10023,
  "32": 10024,
  "Sp": 10025,
  "TS": 10026,
  "Hung": 10027,
  "▁Osc": 10028,
  "stage": 10029,
  "▁Malt": 10030,
  "▁1,500": 10031,
  "▁Actor": 10032,
  "▁labour": 10033,
  "▁voting": 10034,
  "▁Wallace": 10035,
  "▁centers": 10036,
  "▁displaced": 10037,
  "▁confidence": 10038,
  "owski": 10039,
  "▁Fund": 10040,
  "▁Glen": 10041,
  "▁Susan": 10042,
  "▁Quebec": 10043,
  "▁cutting": 10044,
  "▁restore": 10045,
  "▁valuable": 10046,
  "▁traditionally": 10047,
  "aft": 10048,
  "axy": 10049,
  "▁Ze": 10050,
  "▁FBI": 10051,
  "▁Grace": 10052,
  "▁portr": 10053,
  "▁sleep": 10054,
  "▁uncon": 10055,
  "▁Moscow": 10056,
  "▁Peters": 10057,
  "▁exceed": 10058,
  "▁Officer": 10059,
  "urricanes": 10060,
  "abe": 10061,
  "usc": 10062,
  "arted": 10063,
  "uating": 10064,
  "▁Pruss": 10065,
  "▁Ralph": 10066,
  "▁Syria": 10067,
  "▁queen": 10068,
  "▁marine": 10069,
  "▁myster": 10070,
  "▁salary": 10071,
  "▁spoken": 10072,
  "▁rivalry": 10073,
  "▁districts": 10074,
  "▁traveling": 10075,
  "▁investment": 10076,
  "▁pm": 10077,
  "▁Tai": 10078,
  "▁cir": 10079,
  "▁kills": 10080,
  "ication": 10081,
  "▁Alaska": 10082,
  "▁judges": 10083,
  "▁revolt": 10084,
  "▁amateur": 10085,
  "▁minority": 10086,
  "abl": 10087,
  "agi": 10088,
  "▁09": 10089,
  "▁Ru": 10090,
  "▁CBS": 10091,
  "▁Hob": 10092,
  "eries": 10093,
  "▁Next": 10094,
  "▁moon": 10095,
  "levard": 10096,
  "▁Yellow": 10097,
  "abilities": 10098,
  "▁Beginning": 10099,
  "▁Similarly": 10100,
  "▁respective": 10101,
  "▁109": 10102,
  "▁hem": 10103,
  "ocity": 10104,
  "▁cuts": 10105,
  "▁fasc": 10106,
  "osexual": 10107,
  "▁Austin": 10108,
  "▁Parsons": 10109,
  "▁duration": 10110,
  "▁survival": 10111,
  "▁squadrons": 10112,
  "▁interpreted": 10113,
  "five": 10114,
  "ulty": 10115,
  "▁Cass": 10116,
  "▁Kaiser": 10117,
  "▁Medical": 10118,
  "▁unlikely": 10119,
  "▁multiplayer": 10120,
  "dess": 10121,
  "▁0.5": 10122,
  "▁JTWC": 10123,
  "▁Neil": 10124,
  "▁seas": 10125,
  "▁humor": 10126,
  "▁polar": 10127,
  "▁tribe": 10128,
  "▁Father": 10129,
  "▁exists": 10130,
  "▁Natural": 10131,
  "▁Without": 10132,
  "▁distant": 10133,
  "▁feeding": 10134,
  "▁prisoner": 10135,
  "▁observation": 10136,
  "iko": 10137,
  "asks": 10138,
  "▁See": 10139,
  "berry": 10140,
  "itate": 10141,
  "reens": 10142,
  "where": 10143,
  "▁dual": 10144,
  "▁cyclones": 10145,
  "▁destroying": 10146,
  "▁improvement": 10147,
  "▁CO": 10148,
  "ario": 10149,
  "▁Kyle": 10150,
  "▁wine": 10151,
  "▁wire": 10152,
  "Arthur": 10153,
  "▁Somet": 10154,
  "▁Herald": 10155,
  "▁Serbian": 10156,
  "▁beneath": 10157,
  "▁options": 10158,
  "▁pursuit": 10159,
  "▁Richmond": 10160,
  "▁destroyer": 10161,
  "aha": 10162,
  "▁Ali": 10163,
  "eston": 10164,
  "▁myst": 10165,
  "▁ashore": 10166,
  "▁Vincent": 10167,
  "▁rehears": 10168,
  "▁Official": 10169,
  "▁extending": 10170,
  "rastructure": 10171,
  "ét": 10172,
  "ín": 10173,
  "gom": 10174,
  "amas": 10175,
  "▁jack": 10176,
  "▁Bible": 10177,
  "▁Danny": 10178,
  "▁abuse": 10179,
  "▁Turkey": 10180,
  "▁suspic": 10181,
  "▁CP": 10182,
  "anne": 10183,
  "ashi": 10184,
  "▁127": 10185,
  "▁Eis": 10186,
  "▁Tow": 10187,
  "▁boot": 10188,
  "▁craft": 10189,
  "▁Orange": 10190,
  "▁absent": 10191,
  "▁atomic": 10192,
  "▁voyage": 10193,
  "▁Cardiff": 10194,
  "▁escorted": 10195,
  "▁conceived": 10196,
  "▁competitive": 10197,
  "▁potentially": 10198,
  "33": 10199,
  "aze": 10200,
  "ando": 10201,
  "▁McKin": 10202,
  "▁releg": 10203,
  "▁Comedy": 10204,
  "▁pregnant": 10205,
  "▁commenced": 10206,
  "▁followers": 10207,
  "▁approaches": 10208,
  "▁principles": 10209,
  "host": 10210,
  "uton": 10211,
  "▁Und": 10212,
  "▁1894": 10213,
  "▁Celt": 10214,
  "▁Kane": 10215,
  "▁Stat": 10216,
  "▁YouT": 10217,
  "▁fold": 10218,
  "▁tale": 10219,
  "▁Studio": 10220,
  "▁conven": 10221,
  "▁crimes": 10222,
  "▁graduate": 10223,
  "▁inclusion": 10224,
  "▁principle": 10225,
  "▁transportation": 10226,
  "oca": 10227,
  "uri": 10228,
  "▁HD": 10229,
  "▁Spr": 10230,
  "isons": 10231,
  "▁List": 10232,
  "▁Sign": 10233,
  "▁hybr": 10234,
  "▁Exper": 10235,
  "▁Harbor": 10236,
  "▁cinema": 10237,
  "▁compound": 10238,
  "▁medicine": 10239,
  "▁decorated": 10240,
  "anim": 10241,
  "dest": 10242,
  "▁Gay": 10243,
  "▁earn": 10244,
  "▁jury": 10245,
  "cester": 10246,
  "igious": 10247,
  "▁Falls": 10248,
  "▁Design": 10249,
  "▁riding": 10250,
  "▁passion": 10251,
  "▁Pictures": 10252,
  "▁inherited": 10253,
  "vet": 10254,
  "▁CS": 10255,
  "asha": 10256,
  "▁Dak": 10257,
  "▁Hav": 10258,
  "▁Sac": 10259,
  "▁1889": 10260,
  "▁Zone": 10261,
  "▁eval": 10262,
  "atical": 10263,
  "▁Eight": 10264,
  "▁Plant": 10265,
  "▁Woman": 10266,
  "▁parks": 10267,
  "▁Johann": 10268,
  "▁rebels": 10269,
  "▁sharks": 10270,
  "▁victim": 10271,
  "▁YouTube": 10272,
  "▁enforce": 10273,
  "▁certainly": 10274,
  "▁electrical": 10275,
  "▁applications": 10276,
  "▁Orle": 10277,
  "▁nerv": 10278,
  "▁beauty": 10279,
  "▁merged": 10280,
  "▁clothes": 10281,
  "▁shoulder": 10282,
  "▁Jefferson": 10283,
  "▁efficient": 10284,
  "▁interviews": 10285,
  "▁Aer": 10286,
  "▁Aber": 10287,
  "▁Cred": 10288,
  "▁Jama": 10289,
  "▁fier": 10290,
  "▁flex": 10291,
  "▁Sonic": 10292,
  "▁hills": 10293,
  "▁Harold": 10294,
  "▁summit": 10295,
  "▁equally": 10296,
  "▁Together": 10297,
  "▁commenting": 10298,
  "▁Constantine": 10299,
  "▁⁄": 10300,
  "▁08": 10301,
  "osph": 10302,
  "▁Sout": 10303,
  "▁clar": 10304,
  "▁hole": 10305,
  "usalem": 10306,
  "wright": 10307,
  "▁Mayor": 10308,
  "▁angle": 10309,
  "▁error": 10310,
  "▁valid": 10311,
  "▁streak": 10312,
  "▁tonnes": 10313,
  "▁drummer": 10314,
  "▁Constantin": 10315,
  "▁traditions": 10316,
  "47": 10317,
  "mo": 10318,
  "oda": 10319,
  "hers": 10320,
  "▁106": 10321,
  "▁aft": 10322,
  "▁FIFA": 10323,
  "▁salv": 10324,
  "▁supern": 10325,
  "▁Edition": 10326,
  "▁cabinet": 10327,
  "▁density": 10328,
  "▁consolid": 10329,
  "▁lifetime": 10330,
  "▁civilians": 10331,
  "▁surprised": 10332,
  "▁diplomatic": 10333,
  "▁reinforced": 10334,
  "▁Transportation": 10335,
  "sl": 10336,
  "▁Sem": 10337,
  "▁Salt": 10338,
  "▁Baron": 10339,
  "▁Globe": 10340,
  "▁Krist": 10341,
  "angular": 10342,
  "▁devoted": 10343,
  "▁dischar": 10344,
  "▁drafted": 10345,
  "▁emotion": 10346,
  "▁mixture": 10347,
  "▁Security": 10348,
  "▁lighting": 10349,
  "▁mythology": 10350,
  "▁translated": 10351,
  "▁urg": 10352,
  "enson": 10353,
  "▁Quest": 10354,
  "▁bears": 10355,
  "▁filmm": 10356,
  "▁herit": 10357,
  "▁Clarke": 10358,
  "▁learns": 10359,
  "▁Cavalry": 10360,
  "▁constitu": 10361,
  "▁Jerusalem": 10362,
  "NC": 10363,
  "hum": 10364,
  "▁Ferr": 10365,
  "▁faces": 10366,
  "minster": 10367,
  "▁Barnes": 10368,
  "▁Fisher": 10369,
  "▁conflic": 10370,
  "▁shallow": 10371,
  "▁implemented": 10372,
  "▁judg": 10373,
  "▁Bryan": 10374,
  "▁dwarf": 10375,
  "▁morph": 10376,
  "▁ratio": 10377,
  "▁Brooks": 10378,
  "▁Spirit": 10379,
  "▁batted": 10380,
  "▁deeply": 10381,
  "▁resort": 10382,
  "▁rivals": 10383,
  "▁theore": 10384,
  "▁airline": 10385,
  "▁receives": 10386,
  "▁intermedi": 10387,
  "▁magnitude": 10388,
  "ups": 10389,
  "▁dim": 10390,
  "▁1891": 10391,
  "▁Must": 10392,
  "▁dense": 10393,
  "▁weigh": 10394,
  "▁Defense": 10395,
  "▁Israeli": 10396,
  "▁crashed": 10397,
  "▁diverse": 10398,
  "▁slavery": 10399,
  "▁succession": 10400,
  "III": 10401,
  "fly": 10402,
  "▁ow": 10403,
  "hell": 10404,
  "▁1861": 10405,
  "▁fest": 10406,
  "▁Flore": 10407,
  "▁Local": 10408,
  "▁spawn": 10409,
  "▁Sultan": 10410,
  "▁colors": 10411,
  "▁Orleans": 10412,
  "▁Picture": 10413,
  "▁explore": 10414,
  "▁extinct": 10415,
  "▁addressed": 10416,
  "▁advancing": 10417,
  "▁frequency": 10418,
  "▁predators": 10419,
  "▁accommodate": 10420,
  "len": 10421,
  "prof": 10422,
  "arest": 10423,
  "▁bull": 10424,
  "achute": 10425,
  "▁liner": 10426,
  "▁steep": 10427,
  "▁surve": 10428,
  "▁tours": 10429,
  "▁scores": 10430,
  "▁Product": 10431,
  "▁advertis": 10432,
  "▁presentation": 10433,
  "21": 10434,
  "ATO": 10435,
  "▁AM": 10436,
  "▁Sug": 10437,
  "▁tel": 10438,
  "lington": 10439,
  "▁Wonder": 10440,
  "▁eventual": 10441,
  "▁Executive": 10442,
  "▁administer": 10443,
  "▁concurrent": 10444,
  "▁disturbance": 10445,
  "▁experiments": 10446,
  "-18": 10447,
  "chi": 10448,
  "lon": 10449,
  "arks": 10450,
  "▁Had": 10451,
  "quest": 10452,
  "ritic": 10453,
  "uters": 10454,
  "▁Gang": 10455,
  "▁Half": 10456,
  "▁Prop": 10457,
  "▁ages": 10458,
  "▁Nancy": 10459,
  "landers": 10460,
  "ocation": 10461,
  "▁Greater": 10462,
  "▁disorder": 10463,
  "▁garnered": 10464,
  "▁Authority": 10465,
  "▁interaction": 10466,
  "23": 10467,
  "oria": 10468,
  "▁Bes": 10469,
  "▁clin": 10470,
  "▁fate": 10471,
  "written": 10472,
  "▁feared": 10473,
  "▁charted": 10474,
  "▁Register": 10475,
  "▁Um": 10476,
  "▁Hey": 10477,
  "▁1895": 10478,
  "▁Full": 10479,
  "▁Priv": 10480,
  "▁nurs": 10481,
  "arting": 10482,
  "lining": 10483,
  "▁chore": 10484,
  "▁Section": 10485,
  "▁hostile": 10486,
  "▁tickets": 10487,
  "▁theories": 10488,
  "▁processes": 10489,
  "▁recruited": 10490,
  "▁evacuation": 10491,
  "▁similarities": 10492,
  "▁southeastern": 10493,
  "aco": 10494,
  "▁nat": 10495,
  "▁Luke": 10496,
  "▁Peng": 10497,
  "▁pill": 10498,
  "actory": 10499,
  "▁prest": 10500,
  "▁shock": 10501,
  "▁Danish": 10502,
  "▁gender": 10503,
  "▁villain": 10504,
  "▁congress": 10505,
  "▁volcanic": 10506,
  "▁MacArthur": 10507,
  "▁proposals": 10508,
  "▁explaining": 10509,
  "48": 10510,
  "hill": 10511,
  "oids": 10512,
  "▁Vel": 10513,
  "▁Poly": 10514,
  "▁forb": 10515,
  "▁tomb": 10516,
  "▁Patri": 10517,
  "▁Titan": 10518,
  "▁choir": 10519,
  "▁drown": 10520,
  "▁50,000": 10521,
  "▁Saturn": 10522,
  "▁golden": 10523,
  "▁lights": 10524,
  "▁Classic": 10525,
  "▁divorce": 10526,
  "▁holiday": 10527,
  "▁promise": 10528,
  "▁Portugal": 10529,
  "▁attorney": 10530,
  "▁jurisdiction": 10531,
  "uka": 10532,
  "four": 10533,
  "utor": 10534,
  "▁tap": 10535,
  "▁Pete": 10536,
  "▁amph": 10537,
  "▁embr": 10538,
  "isting": 10539,
  "▁Justin": 10540,
  "▁Romney": 10541,
  "▁borrow": 10542,
  "▁screenplay": 10543,
  "PA": 10544,
  "▁iP": 10545,
  "▁1.8": 10546,
  "▁166": 10547,
  "▁Inv": 10548,
  "▁Sid": 10549,
  "lived": 10550,
  "▁gene": 10551,
  "▁crest": 10552,
  "▁Chelsea": 10553,
  "▁knocked": 10554,
  "▁Johnston": 10555,
  "▁Symphony": 10556,
  "▁suddenly": 10557,
  "▁Sox": 10558,
  "▁jet": 10559,
  "eling": 10560,
  "▁Leaf": 10561,
  "▁smoke": 10562,
  "▁Hearts": 10563,
  "▁Panzer": 10564,
  "▁descent": 10565,
  "▁rushing": 10566,
  "▁capturing": 10567,
  "▁persuaded": 10568,
  "▁Heavyweight": 10569,
  "ao": 10570,
  "izz": 10571,
  "▁AT": 10572,
  "lims": 10573,
  "rock": 10574,
  "▁Amb": 10575,
  "▁Eve": 10576,
  "▁Yam": 10577,
  "▁lad": 10578,
  "heric": 10579,
  "▁Boat": 10580,
  "▁Hope": 10581,
  "▁beaten": 10582,
  "▁breaks": 10583,
  "▁guests": 10584,
  "▁mounts": 10585,
  "▁Muhammad": 10586,
  "▁Services": 10587,
  "▁sentence": 10588,
  "▁Charlotte": 10589,
  "▁virtually": 10590,
  "▁Laboratory": 10591,
  "▁infrastructure": 10592,
  "core": 10593,
  "nels": 10594,
  "▁McN": 10595,
  "parts": 10596,
  "▁Flow": 10597,
  "acking": 10598,
  "itting": 10599,
  "▁tested": 10600,
  "▁Against": 10601,
  "▁dancers": 10602,
  "▁pursued": 10603,
  "▁complained": 10604,
  "▁concerning": 10605,
  "▁AA": 10606,
  "ovak": 10607,
  "rost": 10608,
  "▁Abu": 10609,
  "▁rib": 10610,
  "erver": 10611,
  "▁Quar": 10612,
  "▁Scar": 10613,
  "▁epic": 10614,
  "▁prel": 10615,
  "▁vari": 10616,
  "icking": 10617,
  "lights": 10618,
  "▁Newton": 10619,
  "▁handed": 10620,
  "▁Orchest": 10621,
  "▁reactions": 10622,
  "▁Republicans": 10623,
  "ho": 10624,
  "▁Il": 10625,
  "▁Vo": 10626,
  "▁0.2": 10627,
  "music": 10628,
  "▁Ivan": 10629,
  "▁Pant": 10630,
  "osaurs": 10631,
  "▁Wells": 10632,
  "▁sword": 10633,
  "▁Spider": 10634,
  "▁opposing": 10635,
  "▁writings": 10636,
  "▁Communist": 10637,
  "▁suspected": 10638,
  "agers": 10639,
  "▁cant": 10640,
  "▁demo": 10641,
  "▁Burns": 10642,
  "▁dimin": 10643,
  "▁links": 10644,
  "▁orange": 10645,
  "▁recept": 10646,
  "▁rejoin": 10647,
  "▁stolen": 10648,
  "▁involves": 10649,
  "▁ordinary": 10650,
  "▁universal": 10651,
  "▁essentially": 10652,
  "uin": 10653,
  "▁350": 10654,
  "▁lin": 10655,
  "▁Wisc": 10656,
  "▁fram": 10657,
  "▁4,000": 10658,
  "▁hoping": 10659,
  "▁stones": 10660,
  "▁Greatest": 10661,
  "▁benefits": 10662,
  "▁recovery": 10663,
  "▁sentenced": 10664,
  "▁statements": 10665,
  "▁Springfield": 10666,
  "▁researchers": 10667,
  "rh": 10668,
  "ía": 10669,
  "rene": 10670,
  "ulus": 10671,
  "▁pip": 10672,
  "aiden": 10673,
  "final": 10674,
  "▁1800": 10675,
  "▁hind": 10676,
  "▁mood": 10677,
  "▁pink": 10678,
  "master": 10679,
  "uction": 10680,
  "▁opens": 10681,
  "▁toler": 10682,
  "▁manage": 10683,
  "▁thrown": 10684,
  "▁Wiscons": 10685,
  "▁rescued": 10686,
  "▁Newcastle": 10687,
  "▁laboratory": 10688,
  "▁positively": 10689,
  "▁accidentally": 10690,
  "sec": 10691,
  "avan": 10692,
  "edia": 10693,
  "▁Wes": 10694,
  "▁1888": 10695,
  "▁Days": 10696,
  "▁innoc": 10697,
  "▁Baltic": 10698,
  "▁Branch": 10699,
  "▁racial": 10700,
  "▁beating": 10701,
  "▁heritage": 10702,
  "▁nickname": 10703,
  "▁proportion": 10704,
  "▁Metropolitan": 10705,
  "▁10-": 10706,
  "▁Fil": 10707,
  "▁avo": 10708,
  "cliff": 10709,
  "▁Side": 10710,
  "▁rect": 10711,
  "▁tape": 10712,
  "thodox": 10713,
  "▁depicts": 10714,
  "▁stretch": 10715,
  "▁warships": 10716,
  "▁Scientology": 10717,
  "▁territorial": 10718,
  "▁Representatives": 10719,
  "mans": 10720,
  "ulum": 10721,
  "▁Pok": 10722,
  "▁mad": 10723,
  "▁mit": 10724,
  "▁Camb": 10725,
  "▁Rest": 10726,
  "▁ties": 10727,
  "▁apply": 10728,
  "▁reass": 10729,
  "winning": 10730,
  "▁Athens": 10731,
  "▁pitcher": 10732,
  "▁editions": 10733,
  "▁operates": 10734,
  "ör": 10735,
  "bes": 10736,
  "▁Din": 10737,
  "▁José": 10738,
  "▁Stra": 10739,
  "▁Winn": 10740,
  "▁Stein": 10741,
  "▁Fourth": 10742,
  "▁Rogers": 10743,
  "▁answer": 10744,
  "▁enabled": 10745,
  "▁sculpture": 10746,
  "▁variation": 10747,
  "▁Yugoslavia": 10748,
  "▁imprisoned": 10749,
  "▁universities": 10750,
  "▁representation": 10751,
  "uto": 10752,
  "▁83": 10753,
  "anche": 10754,
  "▁Chad": 10755,
  "▁knee": 10756,
  "ielder": 10757,
  "▁chase": 10758,
  "▁inhab": 10759,
  "▁waste": 10760,
  "▁Buffalo": 10761,
  "▁evident": 10762,
  "▁harbour": 10763,
  "▁thereby": 10764,
  "▁Athletic": 10765,
  "▁reviewed": 10766,
  "▁Wisconsin": 10767,
  "▁documented": 10768,
  "▁extensively": 10769,
  "▁nevertheless": 10770,
  "uil": 10771,
  "▁Ins": 10772,
  "▁Ref": 10773,
  "ucker": 10774,
  "▁Fitz": 10775,
  "▁kidn": 10776,
  "▁spur": 10777,
  "▁cable": 10778,
  "▁cards": 10779,
  "▁rever": 10780,
  "General": 10781,
  "▁Season": 10782,
  "▁Stuart": 10783,
  "▁locally": 10784,
  "▁tension": 10785,
  "▁Airlines": 10786,
  "▁Electric": 10787,
  "▁horizont": 10788,
  "▁boundaries": 10789,
  "▁categories": 10790,
  "▁variations": 10791,
  "▁volunteers": 10792,
  "▁communications": 10793,
  "DI": 10794,
  "300": 10795,
  "▁fee": 10796,
  "▁bell": 10797,
  "▁Books": 10798,
  "▁liver": 10799,
  "▁avoided": 10800,
  "▁competitions": 10801,
  "mn": 10802,
  ",200": 10803,
  "high": 10804,
  "pine": 10805,
  "▁0.0": 10806,
  "▁978": 10807,
  "▁cow": 10808,
  "icken": 10809,
  "▁disb": 10810,
  "iously": 10811,
  "▁helps": 10812,
  "▁Hunter": 10813,
  "▁detect": 10814,
  "▁metric": 10815,
  "▁random": 10816,
  "▁sacrif": 10817,
  "▁Actress": 10818,
  "▁segments": 10819,
  "▁weakening": 10820,
  "▁Production": 10821,
  "▁commercially": 10822,
  "▁thunderstorm": 10823,
  "▁Zh": 10824,
  "▁ho": 10825,
  "othy": 10826,
  "white": 10827,
  "▁Mind": 10828,
  "▁maps": 10829,
  "▁merc": 10830,
  "▁juven": 10831,
  "▁Junior": 10832,
  "▁priest": 10833,
  "▁tasked": 10834,
  "▁Sherman": 10835,
  "▁teammate": 10836,
  "▁accessible": 10837,
  "▁structural": 10838,
  "▁highlighted": 10839,
  "alg": 10840,
  "▁Ga": 10841,
  "aple": 10842,
  "roat": 10843,
  "ocket": 10844,
  "ridor": 10845,
  "▁Fish": 10846,
  "unning": 10847,
  "▁hence": 10848,
  "▁hopes": 10849,
  "▁Boeing": 10850,
  "▁Legisl": 10851,
  "▁Fighter": 10852,
  "▁produces": 10853,
  "▁impressive": 10854,
  "▁intervention": 10855,
  "pat": 10856,
  "ught": 10857,
  "▁Poll": 10858,
  "called": 10859,
  "umbered": 10860,
  "▁Comics": 10861,
  "▁eating": 10862,
  "▁gaining": 10863,
  "▁invaded": 10864,
  "▁lighter": 10865,
  "▁Province": 10866,
  "▁Boulevard": 10867,
  "▁requiring": 10868,
  "ER": 10869,
  "hall": 10870,
  "▁Bark": 10871,
  "▁Bert": 10872,
  "▁Tyler": 10873,
  "▁Until": 10874,
  "▁Apollo": 10875,
  "▁afford": 10876,
  "▁revival": 10877,
  "▁embarked": 10878,
  "▁confusion": 10879,
  "▁corporate": 10880,
  "▁Sey": 10881,
  "▁mud": 10882,
  "rible": 10883,
  "story": 10884,
  "▁1865": 10885,
  "▁Judge": 10886,
  "▁arena": 10887,
  "▁Econom": 10888,
  "▁census": 10889,
  "▁Gallery": 10890,
  "▁Muslims": 10891,
  "▁burning": 10892,
  "▁communist": 10893,
  "▁substitute": 10894,
  "▁collections": 10895,
  "▁restrictions": 10896,
  "enz": 10897,
  "top": 10898,
  "▁cu": 10899,
  "ellar": 10900,
  "ephew": 10901,
  "north": 10902,
  "▁fame": 10903,
  "amount": 10904,
  "▁Magic": 10905,
  "▁Schum": 10906,
  "ometric": 10907,
  "▁marking": 10908,
  "▁Regional": 10909,
  "▁interven": 10910,
  "▁supports": 10911,
  "▁Armstrong": 10912,
  "▁Cathedral": 10913,
  "▁settlements": 10914,
  "▁AL": 10915,
  "cour": 10916,
  "hart": 10917,
  "ilda": 10918,
  "rise": 10919,
  "▁vig": 10920,
  "alling": 10921,
  "▁Joint": 10922,
  "▁Round": 10923,
  "▁boost": 10924,
  "▁paras": 10925,
  "▁Barbara": 10926,
  "▁travelling": 10927,
  "lined": 10928,
  "rific": 10929,
  "▁Shep": 10930,
  "▁Terr": 10931,
  "▁Vers": 10932,
  "▁Guild": 10933,
  "▁inhib": 10934,
  "▁abroad": 10935,
  "▁handling": 10936,
  "▁Indonesian": 10937,
  "▁agriculture": 10938,
  "▁participants": 10939,
  "bach": 10940,
  "colm": 10941,
  "flow": 10942,
  "isan": 10943,
  "olar": 10944,
  "rior": 10945,
  "avian": 10946,
  "▁NATO": 10947,
  "▁unve": 10948,
  "▁tooth": 10949,
  "▁Thames": 10950,
  "▁elaborate": 10951,
  "ibn": 10952,
  "▁NS": 10953,
  "▁PS": 10954,
  "▁Eff": 10955,
  "▁1892": 10956,
  "▁housed": 10957,
  "▁warned": 10958,
  "▁dealing": 10959,
  "▁physics": 10960,
  "▁tornado": 10961,
  "▁preserve": 10962,
  "▁Christians": 10963,
  "▁separation": 10964,
  "87": 10965,
  "96": 10966,
  "▁UC": 10967,
  "ayed": 10968,
  "▁18-": 10969,
  "▁Pin": 10970,
  "▁conj": 10971,
  "▁cook": 10972,
  "▁Based": 10973,
  "▁Trade": 10974,
  "▁costume": 10975,
  "▁canceled": 10976,
  "▁chemistry": 10977,
  "▁contracts": 10978,
  "▁suspension": 10979,
  "▁celebration": 10980,
  "▁considerably": 10981,
  "HS": 10982,
  "osy": 10983,
  "roe": 10984,
  "▁Has": 10985,
  "amine": 10986,
  "▁Shah": 10987,
  "gomery": 10988,
  "▁Miles": 10989,
  "▁manip": 10990,
  "▁Merced": 10991,
  "▁clergy": 10992,
  "▁veteran": 10993,
  "▁detected": 10994,
  "▁humanity": 10995,
  "▁Montgomery": 10996,
  "▁Performance": 10997,
  "▁parliamentary": 10998,
  "var": 10999,
  "inis": 11000,
  "ocal": 11001,
  "qual": 11002,
  "▁1,6": 11003,
  "▁Neb": 11004,
  "oting": 11005,
  "▁fles": 11006,
  "▁Metac": 11007,
  "▁Scots": 11008,
  "▁empty": 11009,
  "▁Wagner": 11010,
  "▁conced": 11011,
  "▁plates": 11012,
  "▁tissue": 11013,
  "▁gardens": 11014,
  "▁trapped": 11015,
  "▁armoured": 11016,
  "▁convicted": 11017,
  "▁Constantinople": 11018,
  "gow": 11019,
  "iah": 11020,
  "oba": 11021,
  "disc": 11022,
  "izer": 11023,
  "usty": 11024,
  "▁Eth": 11025,
  "▁Sic": 11026,
  "▁Cena": 11027,
  "▁indu": 11028,
  "▁prox": 11029,
  "heimer": 11030,
  "▁drain": 11031,
  "▁15,000": 11032,
  "▁Ground": 11033,
  "▁analog": 11034,
  "▁deputy": 11035,
  "▁naming": 11036,
  "▁Bradley": 11037,
  "▁favourite": 11038,
  "▁Chamberlain": 11039,
  "▁RI": 11040,
  "uber": 11041,
  "▁MLB": 11042,
  "ospel": 11043,
  "ubble": 11044,
  "▁1864": 11045,
  "▁Sean": 11046,
  "▁yard": 11047,
  "▁Malcolm": 11048,
  "▁velocity": 11049,
  "▁discontin": 11050,
  "▁Protestant": 11051,
  "▁grandfather": 11052,
  "-17": 11053,
  "▁nut": 11054,
  "▁styl": 11055,
  "▁tube": 11056,
  "ennial": 11057,
  "▁Oscar": 11058,
  "▁Shiva": 11059,
  "▁assum": 11060,
  "▁taste": 11061,
  "▁Serbia": 11062,
  "▁voters": 11063,
  "▁closure": 11064,
  "▁proteins": 11065,
  "▁resolved": 11066,
  "▁consumption": 11067,
  "▁Đ": 11068,
  "▁LS": 11069,
  "itol": 11070,
  "▁Pul": 11071,
  "▁une": 11072,
  "eness": 11073,
  "▁Phys": 11074,
  "▁Shin": 11075,
  "▁gift": 11076,
  "▁Grade": 11077,
  "▁manif": 11078,
  "▁sheep": 11079,
  "changed": 11080,
  "▁30,000": 11081,
  "▁Affairs": 11082,
  "▁farmers": 11083,
  "▁authorized": 11084,
  "▁indigenous": 11085,
  "▁remembered": 11086,
  "▁compositions": 11087,
  "▁championships": 11088,
  "24": 11089,
  "cha": 11090,
  "▁1.4": 11091,
  "▁Adv": 11092,
  "arded": 11093,
  "▁Ruth": 11094,
  "▁Take": 11095,
  "▁cash": 11096,
  "▁angry": 11097,
  "▁dying": 11098,
  "▁stern": 11099,
  "veloped": 11100,
  "▁handle": 11101,
  "▁Attorney": 11102,
  "▁customers": 11103,
  "▁Independence": 11104,
  "31": 11105,
  "itic": 11106,
  "▁Cer": 11107,
  "▁Hom": 11108,
  "amics": 11109,
  "▁Bask": 11110,
  "▁Skin": 11111,
  "▁Walt": 11112,
  "▁scar": 11113,
  "▁Market": 11114,
  "▁renewed": 11115,
  "▁compiled": 11116,
  "▁Amendment": 11117,
  "▁batteries": 11118,
  "sor": 11119,
  "▁07": 11120,
  "auge": 11121,
  "cell": 11122,
  "urst": 11123,
  "▁2.4": 11124,
  "▁Saw": 11125,
  "onial": 11126,
  "▁Duch": 11127,
  "finals": 11128,
  "▁Bears": 11129,
  "▁Movie": 11130,
  "▁Youth": 11131,
  "▁infer": 11132,
  "▁Altern": 11133,
  "▁tourist": 11134,
  "▁significance": 11135,
  "AP": 11136,
  "asi": 11137,
  "iga": 11138,
  "lex": 11139,
  "enos": 11140,
  "page": 11141,
  "rang": 11142,
  "▁Ted": 11143,
  "▁Case": 11144,
  "▁Watch": 11145,
  "▁grows": 11146,
  "▁Nature": 11147,
  "▁dinner": 11148,
  "▁decreased": 11149,
  "▁politician": 11150,
  "▁politicians": 11151,
  "▁05": 11152,
  "rels": 11153,
  "▁2.0": 11154,
  "▁Sud": 11155,
  "▁Crus": 11156,
  "▁grap": 11157,
  "▁mask": 11158,
  "▁Prest": 11159,
  "▁noise": 11160,
  "regular": 11161,
  "▁Report": 11162,
  "▁Ancient": 11163,
  "▁Kenneth": 11164,
  "▁colours": 11165,
  "▁manufacturing": 11166,
  "idia": 11167,
  "lete": 11168,
  "abric": 11169,
  "world": 11170,
  "▁Evil": 11171,
[...]
