{
  "<pad>": 0,
  "<unk>": 1,
  "<s>": 2,
  "</s>": 3,
  "[MASK]": 4,
  "▁t": 5,
  "he": 6,
  "▁a": 7,
  "ou": 8,
  "▁s": 9,
  "▁m": 10,
  "▁w": 11,
  "in": 12,
  "re": 13,
  "ha": 14,
  "▁the": 15,
  "nd": 16,
  "▁b": 17,
  "is": 18,
  "or": 19,
  "▁f": 20,
  "▁I": 21,
  "er": 22,
  "ll": 23,
  "it": 24,
  "on": 25,
  "▁d": 26,
  "▁c": 27,
  "▁n": 28,
  "▁l": 29,
  "▁y": 30,
  "es": 31,
  "en": 32,
  "▁th": 33,
  "ar": 34,
  "▁h": 35,
  "▁o": 36,
  "▁to": 37,
  "▁you": 38,
  "▁p": 39,
  "▁T": 40,
  "hat": 41,
  "▁A": 42,
  "▁he": 43,
  "st": 44,
  "ve": 45,
  "ot": 46,
  "▁and": 47,
  "ow": 48,
  "ing": 49,
  "▁of": 50,
  "an": 51,
  "om": 52,
  "▁g": 53,
  "at": 54,
  "▁be": 55,
  "▁W": 56,
  "se": 57,
  "▁my": 58,
  "▁in": 59,
  "▁ha": 60,
  "ce": 61,
  "le": 62,
  "ay": 63,
  "ld": 64,
  "ir": 65,
  "et": 66,
  "ed": 67,
  "ut": 68,
  "▁B": 69,
  "▁me": 70,
  "im": 71,
  "▁S": 72,
  "ith": 73,
  "▁not": 74,
  "▁H": 75,
  "ch": 76,
  "▁that": 77,
  "▁is": 78,
  "▁M": 79,
  "gh": 80,
  "▁And": 81,
  "▁for": 82,
  "▁u": 83,
  "ke": 84,
  "▁C": 85,
  "▁we": 86,
  "our": 87,
  "oo": 88,
  "ill": 89,
  "▁e": 90,
  "▁with": 91,
  "her": 92,
  "▁it": 93,
  "ent": 94,
  "▁your": 95,
  "ad": 96,
  "ri": 97,
  "▁O": 98,
  "▁thou": 99,
  "▁st": 100,
  "▁k": 101,
  "▁L": 102,
  "ome": 103,
  "▁his": 104,
  "▁F": 105,
  "▁G": 106,
  "ght": 107,
  "EN": 108,
  "ord": 109,
  "▁re": 110,
  "id": 111,
  "ra": 112,
  "▁The": 113,
  "▁have": 114,
  "▁him": 115,
  "IN": 116,
  "ly": 117,
  "▁li": 118,
  "as": 119,
  "▁P": 120,
  "▁this": 121,
  "ur": 122,
  "IO": 123,
  "al": 124,
  "▁so": 125,
  "▁as": 126,
  "▁de": 127,
  "▁on": 128,
  "▁R": 129,
  "ore": 130,
  "ro": 131,
  "▁N": 132,
  "hi": 133,
  "ould": 134,
  "ood": 135,
  "AR": 136,
  "ck": 137,
  "ain": 138,
  "ver": 139,
  "▁Y": 140,
  "est": 141,
  "▁sha": 142,
  "▁thy": 143,
  "ess": 144,
  "▁will": 145,
  "▁do": 146,
  "ea": 147,
  "▁no": 148,
  "am": 149,
  "▁E": 150,
  "▁but": 151,
  "▁D": 152,
  "us": 153,
  "▁se": 154,
  "US": 155,
  "if": 156,
  "▁'": 157,
  "ge": 158,
  "▁all": 159,
  "and": 160,
  "▁Th": 161,
  "▁su": 162,
  "ake": 163,
  "▁To": 164,
  "▁her": 165,
  "ru": 166,
  "ion": 167,
  "▁an": 168,
  "▁K": 169,
  "▁lo": 170,
  "ard": 171,
  "ter": 172,
  "han": 173,
  "▁sp": 174,
  "ell": 175,
  "ear": 176,
  "▁thee": 177,
  "▁fa": 178,
  "▁shall": 179,
  "▁our": 180,
  "▁by": 181,
  "th": 182,
  "UC": 183,
  "▁are": 184,
  "il": 185,
  "ING": 186,
  "▁ne": 187,
  "▁kn": 188,
  "rom": 189,
  "ho": 190,
  "▁v": 191,
  "▁That": 192,
  "ER": 193,
  "OR": 194,
  "ast": 195,
  "ct": 196,
  "ous": 197,
  "▁what": 198,
  "▁sh": 199,
  "ight": 200,
  "ul": 201,
  "ET": 202,
  "ant": 203,
  "▁up": 204,
  "sel": 205,
  "▁good": 206,
  "qu": 207,
  "▁But": 208,
  "art": 209,
  "row": 210,
  "ath": 211,
  "ine": 212,
  "▁com": 213,
  "▁mu": 214,
  "▁lord": 215,
  "hich": 216,
  "nt": 217,
  "▁pr": 218,
  "▁man": 219,
  "▁at": 220,
  "▁V": 221,
  "one": 222,
  "▁whe": 223,
  "▁con": 224,
  "▁What": 225,
  "▁am": 226,
  "end": 227,
  "ic": 228,
  "ES": 229,
  "ble": 230,
  "ry": 231,
  "ong": 232,
  "▁from": 233,
  "ie": 234,
  "▁she": 235,
  "▁bl": 236,
  "ive": 237,
  "ven": 238,
  "▁go": 239,
  "▁For": 240,
  "▁more": 241,
  "▁them": 242,
  "em": 243,
  "▁was": 244,
  "IC": 245,
  "out": 246,
  "au": 247,
  "▁sir": 248,
  "other": 249,
  "are": 250,
  "oth": 251,
  "ol": 252,
  "▁if": 253,
  "▁He": 254,
  "▁now": 255,
  "▁hat": 256,
  "▁there": 257,
  "▁would": 258,
  "AN": 259,
  "ost": 260,
  "▁know": 261,
  "▁can": 262,
  "LO": 263,
  "ind": 264,
  "ers": 265,
  "IUS": 266,
  "ep": 267,
  "self": 268,
  "ARD": 269,
  "▁say": 270,
  "▁KING": 271,
  "ather": 272,
  "ond": 273,
  "ate": 274,
  "res": 275,
  "fe": 276,
  "▁sw": 277,
  "▁here": 278,
  "▁love": 279,
  "▁their": 280,
  "▁My": 281,
  "▁or": 282,
  "▁than": 283,
  "▁br": 284,
  "pp": 285,
  "--": 286,
  "▁us": 287,
  "▁king": 288,
  "▁they": 289,
  "▁then": 290,
  "all": 291,
  "▁ar": 292,
  "od": 293,
  "▁let": 294,
  "▁un": 295,
  "ig": 296,
  "▁wor": 297,
  "ure": 298,
  "ink": 299,
  "▁may": 300,
  "hy": 301,
  "ame": 302,
  "▁come": 303,
  "fore": 304,
  "ort": 305,
  "▁As": 306,
  "▁qu": 307,
  "ook": 308,
  "▁well": 309,
  "el": 310,
  "ish": 311,
  "LI": 312,
  "▁Whe": 313,
  "▁j": 314,
  "KE": 315,
  "ves": 316,
  "▁one": 317,
  "▁hath": 318,
  "irst": 319,
  "▁make": 320,
  "▁You": 321,
  "▁gra": 322,
  "reat": 323,
  "ak": 324,
  "ng": 325,
  "▁must": 326,
  "gain": 327,
  "ound": 328,
  "▁were": 329,
  "▁ho": 330,
  "▁see": 331,
  "▁should": 332,
  "▁like": 333,
  "ci": 334,
  "▁pro": 335,
  "ue": 336,
  "eak": 337,
  "TIO": 338,
  "▁sa": 339,
  "ity": 340,
  "▁pl": 341,
  "▁mad": 342,
  "▁father": 343,
  "▁had": 344,
  "um": 345,
  "▁did": 346,
  "▁upon": 347,
  "OM": 348,
  "ime": 349,
  "pe": 350,
  "▁too": 351,
  "ice": 352,
  "ON": 353,
  "▁J": 354,
  "▁dis": 355,
  "ence": 356,
  "▁death": 357,
  "ward": 358,
  "▁which": 359,
  "▁en": 360,
  "▁If": 361,
  "ose": 362,
  "own": 363,
  "▁speak": 364,
  "▁po": 365,
  "▁when": 366,
  "ful": 367,
  "▁out": 368,
  "▁fri": 369,
  "▁how": 370,
  "entle": 371,
  "io": 372,
  "pt": 373,
  "un": 374,
  "ICH": 375,
  "▁again": 376,
  "▁RICH": 377,
  "▁tru": 378,
  "OL": 379,
  "de": 380,
  "UKE": 381,
  "▁DUKE": 382,
  "man": 383,
  "▁heart": 384,
  "▁yet": 385,
  "ick": 386,
  "▁hand": 387,
  "very": 388,
  "▁With": 389,
  "▁RICHARD": 390,
  "▁who": 391,
  "ENTIO": 392,
  "▁Thou": 393,
  "ign": 394,
  "▁We": 395,
  "▁some": 396,
  "ance": 397,
  "▁Which": 398,
  "▁hon": 399,
  "▁mar": 400,
  "nce": 401,
  "▁r": 402,
  "ies": 403,
  "▁In": 404,
  "▁son": 405,
  "ire": 406,
  "▁off": 407,
  "▁mine": 408,
  "ist": 409,
  "INC": 410,
  "▁al": 411,
  "ince": 412,
  "har": 413,
  "orn": 414,
  "ack": 415,
  "▁Why": 416,
  "wn": 417,
  "▁Of": 418,
  "▁God": 419,
  "EL": 420,
  "▁hea": 421,
  "▁such": 422,
  "▁time": 423,
  "oy": 424,
  "▁First": 425,
  "▁hear": 426,
  "▁So": 427,
  "ness": 428,
  "▁brother": 429,
  "ec": 430,
  "▁these": 431,
  "▁Cl": 432,
  "▁blood": 433,
  "▁ab": 434,
  "▁ex": 435,
  "ither": 436,
  "▁give": 437,
  "UE": 438,
  "▁fo": 439,
  "▁Is": 440,
  "▁No": 441,
  "▁day": 442,
  "▁ear": 443,
  "▁ro": 444,
  "▁look": 445,
  "▁think": 446,
  "▁II": 447,
  "▁How": 448,
  "▁life": 449,
  "▁tell": 450,
  "EST": 451,
  "ise": 452,
  "▁ey": 453,
  "AB": 454,
  "eet": 455,
  "▁where": 456,
  "UCH": 457,
  "▁take": 458,
  "▁word": 459,
  "oul": 460,
  "▁friend": 461,
  "▁Q": 462,
  "ther": 463,
  "▁This": 464,
  "ag": 465,
  "age": 466,
  "LOUC": 467,
  "▁des": 468,
  "ESTER": 469,
  "▁GLOUC": 470,
  "▁GLOUCESTER": 471,
  "ef": 472,
  "een": 473,
  "erv": 474,
  "▁Come": 475,
  "ady": 476,
  "ust": 477,
  "rown": 478,
  "▁gentle": 479,
  "ings": 480,
  "▁Lord": 481,
  "▁U": 482,
  "▁ri": 483,
  "urse": 484,
  "ave": 485,
  "RY": 486,
  "ase": 487,
  "▁Rome": 488,
  "tis": 489,
  "UEEN": 490,
  "▁art": 491,
  "▁lea": 492,
  "▁VINC": 493,
  "▁QUEEN": 494,
  "▁VINCENTIO": 495,
  "way": 496,
  "▁OF": 497,
  "▁war": 498,
  "▁most": 499,
  "▁honour": 500,
  "▁fl": 501,
  "▁Mar": 502,
  "▁much": 503,
  "UM": 504,
  "LAN": 505,
  "▁sl": 506,
  "▁Where": 507,
  "AM": 508,
  "urn": 509,
  "▁made": 510,
  "▁tw": 511,
  "ment": 512,
  "▁fear": 513,
  "▁hast": 514,
  "▁Now": 515,
  "▁Who": 516,
  "▁bet": 517,
  "ENRY": 518,
  "aught": 519,
  "▁HENRY": 520,
  "▁cou": 521,
  "▁great": 522,
  "▁Be": 523,
  "ber": 524,
  "not": 525,
  "▁bre": 526,
  "ved": 527,
  "▁never": 528,
  "▁new": 529,
  "▁fair": 530,
  "cc": 531,
  "ee": 532,
  "ss": 533,
  "▁af": 534,
  "ower": 535,
  "ap": 536,
  "igh": 537,
  "▁AN": 538,
  "▁men": 539,
  "itt": 540,
  "aster": 541,
  "orrow": 542,
  "▁Your": 543,
  "uke": 544,
  "▁It": 545,
  "iz": 546,
  "ough": 547,
  "ORK": 548,
  "▁YORK": 549,
  "▁any": 550,
  "▁call": 551,
  "▁part": 552,
  "▁Or": 553,
  "▁ra": 554,
  "ation": 555,
  "INIUS": 556,
  "ST": 557,
  "ide": 558,
  "ree": 559,
  "▁ad": 560,
  "▁comm": 561,
  "▁cannot": 562,
  "▁pre": 563,
  "▁true": 564,
  "▁stand": 565,
  "▁heaven": 566,
  "▁PET": 567,
  "▁name": 568,
  "AU": 569,
  "▁been": 570,
  "▁pray": 571,
  "old": 572,
  "▁cl": 573,
  "hing": 574,
  "▁sweet": 575,
  "DW": 576,
  "▁EDW": 577,
  "▁per": 578,
  "▁ple": 579,
  "▁EDWARD": 580,
  "ple": 581,
  "▁GR": 582,
  ",--": 583,
  "▁doth": 584,
  "▁noble": 585,
  "▁wr": 586,
  "ears": 587,
  "▁own": 588,
  "▁LUC": 589,
  "ouse": 590,
  "▁done": 591,
  "▁There": 592,
  "ull": 593,
  "▁tr": 594,
  "▁way": 595,
  "ife": 596,
  "▁head": 597,
  "▁other": 598,
  "RO": 599,
  "aw": 600,
  "▁mean": 601,
  "▁pres": 602,
  "UT": 603,
  "▁Ed": 604,
  "▁bear": 605,
  "red": 606,
  "▁sc": 607,
  "▁nor": 608,
  "AP": 609,
  "EO": 610,
  "▁Ay": 611,
  "OMEO": 612,
  "▁When": 613,
  "▁soul": 614,
  "▁very": 615,
  "▁ROMEO": 616,
  "▁Edward": 617,
  "ass": 618,
  "▁An": 619,
  "ENEN": 620,
  "aint": 621,
  "ving": 622,
  "▁both": 623,
  "▁MENEN": 624,
  "▁night": 625,
  "▁world": 626,
  "▁before": 627,
  "▁MENENIUS": 628,
  "ace": 629,
  "ger": 630,
  "▁By": 631,
  "ause": 632,
  "▁queen": 633,
  "li": 634,
  "▁Let": 635,
  "TH": 636,
  "▁mo": 637,
  "▁chi": 638,
  "aughter": 639,
  "RUCH": 640,
  "▁Here": 641,
  "▁Then": 642,
  "RUCHIO": 643,
  "▁PETRUCHIO": 644,
  "able": 645,
  "▁cont": 646,
  "▁dead": 647,
  "▁down": 648,
  "TES": 649,
  "▁app": 650,
  "ite": 651,
  "▁wh": 652,
  "▁ke": 653,
  "▁rem": 654,
  "▁being": 655,
  "per": 656,
  "▁myself": 657,
  "ab": 658,
  "les": 659,
  "▁MAR": 660,
  "▁Than": 661,
  "▁arm": 662,
  "▁beg": 663,
  "ilt": 664,
  "ORIO": 665,
  "LANUS": 666,
  "▁thus": 667,
  "▁CORIO": 668,
  "▁leave": 669,
  "▁CORIOLANUS": 670,
  "▁Sec": 671,
  "▁grace": 672,
  "▁Second": 673,
  "▁unt": 674,
  "ction": 675,
  "ress": 676,
  "▁Nor": 677,
  "▁eyes": 678,
  "▁LE": 679,
  "▁im": 680,
  "▁mother": 681,
  "led": 682,
  "▁ma": 683,
  "less": 684,
  "▁old": 685,
  "ran": 686,
  "land": 687,
  "INA": 688,
  "▁rep": 689,
  "itiz": 690,
  "▁ever": 691,
  "itizen": 692,
  "lo": 693,
  "ps": 694,
  "sw": 695,
  "▁She": 696,
  "▁int": 697,
  "▁live": 698,
  "▁long": 699,
  "▁wife": 700,
  "▁child": 701,
  "▁wom": 702,
  "▁poor": 703,
  "▁friends": 704,
  "▁III": 705,
  "▁away": 706,
  "▁cons": 707,
  "▁Go": 708,
  "▁might": 709,
  "eace": 710,
  "ford": 711,
  "nder": 712,
  "▁Sir": 713,
  "▁die": 714,
  "▁stay": 715,
  "▁comes": 716,
  "ks": 717,
  "oud": 718,
  "atch": 719,
  "wick": 720,
  "▁War": 721,
  "▁many": 722,
  "▁ru": 723,
  "▁rest": 724,
  "▁house": 725,
  "▁pe": 726,
  "▁crown": 727,
  "▁Warwick": 728,
  "ff": 729,
  "ows": 730,
  "▁le": 731,
  "▁cour": 732,
  "Tis": 733,
  "come": 734,
  "ison": 735,
  "▁His": 736,
  "▁ent": 737,
  "▁har": 738,
  "▁thought": 739,
  "LA": 740,
  "SAB": 741,
  "ELLA": 742,
  "▁lie": 743,
  "▁ISAB": 744,
  "▁ISABELLA": 745,
  "erc": 746,
  "ian": 747,
  "iss": 748,
  "uck": 749,
  "RAN": 750,
  "▁set": 751,
  "▁daughter": 752,
  "che": 753,
  "▁Well": 754,
  "▁Romeo": 755,
  "▁nothing": 756,
  "ULI": 757,
  "ors": 758,
  "ONTES": 759,
  "ULIET": 760,
  "atter": 761,
  "▁tong": 762,
  "▁JULIET": 763,
  "▁better": 764,
  "▁LEONTES": 765,
  "▁St": 766,
  "▁VI": 767,
  "▁Nay": 768,
  "ittle": 769,
  "▁gone": 770,
  "▁prince": 771,
  "rant": 772,
  "AD": 773,
  "ADY": 774,
  "int": 775,
  "ought": 776,
  "▁LADY": 777,
  "AL": 778,
  "CE": 779,
  "me": 780,
  "ENCE": 781,
  "well": 782,
  "▁tri": 783,
  "ied": 784,
  "▁Pro": 785,
  "▁keep": 786,
  "▁news": 787,
  "os": 788,
  "▁res": 789,
  "▁sle": 790,
  "▁wit": 791,
  "▁best": 792,
  "▁against": 793,
  "ces": 794,
  "for": 795,
  "hall": 796,
  "ious": 797,
  "▁Serv": 798,
  "▁those": 799,
  "ier": 800,
  "ool": 801,
  "hard": 802,
  "▁SIC": 803,
  "▁acc": 804,
  "▁gri": 805,
  "▁comp": 806,
  "▁hence": 807,
  "▁little": 808,
  "▁Citizen": 809,
  "▁SICINIUS": 810,
  "▁Not": 811,
  "▁hour": 812,
  "▁lords": 813,
  "▁thing": 814,
  "une": 815,
  "akes": 816,
  "▁put": 817,
  "ardon": 818,
  "▁face": 819,
  "lse": 820,
  "ret": 821,
  "sed": 822,
  "ult": 823,
  "▁On": 824,
  "llow": 825,
  "▁end": 826,
  "▁kind": 827,
  "EY": 828,
  "ft": 829,
  "▁two": 830,
  "▁still": 831,
  "▁young": 832,
  "ont": 833,
  "ork": 834,
  "ield": 835,
  "▁pri": 836,
  "▁himself": 837,
  "ud": 838,
  "alk": 839,
  "▁Thy": 840,
  "▁pur": 841,
  "▁LUCIO": 842,
  "▁power": 843,
  "ale": 844,
  "ert": 845,
  "ins": 846,
  "▁IV": 847,
  "▁Ric": 848,
  "▁cha": 849,
  "▁Richard": 850,
  "▁CL": 851,
  "▁sub": 852,
  "▁count": 853,
  "▁therefore": 854,
  "TI": 855,
  "cl": 856,
  "ew": 857,
  "▁gu": 858,
  "ried": 859,
  "cious": 860,
  "iness": 861,
  "▁dear": 862,
  "▁else": 863,
  "▁unto": 864,
  "▁first": 865,
  "▁peace": 866,
  "▁BR": 867,
  "▁sm": 868,
  "ason": 869,
  "hile": 870,
  "▁Have": 871,
  "▁Will": 872,
  "▁duke": 873,
  "▁till": 874,
  "▁could": 875,
  "ail": 876,
  "ect": 877,
  "ile": 878,
  "uty": 879,
  "▁co": 880,
  "▁hus": 881,
  "▁tra": 882,
  "▁back": 883,
  "▁words": 884,
  "▁though": 885,
  "ETH": 886,
  "LIZ": 887,
  "▁bid": 888,
  "▁dre": 889,
  "▁tre": 890,
  "ABETH": 891,
  "▁ELIZ": 892,
  "▁York": 893,
  "▁fell": 894,
  "▁find": 895,
  "▁need": 896,
  "▁earth": 897,
  "▁tongue": 898,
  "▁ELIZABETH": 899,
  "ius": 900,
  "yal": 901,
  "band": 902,
  "ople": 903,
  "▁lady": 904,
  "▁thine": 905,
  "ty": 906,
  "IAN": 907,
  "men": 908,
  "eech": 909,
  "orse": 910,
  "▁bra": 911,
  "▁hel": 912,
  "▁home": 913,
  "▁hope": 914,
  "▁seem": 915,
  "▁forth": 916,
  "ark": 917,
  "eth": 918,
  "ray": 919,
  "enry": 920,
  "▁Yet": 921,
  "▁high": 922,
  "▁Henry": 923,
  "▁husband": 924,
  "vere": 925,
  "▁Good": 926,
  "▁right": 927,
  "get": 928,
  "▁chan": 929,
  "tw": 930,
  "ARW": 931,
  "ICK": 932,
  "uth": 933,
  "▁ban": 934,
  "▁WARW": 935,
  "▁mind": 936,
  "▁people": 937,
  "▁WARWICK": 938,
  "ds": 939,
  "ix": 940,
  "AST": 941,
  "ach": 942,
  "hip": 943,
  "rer": 944,
  "▁Do": 945,
  "▁All": 946,
  "▁che": 947,
  "ister": 948,
  "▁char": 949,
  "▁conf": 950,
  "▁show": 951,
  "▁Shall": 952,
  "ged": 953,
  "▁bri": 954,
  "▁hands": 955,
  "HAM": 956,
  "fort": 957,
  "▁imp": 958,
  "▁joy": 959,
  "▁why": 960,
  "▁Nurse": 961,
  "▁cause": 962,
  "▁master": 963,
  "UL": 964,
  "▁gl": 965,
  "APUL": 966,
  "▁law": 967,
  "▁They": 968,
  "▁mist": 969,
  "▁none": 970,
  "▁once": 971,
  "▁said": 972,
  "▁serv": 973,
  "APULET": 974,
  "▁CAPULET": 975,
  "▁fort": 976,
  "▁every": 977,
  "GE": 978,
  "IL": 979,
  "MIO": 980,
  "ren": 981,
  "▁bod": 982,
  "ousin": 983,
  "▁bring": 984,
  "RI": 985,
  "bt": 986,
  "▁dou": 987,
  "UCK": 988,
  "eed": 989,
  "UTUS": 990,
  "ates": 991,
  "▁BUCK": 992,
  "▁pass": 993,
  "INGHAM": 994,
  "▁BRUTUS": 995,
  "▁please": 996,
  "▁BUCKINGHAM": 997,
  "lt": 998,
  "BRO": 999,
  "ESS": 1000,
  "iet": 1001,
  "ird": 1002,
  "▁BOL": 1003,
  "BROKE": 1004,
  "RANIO": 1005,
  "▁From": 1006,
  "▁light": 1007,
  "▁BOLING": 1008,
  "▁TRANIO": 1009,
  "▁BOLINGBROKE": 1010,
  "eel": 1011,
  "▁wo": 1012,
  "swer": 1013,
  "vost": 1014,
  "▁bes": 1015,
  "▁nat": 1016,
  "▁thr": 1017,
  "▁royal": 1018,
  "▁tears": 1019,
  "▁whose": 1020,
  "▁present": 1021,
  "mb": 1022,
  "ary": 1023,
  "cle": 1024,
  "its": 1025,
  "▁Our": 1026,
  "▁boy": 1027,
  "▁came": 1028,
  "▁just": 1029,
  "▁since": 1030,
  "lf": 1031,
  "vy": 1032,
  "ock": 1033,
  "ory": 1034,
  "roke": 1035,
  "▁dev": 1036,
  "▁full": 1037,
  "▁after": 1038,
  "▁heard": 1039,
  "▁under": 1040,
  "▁wrong": 1041,
  "▁pardon": 1042,
  "NE": 1043,
  "GAR": 1044,
  "pose": 1045,
  "GARET": 1046,
  "▁happ": 1047,
  "▁land": 1048,
  "▁place": 1049,
  "▁MARGARET": 1050,
  "ATH": 1051,
  "ens": 1052,
  "AMIL": 1053,
  "▁ere": 1054,
  "▁mis": 1055,
  "▁King": 1056,
  "▁last": 1057,
  "▁state": 1058,
  "sand": 1059,
  "▁care": 1060,
  "▁hold": 1061,
  "▁kill": 1062,
  "▁meet": 1063,
  "▁sorrow": 1064,
  "ORD": 1065,
  "GELO": 1066,
  "cent": 1067,
  "esty": 1068,
  "▁GRE": 1069,
  "▁eye": 1070,
  "ition": 1071,
  "▁help": 1072,
  "▁whom": 1073,
  "▁ANGELO": 1074,
  "▁thousand": 1075,
  "▁Eng": 1076,
  "▁fal": 1077,
  "ARINA": 1078,
  "▁less": 1079,
  "arence": 1080,
  "▁answer": 1081,
  "▁follow": 1082,
  "SC": 1083,
  "irt": 1084,
  "▁Sh": 1085,
  "▁ch": 1086,
  "cius": 1087,
  "▁bus": 1088,
  "▁far": 1089,
  "▁pat": 1090,
  "▁sun": 1091,
  "ceive": 1092,
  "▁KATH": 1093,
  "▁enem": 1094,
  "▁fool": 1095,
  "▁weep": 1096,
  "selves": 1097,
  "▁about": 1098,
  "▁shame": 1099,
  "▁hither": 1100,
  "▁Clarence": 1101,
  "▁KATHARINA": 1102,
  "iol": 1103,
  "urde": 1104,
  "▁fall": 1105,
  "▁maid": 1106,
  "▁Marcius": 1107,
  "▁gentleman": 1108,
  "day": 1109,
  "▁ob": 1110,
  "asure": 1111,
  "▁into": 1112,
  "▁Un": 1113,
  "▁Up": 1114,
  "ALUS": 1115,
  "▁ESC": 1116,
  "▁coun": 1117,
  "▁hate": 1118,
  "▁court": 1119,
  "▁grief": 1120,
  "▁makes": 1121,
  "▁cousin": 1122,
  "▁ESCALUS": 1123,
  "▁gracious": 1124,
  "air": 1125,
  "▁Al": 1126,
  "imes": 1127,
  "ject": 1128,
  "▁stri": 1129,
  "▁woman": 1130,
  "iv": 1131,
  "ove": 1132,
  "▁Hath": 1133,
  "▁stre": 1134,
  "▁turn": 1135,
  "▁worth": 1136,
  "▁comfort": 1137,
  "alt": 1138,
  "ild": 1139,
  "ons": 1140,
  "deed": 1141,
  "ices": 1142,
  "ling": 1143,
  "▁bed": 1144,
  "▁hum": 1145,
  "▁DUCH": 1146,
  "▁Duke": 1147,
  "▁dost": 1148,
  "▁talk": 1149,
  "▁wilt": 1150,
  "▁sleep": 1151,
  "urderer": 1152,
  "▁DUCHESS": 1153,
  "ERC": 1154,
  "itor": 1155,
  "ount": 1156,
  "pher": 1157,
  "▁bel": 1158,
  "▁Ange": 1159,
  "▁body": 1160,
  "▁over": 1161,
  "▁i": 1162,
  "ute": 1163,
  "▁bu": 1164,
  "▁Her": 1165,
  "▁att": 1166,
  "▁dra": 1167,
  "▁inst": 1168,
  "morrow": 1169,
  "▁fault": 1170,
  "▁sound": 1171,
  "▁thank": 1172,
  "▁Angelo": 1173,
  "IA": 1174,
  "ised": 1175,
  "▁adv": 1176,
  "ience": 1177,
  "▁play": 1178,
  "AMILLO": 1179,
  "▁false": 1180,
  "▁prove": 1181,
  "▁indeed": 1182,
  "▁CAMILLO": 1183,
  "▁another": 1184,
  "ily": 1185,
  "▁vo": 1186,
  "ieve": 1187,
  "omet": 1188,
  "▁has": 1189,
  "▁ret": 1190,
  "▁ser": 1191,
  "▁use": 1192,
  "▁wel": 1193,
  "▁Even": 1194,
  "▁deed": 1195,
  "▁Would": 1196,
  "▁sword": 1197,
  "▁fellow": 1198,
  "▁Provost": 1199,
  "ENS": 1200,
  "ORT": 1201,
  "ade": 1202,
  "ans": 1203,
  "▁bo": 1204,
  "▁HORT": 1205,
  "▁even": 1206,
  "▁pers": 1207,
  "▁vill": 1208,
  "▁fight": 1209,
  "▁matter": 1210,
  "▁HORTENS": 1211,
  "▁fortune": 1212,
  "RIAR": 1213,
  "hold": 1214,
  "▁Upon": 1215,
  "▁sent": 1216,
  "▁FRIAR": 1217,
  "▁grave": 1218,
  "▁prison": 1219,
  "▁sovere": 1220,
  "▁country": 1221,
  "▁HORTENSIO": 1222,
  ",'": 1223,
  "STA": 1224,
  "eal": 1225,
  "ury": 1226,
  "APTI": 1227,
  "▁Are": 1228,
  "▁cur": 1229,
  "▁dan": 1230,
  "▁merc": 1231,
  "▁send": 1232,
  "▁virt": 1233,
  "▁BAPTI": 1234,
  "▁doubt": 1235,
  "▁years": 1236,
  "▁banish": 1237,
  "▁rather": 1238,
  "▁BAPTISTA": 1239,
  "YC": 1240,
  "mp": 1241,
  "▁Ty": 1242,
  "▁gr": 1243,
  "OLYC": 1244,
  "fect": 1245,
  "ouch": 1246,
  "pect": 1247,
  "▁AUT": 1248,
  "▁COM": 1249,
  "▁ass": 1250,
  "▁hang": 1251,
  "▁want": 1252,
  "▁wish": 1253,
  "OLYCUS": 1254,
  "▁reven": 1255,
  "▁truth": 1256,
  "▁COMINIUS": 1257,
  "▁business": 1258,
  "▁AUTOLYCUS": 1259,
  ".'": 1260,
  "dd": 1261,
  "▁At": 1262,
  "▁CLAR": 1263,
  "▁More": 1264,
  "▁disc": 1265,
  "▁lies": 1266,
  "▁only": 1267,
  "▁Third": 1268,
  "▁shalt": 1269,
  "▁reason": 1270,
  "▁CLARENCE": 1271,
  "ms": 1272,
  "ere": 1273,
  "ior": 1274,
  "pen": 1275,
  "ENES": 1276,
  "▁cra": 1277,
  "▁sea": 1278,
  "pherd": 1279,
  "rance": 1280,
  "▁arms": 1281,
  "▁stra": 1282,
  "▁dream": 1283,
  "▁breath": 1284,
  "▁command": 1285,
  "ENV": 1286,
  "der": 1287,
  "▁gi": 1288,
  "OLIO": 1289,
  "ener": 1290,
  "▁NOR": 1291,
  "▁lay": 1292,
  "▁sec": 1293,
  "▁BENV": 1294,
  "▁prom": 1295,
  "▁Clown": 1296,
  "▁stran": 1297,
  "▁Gentle": 1298,
  "▁BENVOLIO": 1299,
  "SP": 1300,
  "ERO": 1301,
  "ROSP": 1302,
  "UMIO": 1303,
  "▁sen": 1304,
  "▁Take": 1305,
  "▁holy": 1306,
  "▁pity": 1307,
  "▁wind": 1308,
  "▁PROSP": 1309,
  "▁proud": 1310,
  "▁remem": 1311,
  "▁somet": 1312,
  "▁GRUMIO": 1313,
  "▁enough": 1314,
  "▁content": 1315,
  "▁PROSPERO": 1316,
  "ia": 1317,
  "hed": 1318,
  "ken": 1319,
  "▁Su": 1320,
  "ERCU": 1321,
  "ator": 1322,
  "▁Did": 1323,
  "▁bea": 1324,
  "▁Kate": 1325,
  "▁dare": 1326,
  "▁fare": 1327,
  "▁sold": 1328,
  "▁spir": 1329,
  "▁MERCU": 1330,
  "▁lives": 1331,
  "▁swear": 1332,
  "▁three": 1333,
  "▁MERCUTIO": 1334,
  "▁Murderer": 1335,
  "IS": 1336,
  "ike": 1337,
  "eter": 1338,
  "▁dep": 1339,
  "▁get": 1340,
  "▁Were": 1341,
  "▁gods": 1342,
  "▁tend": 1343,
  "▁nature": 1344,
  "▁within": 1345,
  "▁Servant": 1346,
  "▁villain": 1347,
  "▁welcome": 1348,
  "▁LUCENTIO": 1349,
  "OMP": 1350,
  "ars": 1351,
  "ham": 1352,
  "LAND": 1353,
  "▁gre": 1354,
  "▁saw": 1355,
  "ester": 1356,
  "▁POMP": 1357,
  "▁foul": 1358,
  "▁free": 1359,
  "▁kiss": 1360,
  "▁happy": 1361,
  "▁madam": 1362,
  "▁sister": 1363,
  "▁things": 1364,
  "▁mistress": 1365,
  "▁sovereign": 1366,
  "AUL": 1367,
  "any": 1368,
  "apt": 1369,
  "att": 1370,
  "hal": 1371,
  "unt": 1372,
  "ient": 1373,
  "vers": 1374,
  "▁Was": 1375,
  "▁Give": 1376,
  "▁PAUL": 1377,
  "▁city": 1378,
  "▁break": 1379,
  "▁means": 1380,
  "▁yield": 1381,
  "▁PAULINA": 1382,
  "▁beseech": 1383,
  "▁subject": 1384,
  "eft": 1385,
  "ery": 1386,
  "▁aw": 1387,
  "ague": 1388,
  "▁Say": 1389,
  "▁den": 1390,
  "▁mer": 1391,
  "onder": 1392,
  "▁Look": 1393,
  "▁born": 1394,
  "▁oath": 1395,
  "gainst": 1396,
  "gether": 1397,
  "▁horse": 1398,
  "▁yours": 1399,
  "▁GREMIO": 1400,
  "▁POMPEY": 1401,
  "LIX": 1402,
  "NIA": 1403,
  "anc": 1404,
  "▁PO": 1405,
  "OLUM": 1406,
  "balt": 1407,
  "ches": 1408,
  "usic": 1409,
  "▁Com": 1410,
  "▁dru": 1411,
  "▁tem": 1412,
  "▁fire": 1413,
  "▁supp": 1414,
  "▁POLIX": 1415,
  "▁VOLUM": 1416,
  "▁faith": 1417,
  "▁looks": 1418,
  "▁while": 1419,
  "▁wound": 1420,
  "▁bloody": 1421,
  "▁England": 1422,
  "▁VOLUMNIA": 1423,
  "▁yourself": 1424,
  "▁POLIXENES": 1425,
  "ey": 1426,
  "ues": 1427,
  "INGS": 1428,
  "▁car": 1429,
  "▁maj": 1430,
  "▁spo": 1431,
  "▁win": 1432,
  "enger": 1433,
  "▁Fare": 1434,
  "▁HAST": 1435,
  "▁cond": 1436,
  "▁requ": 1437,
  "centio": 1438,
  "ingman": 1439,
  "▁common": 1440,
  "▁traitor": 1441,
  "▁HASTINGS": 1442,
  "▁Servingman": 1443,
  "by": 1444,
  "AUR": 1445,
  "rong": 1446,
  "▁Can": 1447,
  "▁May": 1448,
  "▁def": 1449,
  "▁lam": 1450,
  "▁mon": 1451,
  "broke": 1452,
  "▁Hast": 1453,
  "▁LAUR": 1454,
  "▁mark": 1455,
  "ertain": 1456,
  "▁uncle": 1457,
  "essenger": 1458,
  "▁LAURENCE": 1459,
  "▁children": 1460,
  "BY": 1461,
  "BER": 1462,
  "▁Ah": 1463,
  "form": 1464,
  "▁Jul": 1465,
  "▁met": 1466,
  "▁val": 1467,
  "▁beat": 1468,
  "▁late": 1469,
  "▁left": 1470,
  "▁soon": 1471,
  "▁sight": 1472,
  "▁Tybalt": 1473,
  "▁danger": 1474,
  "▁tender": 1475,
  "▁majesty": 1476,
  "▁Therefore": 1477,
  "FF": 1478,
  "ten": 1479,
  "use": 1480,
  "▁Sp": 1481,
  "LIFF": 1482,
  "THUM": 1483,
  "like": 1484,
  "▁sin": 1485,
  "▁woe": 1486,
  "▁days": 1487,
  "▁foot": 1488,
  "▁save": 1489,
  "▁seen": 1490,
  "▁told": 1491,
  "BERLAND": 1492,
  "▁NORTHUM": 1493,
  "▁warrant": 1494,
  "▁NORTHUMBERLAND": 1495,
  "ID": 1496,
  "TA": 1497,
  "rem": 1498,
  "▁Lu": 1499,
  "▁Pl": 1500,
  "ides": 1501,
  "idow": 1502,
  "▁sad": 1503,
  "▁does": 1504,
  "▁gener": 1505,
  "▁mercy": 1506,
  "▁report": 1507,
  "▁return": 1508,
  "▁farewell": 1509,
  "up": 1510,
  "dom": 1511,
  "hes": 1512,
  "rel": 1513,
  "earn": 1514,
  "ring": 1515,
  "ters": 1516,
  "unes": 1517,
  "▁sit": 1518,
  "▁ANNE": 1519,
  "▁deep": 1520,
  "▁gold": 1521,
  "▁sure": 1522,
  "▁heavy": 1523,
  "▁marry": 1524,
  "▁Though": 1525,
  "▁purpose": 1526,
  "▁through": 1527,
  "▁without": 1528,
  "▁together": 1529,
  "bl": 1530,
  "ca": 1531,
  "ERD": 1532,
  "aim": 1533,
  "ict": 1534,
  "▁PR": 1535,
  "INCE": 1536,
  "cher": 1537,
  "enty": 1538,
  "▁Had": 1539,
  "▁cho": 1540,
  "▁ill": 1541,
  "▁rec": 1542,
  "ments": 1543,
  "▁Clif": 1544,
  "▁Mont": 1545,
  "▁cold": 1546,
  "▁ears": 1547,
  "▁grow": 1548,
  "▁lost": 1549,
  "ignior": 1550,
  "▁deser": 1551,
  "▁nurse": 1552,
  "▁Juliet": 1553,
  "▁PRINCE": 1554,
  "▁person": 1555,
  "▁strange": 1556,
  "▁Clifford": 1557,
  "az": 1558,
  "mer": 1559,
  "ush": 1560,
  "▁MI": 1561,
  "▁Ri": 1562,
  "ains": 1563,
  "ceed": 1564,
  "ours": 1565,
  "ross": 1566,
  "vent": 1567,
  "▁Bol": 1568,
  "▁Cam": 1569,
  "▁Cor": 1570,
  "▁ask": 1571,
  "▁wat": 1572,
  "▁Tell": 1573,
  "▁disp": 1574,
  "▁suff": 1575,
  "▁liege": 1576,
  "▁pluck": 1577,
  "▁times": 1578,
  "▁Boling": 1579,
  "▁spirit": 1580,
  "▁believe": 1581,
  "▁thyself": 1582,
  "▁Bolingbroke": 1583,
  "ets": 1584,
  "ift": 1585,
  "▁Ha": 1586,
  "▁Wh": 1587,
  "▁jo": 1588,
  "ever": 1589,
  "▁One": 1590,
  "▁age": 1591,
  "▁air": 1592,
  "▁sil": 1593,
  "▁Away": 1594,
  "▁Some": 1595,
  "▁heir": 1596,
  "▁loss": 1597,
  "▁says": 1598,
  "▁Whose": 1599,
  "▁learn": 1600,
  "▁point": 1601,
  "▁Should": 1602,
  "▁Signior": 1603,
  "aid": 1604,
  "ced": 1605,
  "ial": 1606,
  "ner": 1607,
  "▁cry": 1608,
  "▁fly": 1609,
  "▁past": 1610,
  "▁devil": 1611,
  "▁friar": 1612,
  "▁haste": 1613,
  "▁trust": 1614,
  "▁Coriol": 1615,
  "▁desire": 1616,
  "▁ground": 1617,
  "▁instru": 1618,
  "▁entreat": 1619,
  "▁justice": 1620,
  "▁Farewell": 1621,
  "gu": 1622,
  "sh": 1623,
  "aud": 1624,
  "ges": 1625,
  "ina": 1626,
  "ixt": 1627,
  "ined": 1628,
  "outh": 1629,
  "▁Sen": 1630,
  "▁mur": 1631,
  "▁ord": 1632,
  "▁vis": 1633,
  "aking": 1634,
  "night": 1635,
  "▁Like": 1636,
  "▁Pray": 1637,
  "▁betw": 1638,
  "▁bold": 1639,
  "▁fast": 1640,
  "▁near": 1641,
  "▁found": 1642,
  "▁slain": 1643,
  "▁France": 1644,
  "▁toward": 1645,
  "▁service": 1646,
  "▁remember": 1647,
  "▁straight": 1648,
  "IZ": 1649,
  "LE": 1650,
  "UF": 1651,
  "LOR": 1652,
  "▁Gl": 1653,
  "IZEL": 1654,
  "UFID": 1655,
  "oman": 1656,
  "ution": 1657,
  "▁FLOR": 1658,
  "▁hard": 1659,
  "▁wear": 1660,
  "▁AUFID": 1661,
  "▁These": 1662,
  "▁alone": 1663,
  "▁curse": 1664,
  "▁quick": 1665,
  "▁beauty": 1666,
  "▁strong": 1667,
  "▁worthy": 1668,
  "▁married": 1669,
  "▁AUFIDIUS": 1670,
  "▁FLORIZEL": 1671,
  "▁Messenger": 1672,
  "xt": 1673,
  "ION": 1674,
  "TON": 1675,
  "let": 1676,
  "▁hu": 1677,
  "adam": 1678,
  "ithe": 1679,
  "ning": 1680,
  "ured": 1681,
  "▁See": 1682,
  "▁bec": 1683,
  "▁run": 1684,
  "▁woo": 1685,
  "audio": 1686,
  "▁exec": 1687,
  "▁open": 1688,
  "▁poss": 1689,
  "▁enemy": 1690,
  "▁grant": 1691,
  "▁ready": 1692,
  "▁touch": 1693,
  "▁Claudio": 1694,
  "▁brought": 1695,
  "▁general": 1696,
  "▁revenge": 1697,
  "!'": 1698,
  "bs": 1699,
  "gs": 1700,
  "ERS": 1701,
  "aunt": 1702,
  "cept": 1703,
  "ible": 1704,
  "inks": 1705,
  "▁fur": 1706,
  "▁inc": 1707,
  "▁inf": 1708,
  "▁iss": 1709,
  "umber": 1710,
  "▁deli": 1711,
  "▁duty": 1712,
  "▁lose": 1713,
  "▁prof": 1714,
  "▁quar": 1715,
  "▁canst": 1716,
  "▁hours": 1717,
  "▁knows": 1718,
  "▁youth": 1719,
  "▁charge": 1720,
  "▁itself": 1721,
  "▁Senator": 1722,
  "▁confess": 1723,
  "▁thoughts": 1724,
  "▁Gentleman": 1725,
  "AS": 1726,
  "EB": 1727,
  "pl": 1728,
  "ua": 1729,
  "vo": 1730,
  "ouc": 1731,
  "CIUS": 1732,
  "ched": 1733,
  "illo": 1734,
  "ship": 1735,
  "▁Bec": 1736,
  "▁SEB": 1737,
  "▁del": 1738,
  "▁par": 1739,
  "ithee": 1740,
  "riage": 1741,
  "▁desp": 1742,
  "▁dist": 1743,
  "▁feel": 1744,
  "▁morn": 1745,
  "▁read": 1746,
  "ASTIAN": 1747,
  "▁Glouc": 1748,
  "▁Madam": 1749,
  "▁speed": 1750,
  "▁Master": 1751,
  "▁stands": 1752,
  "▁streng": 1753,
  "▁twenty": 1754,
  "▁Against": 1755,
  "▁MARCIUS": 1756,
  "▁Montague": 1757,
  "▁Shepherd": 1758,
  "▁SEBASTIAN": 1759,
  "OW": 1760,
  "op": 1761,
  "eep": 1762,
  "olk": 1763,
  "oop": 1764,
  "ump": 1765,
  "▁Pr": 1766,
  "cess": 1767,
  "▁div": 1768,
  "▁jud": 1769,
  "▁fore": 1770,
  "▁half": 1771,
  "▁hell": 1772,
  "▁mock": 1773,
  "▁post": 1774,
  "ingham": 1775,
  "▁field": 1776,
  "▁resol": 1777,
  "fection": 1778,
  "▁behold": 1779,
  "▁Camillo": 1780,
  "▁counsel": 1781,
  "▁fearful": 1782,
  "no": 1783,
  "DEL": 1784,
  "ads": 1785,
  "alm": 1786,
  "ols": 1787,
  "▁Bo": 1788,
  "▁ye": 1789,
  "osom": 1790,
  "▁cut": 1791,
  "▁dam": 1792,
  "▁min": 1793,
  "▁ter": 1794,
  "DELLO": 1795,
  "ortal": 1796,
  "▁BION": 1797,
  "▁Buck": 1798,
  "▁Till": 1799,
  "▁batt": 1800,
  "▁each": 1801,
  "▁trib": 1802,
  "▁work": 1803,
  "▁wret": 1804,
  "▁bosom": 1805,
  "▁bound": 1806,
  "▁known": 1807,
  "▁short": 1808,
  "▁hearts": 1809,
  "▁honest": 1810,
  "▁Hastings": 1811,
  "▁marriage": 1812,
  "▁BIONDELLO": 1813,
  "▁Buckingham": 1814,
  "▁Gloucester": 1815,
  "of": 1816,
  "sc": 1817,
  "rah": 1818,
  "the": 1819,
  "▁ve": 1820,
  "ench": 1821,
  "folk": 1822,
  "iers": 1823,
  "ones": 1824,
  "pare": 1825,
  "▁Cap": 1826,
  "▁ten": 1827,
  "▁tit": 1828,
  "▁whi": 1829,
  "▁Thus": 1830,
  "▁Vols": 1831,
  "▁dish": 1832,
  "▁draw": 1833,
  "▁harm": 1834,
  "▁seek": 1835,
  "▁suit": 1836,
  "▁tale": 1837,
  "▁guilt": 1838,
  "▁serve": 1839,
  "▁widow": 1840,
  "▁women": 1841,
  "▁attend": 1842,
  "▁murder": 1843,
  "▁strike": 1844,
  "▁voices": 1845,
  "▁wonder": 1846,
  "▁Norfolk": 1847,
  "▁company": 1848,
  "▁highness": 1849,
  "▁something": 1850,
  "OP": 1851,
  "Tw": 1852,
  "▁CA": 1853,
  "▁ag": 1854,
  "ERLE": 1855,
  "hood": 1856,
  "most": 1857,
  "▁AUM": 1858,
  "▁bur": 1859,
  "▁cor": 1860,
  "▁sat": 1861,
  "TONIO": 1862,
  "ander": 1863,
  "ished": 1864,
  "▁knew": 1865,
  "▁pret": 1866,
  "▁side": 1867,
  "▁sing": 1868,
  "▁didst": 1869,
  "▁watch": 1870,
  "▁change": 1871,
  "▁loving": 1872,
  "▁ANTONIO": 1873,
  "▁AUMERLE": 1874,
  "▁heavens": 1875,
  "▁Lucentio": 1876,
  "▁strength": 1877,
  "▁gentlemen": 1878,
  "ZA": 1879,
  "ONZA": 1880,
  "ents": 1881,
  "▁Pet": 1882,
  "▁Wel": 1883,
  "▁act": 1884,
  "▁aff": 1885,
  "▁bit": 1886,
  "▁Bian": 1887,
  "▁Lanc": 1888,
  "▁Tran": 1889,
  "▁sake": 1890,
  "▁stir": 1891,
  "▁wast": 1892,
  "ONZALO": 1893,
  "▁Marry": 1894,
  "▁brave": 1895,
  "▁cloud": 1896,
  "▁enter": 1897,
  "ethinks": 1898,
  "▁GONZALO": 1899,
  "▁enemies": 1900,
  "▁pleasure": 1901,
  "▁Lancaster": 1902,
  "bly": 1903,
  "fid": 1904,
  "ils": 1905,
  "rew": 1906,
  "▁Sw": 1907,
  "▁dr": 1908,
  "▁ty": 1909,
  "▁wa": 1910,
  "ives": 1911,
  "oose": 1912,
  "▁HER": 1913,
  "▁Pom": 1914,
  "▁Unt": 1915,
  "▁ext": 1916,
  "▁gar": 1917,
  "▁pie": 1918,
  "▁pra": 1919,
  "▁Lady": 1920,
  "▁Most": 1921,
  "▁begg": 1922,
  "▁chee": 1923,
  "▁next": 1924,
  "▁pale": 1925,
  "▁sign": 1926,
  "ceived": 1927,
  "▁breat": 1928,
  "▁close": 1929,
  "▁gates": 1930,
  "▁music": 1931,
  "▁souls": 1932,
  "▁title": 1933,
  "▁Bianca": 1934,
  "▁coming": 1935,
  "▁course": 1936,
  "▁suffer": 1937,
  "▁thanks": 1938,
  "▁withal": 1939,
  "▁deliver": 1940,
  "be": 1941,
  "AUD": 1942,
  "ats": 1943,
  "els": 1944,
  "▁Au": 1945,
  "▁Ch": 1946,
  "▁sk": 1947,
  "etch": 1948,
  "vour": 1949,
  "▁abs": 1950,
  "▁fit": 1951,
  "AUDIO": 1952,
  "MIONE": 1953,
  "claim": 1954,
  "oward": 1955,
  "▁Rich": 1956,
  "▁forg": 1957,
  "▁grie": 1958,
  "▁jest": 1959,
  "▁lips": 1960,
  "▁rich": 1961,
  "▁sick": 1962,
  "▁weak": 1963,
  "▁CLIFF": 1964,
  "▁Petru": 1965,
  "▁order": 1966,
  "▁plain": 1967,
  "▁become": 1968,
  "▁either": 1969,
  "▁CLAUDIO": 1970,
  "▁CLIFFORD": 1971,
  "▁HERMIONE": 1972,
  "▁patience": 1973,
  "▁themselves": 1974,
  "DA": 1975,
  "isf": 1976,
  "kes": 1977,
  "lly": 1978,
  "oof": 1979,
  "ses": 1980,
  "urp": 1981,
  "▁EL": 1982,
  "▁JO": 1983,
  "▁ac": 1984,
  "arry": 1985,
  "chio": 1986,
  "east": 1987,
  "irth": 1988,
  "race": 1989,
  "rest": 1990,
  "ries": 1991,
  "twas": 1992,
  "▁Bes": 1993,
  "▁reg": 1994,
  "▁ven": 1995,
  "▁wis": 1996,
  "RANDA": 1997,
  "ready": 1998,
  "twere": 1999,
  "▁Call": 2000,
  "▁LORD": 2001,
  "▁Make": 2002,
  "▁cast": 2003,
  "▁forb": 2004,
  "▁prop": 2005,
  "▁same": 2006,
  "▁took": 2007,
  "▁wall": 2008,
  "fidius": 2009,
  "▁Being": 2010,
  "▁Since": 2011,
  "▁along": 2012,
  "▁cheer": 2013,
  "▁merry": 2014,
  "▁sworn": 2015,
  "▁worse": 2016,
  "▁Tranio": 2017,
  "▁breast": 2018,
  "▁consul": 2019,
  "▁forget": 2020,
  "▁poison": 2021,
  "▁virtue": 2022,
  "▁MIRANDA": 2023,
  "▁further": 2024,
  "▁Aufidius": 2025,
  "▁Petruchio": 2026,
  "HN": 2027,
  "cy": 2028,
  "SON": 2029,
  "lst": 2030,
  "▁Re": 2031,
  "▁cr": 2032,
  "▁du": 2033,
  "▁ta": 2034,
  "ally": 2035,
  "ions": 2036,
  "rows": 2037,
  "rust": 2038,
  "vern": 2039,
  "▁bad": 2040,
  "▁emb": 2041,
  "▁enc": 2042,
  "▁red": 2043,
  "▁wed": 2044,
  "▁Alas": 2045,
  "▁JOHN": 2046,
  "▁book": 2047,
  "▁dire": 2048,
  "▁four": 2049,
  "▁gave": 2050,
  "▁move": 2051,
  "▁self": 2052,
  "▁soft": 2053,
  "▁wise": 2054,
  "▁begin": 2055,
  "▁given": 2056,
  "▁issue": 2057,
  "▁liber": 2058,
  "▁loves": 2059,
  "▁mouth": 2060,
  "▁battle": 2061,
  "▁office": 2062,
  "▁already": 2063,
  "▁consent": 2064,
  "▁morning": 2065,
  "▁request": 2066,
  "▁Hereford": 2067,
  "▁dangerous": 2068,
  "nk": 2069,
  "pes": 2070,
  "▁Ar": 2071,
  "anus": 2072,
  "dden": 2073,
  "each": 2074,
  "fter": 2075,
  "icer": 2076,
  "mber": 2077,
  "mond": 2078,
  "orge": 2079,
  "uous": 2080,
  "used": 2081,
  "▁Yes": 2082,
  "▁exp": 2083,
  "▁foe": 2084,
  "▁gro": 2085,
  "▁lad": 2086,
  "▁pay": 2087,
  "▁burn": 2088,
  "▁goes": 2089,
  "▁sons": 2090,
  "▁succ": 2091,
  "▁trou": 2092,
  "▁Speak": 2093,
  "▁Tower": 2094,
  "▁black": 2095,
  "▁feast": 2096,
  "▁frown": 2097,
  "▁Before": 2098,
  "▁satisf": 2099,
  "▁wounds": 2100,
  "▁between": 2101,
  "▁neither": 2102,
  "▁quarrel": 2103,
  "▁Richmond": 2104,
  "▁soldiers": 2105,
  "NT": 2106,
  "awd": 2107,
  "hem": 2108,
  "irm": 2109,
  "ots": 2110,
  "▁Ab": 2111,
  "aret": 2112,
  "aris": 2113,
  "chan": 2114,
  "empt": 2115,
  "ging": 2116,
  "ires": 2117,
  "rist": 2118,
  "ting": 2119,
  "ures": 2120,
  "▁bar": 2121,
  "▁dro": 2122,
  "▁est": 2123,
  "▁hot": 2124,
  "▁mal": 2125,
  "▁und": 2126,
  "TESBY": 2127,
  "garet": 2128,
  "owers": 2129,
  "▁Must": 2130,
  "▁Such": 2131,
  "▁case": 2132,
  "▁dark": 2133,
  "▁priv": 2134,
  "▁sigh": 2135,
  "▁thri": 2136,
  "▁vict": 2137,
  "▁bless": 2138,
  "▁bride": 2139,
  "▁brief": 2140,
  "▁often": 2141,
  "▁water": 2142,
  "▁Unless": 2143,
  "▁having": 2144,
  "▁speech": 2145,
  "▁thence": 2146,
  "▁Because": 2147,
  "▁CATESBY": 2148,
  "▁Welcome": 2149,
  "▁servant": 2150,
  "▁presence": 2151,
  "po": 2152,
  "ILI": 2153,
  "emn": 2154,
  "ona": 2155,
  "▁ev": 2156,
  "alth": 2157,
  "ends": 2158,
  "▁ble": 2159,
  "▁bow": 2160,
  "▁got": 2161,
  "▁pen": 2162,
  "▁sum": 2163,
  "cient": 2164,
  "ondon": 2165,
  "▁Bapt": 2166,
  "▁Both": 2167,
  "▁GREY": 2168,
  "▁Keep": 2169,
  "▁Whom": 2170,
  "▁deny": 2171,
  "▁town": 2172,
  "▁wars": 2173,
  "▁Saint": 2174,
  "▁Their": 2175,
  "▁compl": 2176,
  "▁dread": 2177,
  "▁inter": 2178,
  "▁kings": 2179,
  "▁loved": 2180,
  "▁seems": 2181,
  "▁spoke": 2182,
  "▁visit": 2183,
  "▁voice": 2184,
  "▁London": 2185,
  "▁mighty": 2186,
  "▁mortal": 2187,
  "▁throne": 2188,
  "▁Baptist": 2189,
  "▁flatter": 2190,
  "▁respect": 2191,
  "▁Margaret": 2192,
  "▁Coriolanus": 2193,
  "CA": 2194,
  "IV": 2195,
  "ip": 2196,
  "so": 2197,
  "bed": 2198,
  "ern": 2199,
  "oun": 2200,
  "▁De": 2201,
  "▁Ge": 2202,
  "ILIA": 2203,
  "iant": 2204,
  "ided": 2205,
  "ired": 2206,
  "ourn": 2207,
  "ught": 2208,
  "▁Ere": 2209,
  "▁RIV": 2210,
  "▁bab": 2211,
  "▁bro": 2212,
  "▁buy": 2213,
  "▁cap": 2214,
  "▁col": 2215,
  "▁fra": 2216,
  "▁hur": 2217,
  "▁vow": 2218,
  "IANCA": 2219,
  "▁Isab": 2220,
  "▁Lest": 2221,
  "▁prot": 2222,
  "▁safe": 2223,
  "ainted": 2224,
  "▁Paris": 2225,
  "▁deeds": 2226,
  "▁knock": 2227,
  "▁BIANCA": 2228,
  "▁George": 2229,
  "▁RIVERS": 2230,
  "▁action": 2231,
  "▁appear": 2232,
  "▁bitter": 2233,
  "▁dishon": 2234,
  "▁sudden": 2235,
  "▁ancient": 2236,
  "▁chamber": 2237,
  "▁prayers": 2238,
  "▁promise": 2239,
  "▁worship": 2240,
  "▁Baptista": 2241,
  "▁princely": 2242,
  "ls": 2243,
  "BOW": 2244,
  "cks": 2245,
  "esh": 2246,
  "now": 2247,
  "ura": 2248,
  "▁pu": 2249,
  "AUNT": 2250,
  "ated": 2251,
  "lish": 2252,
  "nown": 2253,
  "oney": 2254,
  "resh": 2255,
  "urch": 2256,
  "▁ang": 2257,
  "▁ign": 2258,
  "▁lim": 2259,
  "▁opp": 2260,
  "▁reb": 2261,
  "▁sac": 2262,
  "essed": 2263,
  "otion": 2264,
  "right": 2265,
  "stand": 2266,
  "▁bawd": 2267,
  "▁lead": 2268,
  "▁rage": 2269,
  "▁viol": 2270,
  "antage": 2271,
  "▁ELBOW": 2272,
  "▁GAUNT": 2273,
  "▁Roman": 2274,
  "▁Stand": 2275,
  "▁appro": 2276,
  "▁creat": 2277,
  "▁cross": 2278,
  "▁fetch": 2279,
  "▁flesh": 2280,
  "▁heads": 2281,
  "▁scorn": 2282,
  "▁coward": 2283,
  "▁lament": 2284,
  "▁triump": 2285,
  "▁kingdom": 2286,
  "▁patient": 2287,
  "▁prepare": 2288,
  "▁success": 2289,
  "▁valiant": 2290,
  "▁witness": 2291,
  "▁presently": 2292,
  "UR": 2293,
  "to": 2294,
  "▁3": 2295,
  "GUE": 2296,
  "iff": 2297,
  "ler": 2298,
  "urs": 2299,
  "▁Bl": 2300,
  "▁Jo": 2301,
  "▁Ox": 2302,
  "▁TY": 2303,
  "▁ow": 2304,
  "ONTA": 2305,
  "aken": 2306,
  "mand": 2307,
  "sper": 2308,
  "▁cle": 2309,
  "▁eat": 2310,
  "▁ins": 2311,
  "▁lab": 2312,
  "▁unw": 2313,
  "antag": 2314,
  "ensio": 2315,
  "ities": 2316,
  "itted": 2317,
  "▁Hort": 2318,
  "▁Merc": 2319,
  "▁gall": 2320,
  "▁kins": 2321,
  "▁lack": 2322,
  "▁moon": 2323,
  "▁prin": 2324,
  "▁scar": 2325,
  "▁wash": 2326,
  "▁MONTA": 2327,
  "▁Think": 2328,
  "▁drink": 2329,
  "▁least": 2330,
  "▁offer": 2331,
  "▁slave": 2332,
  "▁throw": 2333,
  "▁Christ": 2334,
  "▁Oxford": 2335,
  "▁defend": 2336,
  "▁faults": 2337,
  "▁secret": 2338,
  "▁forward": 2339,
  "▁prithee": 2340,
  "▁MONTAGUE": 2341,
  "▁tribunes": 2342,
  "▁Hortensio": 2343,
  "ac": 2344,
  "als": 2345,
  "bit": 2346,
  "ees": 2347,
  "ley": 2348,
  "pey": 2349,
  "ued": 2350,
  "▁id": 2351,
  "aked": 2352,
  "feit": 2353,
  "host": 2354,
  "ines": 2355,
  "king": 2356,
  "ully": 2357,
  "vest": 2358,
  "ying": 2359,
  "▁Con": 2360,
  "▁Gre": 2361,
  "▁Kat": 2362,
  "▁Whi": 2363,
  "▁ben": 2364,
  "▁fie": 2365,
  "▁mid": 2366,
  "▁nay": 2367,
  "▁occ": 2368,
  "▁sur": 2369,
  "▁Doth": 2370,
  "▁Hark": 2371,
  "▁damn": 2372,
  "▁dest": 2373,
  "▁hide": 2374,
  "▁writ": 2375,
  "asters": 2376,
  "harina": 2377,
  "▁Bohem": 2378,
  "▁North": 2379,
  "▁beast": 2380,
  "▁small": 2381,
  "▁Pompey": 2382,
  "▁almost": 2383,
  "▁chance": 2384,
  "▁depart": 2385,
  "▁pretty": 2386,
  "▁possess": 2387,
  "▁thither": 2388,
  "umberland": 2389,
  "▁subjects": 2390,
  "▁Katharina": 2391,
  "▁execution": 2392,
  "▁slaughter": 2393,
  "▁Northumberland": 2394,
  "AT": 2395,
  "RG": 2396,
  "ITA": 2397,
  "arl": 2398,
  "aul": 2399,
  "rum": 2400,
  "umb": 2401,
  "▁Ad": 2402,
  "▁Am": 2403,
  "▁Br": 2404,
  "▁Ca": 2405,
  "▁Ex": 2406,
  "▁ut": 2407,
  "hind": 2408,
  "oint": 2409,
  "then": 2410,
  "ural": 2411,
  "▁eas": 2412,
  "inger": 2413,
  "ingly": 2414,
  "ledge": 2415,
  "▁Hold": 2416,
  "▁PERD": 2417,
  "▁Paul": 2418,
  "▁VIRG": 2419,
  "▁base": 2420,
  "▁fill": 2421,
  "▁fond": 2422,
  "▁form": 2423,
  "▁glad": 2424,
  "▁inno": 2425,
  "▁pain": 2426,
  "▁stru": 2427,
  "▁tear": 2428,
  "▁wert": 2429,
  "cience": 2430,
  "perate": 2431,
  "▁Peace": 2432,
  "▁Sweet": 2433,
  "▁birth": 2434,
  "▁hadst": 2435,
  "▁trump": 2436,
  "▁usurp": 2437,
  "▁awhile": 2438,
  "▁favour": 2439,
  "▁goodly": 2440,
  "▁living": 2441,
  "▁whence": 2442,
  "▁Bohemia": 2443,
  "▁PERDITA": 2444,
  "▁certain": 2445,
  "▁hearing": 2446,
  "▁offence": 2447,
  "▁perform": 2448,
  "▁proceed": 2449,
  "▁quickly": 2450,
  "▁VIRGILIA": 2451,
  "▁virtuous": 2452,
  "LY": 2453,
  "ze": 2454,
  "dge": 2455,
  "eds": 2456,
  "eem": 2457,
  "raw": 2458,
  "ror": 2459,
  "▁ay": 2460,
  "▁ca": 2461,
  "▁ur": 2462,
  "IANA": 2463,
  "ding": 2464,
  "iest": 2465,
  "omes": 2466,
  "orth": 2467,
  "over": 2468,
  "▁Off": 2469,
  "▁SLY": 2470,
  "▁Yea": 2471,
  "▁adm": 2472,
  "▁inj": 2473,
  "▁pit": 2474,
  "▁shi": 2475,
  "▁tor": 2476,
  "edant": 2477,
  "force": 2478,
  "isure": 2479,
  "ustom": 2480,
  "▁Stay": 2481,
  "▁fier": 2482,
  "▁knee": 2483,
  "▁mild": 2484,
  "▁shad": 2485,
  "▁slew": 2486,
  "▁walk": 2487,
  "▁wild": 2488,
  "astard": 2489,
  "▁angry": 2490,
  "▁blows": 2491,
  "▁forsw": 2492,
  "▁kneel": 2493,
  "▁match": 2494,
  "▁pleas": 2495,
  "▁quiet": 2496,
  "▁worst": 2497,
  "▁Isabel": 2498,
  "▁church": 2499,
  "▁guilty": 2500,
  "▁lawful": 2501,
  "▁MARIANA": 2502,
  "▁greater": 2503,
  "▁leisure": 2504,
  "▁soldier": 2505,
  "▁treason": 2506,
  "▁weeping": 2507,
  "▁deserved": 2508,
  "▁affection": 2509,
  "gg": 2510,
  "arn": 2511,
  "awn": 2512,
  "gue": 2513,
  "joy": 2514,
  "ked": 2515,
  "med": 2516,
  "ony": 2517,
  "ual": 2518,
  "vol": 2519,
  "zen": 2520,
  "▁ST": 2521,
  "▁Tw": 2522,
  "▁ap": 2523,
  "▁em": 2524,
  "ARIS": 2525,
  "adua": 2526,
  "ames": 2527,
  "ighb": 2528,
  "read": 2529,
  "rupt": 2530,
  "▁Bel": 2531,
  "▁Men": 2532,
  "▁Out": 2533,
  "▁fam": 2534,
  "▁hap": 2535,
  "▁med": 2536,
  "▁mod": 2537,
  "▁nob": 2538,
  "▁sho": 2539,
  "▁unc": 2540,
  "▁unk": 2541,
  "▁won": 2542,
  "ended": 2543,
  "eness": 2544,
  "fully": 2545,
  "remio": 2546,
  "rumio": 2547,
  "▁Mist": 2548,
  "▁blow": 2549,
  "▁doom": 2550,
  "▁fled": 2551,
  "▁list": 2552,
  "▁neck": 2553,
  "▁sole": 2554,
  "▁year": 2555,
  "▁PARIS": 2556,
  "▁Padua": 2557,
  "▁Watch": 2558,
  "▁While": 2559,
  "▁ignor": 2560,
  "▁march": 2561,
  "▁needs": 2562,
  "▁reign": 2563,
  "▁sense": 2564,
  "▁shows": 2565,
  "antagen": 2566,
  "itizens": 2567,
  "osition": 2568,
  "▁Gremio": 2569,
  "▁Grumio": 2570,
  "▁behind": 2571,
  "▁clouds": 2572,
  "▁contin": 2573,
  "▁encoun": 2574,
  "▁forbid": 2575,
  "▁govern": 2576,
  "▁ladies": 2577,
  "▁letter": 2578,
  "▁second": 2579,
  "▁speaks": 2580,
  "▁English": 2581,
  "▁because": 2582,
  "▁breathe": 2583,
  "▁condemn": 2584,
  "▁letters": 2585,
  "▁liberty": 2586,
  "▁measure": 2587,
  "▁trouble": 2588,
  "▁wouldst": 2589,
  "▁prisoner": 2590,
  "▁sentence": 2591,
  "▁shepherd": 2592,
  "▁Plantagen": 2593,
  "▁dishonour": 2594,
  "▁ourselves": 2595,
  "▁banishment": 2596,
  ":'": 2597,
  "▁X": 2598,
  "dle": 2599,
  "ize": 2600,
  "oor": 2601,
  "oss": 2602,
  "rue": 2603,
  "vel": 2604,
  "acle": 2605,
  "aves": 2606,
  "ider": 2607,
  "iles": 2608,
  "rous": 2609,
  "ster": 2610,
  "▁Ant": 2611,
  "▁Hea": 2612,
  "▁Int": 2613,
  "▁Too": 2614,
  "▁big": 2615,
  "▁cru": 2616,
  "▁dog": 2617,
  "▁dry": 2618,
  "▁lan": 2619,
  "▁mut": 2620,
  "▁oft": 2621,
  "▁pet": 2622,
  "▁ref": 2623,
  "aring": 2624,
  "ators": 2625,
  "ndred": 2626,
  "▁Fear": 2627,
  "▁five": 2628,
  "▁held": 2629,
  "▁join": 2630,
  "▁laid": 2631,
  "▁note": 2632,
  "▁obey": 2633,
  "▁seat": 2634,
  "▁sort": 2635,
  "▁stor": 2636,
  "▁temp": 2637,
  "▁vain": 2638,
  "▁womb": 2639,
  "▁Gaunt": 2640,
  "▁PETER": 2641,
  "▁above": 2642,
  "▁aside": 2643,
  "▁bones": 2644,
  "▁drunk": 2645,
  "▁fresh": 2646,
  "▁grand": 2647,
  "▁lived": 2648,
  "▁noise": 2649,
  "▁piece": 2650,
  "▁rough": 2651,
  "▁steal": 2652,
  "▁Sirrah": 2653,
  "▁appare": 2654,
  "▁choose": 2655,
  "▁golden": 2656,
  "▁longer": 2657,
  "▁morrow": 2658,
  "▁remain": 2659,
  "▁hundred": 2660,
  "▁prosper": 2661,
  "▁victory": 2662,
  "▁dispatch": 2663,
  "▁proclaim": 2664,
  "▁conscience": 2665,
  "▁Plantagenet": 2666,
  "bb": 2667,
  "hn": 2668,
  "ny": 2669,
  "ts": 2670,
  "!--": 2671,
  "ART": 2672,
  "WIS": 2673,
  "ban": 2674,
  "ety": 2675,
  "ieu": 2676,
  "ott": 2677,
  "rim": 2678,
  "set": 2679,
  "ume": 2680,
  "vey": 2681,
  "▁En": 2682,
  "▁Fa": 2683,
  "▁Me": 2684,
  "▁Sc": 2685,
  "▁XI": 2686,
  "▁ef": 2687,
  "RIEL": 2688,
  "ceit": 2689,
  "erle": 2690,
  "iled": 2691,
  "ular": 2692,
  "ulet": 2693,
  "▁DOR": 2694,
  "▁Per": 2695,
  "▁exc": 2696,
  "▁ind": 2697,
  "▁lau": 2698,
  "▁len": 2699,
  "▁low": 2700,
  "▁saf": 2701,
  "▁sch": 2702,
  "▁sto": 2703,
  "▁sus": 2704,
  "asion": 2705,
  "inius": 2706,
  "lease": 2707,
  "ounds": 2708,
  "posed": 2709,
  "uthor": 2710,
  "▁Earl": 2711,
  "▁Hear": 2712,
  "▁LART": 2713,
  "▁Unto": 2714,
  "▁bend": 2715,
  "▁fine": 2716,
  "▁lust": 2717,
  "▁obed": 2718,
  "▁purs": 2719,
  "▁shed": 2720,
  "▁tent": 2721,
  "▁warm": 2722,
  "▁woes": 2723,
  "atesby": 2724,
  "icious": 2725,
  "▁ARIEL": 2726,
  "▁Could": 2727,
  "▁LEWIS": 2728,
  "▁bears": 2729,
  "▁broke": 2730,
  "▁conqu": 2731,
  "▁doing": 2732,
  "▁drown": 2733,
  "▁glory": 2734,
  "▁knees": 2735,
  "▁lands": 2736,
  "▁pride": 2737,
  "▁saint": 2738,
  "▁stain": 2739,
  "▁steel": 2740,
  "▁stood": 2741,
  "▁swift": 2742,
  "▁venge": 2743,
  "▁double": 2744,
  "▁effect": 2745,
  "▁forgot": 2746,
  "▁labour": 2747,
  "▁revere": 2748,
  "▁threat": 2749,
  "▁wisdom": 2750,
  "▁Capulet": 2751,
  "▁Catesby": 2752,
  "▁LARTIUS": 2753,
  "▁blessed": 2754,
  "▁counter": 2755,
  "▁despair": 2756,
  "▁kinsman": 2757,
  "▁slander": 2758,
  "▁towards": 2759,
  "▁Watchman": 2760,
  "▁citizens": 2761,
  "▁precious": 2762,
  "▁desperate": 2763,
  "▁encounter": 2764,
  "▁entertain": 2765,
  "▁knowledge": 2766,
  "▁yourselves": 2767,
  ";'": 2768,
  "AMP": 2769,
  "TIS": 2770,
  "ang": 2771,
  "irl": 2772,
  "owb": 2773,
  "ude": 2774,
  "uff": 2775,
  "▁fe": 2776,
  "cted": 2777,
  "ease": 2778,
  "iful": 2779,
  "rent": 2780,
  "vail": 2781,
  "▁Aum": 2782,
  "▁CUR": 2783,
  "▁Dis": 2784,
  "▁Fri": 2785,
  "▁Ver": 2786,
  "▁eld": 2787,
  "▁fat": 2788,
  "▁few": 2789,
  "▁fru": 2790,
  "▁pun": 2791,
  "▁ran": 2792,
  "▁uns": 2793,
  "eterm": 2794,
  "gment": 2795,
  "iance": 2796,
  "ility": 2797,
  "itors": 2798,
  "rence": 2799,
  "▁Cons": 2800,
  "▁John": 2801,
  "▁Mowb": 2802,
  "▁SAMP": 2803,
  "▁abro": 2804,
  "▁army": 2805,
  "▁capt": 2806,
  "▁corn": 2807,
  "▁died": 2808,
  "▁foll": 2809,
  "▁hair": 2810,
  "▁kept": 2811,
  "▁seal": 2812,
  "▁sour": 2813,
  "▁stud": 2814,
  "ations": 2815,
  "estion": 2816,
  "ointed": 2817,
  "ontent": 2818,
  "▁alive": 2819,
  "▁const": 2820,
  "▁contr": 2821,
  "▁dance": 2822,
  "▁enjoy": 2823,
  "▁guess": 2824,
  "▁guest": 2825,
  "▁money": 2826,
  "▁mount": 2827,
  "▁plant": 2828,
  "▁quoth": 2829,
  "▁remed": 2830,
  "▁sever": 2831,
  "▁white": 2832,
  "▁CURTIS": 2833,
  "▁Keeper": 2834,
  "▁Pedant": 2835,
  "▁Within": 2836,
  "▁author": 2837,
  "▁beggar": 2838,
  "▁cheeks": 2839,
  "▁deadly": 2840,
  "▁determ": 2841,
  "▁fought": 2842,
  "▁health": 2843,
  "▁manner": 2844,
  "▁struck": 2845,
  "▁Aumerle": 2846,
  "▁Mowbray": 2847,
  "▁SAMPSON": 2848,
  "▁bastard": 2849,
  "▁flowers": 2850,
  "▁honours": 2851,
  "▁masters": 2852,
  "▁lordship": 2853,
  "▁methinks": 2854,
  "▁promised": 2855,
  "▁wretched": 2856,
  "▁understand": 2857,
  "BU": 2858,
  "ne": 2859,
  ":--": 2860,
  "GON": 2861,
  "LEY": 2862,
  "ash": 2863,
  "den": 2864,
  "ief": 2865,
  "mit": 2866,
  "ppy": 2867,
  "tle": 2868,
  "▁EX": 2869,
  "▁Fl": 2870,
  "▁Ne": 2871,
  "BURY": 2872,
  "bury": 2873,
  "ewis": 2874,
  "head": 2875,
  "ited": 2876,
  "osed": 2877,
  "reed": 2878,
  "utio": 2879,
  "ways": 2880,
  "▁Put": 2881,
  "▁aid": 2882,
  "▁deg": 2883,
  "▁pal": 2884,
  "▁rot": 2885,
  "▁sim": 2886,
  "▁try": 2887,
  "GONUS": 2888,
  "ament": 2889,
  "ounce": 2890,
  "▁ANTI": 2891,
  "▁Mine": 2892,
  "▁Poor": 2893,
  "▁cred": 2894,
  "▁gent": 2895,
  "▁prov": 2896,
  "orious": 2897,
  "▁Lewis": 2898,
  "▁among": 2899,
  "▁calls": 2900,
  "▁cried": 2901,
  "▁cruel": 2902,
  "▁early": 2903,
  "▁going": 2904,
  "▁greet": 2905,
  "▁guard": 2906,
  "▁judge": 2907,
  "▁liest": 2908,
  "▁moved": 2909,
  "▁seven": 2910,
  "▁shake": 2911,
  "▁spent": 2912,
  "▁stars": 2913,
  "▁teach": 2914,
  "▁truly": 2915,
  "▁Either": 2916,
  "▁Heaven": 2917,
  "▁Pardon": 2918,
  "▁demand": 2919,
  "▁dreams": 2920,
  "▁extrem": 2921,
  "▁humble": 2922,
  "▁neighb": 2923,
  "▁priest": 2924,
  "▁scarce": 2925,
  "▁summer": 2926,
  "▁valour": 2927,
  "▁wretch": 2928,
  "▁account": 2929,
  "▁charity": 2930,
  "▁foolish": 2931,
  "▁herself": 2932,
  "▁kindred": 2933,
  "▁officer": 2934,
  "▁triumph": 2935,
  "▁whether": 2936,
  "▁Citizens": 2937,
  "▁Mercutio": 2938,
  "▁brothers": 2939,
  "▁ANTIGONUS": 2940,
  "▁honourable": 2941,
  "BR": 2942,
  "lp": 2943,
  "ATC": 2944,
  "BRA": 2945,
  "ask": 2946,
  "iew": 2947,
  "ify": 2948,
  "pir": 2949,
  "roy": 2950,
  "▁ba": 2951,
  "▁ga": 2952,
  "Twas": 2953,
  "ians": 2954,
  "ites": 2955,
  "leep": 2956,
  "mble": 2957,
  "▁Bet": 2958,
  "▁Bid": 2959,
  "▁add": 2960,
  "▁cir": 2961,
  "▁din": 2962,
  "▁rid": 2963,
  "▁unf": 2964,
  "▁yea": 2965,
  "arted": 2966,
  "ating": 2967,
  "house": 2968,
  "ining": 2969,
  "orthy": 2970,
  "under": 2971,
  "▁Made": 2972,
  "▁Mars": 2973,
  "▁Once": 2974,
  "▁RATC": 2975,
  "▁anon": 2976,
  "▁beha": 2977,
  "▁bids": 2978,
  "▁dism": 2979,
  "▁ease": 2980,
  "▁envy": 2981,
  "▁fart": 2982,
  "▁hung": 2983,
  "▁idle": 2984,
  "▁imag": 2985,
  "▁ours": 2986,
  "▁pack": 2987,
  "▁rise": 2988,
  "▁thro": 2989,
  "▁view": 2990,
  "▁wail": 2991,
  "though": 2992,
  "▁Alack": 2993,
  "▁Faith": 2994,
  "▁Harry": 2995,
  "▁Music": 2996,
  "▁Never": 2997,
  "▁benef": 2998,
  "▁blame": 2999,
  "▁chast": 3000,
  "▁crave": 3001,
  "▁dwell": 3002,
  "▁faint": 3003,
  "▁faire": 3004,
  "▁force": 3005,
  "▁glass": 3006,
  "▁laugh": 3007,
  "▁miser": 3008,
  "▁month": 3009,
  "▁party": 3010,
  "▁stone": 3011,
  "▁subst": 3012,
  "▁trial": 3013,
  "▁walls": 3014,
  "▁weary": 3015,
  "▁abroad": 3016,
  "▁bright": 3017,
  "▁custom": 3018,
  "▁malice": 3019,
  "▁others": 3020,
  "▁thinks": 3021,
  "▁winter": 3022,
  "▁Volsces": 3023,
  "▁butcher": 3024,
  "▁fellows": 3025,
  "▁private": 3026,
  "▁provost": 3027,
  "▁thereof": 3028,
  "▁Cominius": 3029,
  "▁RATCLIFF": 3030,
  "▁kindness": 3031,
  "▁minister": 3032,
  "▁condition": 3033,
  "▁satisfied": 3034,
  "▁vengeance": 3035,
  "▁wherefore": 3036,
  "ALT": 3037,
  "HOP": 3038,
  "amp": 3039,
  "ope": 3040,
  "BALT": 3041,
  "cell": 3042,
  "enes": 3043,
  "lock": 3044,
  "ners": 3045,
  "omas": 3046,
  "rees": 3047,
  "scal": 3048,
  "vell": 3049,
  "with": 3050,
  "▁Des": 3051,
  "▁Fie": 3052,
  "▁Rut": 3053,
  "▁Vin": 3054,
  "▁bef": 3055,
  "▁env": 3056,
  "▁god": 3057,
  "▁hol": 3058,
  "▁rel": 3059,
  "▁smo": 3060,
  "▁unb": 3061,
  "▁unl": 3062,
  "▁unp": 3063,
  "▁ver": 3064,
  "▁wag": 3065,
  "▁wre": 3066,
  "ANLEY": 3067,
  "ISHOP": 3068,
  "ailor": 3069,
  "allow": 3070,
  "antua": 3071,
  "eless": 3072,
  "icked": 3073,
  "ident": 3074,
  "orous": 3075,
  "rench": 3076,
  "▁Barn": 3077,
  "▁Show": 3078,
  "▁True": 3079,
  "▁acqu": 3080,
  "▁arri": 3081,
  "▁bite": 3082,
  "▁boot": 3083,
  "▁deal": 3084,
  "▁dull": 3085,
  "▁easy": 3086,
  "▁evil": 3087,
  "▁firm": 3088,
  "▁foes": 3089,
  "▁gown": 3090,
  "▁incl": 3091,
  "▁lest": 3092,
  "▁meat": 3093,
  "▁root": 3094,
  "▁vice": 3095,
  "▁vile": 3096,
  "▁After": 3097,
  "▁Hence": 3098,
  "▁Lords": 3099,
  "▁Peter": 3100,
  "▁Under": 3101,
  "▁blind": 3102,
  "▁concl": 3103,
  "▁corse": 3104,
  "▁cover": 3105,
  "▁fruit": 3106,
  "▁mayst": 3107,
  "▁quite": 3108,
  "▁shore": 3109,
  "▁shrew": 3110,
  "▁sport": 3111,
  "▁wench": 3112,
  "▁Mantua": 3113,
  "▁Please": 3114,
  "▁TYBALT": 3115,
  "▁Thomas": 3116,
  "▁Whilst": 3117,
  "▁afford": 3118,
  "▁convey": 3119,
  "▁deputy": 3120,
  "▁excuse": 3121,
  "▁flower": 3122,
  "▁former": 3123,
  "▁humour": 3124,
  "▁prophe": 3125,
  "▁school": 3126,
  "▁swords": 3127,
  "▁tyrant": 3128,
  "▁Corioli": 3129,
  "▁Paulina": 3130,
  "▁Rutland": 3131,
  "▁STANLEY": 3132,
  "▁changed": 3133,
  "▁counten": 3134,
  "▁honesty": 3135,
  "▁tongues": 3136,
  "▁Methinks": 3137,
  "▁judgment": 3138,
  "▁question": 3139,
  "▁received": 3140,
  "▁Vincentio": 3141,
  "'?": 3142,
  "AK": 3143,
  "ek": 3144,
  "AND": 3145,
  "HOM": 3146,
  "ead": 3147,
  "llo": 3148,
  "she": 3149,
  "und": 3150,
  "▁Lo": 3151,
  "AKEN": 3152,
  "aper": 3153,
  "azed": 3154,
  "ered": 3155,
  "ilia": 3156,
  "omer": 3157,
  "ract": 3158,
  "rate": 3159,
  "rift": 3160,
  "roth": 3161,
  "vish": 3162,
  "▁Art": 3163,
  "▁Ind": 3164,
  "▁Sic": 3165,
  "▁Tut": 3166,
  "▁spe": 3167,
  "HOMAS": 3168,
  "acher": 3169,
  "anley": 3170,
  "arden": 3171,
  "cians": 3172,
  "ement": 3173,
  "rison": 3174,
  "twixt": 3175,
  "ursed": 3176,
  "woman": 3177,
  "▁Dost": 3178,
  "▁Jove": 3179,
  "▁Love": 3180,
  "▁Wilt": 3181,
  "▁brow": 3182,
  "▁circ": 3183,
  "▁cure": 3184,
  "▁disg": 3185,
  "▁door": 3186,
  "▁dust": 3187,
  "▁fain": 3188,
  "▁feed": 3189,
  "▁gift": 3190,
  "▁girl": 3191,
  "▁leng": 3192,
  "▁nose": 3193,
  "▁stab": 3194,
  "▁stop": 3195,
  "ealous": 3196,
  "idings": 3197,
  "▁Caius": 3198,
  "▁Death": 3199,
  "▁Friar": 3200,
  "▁blest": 3201,
  "▁brows": 3202,
  "▁fiery": 3203,
  "▁ghost": 3204,
  "▁green": 3205,
  "▁gross": 3206,
  "▁grown": 3207,
  "▁joint": 3208,
  "▁knave": 3209,
  "▁pains": 3210,
  "▁proof": 3211,
  "▁sheep": 3212,
  "▁spake": 3213,
  "▁stoop": 3214,
  "▁taken": 3215,
  "▁twice": 3216,
  "▁tyran": 3217,
  "▁BRAKEN": 3218,
  "▁Prince": 3219,
  "▁THOMAS": 3220,
  "▁Verona": 3221,
  "▁affair": 3222,
  "▁always": 3223,
  "▁buried": 3224,
  "▁choice": 3225,
  "▁divine": 3226,
  "▁finger": 3227,
  "▁import": 3228,
  "▁leaves": 3229,
  "▁necess": 3230,
  "▁remedy": 3231,
  "▁repent": 3232,
  "▁sacred": 3233,
  "▁safety": 3234,
  "▁senate": 3235,
  "▁sirrah": 3236,
  "▁spring": 3237,
  "▁undert": 3238,
  "▁whilst": 3239,
  "▁wicked": 3240,
  "▁wither": 3241,
  "▁wrongs": 3242,
  "▁Besides": 3243,
  "▁Brother": 3244,
  "▁Stanley": 3245,
  "▁embrace": 3246,
  "▁prevail": 3247,
  "▁prevent": 3248,
  "▁reasons": 3249,
  "▁silence": 3250,
  "▁therein": 3251,
  "▁thunder": 3252,
  "▁Mistress": 3253,
  "▁creature": 3254,
  "▁innocent": 3255,
  "▁occasion": 3256,
  "▁perceive": 3257,
  "▁traitors": 3258,
  "▁BRAKENBURY": 3259,
  "?'": 3260,
  "jo": 3261,
  "mn": 3262,
  "sp": 3263,
  "GOR": 3264,
  "ONE": 3265,
  "STR": 3266,
  "eld": 3267,
  "hys": 3268,
  "loy": 3269,
  "nat": 3270,
  "oly": 3271,
  "omp": 3272,
  "pin": 3273,
  "shi": 3274,
  "▁AE": 3275,
  "▁OV": 3276,
  "▁ed": 3277,
  "▁es": 3278,
  "ERBY": 3279,
  "GORY": 3280,
  "aced": 3281,
  "anch": 3282,
  "aste": 3283,
  "ault": 3284,
  "elve": 3285,
  "hant": 3286,
  "itol": 3287,
  "oard": 3288,
  "orry": 3289,
  "unts": 3290,
  "▁Apo": 3291,
  "▁avo": 3292,
  "▁cre": 3293,
  "▁dec": 3294,
  "▁eag": 3295,
  "▁ele": 3296,
  "▁emp": 3297,
  "▁lar": 3298,
  "▁rob": 3299,
  "▁shr": 3300,
  "ctise": 3301,
  "enius": 3302,
  "hysic": 3303,
  "inous": 3304,
  "▁Turn": 3305,
  "▁bark": 3306,
  "▁drop": 3307,
  "▁empt": 3308,
  "▁fury": 3309,
  "▁rock": 3310,
  "▁rude": 3311,
  "▁sail": 3312,
  "▁shar": 3313,
  "▁ship": 3314,
  "▁sits": 3315,
  "▁used": 3316,
  "▁went": 3317,
  "ERDONE": 3318,
  "STRESS": 3319,
  "ardine": 3320,
  "edious": 3321,
  "othing": 3322,
  "unning": 3323,
  "▁DERBY": 3324,
  "▁Somer": 3325,
  "▁adieu": 3326,
  "▁allow": 3327,
  "▁anger": 3328,
  "▁belly": 3329,
  "▁cares": 3330,
  "▁cheek": 3331,
  "▁claim": 3332,
  "▁condu": 3333,
  "▁drawn": 3334,
  "▁fares": 3335,
  "▁langu": 3336,
  "▁loath": 3337,
  "▁loyal": 3338,
  "▁maids": 3339,
  "▁mayor": 3340,
  "▁plead": 3341,
  "▁round": 3342,
  "▁smile": 3343,
  "▁tempt": 3344,
  "▁troth": 3345,
  "▁utter": 3346,
  "▁weeds": 3347,
  "▁wings": 3348,
  "▁Having": 3349,
  "▁Indeed": 3350,
  "▁Myself": 3351,
  "▁assist": 3352,
  "▁broken": 3353,
  "▁design": 3354,
  "▁fright": 3355,
  "▁garden": 3356,
  "▁hollow": 3357,
  "▁inform": 3358,
  "▁knight": 3359,
  "▁oracle": 3360,
  "▁plague": 3361,
  "▁prayer": 3362,
  "▁renown": 3363,
  "▁rotten": 3364,
  "▁stones": 3365,
  "▁wanton": 3366,
  "aughters": 3367,
  "▁Capitol": 3368,
  "▁GREGORY": 3369,
  "▁Prithee": 3370,
  "▁Wherein": 3371,
  "▁Without": 3372,
  "▁absence": 3373,
  "▁commend": 3374,
  "▁delight": 3375,
  "▁deserve": 3376,
  "▁despite": 3377,
  "▁profess": 3378,
  "▁violent": 3379,
  "▁wherein": 3380,
  "▁MISTRESS": 3381,
  "▁Menenius": 3382,
  "▁OVERDONE": 3383,
  "▁Somerset": 3384,
  "▁deceived": 3385,
  "▁ignorant": 3386,
  "▁imprison": 3387,
  "▁practise": 3388,
  "▁treacher": 3389,
  "▁trumpets": 3390,
  "▁Barnardine": 3391,
  "▁countenance": 3392,
  "XF": 3393,
  "MON": 3394,
  "act": 3395,
  "aze": 3396,
  "cha": 3397,
  "esy": 3398,
  "isa": 3399,
  "mon": 3400,
  "pet": 3401,
  "ALER": 3402,
  "MOND": 3403,
  "ards": 3404,
  "ashi": 3405,
  "cend": 3406,
  "draw": 3407,
  "eeth": 3408,
  "eous": 3409,
  "haps": 3410,
  "held": 3411,
  "ione": 3412,
  "ises": 3413,
  "ongs": 3414,
  "othe": 3415,
  "rand": 3416,
  "rehe": 3417,
  "semb": 3418,
  "utes": 3419,
  "▁Lea": 3420,
  "▁OXF": 3421,
  "▁Pol": 3422,
  "▁Pre": 3423,
  "▁Res": 3424,
  "▁SOM": 3425,
  "▁Sha": 3426,
  "▁aim": 3427,
  "▁amb": 3428,
  "▁det": 3429,
  "▁dew": 3430,
  "▁due": 3431,
  "▁dur": 3432,
  "▁hid": 3433,
  "▁hit": 3434,
  "▁pil": 3435,
  "▁pin": 3436,
  "▁six": 3437,
  "ERSET": 3438,
  "iment": 3439,
  "mione": 3440,
  "rious": 3441,
  "▁Grey": 3442,
  "▁Into": 3443,
  "▁Know": 3444,
  "▁Mark": 3445,
  "▁Pisa": 3446,
  "▁alas": 3447,
  "▁babe": 3448,
  "▁ball": 3449,
  "▁cell": 3450,
  "▁earn": 3451,
  "▁gain": 3452,
  "▁heav": 3453,
  "▁lamb": 3454,
  "▁loud": 3455,
  "▁nine": 3456,
  "▁ones": 3457,
  "▁pair": 3458,
  "▁pawn": 3459,
  "▁publ": 3460,
  "▁ruin": 3461,
  "▁sens": 3462,
  "▁star": 3463,
  "▁stat": 3464,
  "▁tune": 3465,
  "▁wont": 3466,
  "ALERIA": 3467,
  "change": 3468,
  "ission": 3469,
  "itting": 3470,
  "pinion": 3471,
  "ursday": 3472,
  "▁Great": 3473,
  "▁Three": 3474,
  "▁aught": 3475,
  "▁awake": 3476,
  "▁borne": 3477,
  "▁carry": 3478,
  "▁chief": 3479,
  "▁cries": 3480,
  "▁deare": 3481,
  "▁fatal": 3482,
  "▁fools": 3483,
  "▁gives": 3484,
  "▁names": 3485,
  "▁persu": 3486,
  "▁sighs": 3487,
  "▁steed": 3488,
  "▁stock": 3489,
  "▁storm": 3490,
  "▁stuff": 3491,
  "▁tread": 3492,
  "▁whole": 3493,
  "▁wives": 3494,
  "▁woful": 3495,
  "onounce": 3496,
  "▁Apollo": 3497,
  "▁Cousin": 3498,
  "▁OXFORD": 3499,
  "▁Rivers": 3500,
  "▁advise": 3501,
  "▁asleep": 3502,
  "▁begins": 3503,
  "▁castle": 3504,
  "▁colour": 3505,
  "▁damned": 3506,
  "▁devise": 3507,
  "▁excell": 3508,
  "▁infect": 3509,
  "▁motion": 3510,
  "▁nobles": 3511,
  "▁number": 3512,
  "▁offend": 3513,
  "▁proper": 3514,
  "▁rememb": 3515,
  "▁resign": 3516,
  "▁simple": 3517,
  "▁supper": 3518,
  "▁thrive": 3519,
  "▁throat": 3520,
  "▁thrust": 3521,
  "▁undone": 3522,
  "ethought": 3523,
  "▁VALERIA": 3524,
  "▁affairs": 3525,
  "▁becomes": 3526,
  "▁benefit": 3527,
  "▁burthen": 3528,
  "▁deposed": 3529,
  "▁envious": 3530,
  "▁express": 3531,
  "▁farther": 3532,
  "▁follows": 3533,
  "▁hanging": 3534,
  "▁jealous": 3535,
  "▁meaning": 3536,
  "▁outward": 3537,
  "▁passing": 3538,
  "▁pleased": 3539,
  "▁protect": 3540,
  "▁receive": 3541,
  "▁tedious": 3542,
  "▁tidings": 3543,
  "▁vantage": 3544,
  "▁Hermione": 3545,
  "▁Musician": 3546,
  "▁RICHMOND": 3547,
  "▁SOMERSET": 3548,
  "▁Thursday": 3549,
  "▁banished": 3550,
  "▁dreadful": 3551,
  "▁garments": 3552,
  "▁possible": 3553,
  "▁prepared": 3554,
  "▁shouldst": 3555,
  "▁Christian": 3556,
  "▁authority": 3557,
  "▁followers": 3558,
  "▁disposition": 3559,
  "BH": 3560,
  "HY": 3561,
  "SA": 3562,
  "eg": 3563,
  "go": 3564,
  "ub": 3565,
  "ene": 3566,
  "enn": 3567,
  "gle": 3568,
  "hop": 3569,
  "rib": 3570,
  "ron": 3571,
  "run": 3572,
  "thi": 3573,
  "▁Bi": 3574,
  "▁er": 3575,
  "▁ir": 3576,
  "BHOR": 3577,
  "BRAY": 3578,
  "ETER": 3579,
  "LIUS": 3580,
  "OPSA": 3581,
  "USHY": 3582,
  "anct": 3583,
  "ancy": 3584,
  "arch": 3585,
  "ared": 3586,
  "atsw": 3587,
  "cing": 3588,
  "ello": 3589,
  "iffe": 3590,
  "ills": 3591,
  "ldom": 3592,
  "ords": 3593,
  "room": 3594,
  "yard": 3595,
  "yond": 3596,
  "▁Boy": 3597,
  "▁Has": 3598,
  "▁MOW": 3599,
  "▁bew": 3600,
  "▁cal": 3601,
  "▁cam": 3602,
  "▁equ": 3603,
  "▁lip": 3604,
  "▁lod": 3605,
  "▁owe": 3606,
  "▁sup": 3607,
  "▁top": 3608,
  "▁van": 3609,
  "after": 3610,
  "eding": 3611,
  "ellow": 3612,
  "erved": 3613,
  "imely": 3614,
  "itude": 3615,
  "loved": 3616,
  "orses": 3617,
  "ounty": 3618,
  "ouses": 3619,
  "place": 3620,
  "usion": 3621,
  "▁Bona": 3622,
  "▁Help": 3623,
  "▁Very": 3624,
  "▁ange": 3625,
  "▁band": 3626,
  "▁bond": 3627,
  "▁cens": 3628,
  "▁conj": 3629,
  "▁disd": 3630,
  "▁drum": 3631,
  "▁gage": 3632,
  "▁hurt": 3633,
  "▁lean": 3634,
  "▁legs": 3635,
  "▁lend": 3636,
  "▁prey": 3637,
  "▁quit": 3638,
  "▁rash": 3639,
  "▁room": 3640,
  "▁seas": 3641,
  "▁shut": 3642,
  "▁step": 3643,
  "▁sway": 3644,
  "▁tort": 3645,
  "▁weap": 3646,
  "▁wine": 3647,
  "enture": 3648,
  "illing": 3649,
  "iteous": 3650,
  "ixenes": 3651,
  "ortion": 3652,
  "▁ABHOR": 3653,
  "▁BUSHY": 3654,
  "▁Biond": 3655,
  "▁Leave": 3656,
  "▁MAMIL": 3657,
  "▁MOPSA": 3658,
  "▁Still": 3659,
  "▁accus": 3660,
  "▁brook": 3661,
  "▁chair": 3662,
  "▁clear": 3663,
  "▁crack": 3664,
  "▁curst": 3665,
  "▁delay": 3666,
  "▁empty": 3667,
  "▁exile": 3668,
  "▁keeps": 3669,
  "▁mourn": 3670,
  "▁paper": 3671,
  "▁parts": 3672,
  "▁penit": 3673,
  "▁peril": 3674,
  "▁prize": 3675,
  "▁sanct": 3676,
  "▁sorry": 3677,
  "▁speci": 3678,
  "▁spend": 3679,
  "▁store": 3680,
  "▁taste": 3681,
  "▁teeth": 3682,
  "▁trans": 3683,
  "▁unnat": 3684,
  "▁until": 3685,
  "▁wrath": 3686,
  "atswain": 3687,
  "utation": 3688,
  "▁EXETER": 3689,
  "▁Tailor": 3690,
  "▁accept": 3691,
  "▁access": 3692,
  "▁accuse": 3693,
  "▁affect": 3694,
  "▁beheld": 3695,
  "▁belike": 3696,
  "▁circum": 3697,
  "▁denied": 3698,
  "▁desert": 3699,
  "▁dinner": 3700,
  "▁flight": 3701,
  "▁humbly": 3702,
  "▁intend": 3703,
  "▁kingly": 3704,
  "▁palace": 3705,
  "▁partic": 3706,
  "▁perish": 3707,
  "▁physic": 3708,
  "▁punish": 3709,
  "▁shadow": 3710,
  "▁silver": 3711,
  "▁solemn": 3712,
  "▁twelve": 3713,
  "▁wander": 3714,
  "▁weight": 3715,
  "▁Believe": 3716,
  "▁MOWBRAY": 3717,
  "▁Officer": 3718,
  "▁betwixt": 3719,
  "▁conquer": 3720,
  "▁corrupt": 3721,
  "▁cunning": 3722,
  "▁perfect": 3723,
  "▁protest": 3724,
  "▁resolve": 3725,
  "▁several": 3726,
  "▁spirits": 3727,
  "▁wedding": 3728,
  "▁whither": 3729,
  "▁ABHORSON": 3730,
  "▁continue": 3731,
  "▁contrary": 3732,
  "▁courtesy": 3733,
  "▁forsworn": 3734,
  "▁goodness": 3735,
  "▁murderer": 3736,
  "▁petition": 3737,
  "▁pleasant": 3738,
  "▁resolved": 3739,
  "▁threaten": 3740,
  "▁Biondello": 3741,
  "▁MAMILLIUS": 3742,
  "▁Polixenes": 3743,
  "▁advantage": 3744,
  "▁daughters": 3745,
  "▁miserable": 3746,
  "▁neighbour": 3747,
  "▁gentlewoman": 3748,
  "CH": 3749,
  "af": 3750,
  "dy": 3751,
  "rt": 3752,
  "RCH": 3753,
  "aff": 3754,
  "ane": 3755,
  "cio": 3756,
  "ept": 3757,
  "irg": 3758,
  "oke": 3759,
  "oot": 3760,
  "ote": 3761,
  "pic": 3762,
  "que": 3763,
  "ung": 3764,
  "▁Co": 3765,
  "▁di": 3766,
  "▁pi": 3767,
  "ALTH": 3768,
  "ASAR": 3769,
  "ERCY": 3770,
  "amed": 3771,
  "cape": 3772,
  "cian": 3773,
  "ency": 3774,
  "erve": 3775,
  "mity": 3776,
  "oler": 3777,
  "outs": 3778,
  "ping": 3779,
  "sequ": 3780,
  "sing": 3781,
  "uted": 3782,
  "▁AEd": 3783,
  "▁Nap": 3784,
  "▁Rep": 3785,
  "▁Two": 3786,
  "▁ado": 3787,
  "▁arg": 3788,
  "▁bas": 3789,
  "▁bud": 3790,
  "▁clo": 3791,
  "▁cup": 3792,
  "▁dag": 3793,
  "▁fee": 3794,
  "▁fle": 3795,
  "▁fro": 3796,
  "▁sep": 3797,
  "▁tut": 3798,
  "▁wol": 3799,
  "▁wot": 3800,
  "aries": 3801,
  "clock": 3802,
  "ising": 3803,
  "kedom": 3804,
  "pping": 3805,
  "rease": 3806,
  "umble": 3807,
  "▁ARCH": 3808,
  "▁Bear": 3809,
  "▁None": 3810,
  "▁Only": 3811,
  "▁amen": 3812,
  "▁calm": 3813,
  "▁comb": 3814,
  "▁debt": 3815,
  "▁dies": 3816,
  "▁dign": 3817,
  "▁diss": 3818,
  "▁ends": 3819,
  "▁fail": 3820,
  "▁gate": 3821,
  "▁hark": 3822,
  "▁heed": 3823,
  "▁hunt": 3824,
  "▁joys": 3825,
  "▁mend": 3826,
  "▁miss": 3827,
  "▁plot": 3828,
  "▁pure": 3829,
  "▁rose": 3830,
  "▁slow": 3831,
  "▁tomb": 3832,
  "▁ways": 3833,
  "▁wits": 3834,
  "▁wond": 3835,
  "▁wood": 3836,
  "igence": 3837,
  "lesome": 3838,
  "ourish": 3839,
  "picion": 3840,
  "urance": 3841,
  "urious": 3842,
  "ustice": 3843,
  "▁BALTH": 3844,
  "▁Mayor": 3845,
  "▁Might": 3846,
  "▁PERCY": 3847,
  "▁Right": 3848,
  "▁chide": 3849,
  "▁dares": 3850,
  "▁durst": 3851,
  "▁faces": 3852,
  "▁fashi": 3853,
  "▁folly": 3854,
  "▁griev": 3855,
  "▁groan": 3856,
  "▁hopes": 3857,
  "▁large": 3858,
  "▁naked": 3859,
  "▁scept": 3860,
  "▁seest": 3861,
  "▁sharp": 3862,
  "▁spare": 3863,
  "▁story": 3864,
  "▁table": 3865,
  "▁tremb": 3866,
  "▁turns": 3867,
  "▁weigh": 3868,
  "▁whore": 3869,
  "▁wreck": 3870,
  "hearted": 3871,
  "▁BISHOP": 3872,
  "▁Father": 3873,
  "▁French": 3874,
  "▁beyond": 3875,
  "▁bodies": 3876,
  "▁called": 3877,
  "▁comple": 3878,
  "▁credit": 3879,
  "▁crowns": 3880,
  "▁cursed": 3881,
  "▁curses": 3882,
  "▁employ": 3883,
  "▁endure": 3884,
  "▁expect": 3885,
  "▁fairly": 3886,
  "▁hatred": 3887,
  "▁horses": 3888,
  "▁intent": 3889,
  "▁joyful": 3890,
  "▁making": 3891,
  "▁market": 3892,
  "▁misery": 3893,
  "▁perpet": 3894,
  "▁public": 3895,
  "▁quench": 3896,
  "▁reward": 3897,
  "▁seeing": 3898,
  "▁spoken": 3899,
  "▁temper": 3900,
  "▁terror": 3901,
  "▁theirs": 3902,
  "▁waters": 3903,
  "▁whiles": 3904,
  "▁yonder": 3905,
  "▁Beseech": 3906,
  "▁Marshal": 3907,
  "▁Nothing": 3908,
  "▁advance": 3909,
  "▁apparel": 3910,
  "▁attempt": 3911,
  "▁beloved": 3912,
  "▁colours": 3913,
  "▁courage": 3914,
  "▁dukedom": 3915,
  "▁looking": 3916,
  "▁mistake": 3917,
  "▁natural": 3918,
  "▁needful": 3919,
  "▁opinion": 3920,
  "▁painted": 3921,
  "▁piteous": 3922,
  "▁princes": 3923,
  "▁remains": 3924,
  "▁shortly": 3925,
  "▁swallow": 3926,
  "▁wounded": 3927,
  "▁complain": 3928,
  "▁discover": 3929,
  "▁fortunes": 3930,
  "▁instruct": 3931,
  "▁language": 3932,
  "▁princess": 3933,
  "▁senators": 3934,
  "▁services": 3935,
  "▁sometime": 3936,
  "▁BALTHASAR": 3937,
  "▁assurance": 3938,
  "▁commanded": 3939,
  "▁excellent": 3940,
  "▁happiness": 3941,
  "▁hereafter": 3942,
  "▁obedience": 3943,
  "▁pronounce": 3944,
  "▁sometimes": 3945,
  "▁undertake": 3946,
  "▁unnatural": 3947,
  "▁discontent": 3948,
  "▁government": 3949,
  "▁instrument": 3950,
  "▁counterfeit": 3951,
  "▁remembrance": 3952,
  "OS": 3953,
  "oe": 3954,
  "ys": 3955,
  "?--": 3956,
  "CAS": 3957,
  "FOL": 3958,
  "OSS": 3959,
  "afe": 3960,
  "bow": 3961,
  "dds": 3962,
  "fer": 3963,
  "hor": 3964,
  "ita": 3965,
  "lar": 3966,
  "lic": 3967,
  "val": 3968,
  "whe": 3969,
  "▁El": 3970,
  "▁Le": 3971,
  "FOLK": 3972,
  "ants": 3973,
  "arts": 3974,
  "atic": 3975,
  "born": 3976,
  "gers": 3977,
  "hest": 3978,
  "noon": 3979,
  "oved": 3980,
  "same": 3981,
  "uary": 3982,
  "uses": 3983,
  "what": 3984,
  "wise": 3985,
  "▁App": 3986,
  "▁Cal": 3987,
  "▁Lay": 3988,
  "▁Rem": 3989,
  "▁Ret": 3990,
  "▁Ros": 3991,
  "▁Set": 3992,
  "▁Tit": 3993,
  "▁gru": 3994,
  "▁haz": 3995,
  "▁imm": 3996,
  "▁its": 3997,
  "▁kin": 3998,
  "▁led": 3999,
  "▁mag": 4000,
  "▁odd": 4001,
  "▁pol": 4002,
  "▁sky": 4003,
  "▁tap": 4004,
  "▁ung": 4005,
  "▁vex": 4006,
  "akest": 4007,
  "arent": 4008,
  "ences": 4009,
  "happy": 4010,
  "ieved": 4011,
  "ified": 4012,
  "ishop": 4013,
  "isper": 4014,
  "olute": 4015,
  "orset": 4016,
  "think": 4017,
  "ument": 4018,
  "vours": 4019,
  "▁Amen": 4020,
  "▁Comm": 4021,
  "▁Dear": 4022,
  "▁Four": 4023,
  "▁Jack": 4024,
  "▁Long": 4025,
  "▁Page": 4026,
  "▁Post": 4027,
  "▁ROSS": 4028,
  "▁Sold": 4029,
  "▁bare": 4030,
  "▁boar": 4031,
  "▁bott": 4032,
  "▁cock": 4033,
  "▁conc": 4034,
  "▁east": 4035,
  "▁fame": 4036,
  "▁grey": 4037,
  "▁host": 4038,
  "▁isle": 4039,
  "▁mere": 4040,
  "▁mile": 4041,
  "▁mill": 4042,
  "▁odds": 4043,
  "▁qual": 4044,
  "▁repe": 4045,
  "▁ring": 4046,
  "▁rule": 4047,
  "▁shun": 4048,
  "▁sink": 4049,
  "▁sins": 4050,
  "▁slay": 4051,
  "▁stol": 4052,
  "▁test": 4053,
  "▁virg": 4054,
  "▁wait": 4055,
  "▁worn": 4056,
  "chance": 4057,
  "ctions": 4058,
  "idence": 4059,
  "ourage": 4060,
  "strous": 4061,
  "uteous": 4062,
  "▁Lucio": 4063,
  "▁March": 4064,
  "▁Those": 4065,
  "▁Widow": 4066,
  "▁Young": 4067,
  "▁alter": 4068,
  "▁block": 4069,
  "▁blush": 4070,
  "▁brain": 4071,
  "▁cease": 4072,
  "▁drops": 4073,
  "▁drums": 4074,
  "▁flies": 4075,
  "▁frame": 4076,
  "▁grows": 4077,
  "▁journ": 4078,
  "▁knife": 4079,
  "▁leads": 4080,
  "▁maint": 4081,
  "▁meant": 4082,
  "▁oppos": 4083,
  "▁realm": 4084,
  "▁rogue": 4085,
  "▁scene": 4086,
  "▁scope": 4087,
  "▁seize": 4088,
  "▁shape": 4089,
  "▁slept": 4090,
  "▁spite": 4091,
  "▁strew": 4092,
  "▁terms": 4093,
  "▁thief": 4094,
  "▁trade": 4095,
  "▁trick": 4096,
  "▁vault": 4097,
  "▁venom": 4098,
  "▁wants": 4099,
  "▁winds": 4100,
  "▁write": 4101,
  "ination": 4102,
  "ression": 4103,
  "▁DORCAS": 4104,
  "▁Dorset": 4105,
  "▁Exeter": 4106,
  "▁Naples": 4107,
  "▁Volsce": 4108,
  "▁Worthy": 4109,
  "▁absent": 4110,
  "▁accord": 4111,
  "▁advers": 4112,
  "▁armour": 4113,
  "▁behalf": 4114,
  "▁brings": 4115,
  "▁camest": 4116,
  "▁choler": 4117,
  "▁comest": 4118,
  "▁compan": 4119,
  "▁dagger": 4120,
  "▁degree": 4121,
  "▁direct": 4122,
  "▁enmity": 4123,
  "▁freely": 4124,
  "▁houses": 4125,
  "▁imposs": 4126,
  "▁intell": 4127,
  "▁island": 4128,
  "▁maiden": 4129,
  "▁nought": 4130,
  "▁powers": 4131,
  "▁praise": 4132,
  "▁purcha": 4133,
  "▁repair": 4134,
  "▁serves": 4135,
  "▁smooth": 4136,
  "▁NORFOLK": 4137,
  "▁Whither": 4138,
  "▁apprehe": 4139,
  "▁captain": 4140,
  "▁compass": 4141,
  "▁disdain": 4142,
  "▁earnest": 4143,
  "▁fathers": 4144,
  "▁granted": 4145,
  "▁hateful": 4146,
  "▁instant": 4147,
  "▁manners": 4148,
  "▁passage": 4149,
  "▁passion": 4150,
  "▁privile": 4151,
  "▁sceptre": 4152,
  "▁seeming": 4153,
  "▁torment": 4154,
  "▁unknown": 4155,
  "▁weather": 4156,
  "▁approach": 4157,
  "▁consider": 4158,
  "▁contract": 4159,
  "▁deserves": 4160,
  "▁friendly": 4161,
  "▁glorious": 4162,
  "▁increase": 4163,
  "▁reverend": 4164,
  "▁untimely": 4165,
  "▁Boatswain": 4166,
  "▁Gentlemen": 4167,
  "▁contented": 4168,
  "▁monstrous": 4169,
  "▁respected": 4170,
  "▁suspicion": 4171,
  "▁particular": 4172,
  "▁prosperous": 4173,
  "▁resolution": 4174,
  "▁treacherous": 4175,
  "GH": 4176,
  "NS": 4177,
  "RR": 4178,
  "fl": 4179,
  "God": 4180,
  "NSO": 4181,
  "SET": 4182,
  "elt": 4183,
  "iny": 4184,
  "kin": 4185,
  "ped": 4186,
  "rey": 4187,
  "ric": 4188,
  "uce": 4189,
  "▁Se": 4190,
  "▁Ye": 4191,
  "▁da": 4192,
  "RREL": 4193,
  "ades": 4194,
  "ales": 4195,
  "atcl": 4196,
  "erns": 4197,
  "fret": 4198,
  "iate": 4199,
  "iven": 4200,
  "just": 4201,
  "oral": 4202,
  "rain": 4203,
  "reme": 4204,
  "ruly": 4205,
  "▁ALO": 4206,
  "▁Ber": 4207,
  "▁Bra": 4208,
  "▁Ire": 4209,
  "▁Lau": 4210,
  "▁Mil": 4211,
  "▁Pat": 4212,
  "▁Rom": 4213,
  "▁Son": 4214,
  "▁dig": 4215,
  "▁dri": 4216,
  "▁ens": 4217,
  "▁fig": 4218,
  "▁glo": 4219,
  "▁ing": 4220,
  "▁jew": 4221,
  "▁rap": 4222,
  "▁spr": 4223,
  "▁squ": 4224,
  "ERDIN": 4225,
  "aline": 4226,
  "ances": 4227,
  "andal": 4228,
  "ature": 4229,
  "ember": 4230,
  "raced": 4231,
  "▁Came": 4232,
  "▁Down": 4233,
  "▁Play": 4234,
  "▁Save": 4235,
  "▁Stri": 4236,
  "▁Supp": 4237,
  "▁able": 4238,
  "▁bird": 4239,
  "▁braw": 4240,
  "▁bury": 4241,
  "▁chat": 4242,
  "▁clam": 4243,
  "▁furn": 4244,
  "▁lark": 4245,
  "▁lion": 4246,
  "▁melt": 4247,
  "▁nobl": 4248,
  "▁perj": 4249,
  "▁puts": 4250,
  "▁roar": 4251,
  "▁ruth": 4252,
  "▁spur": 4253,
  "▁suck": 4254,
  "▁tame": 4255,
  "▁tide": 4256,
  "▁vows": 4257,
  "▁wept": 4258,
  "▁About": 4259,
  "▁Bring": 4260,
  "▁Froth": 4261,
  "▁GREEN": 4262,
  "▁Ghost": 4263,
  "▁Hunts": 4264,
  "▁Ratcl": 4265,
  "▁Titus": 4266,
  "▁Until": 4267,
  "▁abhor": 4268,
  "▁adver": 4269,
  "▁affli": 4270,
  "▁alike": 4271,
  "▁avoid": 4272,
  "▁beard": 4273,
  "▁begun": 4274,
  "▁boots": 4275,
  "▁build": 4276,
  "▁catch": 4277,
  "▁conce": 4278,
  "▁daily": 4279,
  "▁dress": 4280,
  "▁dying": 4281,
  "▁elder": 4282,
  "▁fears": 4283,
  "▁finds": 4284,
  "▁flatt": 4285,
  "▁haply": 4286,
  "▁hasty": 4287,
  "▁holds": 4288,
  "▁lusty": 4289,
  "▁nobly": 4290,
  "▁north": 4291,
  "▁parli": 4292,
  "▁patri": 4293,
  "▁peers": 4294,
  "▁press": 4295,
  "▁provo": 4296,
  "▁purse": 4297,
  "▁raise": 4298,
  "▁recom": 4299,
  "▁revol": 4300,
  "▁sends": 4301,
  "▁south": 4302,
  "▁stamp": 4303,
  "▁study": 4304,
  "▁swell": 4305,
  "▁tells": 4306,
  "▁third": 4307,
  "▁thorn": 4308,
  "▁urged": 4309,
  "▁veins": 4310,
  "▁waste": 4311,
  "▁witch": 4312,
  "▁AEdile": 4313,
  "▁ALONSO": 4314,
  "▁DORSET": 4315,
  "▁FERDIN": 4316,
  "▁Romans": 4317,
  "▁TYRREL": 4318,
  "▁Thanks": 4319,
  "▁aboard": 4320,
  "▁advice": 4321,
  "▁amazed": 4322,
  "▁county": 4323,
  "▁darest": 4324,
  "▁disper": 4325,
  "▁estate": 4326,
  "▁famous": 4327,
  "▁gently": 4328,
  "▁giving": 4329,
  "▁grieve": 4330,
  "▁groans": 4331,
  "▁hanged": 4332,
  "▁hardly": 4333,
  "▁kindly": 4334,
  "▁lovely": 4335,
  "▁muster": 4336,
  "▁parent": 4337,
  "▁pieces": 4338,
  "▁profit": 4339,
  "▁rascal": 4340,
  "▁rebell": 4341,
  "▁record": 4342,
  "▁season": 4343,
  "▁silent": 4344,
  "▁single": 4345,
  "▁smiles": 4346,
  "▁taught": 4347,
  "▁thrice": 4348,
  "▁unless": 4349,
  "▁virgin": 4350,
  "▁wealth": 4351,
  "▁worthi": 4352,
  "▁Conspir": 4353,
  "▁Ireland": 4354,
  "▁Pomfret": 4355,
  "▁Sicilia": 4356,
  "▁Soldier": 4357,
  "▁accused": 4358,
  "▁arrived": 4359,
  "▁assured": 4360,
  "▁bearing": 4361,
  "▁bethink": 4362,
  "▁charged": 4363,
  "▁conceit": 4364,
  "▁conduct": 4365,
  "▁current": 4366,
  "▁destroy": 4367,
  "▁enforce": 4368,
  "▁forbear": 4369,
  "▁garland": 4370,
  "▁journey": 4371,
  "▁soundly": 4372,
  "▁special": 4373,
  "▁streets": 4374,
  "▁warlike": 4375,
  "▁whereof": 4376,
  "▁whisper": 4377,
  "▁willing": 4378,
  "▁wrought": 4379,
  "▁Huntsman": 4380,
  "▁Ratcliff": 4381,
  "▁Rosaline": 4382,
  "▁circumst": 4383,
  "▁constant": 4384,
  "▁greatest": 4385,
  "▁grievous": 4386,
  "▁maintain": 4387,
  "▁perforce": 4388,
  "▁revenged": 4389,
  "▁shoulder": 4390,
  "▁supposed": 4391,
  "▁FERDINAND": 4392,
  "▁afternoon": 4393,
  "▁committed": 4394,
  "▁messenger": 4395,
  "▁perpetual": 4396,
  "▁protector": 4397,
  "▁sanctuary": 4398,
  "▁willingly": 4399,
  "▁affections": 4400,
  "▁commission": 4401,
  "▁parliament": 4402,
  "▁instruments": 4403,
  "▁imprisonment": 4404,
  "Th": 4405,
  "gl": 4406,
  "ib": 4407,
  "pr": 4408,
  "zz": 4409,
  "▁z": 4410,
  ";--": 4411,
  "LIS": 4412,
  "aly": 4413,
  "ams": 4414,
  "cei": 4415,
  "con": 4416,
  "dig": 4417,
  "eat": 4418,
  "gar": 4419,
  "icy": 4420,
  "ipe": 4421,
  "ipp": 4422,
  "ker": 4423,
  "law": 4424,
  "nal": 4425,
  "nty": 4426,
  "rac": 4427,
  "ser": 4428,
  "uch": 4429,
  "ulf": 4430,
  "upt": 4431,
  "vet": 4432,
  "▁Fo": 4433,
  "▁Ho": 4434,
  "▁Sm": 4435,
  "▁Vi": 4436,
  "▁fi": 4437,
  "▁sy": 4438,
  "aces": 4439,
  "aded": 4440,
  "ages": 4441,
  "alis": 4442,
  "ater": 4443,
  "clam": 4444,
  "deem": 4445,
  "eder": 4446,
  "enna": 4447,
  "erby": 4448,
  "erer": 4449,
  "esar": 4450,
  "fall": 4451,
  "grim": 4452,
  "iety": 4453,
  "llen": 4454,
  "more": 4455,
  "mory": 4456,
  "omen": 4457,
  "onci": 4458,
  "owry": 4459,
  "pass": 4460,
  "roll": 4461,
  "rrel": 4462,
  "ties": 4463,
  "time": 4464,
  "tled": 4465,
  "uing": 4466,
  "uten": 4467,
  "vior": 4468,
  "▁Acc": 4469,
  "▁Ben": 4470,
  "▁Bus": 4471,
  "▁Min": 4472,
  "▁Six": 4473,
  "▁Tar": 4474,
  "▁ach": 4475,
  "▁ago": 4476,
  "▁apt": 4477,
  "▁dim": 4478,
  "▁fun": 4479,
  "▁hie": 4480,
  "▁hor": 4481,
  "▁lin": 4482,
  "▁mel": 4483,
  "▁mir": 4484,
  "▁oak": 4485,
  "▁pot": 4486,
  "▁sal": 4487,
  "▁sue": 4488,
  "▁une": 4489,
  "▁ves": 4490,
  "Twere": 4491,
  "aming": 4492,
  "ative": 4493,
  "erity": 4494,
  "ested": 4495,
  "etite": 4496,
  "faced": 4497,
  "forth": 4498,
  "groom": 4499,
  "harge": 4500,
  "ierce": 4501,
  "ignty": 4502,
  "orted": 4503,
  "osing": 4504,
  "ouchs": 4505,
  "ourse": 4506,
  "shire": 4507,
  "ulate": 4508,
  "ullus": 4509,
  "▁Anti": 4510,
  "▁Cond": 4511,
  "▁Conf": 4512,
  "▁Dare": 4513,
  "▁Draw": 4514,
  "▁aunt": 4515,
  "▁bade": 4516,
  "▁begu": 4517,
  "▁boys": 4518,
  "▁cere": 4519,
  "▁cher": 4520,
  "▁clim": 4521,
  "▁feet": 4522,
  "▁food": 4523,
  "▁fors": 4524,
  "▁frow": 4525,
  "▁helm": 4526,
  "▁holp": 4527,
  "▁horn": 4528,
  "▁inqu": 4529,
  "▁lent": 4530,
  "▁mult": 4531,
  "▁nail": 4532,
  "▁port": 4533,
  "▁rare": 4534,
  "▁reck": 4535,
  "▁rejo": 4536,
  "▁rust": 4537,
  "▁salt": 4538,
  "▁sees": 4539,
  "▁sell": 4540,
  "▁sets": 4541,
  "▁sire": 4542,
  "▁snow": 4543,
  "▁sore": 4544,
  "▁sple": 4545,
  "▁stro": 4546,
  "▁tall": 4547,
  "▁task": 4548,
  "▁unst": 4549,
  "▁whip": 4550,
  "▁wide": 4551,
  "▁wing": 4552,
  "▁yoke": 4553,
  "▁yond": 4554,
  "eeming": 4555,
  "father": 4556,
  "forced": 4557,
  "semble": 4558,
  "soever": 4559,
  "▁Derby": 4560,
  "▁Makes": 4561,
  "▁Milan": 4562,
  "▁Noble": 4563,
  "▁Salis": 4564,
  "▁abide": 4565,
  "▁agree": 4566,
  "▁alack": 4567,
  "▁below": 4568,
  "▁blunt": 4569,
  "▁books": 4570,
  "▁brace": 4571,
  "▁chase": 4572,
  "▁confe": 4573,
  "▁corre": 4574,
  "▁craft": 4575,
  "▁diffe": 4576,
  "▁equal": 4577,
  "▁event": 4578,
  "▁exerc": 4579,
  "▁fancy": 4580,
  "▁fires": 4581,
  "▁flood": 4582,
  "▁habit": 4583,
  "▁image": 4584,
  "▁manif": 4585,
  "▁merit": 4586,
  "▁newly": 4587,
  "▁oaths": 4588,
  "▁pitch": 4589,
  "▁pound": 4590,
  "▁prett": 4591,
  "▁prick": 4592,
  "▁regal": 4593,
  "▁ruled": 4594,
  "▁smell": 4595,
  "▁sooth": 4596,
  "▁stabb": 4597,
  "▁sting": 4598,
  "▁stopp": 4599,
  "▁stout": 4600,
  "▁stret": 4601,
  "▁tarry": 4602,
  "▁twain": 4603,
  "▁weeps": 4604,
  "▁wrink": 4605,
  "ancholy": 4606,
  "itation": 4607,
  "ruction": 4608,
  "utenant": 4609,
  "▁Caesar": 4610,
  "▁Cannot": 4611,
  "▁Fourth": 4612,
  "▁Marian": 4613,
  "▁Rather": 4614,
  "▁Tyrrel": 4615,
  "▁Vienna": 4616,
  "▁appeal": 4617,
  "▁assure": 4618,
  "▁ballad": 4619,
  "▁barren": 4620,
  "▁beasts": 4621,
  "▁betray": 4622,
  "▁caught": 4623,
  "▁charac": 4624,
  "▁deceit": 4625,
  "▁disple": 4626,
  "▁fairer": 4627,
  "▁forced": 4628,
  "▁graves": 4629,
  "▁knaves": 4630,
  "▁length": 4631,
  "▁mouths": 4632,
  "▁native": 4633,
  "▁partly": 4634,
  "▁points": 4635,
  "▁raised": 4636,
  "▁redeem": 4637,
  "▁regard": 4638,
  "▁resist": 4639,
  "▁saying": 4640,
  "▁secure": 4641,
  "▁shield": 4642,
  "▁slaves": 4643,
  "▁stroke": 4644,
  "▁surely": 4645,
  "▁unjust": 4646,
  "▁unkind": 4647,
  "▁vessel": 4648,
  "▁waking": 4649,
  "▁Proceed": 4650,
  "▁besides": 4651,
  "▁betimes": 4652,
  "▁commons": 4653,
  "▁complex": 4654,
  "▁defence": 4655,
  "▁descend": 4656,
  "▁desires": 4657,
  "▁dignity": 4658,
  "▁fairest": 4659,
  "▁fashion": 4660,
  "▁feeling": 4661,
  "▁forfeit": 4662,
  "▁forgive": 4663,
  "▁froward": 4664,
  "▁parting": 4665,
  "▁pilgrim": 4666,
  "▁reconci": 4667,
  "▁substit": 4668,
  "▁suspect": 4669,
  "▁tempest": 4670,
  "▁tremble": 4671,
  "▁trumpet": 4672,
  "▁tyranny": 4673,
  "▁unhappy": 4674,
  "▁virtues": 4675,
  "▁accident": 4676,
  "▁alliance": 4677,
  "▁although": 4678,
  "▁apparent": 4679,
  "▁appetite": 4680,
  "▁breathed": 4681,
  "▁contempt": 4682,
  "▁devotion": 4683,
  "▁disgrace": 4684,
  "▁exchange": 4685,
  "▁faithful": 4686,
  "▁forswear": 4687,
  "▁mistrust": 4688,
  "▁obedient": 4689,
  "▁offended": 4690,
  "▁penitent": 4691,
  "▁powerful": 4692,
  "▁renowned": 4693,
  "▁sickness": 4694,
  "▁standing": 4695,
  "▁treasure": 4696,
  "▁weakness": 4697,
  "▁Salisbury": 4698,
  "▁according": 4699,
  "▁beholding": 4700,
  "▁complaint": 4701,
  "▁falsehood": 4702,
  "▁household": 4703,
  "▁rebellion": 4704,
  "▁reverence": 4705,
  "▁wholesome": 4706,
  "▁bridegroom": 4707,
  "▁conference": 4708,
  "▁determined": 4709,
  "▁impossible": 4710,
  "▁melancholy": 4711,
  "▁patricians": 4712,
  "▁sovereignty": 4713,
  "▁entertainment": 4714,
  "Ay": 4715,
  "DR": 4716,
  "IT": 4717,
  "gn": 4718,
  "ns": 4719,
  "rs": 4720,
  "xe": 4721,
  ".--": 4722,
  "EOM": 4723,
  "LOU": 4724,
  "bod": 4725,
  "com": 4726,
  "eve": 4727,
  "iam": 4728,
  "nes": 4729,
  "rat": 4730,
  "tic": 4731,
  "uit": 4732,
  "▁Af": 4733,
  "▁Aw": 4734,
  "▁Kn": 4735,
  "▁Ra": 4736,
  "GHBY": 4737,
  "ROTH": 4738,
  "ases": 4739,
  "bear": 4740,
  "cary": 4741,
  "cate": 4742,
  "cies": 4743,
  "dita": 4744,
  "fold": 4745,
  "ical": 4746,
  "illy": 4747,
  "inct": 4748,
  "irty": 4749,
  "iter": 4750,
  "ivil": 4751,
  "ized": 4752,
  "long": 4753,
  "maid": 4754,
  "mong": 4755,
  "onst": 4756,
  "sell": 4757,
  "teen": 4758,
  "ulch": 4759,
  "weal": 4760,
  "wife": 4761,
  "▁ADR": 4762,
  "▁Cle": 4763,
  "▁Cry": 4764,
  "▁Cur": 4765,
  "▁Get": 4766,
  "▁Him": 4767,
  "▁Lie": 4768,
  "▁Thr": 4769,
  "▁Val": 4770,
  "▁Ven": 4771,
  "▁WIL": 4772,
  "▁axe": 4773,
  "▁bir": 4774,
  "▁bon": 4775,
  "▁deb": 4776,
  "▁eng": 4777,
  "▁jot": 4778,
  "▁lap": 4779,
  "▁nap": 4780,
  "▁ope": 4781,
  "▁ped": 4782,
  "▁pee": 4783,
  "▁spl": 4784,
  "▁spy": 4785,
  "▁ste": 4786,
  "▁suc": 4787,
  "▁tim": 4788,
  "▁var": 4789,
  "▁vel": 4790,
  "▁vol": 4791,
  "▁wid": 4792,
  "▁yes": 4793,
  "aning": 4794,
  "earer": 4795,
  "erves": 4796,
  "herit": 4797,
  "icles": 4798,
  "imble": 4799,
  "irect": 4800,
  "itten": 4801,
  "omach": 4802,
  "ories": 4803,
  "othes": 4804,
  "otted": 4805,
  "stery": 4806,
  "uries": 4807,
  "ushes": 4808,
  "▁Anon": 4809,
  "▁Betw": 4810,
  "▁Each": 4811,
  "▁Fort": 4812,
  "▁Hail": 4813,
  "▁Lart": 4814,
  "▁Many": 4815,
  "▁Soft": 4816,
  "▁Time": 4817,
  "▁Tush": 4818,
  "▁Vill": 4819,
  "▁blem": 4820,
  "▁bran": 4821,
  "▁bred": 4822,
  "▁buck": 4823,
  "▁coff": 4824,
  "▁cost": 4825,
  "▁curt": 4826,
  "▁deck": 4827,
  "▁decl": 4828,
  "▁edge": 4829,
  "▁fact": 4830,
  "▁fawn": 4831,
  "▁fish": 4832,
  "▁gaze": 4833,
  "▁grat": 4834,
  "▁iron": 4835,
  "▁knot": 4836,
  "▁lift": 4837,
  "▁line": 4838,
  "▁mess": 4839,
  "▁mood": 4840,
  "▁rail": 4841,
  "▁rain": 4842,
  "▁reap": 4843,
  "▁ride": 4844,
  "▁ripe": 4845,
  "▁sham": 4846,
  "▁shri": 4847,
  "▁slip": 4848,
  "▁spit": 4849,
  "▁tail": 4850,
  "▁toad": 4851,
  "▁toil": 4852,
  "▁tres": 4853,
  "▁wake": 4854,
  "▁west": 4855,
  "▁whit": 4856,
  "▁wink": 4857,
  "bation": 4858,
  "itable": 4859,
  "seless": 4860,
  "▁Among": 4861,
  "▁Bushy": 4862,
  "▁CLEOM": 4863,
  "▁Didst": 4864,
  "▁FROTH": 4865,
  "▁Happy": 4866,
  "▁Italy": 4867,
  "▁Somet": 4868,
  "▁Sound": 4869,
  "▁Uncle": 4870,
  "▁babes": 4871,
  "▁began": 4872,
  "▁burst": 4873,
  "▁chall": 4874,
  "▁civil": 4875,
  "▁coron": 4876,
  "▁counc": 4877,
  "▁disgu": 4878,
  "▁dowry": 4879,
  "▁eagle": 4880,
  "▁estim": 4881,
  "▁hangs": 4882,
  "▁harsh": 4883,
  "▁hated": 4884,
  "▁heirs": 4885,
  "▁human": 4886,
  "▁impat": 4887,
  "▁incen": 4888,
  "▁innoc": 4889,
  "▁liken": 4890,
  "▁lover": 4891,
  "▁marks": 4892,
  "▁minds": 4893,
  "▁mirth": 4894,
  "▁negle": 4895,
  "▁occup": 4896,
  "▁offic": 4897,
  "▁pause": 4898,
  "▁scold": 4899,
  "▁spect": 4900,
  "▁stick": 4901,
  "▁super": 4902,
  "▁swain": 4903,
  "▁takes": 4904,
  "▁taunt": 4905,
  "▁thick": 4906,
  "▁tooth": 4907,
  "▁wager": 4908,
  "▁wakes": 4909,
  "▁warri": 4910,
  "LOUGHBY": 4911,
  "▁ADRIAN": 4912,
  "▁Behold": 4913,
  "▁Better": 4914,
  "▁County": 4915,
  "▁Follow": 4916,
  "▁Return": 4917,
  "▁Tullus": 4918,
  "▁abused": 4919,
  "▁bigger": 4920,
  "▁chaste": 4921,
  "▁craves": 4922,
  "▁dearly": 4923,
  "▁deaths": 4924,
  "▁dismal": 4925,
  "▁fierce": 4926,
  "▁frowns": 4927,
  "▁griefs": 4928,
  "▁infant": 4929,
  "▁keeper": 4930,
  "▁league": 4931,
  "▁lesser": 4932,
  "▁lovest": 4933,
  "▁manage": 4934,
  "▁memory": 4935,
  "▁modest": 4936,
  "▁object": 4937,
  "▁pierce": 4938,
  "▁policy": 4939,
  "▁refuse": 4940,
  "▁remove": 4941,
  "▁repeal": 4942,
  "▁repose": 4943,
  "▁retire": 4944,
  "▁revolt": 4945,
  "▁rights": 4946,
  "▁seldom": 4947,
  "▁served": 4948,
  "▁shrewd": 4949,
  "▁shroud": 4950,
  "▁sights": 4951,
  "▁steeds": 4952,
  "▁subtle": 4953,
  "▁suffic": 4954,
  "▁suitor": 4955,
  "▁sullen": 4956,
  "▁supply": 4957,
  "▁thirty": 4958,
  "▁thread": 4959,
  "▁trusty": 4960,
  "▁uncles": 4961,
  "▁visage": 4962,
  "banished": 4963,
  "othecary": 4964,
  "ouchsafe": 4965,
  "▁Commend": 4966,
  "▁Lartius": 4967,
  "▁Mariana": 4968,
  "▁Perdita": 4969,
  "▁Through": 4970,
  "▁Whether": 4971,
  "▁William": 4972,
  "▁clothes": 4973,
  "▁conceal": 4974,
  "▁confirm": 4975,
  "▁dearest": 4976,
  "▁descent": 4977,
  "▁feather": 4978,
  "▁foreign": 4979,
  "▁gallant": 4980,
  "▁growing": 4981,
  "▁meeting": 4982,
  "▁modesty": 4983,
  "▁mystery": 4984,
  "▁perhaps": 4985,
  "▁plainly": 4986,
  "▁proclam": 4987,
  "▁prophet": 4988,
  "▁redress": 4989,
  "▁remorse": 4990,
  "▁removed": 4991,
  "▁satisfy": 4992,
  "▁scandal": 4993,
  "▁sepulch": 4994,
  "▁shadows": 4995,
  "▁sorrows": 4996,
  "▁strokes": 4997,
  "▁stumble": 4998,
  "▁succeed": 4999,
  "▁sweeter": 5000,
  "▁torture": 5001,
  "▁windows": 5002,
  "▁writing": 5003,
  "▁yielded": 5004,
  "▁younger": 5005,
  "▁absolute": 5006,
  "▁accursed": 5007,
  "▁acquaint": 5008,
  "▁careless": 5009,
  "▁executed": 5010,
  "▁exercise": 5011,
  "▁fourteen": 5012,
  "▁heartily": 5013,
  "▁heavenly": 5014,
  "▁monument": 5015,
  "▁opposite": 5016,
  "▁pleasing": 5017,
  "▁purchase": 5018,
  "▁selfsame": 5019,
  "▁servants": 5020,
  "▁stranger": 5021,
  "▁stronger": 5022,
  "▁trespass": 5023,
  "▁withdraw": 5024,
  "▁wondrous": 5025,
  "▁youngest": 5026,
  "▁CLEOMENES": 5027,
  "▁adventure": 5028,
  "▁appointed": 5029,
  "▁beauteous": 5030,
  "▁determine": 5031,
  "▁direction": 5032,
  "▁extremity": 5033,
  "▁flatterer": 5034,
  "▁greatness": 5035,
  "▁ignorance": 5036,
  "▁infection": 5037,
  "▁mischance": 5038,
  "▁privilege": 5039,
  "▁trembling": 5040,
  "▁WILLOUGHBY": 5041,
  "▁commonweal": 5042,
  "▁countrymen": 5043,
  "▁triumphant": 5044,
  "▁Conspirator": 5045,
  "▁adversaries": 5046,
  "▁executioner": 5047,
  "▁instruction": 5048,
  "EP": 5049,
  "ax": 5050,
  "gy": 5051,
  "we": 5052,
  "ARN": 5053,
  "EPH": 5054,
  "INE": 5055,
  "ann": 5056,
  "app": 5057,
  "aug": 5058,
  "bio": 5059,
  "but": 5060,
  "cue": 5061,
  "esu": 5062,
  "iar": 5063,
  "ips": 5064,
  "mas": 5065,
  "ola": 5066,
  "oon": 5067,
  "owl": 5068,
  "rif": 5069,
  "sey": 5070,
  "sha": 5071,
  "son": 5072,
  "sop": 5073,
  "▁Ap": 5074,
  "▁Gu": 5075,
  "▁Im": 5076,
  "▁Oh": 5077,
  "▁Wr": 5078,
  "▁ah": 5079,
  "▁sn": 5080,
  "AMUS": 5081,
  "aker": 5082,
  "ares": 5083,
  "ased": 5084,
  "athe": 5085,
  "ayed": 5086,
  "bble": 5087,
  "bert": 5088,
  "cels": 5089,
  "ders": 5090,
  "enge": 5091,
  "hern": 5092,
  "hrew": 5093,
  "iced": 5094,
  "icio": 5095,
  "iddy": 5096,
  "iege": 5097,
  "ilth": 5098,
  "ital": 5099,
  "ived": 5100,
  "iver": 5101,
  "lied": 5102,
  "nken": 5103,
  "oops": 5104,
  "oubt": 5105,
  "rage": 5106,
  "raid": 5107,
  "rank": 5108,
  "rity": 5109,
  "sire": 5110,
  "some": 5111,
  "ueen": 5112,
  "▁Att": 5113,
  "▁Bre": 5114,
  "▁Bur": 5115,
  "▁Del": 5116,
  "▁Ely": 5117,
  "▁Fal": 5118,
  "▁Imp": 5119,
  "▁Old": 5120,
  "▁Pri": 5121,
  "▁RUT": 5122,
  "▁Sur": 5123,
  "▁Wed": 5124,
  "▁Woe": 5125,
  "▁ale": 5126,
  "▁bag": 5127,
  "▁cat": 5128,
  "▁fix": 5129,
  "▁hig": 5130,
  "▁hom": 5131,
  "▁hop": 5132,
  "▁ink": 5133,
  "▁lur": 5134,
  "▁mil": 5135,
  "▁net": 5136,
  "▁orn": 5137,
  "▁sav": 5138,
  "▁tig": 5139,
  "▁tou": 5140,
  "▁tro": 5141,
  "▁unm": 5142,
  "▁yon": 5143,
  "ables": 5144,
  "acles": 5145,
  "agues": 5146,
  "ainty": 5147,
  "ansom": 5148,
  "ardel": 5149,
  "atest": 5150,
  "athed": 5151,
  "cheth": 5152,
  "chief": 5153,
  "eping": 5154,
  "ering": 5155,
  "hamed": 5156,
  "icate": 5157,
  "inate": 5158,
  "ision": 5159,
  "itiff": 5160,
  "keley": 5161,
  "ontes": 5162,
  "orney": 5163,
  "pense": 5164,
  "ratch": 5165,
  "rible": 5166,
  "twill": 5167,
  "unate": 5168,
  "▁Anne": 5169,
  "▁BARN": 5170,
  "▁Cast": 5171,
  "▁Dido": 5172,
  "▁Disp": 5173,
  "▁Does": 5174,
  "▁Fair": 5175,
  "▁Find": 5176,
  "▁Gree": 5177,
  "▁Hang": 5178,
  "▁Perc": 5179,
  "▁Send": 5180,
  "▁Vaug": 5181,
  "▁Wife": 5182,
  "▁ages": 5183,
  "▁alms": 5184,
  "▁bank": 5185,
  "▁bere": 5186,
  "▁bill": 5187,
  "▁bore": 5188,
  "▁butt": 5189,
  "▁caps": 5190,
  "▁coll": 5191,
  "▁cram": 5192,
  "▁crow": 5193,
  "▁date": 5194,
  "▁deaf": 5195,
  "▁dogs": 5196,
  "▁dove": 5197,
  "▁drag": 5198,
  "▁eter": 5199,
  "▁exam": 5200,
  "▁fant": 5201,
  "▁flow": 5202,
  "▁fret": 5203,
  "▁godd": 5204,
  "▁grew": 5205,
  "▁hare": 5206,
  "▁heat": 5207,
  "▁hers": 5208,
  "▁hind": 5209,
  "▁hire": 5210,
  "▁laws": 5211,
  "▁lets": 5212,
  "▁luck": 5213,
  "▁main": 5214,
  "▁neat": 5215,
  "▁nest": 5216,
  "▁nice": 5217,
  "▁numb": 5218,
  "▁nupt": 5219,
  "▁page": 5220,
  "▁paid": 5221,
  "▁path": 5222,
  "▁pear": 5223,
  "▁pern": 5224,
  "▁prep": 5225,
  "▁rank": 5226,
  "▁serp": 5227,
  "▁sirs": 5228,
  "▁subd": 5229,
  "▁thie": 5230,
  "▁thin": 5231,
  "▁tren": 5232,
  "▁trif": 5233,
  "▁unfe": 5234,
  "▁unse": 5235,
  "▁urge": 5236,
  "▁vent": 5237,
  "▁ward": 5238,
  "▁wolf": 5239,
  "▁wore": 5240,
  "▁worm": 5241,
  "▁zeal": 5242,
  "ARDINE": 5243,
  "IDAMUS": 5244,
  "ceives": 5245,
  "ending": 5246,
  "ercing": 5247,
  "fellow": 5248,
  "harged": 5249,
  "headed": 5250,
  "ilence": 5251,
  "ingers": 5252,
  "master": 5253,
  "orough": 5254,
  "pardon": 5255,
  "scalus": 5256,
  "ushing": 5257,
  "▁Elbow": 5258,
  "▁Grace": 5259,
  "▁Green": 5260,
  "▁Hadst": 5261,
  "▁Licio": 5262,
  "▁Prove": 5263,
  "▁Queen": 5264,
  "▁Shore": 5265,
  "▁abuse": 5266,
  "▁amiss": 5267,
  "▁angel": 5268,
  "▁appea": 5269,
  "▁backs": 5270,
  "▁bands": 5271,
  "▁beaut": 5272,
  "▁beget": 5273,
  "▁birds": 5274,
  "▁blast": 5275,
  "▁boast": 5276,
  "▁bread": 5277,
  "▁breed": 5278,
  "▁brown": 5279,
  "▁burns": 5280,
  "▁burnt": 5281,
  "▁charm": 5282,
  "▁cheap": 5283,
  "▁dower": 5284,
  "▁dozen": 5285,
  "▁flint": 5286,
  "▁forty": 5287,
  "▁freed": 5288,
  "▁giddy": 5289,
  "▁goods": 5290,
  "▁grain": 5291,
  "▁heels": 5292,
  "▁honey": 5293,
  "▁jewel": 5294,
  "▁lance": 5295,
  "▁limbs": 5296,
  "▁limit": 5297,
  "▁lower": 5298,
  "▁lying": 5299,
  "▁metal": 5300,
  "▁moral": 5301,
  "▁moves": 5302,
  "▁noted": 5303,
  "▁price": 5304,
  "▁prime": 5305,
  "▁reply": 5306,
  "▁share": 5307,
  "▁shook": 5308,
  "▁sings": 5309,
  "▁spoil": 5310,
  "▁stale": 5311,
  "▁steps": 5312,
  "▁stern": 5313,
  "▁straw": 5314,
  "▁suits": 5315,
  "▁sweat": 5316,
  "▁swore": 5317,
  "▁thumb": 5318,
  "▁torch": 5319,
  "▁troop": 5320,
  "▁trunk": 5321,
  "▁waves": 5322,
  "▁wills": 5323,
  "ribunes": 5324,
  "▁Cambio": 5325,
  "▁Making": 5326,
  "▁Strike": 5327,
  "▁Surrey": 5328,
  "▁Whiles": 5329,
  "▁arrest": 5330,
  "▁befall": 5331,
  "▁bestow": 5332,
  "▁borrow": 5333,
  "▁bottom": 5334,
  "▁contro": 5335,
  "▁covert": 5336,
  "▁escape": 5337,
  "▁fardel": 5338,
  "▁graced": 5339,
  "▁guests": 5340,
  "▁haught": 5341,
  "▁hungry": 5342,
  "▁injury": 5343,
  "▁joints": 5344,
  "▁likely": 5345,
  "▁liking": 5346,
  "▁livery": 5347,
  "▁looked": 5348,
  "▁meddle": 5349,
  "▁minute": 5350,
  "▁months": 5351,
  "▁parted": 5352,
  "▁places": 5353,
  "▁rapier": 5354,
  "▁rebels": 5355,
  "▁restra": 5356,
  "▁sacrif": 5357,
  "▁saints": 5358,
  "▁senses": 5359,
  "▁shapes": 5360,
  "▁shines": 5361,
  "▁shrift": 5362,
  "▁sooner": 5363,
  "▁sought": 5364,
  "▁spleen": 5365,
  "▁statue": 5366,
  "▁strive": 5367,
  "▁thirst": 5368,
  "▁transp": 5369,
  "▁troops": 5370,
  "▁tyrann": 5371,
  "▁unfold": 5372,
  "▁velvet": 5373,
  "▁weapon": 5374,
  "▁wooing": 5375,
  "▁yields": 5376,
  "▁Another": 5377,
  "▁Escalus": 5378,
  "▁Fortune": 5379,
  "▁Justice": 5380,
  "▁Leontes": 5381,
  "▁RUTLAND": 5382,
  "▁Vaughan": 5383,
  "▁Villain": 5384,
  "▁Whereto": 5385,
  "▁actions": 5386,
  "▁advised": 5387,
  "▁affords": 5388,
  "▁burning": 5389,
  "▁caitiff": 5390,
  "▁careful": 5391,
  "▁carried": 5392,
  "▁censure": 5393,
  "▁cherish": 5394,
  "▁clamour": 5395,
  "▁conjure": 5396,
  "▁disease": 5397,
  "▁dismiss": 5398,
  "▁drunken": 5399,
  "▁execute": 5400,
  "▁fearing": 5401,
  "▁happily": 5402,
  "▁imagine": 5403,
  "▁liberal": 5404,
  "▁madness": 5405,
  "▁misfort": 5406,
  "▁monarch": 5407,
  "▁monster": 5408,
  "▁nuptial": 5409,
  "▁offices": 5410,
  "▁peevish": 5411,
  "▁pitiful": 5412,
  "▁praises": 5413,
  "▁process": 5414,
  "▁putting": 5415,
  "▁rejoice": 5416,
  "▁royalty": 5417,
  "▁sadness": 5418,
  "▁scatter": 5419,
  "▁shallow": 5420,
  "▁stomach": 5421,
  "▁stretch": 5422,
  "▁suitors": 5423,
  "▁tapster": 5424,
  "▁telling": 5425,
  "▁thereby": 5426,
  "▁upright": 5427,
  "▁wanting": 5428,
  "▁whereon": 5429,
  "▁written": 5430,
  "▁Although": 5431,
  "▁Berkeley": 5432,
  "▁Laurence": 5433,
  "▁Remember": 5434,
  "▁anointed": 5435,
  "▁behavior": 5436,
  "▁bitterly": 5437,
  "▁bleeding": 5438,
  "▁blessing": 5439,
  "▁childish": 5440,
  "▁conceive": 5441,
  "▁counsell": 5442,
  "▁flourish": 5443,
  "▁immortal": 5444,
  "▁inclined": 5445,
  "▁lengthen": 5446,
  "▁likeness": 5447,
  "▁midnight": 5448,
  "▁nobility": 5449,
  "▁officers": 5450,
  "▁ruthless": 5451,
  "▁sleeping": 5452,
  "▁somewhat": 5453,
  "▁thinking": 5454,
  "▁tomorrow": 5455,
  "▁violence": 5456,
  "▁warriors": 5457,
  "▁Methought": 5458,
  "▁Wherefore": 5459,
  "▁Wiltshire": 5460,
  "▁apprehend": 5461,
  "▁breathing": 5462,
  "▁challenge": 5463,
  "▁character": 5464,
  "▁companion": 5465,
  "▁courteous": 5466,
  "▁discourse": 5467,
  "▁dispersed": 5468,
  "▁forthwith": 5469,
  "▁grandsire": 5470,
  "▁lightning": 5471,
  "▁methought": 5472,
  "▁necessity": 5473,
  "▁prettiest": 5474,
  "▁prevented": 5475,
  "▁senseless": 5476,
  "▁sepulchre": 5477,
  "▁substance": 5478,
  "▁ARCHIDAMUS": 5479,
  "▁BARNARDINE": 5480,
  "▁churchyard": 5481,
  "▁coronation": 5482,
  "▁pernicious": 5483,
  "▁possession": 5484,
  "▁proportion": 5485,
  "▁reputation": 5486,
  "▁succession": 5487,
  "▁threatening": 5488,
  "▁commonwealth": 5489,
  "▁intelligence": 5490,
  "▁proclamation": 5491,
  "AG": 5492,
  "IR": 5493,
  "OT": 5494,
  "ZW": 5495,
  "ta": 5496,
  "wd": 5497,
  "yc": 5498,
  "BAN": 5499,
  "CRO": 5500,
  "EOR": 5501,
  "MOR": 5502,
  "acy": 5503,
  "adv": 5504,
  "arm": 5505,
  "asp": 5506,
  "bey": 5507,
  "cri": 5508,
  "dal": 5509,
  "ded": 5510,
  "dst": 5511,
  "got": 5512,
  "hen": 5513,
  "ndy": 5514,
  "oes": 5515,
  "rog": 5516,
  "sen": 5517,
  "uns": 5518,
  "zed": 5519,
  "▁Em": 5520,
  "▁Ga": 5521,
  "▁Qu": 5522,
  "▁fr": 5523,
  "▁gn": 5524,
  "AGOT": 5525,
  "ATER": 5526,
  "ITZW": 5527,
  "ably": 5528,
  "aged": 5529,
  "agot": 5530,
  "ardy": 5531,
  "cket": 5532,
  "cure": 5533,
  "ersu": 5534,
  "foot": 5535,
  "give": 5536,
  "here": 5537,
  "hilo": 5538,
  "hire": 5539,
  "iban": 5540,
  "iece": 5541,
  "igon": 5542,
  "itch": 5543,
  "join": 5544,
  "kind": 5545,
  "lace": 5546,
  "olks": 5547,
  "oned": 5548,
  "rald": 5549,
  "reet": 5550,
  "rich": 5551,
  "riel": 5552,
  "roof": 5553,
  "spur": 5554,
  "that": 5555,
  "ulls": 5556,
  "umed": 5557,
  "upid": 5558,
  "ushi": 5559,
  "utch": 5560,
  "vied": 5561,
  "wing": 5562,
  "▁Add": 5563,
  "▁CAR": 5564,
  "▁ELY": 5565,
  "▁Fit": 5566,
  "▁Gra": 5567,
  "▁Hie": 5568,
  "▁Hon": 5569,
  "▁Mis": 5570,
  "▁SIR": 5571,
  "▁Saw": 5572,
  "▁Sly": 5573,
  "▁Sus": 5574,
  "▁Ten": 5575,
  "▁Wit": 5576,
  "▁aud": 5577,
  "▁bay": 5578,
  "▁bol": 5579,
  "▁bru": 5580,
  "▁cab": 5581,
  "▁cop": 5582,
  "▁dem": 5583,
  "▁fin": 5584,
  "▁gam": 5585,
  "▁gap": 5586,
  "▁ice": 5587,
  "▁inv": 5588,
  "▁leg": 5589,
  "▁lun": 5590,
  "▁mat": 5591,
  "▁mew": 5592,
  "▁nar": 5593,
  "▁pop": 5594,
  "▁por": 5595,
  "▁rag": 5596,
  "▁rue": 5597,
  "▁sau": 5598,
  "▁sca": 5599,
  "▁sed": 5600,
  "▁una": 5601,
  "▁wax": 5602,
  "▁wet": 5603,
  "CROOP": 5604,
  "ELAND": 5605,
  "EORGE": 5606,
  "EPHEN": 5607,
  "LIBAN": 5608,
  "LISLE": 5609,
  "alter": 5610,
  "arers": 5611,
  "blood": 5612,
  "chers": 5613,
  "emper": 5614,
  "erest": 5615,
  "guard": 5616,
  "gundy": 5617,
  "ickle": 5618,
  "igent": 5619,
  "igned": 5620,
  "ilful": 5621,
  "iliar": 5622,
  "iners": 5623,
  "iring": 5624,
  "ishes": 5625,
  "light": 5626,
  "mbers": 5627,
  "olved": 5628,
  "order": 5629,
  "oured": 5630,
  "ranch": 5631,
  "reant": 5632,
  "shall": 5633,
  "sophy": 5634,
  "ulous": 5635,
  "verty": 5636,
  "vided": 5637,
  "volio": 5638,
  "which": 5639,
  "▁Capt": 5640,
  "▁Desp": 5641,
  "▁Dian": 5642,
  "▁Else": 5643,
  "▁Ever": 5644,
  "▁Five": 5645,
  "▁Full": 5646,
  "▁Gard": 5647,
  "▁Jesu": 5648,
  "▁Live": 5649,
  "▁Much": 5650,
  "▁Name": 5651,
  "▁Part": 5652,
  "▁Virt": 5653,
  "▁WEST": 5654,
  "▁aged": 5655,
  "▁also": 5656,
  "▁anch": 5657,
  "▁balm": 5658,
  "▁beef": 5659,
  "▁bell": 5660,
  "▁bent": 5661,
  "▁brat": 5662,
  "▁busy": 5663,
  "▁buzz": 5664,
  "▁cent": 5665,
  "▁coat": 5666,
  "▁cook": 5667,
  "▁drew": 5668,
  "▁felt": 5669,
  "▁flat": 5670,
  "▁fray": 5671,
  "▁fres": 5672,
  "▁goss": 5673,
  "▁hail": 5674,
  "▁herd": 5675,
  "▁hist": 5676,
  "▁hoar": 5677,
  "▁hurl": 5678,
  "▁keys": 5679,
  "▁lect": 5680,
  "▁lewd": 5681,
  "▁load": 5682,
  "▁lock": 5683,
  "▁lour": 5684,
  "▁mars": 5685,
  "▁misc": 5686,
  "▁mour": 5687,
  "▁omit": 5688,
  "▁owes": 5689,
  "▁pace": 5690,
  "▁palm": 5691,
  "▁pent": 5692,
  "▁pick": 5693,
  "▁pict": 5694,
  "▁pill": 5695,
  "▁pomp": 5696,
  "▁push": 5697,
  "▁rack": 5698,
  "▁rate": 5699,
  "▁rear": 5700,
  "▁rend": 5701,
  "▁robb": 5702,
  "▁sess": 5703,
  "▁shel": 5704,
  "▁shop": 5705,
  "▁shru": 5706,
  "▁smil": 5707,
  "▁soci": 5708,
  "▁soil": 5709,
  "▁surp": 5710,
  "▁tack": 5711,
  "▁term": 5712,
  "▁tied": 5713,
  "▁tops": 5714,
  "▁tree": 5715,
  "▁trim": 5716,
  "▁unre": 5717,
  "▁vast": 5718,
  "▁wave": 5719,
  "▁week": 5720,
  "▁wipe": 5721,
  "action": 5722,
  "egrity": 5723,
  "idered": 5724,
  "igonus": 5725,
  "isting": 5726,
  "nesday": 5727,
  "owards": 5728,
  "spurgh": 5729,
  "tering": 5730,
  "ventry": 5731,
  "▁Above": 5732,
  "▁Adieu": 5733,
  "▁BAGOT": 5734,
  "▁Bagot": 5735,
  "▁Blunt": 5736,
  "▁Canst": 5737,
  "▁Comes": 5738,
  "▁EXTON": 5739,
  "▁FITZW": 5740,
  "▁False": 5741,
  "▁Persu": 5742,
  "▁Raven": 5743,
  "▁Shalt": 5744,
  "▁Swear": 5745,
  "▁Thine": 5746,
  "▁Trust": 5747,
  "▁Welsh": 5748,
  "▁Women": 5749,
  "▁Yield": 5750,
  "▁abund": 5751,
  "▁accom": 5752,
  "▁alleg": 5753,
  "▁amain": 5754,
  "▁ambit": 5755,
  "▁apace": 5756,
  "▁array": 5757,
  "▁beams": 5758,
  "▁beats": 5759,
  "▁clock": 5760,
  "▁cozen": 5761,
  "▁crook": 5762,
  "▁disin": 5763,
  "▁divor": 5764,
  "▁droop": 5765,
  "▁eaten": 5766,
  "▁eight": 5767,
  "▁ended": 5768,
  "▁exped": 5769,
  "▁falls": 5770,
  "▁fever": 5771,
  "▁fiend": 5772,
  "▁frail": 5773,
  "▁frank": 5774,
  "▁frost": 5775,
  "▁gains": 5776,
  "▁gifts": 5777,
  "▁goose": 5778,
  "▁helps": 5779,
  "▁imper": 5780,
  "▁infer": 5781,
  "▁insol": 5782,
  "▁lambs": 5783,
  "▁likes": 5784,
  "▁lions": 5785,
  "▁lists": 5786,
  "▁merri": 5787,
  "▁mould": 5788,
  "▁ought": 5789,
  "▁paint": 5790,
  "▁petty": 5791,
  "▁philo": 5792,
  "▁plebe": 5793,
  "▁purge": 5794,
  "▁raven": 5795,
  "▁reach": 5796,
  "▁revel": 5797,
  "▁robes": 5798,
  "▁rouse": 5799,
  "▁saved": 5800,
  "▁ships": 5801,
  "▁shoes": 5802,
  "▁sides": 5803,
  "▁silly": 5804,
  "▁skill": 5805,
  "▁slipp": 5806,
  "▁stays": 5807,
  "▁stead": 5808,
  "▁stops": 5809,
  "▁tired": 5810,
  "▁towns": 5811,
  "▁train": 5812,
  "▁waked": 5813,
  "▁wears": 5814,
  "ceiving": 5815,
  "isement": 5816,
  "iveness": 5817,
  "mediate": 5818,
  "onstant": 5819,
  "umbling": 5820,
  "▁Appear": 5821,
  "▁Curtis": 5822,
  "▁GEORGE": 5823,
  "▁Gaoler": 5824,
  "▁Minola": 5825,
  "▁Nature": 5826,
  "▁SCROOP": 5827,
  "▁Things": 5828,
  "▁Venice": 5829,
  "▁afraid": 5830,
  "▁amends": 5831,
  "▁aspect": 5832,
  "▁attain": 5833,
  "▁beaten": 5834,
  "▁betide": 5835,
  "▁boldly": 5836,
  "▁bowels": 5837,
  "▁brains": 5838,
  "▁bridal": 5839,
  "▁cheque": 5840,
  "▁chosen": 5841,
  "▁cloudy": 5842,
  "▁couple": 5843,
  "▁dearer": 5844,
  "▁depose": 5845,
  "▁detest": 5846,
  "▁eldest": 5847,
  "▁eleven": 5848,
  "▁errand": 5849,
  "▁esteem": 5850,
  "▁except": 5851,
  "▁falcon": 5852,
  "▁figure": 5853,
  "▁fondly": 5854,
  "▁gladly": 5855,
  "▁hazard": 5856,
  "▁height": 5857,
  "▁herald": 5858,
  "▁homely": 5859,
  "▁kisses": 5860,
  "▁landed": 5861,
  "▁lately": 5862,
  "▁livest": 5863,
  "▁lovers": 5864,
  "▁marvel": 5865,
  "▁middle": 5866,
  "▁narrow": 5867,
  "▁nights": 5868,
  "▁notice": 5869,
  "▁obsequ": 5870,
  "▁prefer": 5871,
  "▁prodig": 5872,
  "▁prompt": 5873,
  "▁proved": 5874,
  "▁purple": 5875,
  "▁ransom": 5876,
  "▁reckon": 5877,
  "▁riches": 5878,
  "▁savage": 5879,
  "▁seated": 5880,
  "▁seized": 5881,
  "▁severe": 5882,
  "▁signal": 5883,
  "▁slight": 5884,
  "▁sounds": 5885,
  "▁spread": 5886,
  "▁stolen": 5887,
  "▁storms": 5888,
  "▁strict": 5889,
  "▁swears": 5890,
  "▁takest": 5891,
  "▁testim": 5892,
  "▁tricks": 5893,
  "▁troubl": 5894,
  "▁vanity": 5895,
  "▁varlet": 5896,
  "▁wisely": 5897,
  "MORELAND": 5898,
  "perience": 5899,
  "▁Becomes": 5900,
  "▁CALIBAN": 5901,
  "▁Caliban": 5902,
  "▁Captain": 5903,
  "▁Comfort": 5904,
  "▁Neither": 5905,
  "▁Perhaps": 5906,
  "▁Prepare": 5907,
  "▁STEPHEN": 5908,
  "▁Towards": 5909,
  "▁Whereof": 5910,
  "▁amongst": 5911,
  "▁amorous": 5912,
  "▁ashamed": 5913,
  "▁bidding": 5914,
  "▁blemish": 5915,
  "▁ceremon": 5916,
  "▁cheerly": 5917,
  "▁conclud": 5918,
  "▁consequ": 5919,
  "▁couldst": 5920,
  "▁designs": 5921,
  "▁earthly": 5922,
  "▁example": 5923,
  "▁extreme": 5924,
  "▁fantast": 5925,
  "▁favours": 5926,
  "▁fingers": 5927,
  "▁freedom": 5928,
  "▁furnish": 5929,
  "▁ghostly": 5930,
  "▁goddess": 5931,
  "▁grandam": 5932,
  "▁grieved": 5933,
  "▁grieves": 5934,
  "▁heavier": 5935,
  "▁holding": 5936,
  "▁hopeful": 5937,
  "▁kinsmen": 5938,
  "▁knowing": 5939,
  "▁learned": 5940,
  "▁marvell": 5941,
  "▁members": 5942,
  "▁mightst": 5943,
  "▁neglect": 5944,
  "▁ourself": 5945,
  "▁outrage": 5946,
  "▁parents": 5947,
  "▁parties": 5948,
  "▁partner": 5949,
  "▁poverty": 5950,
  "▁presume": 5951,
  "▁profane": 5952,
  "▁prophes": 5953,
  "▁provide": 5954,
  "▁restore": 5955,
  "▁retired": 5956,
  "▁scratch": 5957,
  "▁settled": 5958,
  "▁signify": 5959,
  "▁smother": 5960,
  "▁sounded": 5961,
  "▁sweetly": 5962,
  "▁temples": 5963,
  "▁tempted": 5964,
  "▁thieves": 5965,
  "▁travell": 5966,
  "▁weapons": 5967,
  "▁winters": 5968,
  "▁worldly": 5969,
  "▁Benvolio": 5970,
  "▁Burgundy": 5971,
  "▁CARLISLE": 5972,
  "▁Coventry": 5973,
  "▁Gardener": 5974,
  "▁Patience": 5975,
  "▁Proclaim": 5976,
  "▁Tribunes": 5977,
  "▁Withdraw": 5978,
  "▁attorney": 5979,
  "▁bastards": 5980,
  "▁boldness": 5981,
  "▁compound": 5982,
  "▁conclude": 5983,
  "▁confound": 5984,
  "▁conquest": 5985,
  "▁contents": 5986,
  "▁courtier": 5987,
  "▁cowardly": 5988,
  "▁darkness": 5989,
  "▁devilish": 5990,
  "▁entrance": 5991,
  "▁greeting": 5992,
  "▁likewise": 5993,
  "▁merchant": 5994,
  "▁mildness": 5995,
  "▁mutinous": 5996,
  "▁persuade": 5997,
  "▁piercing": 5998,
  "▁preserve": 5999,
  "▁provoked": 6000,
  "▁revenges": 6001,
  "▁speaking": 6002,
  "▁suddenly": 6003,
  "▁thankful": 6004,
  "▁treasons": 6005,
  "▁troubled": 6006,
  "▁usurping": 6007,
  "▁villains": 6008,
  "▁youthful": 6009,
  "▁Antigonus": 6010,
  "▁FITZWATER": 6011,
  "▁Vouchsafe": 6012,
  "▁Wednesday": 6013,
  "▁ambitious": 6014,
  "▁condemned": 6015,
  "▁constable": 6016,
  "▁departure": 6017,
  "▁downright": 6018,
  "▁instantly": 6019,
  "▁integrity": 6020,
  "▁ministers": 6021,
  "▁musicians": 6022,
  "▁nobleness": 6023,
  "▁readiness": 6024,
  "▁reconcile": 6025,
  "▁sentenced": 6026,
  "▁tyrannous": 6027,
  "▁wandering": 6028,
  "▁accusation": 6029,
  "▁acquainted": 6030,
  "▁allegiance": 6031,
  "▁complexion": 6032,
  "▁entreaties": 6033,
  "▁estimation": 6034,
  "▁flattering": 6035,
  "▁lamentable": 6036,
  "▁misfortune": 6037,
  "▁neighbours": 6038,
  "▁occupation": 6039,
  "▁philosophy": 6040,
  "▁pilgrimage": 6041,
  "▁recompense": 6042,
  "▁substitute": 6043,
  "▁sufficient": 6044,
  "▁unkindness": 6045,
  "▁Ravenspurgh": 6046,
  "▁approbation": 6047,
  "▁destruction": 6048,
  "▁WESTMORELAND": 6049,
  "▁circumstance": 6050,
  "▁discontented": 6051,
  "▁satisfaction": 6052,
  "br": 6053,
  "do": 6054,
  "eb": 6055,
  "uc": 6056,
  "ug": 6057,
  "Hic": 6058,
  "amy": 6059,
  "bot": 6060,
  "boy": 6061,
  "cra": 6062,
  "cus": 6063,
  "des": 6064,
  "gea": 6065,
  "gic": 6066,
  "inu": 6067,
  "len": 6068,
  "lor": 6069,
  "low": 6070,
  "off": 6071,
  "ril": 6072,
  "rop": 6073,
  "tin": 6074,
  "uiv": 6075,
  "urb": 6076,
  "uts": 6077,
  "wer": 6078,
  "▁Ac": 6079,
  "▁Er": 6080,
  "▁ug": 6081,
  "What": 6082,
  "alks": 6083,
  "ands": 6084,
  "aped": 6085,
  "back": 6086,
  "bour": 6087,
  "bric": 6088,
  "cest": 6089,
  "ctor": 6090,
  "done": 6091,
  "ella": 6092,
  "eves": 6093,
  "ewks": 6094,
  "gues": 6095,
  "hage": 6096,
  "hand": 6097,
  "hors": 6098,
  "icle": 6099,
  "ifth": 6100,
  "inal": 6101,
  "kest": 6102,
  "lain": 6103,
  "last": 6104,
  "lect": 6105,
  "lier": 6106,
  "made": 6107,
  "nday": 6108,
  "oble": 6109,
  "onio": 6110,
  "orax": 6111,
  "oriz": 6112,
  "oses": 6113,
  "rish": 6114,
  "tied": 6115,
  "ules": 6116,
  "uned": 6117,
  "unis": 6118,
  "vive": 6119,
  "wear": 6120,
  "work": 6121,
  "▁Adv": 6122,
  "▁Aff": 6123,
  "▁Che": 6124,
  "▁Dep": 6125,
  "▁Div": 6126,
  "▁Har": 6127,
  "▁Jup": 6128,
  "▁Mur": 6129,
  "▁Ned": 6130,
  "▁Pem": 6131,
  "▁Rel": 6132,
  "▁Sit": 6133,
  "▁Syc": 6134,
  "▁Tra": 6135,
  "▁ack": 6136,
  "▁afe": 6137,
  "▁ann": 6138,
  "▁ape": 6139,
  "▁ash": 6140,
  "▁bul": 6141,
  "▁dot": 6142,
  "▁eff": 6143,
  "▁fan": 6144,
  "▁fox": 6145,
  "▁fre": 6146,
  "▁hag": 6147,
  "▁key": 6148,
  "▁mas": 6149,
  "▁moe": 6150,
  "▁mom": 6151,
  "▁nod": 6152,
  "▁obs": 6153,
  "▁pow": 6154,
  "▁pup": 6155,
  "▁rhe": 6156,
  "▁rig": 6157,
  "▁rum": 6158,
  "▁sap": 6159,
  "▁sow": 6160,
  "▁thw": 6161,
  "▁tie": 6162,
  "▁vul": 6163,
  "Twixt": 6164,
  "aints": 6165,
  "amity": 6166,
  "asant": 6167,
  "avour": 6168,
  "awful": 6169,
  "aying": 6170,
  "board": 6171,
  "ening": 6172,
  "horse": 6173,
  "iders": 6174,
  "inces": 6175,
  "inies": 6176,
  "inted": 6177,
  "ively": 6178,
  "lance": 6179,
  "longs": 6180,
  "ocate": 6181,
  "oster": 6182,
  "peian": 6183,
  "ption": 6184,
  "roach": 6185,
  "shine": 6186,
  "sooth": 6187,
  "there": 6188,
  "trees": 6189,
  "ually": 6190,
  "uring": 6191,
  "water": 6192,
  "▁ABRA": 6193,
  "▁Best": 6194,
  "▁Bold": 6195,
  "▁Cart": 6196,
  "▁Cont": 6197,
  "▁Dest": 6198,
  "▁Fall": 6199,
  "▁Fell": 6200,
  "▁Foul": 6201,
  "▁Happ": 6202,
  "▁Kent": 6203,
  "▁Kind": 6204,
  "▁Lead": 6205,
  "▁Lend": 6206,
  "▁Lies": 6207,
  "▁Nept": 6208,
  "▁Over": 6209,
  "▁Purs": 6210,
  "▁Read": 6211,
  "▁Scot": 6212,
  "▁Talk": 6213,
  "▁Troy": 6214,
  "▁Wert": 6215,
  "▁West": 6216,
  "▁acts": 6217,
  "▁aims": 6218,
  "▁alar": 6219,
  "▁amaz": 6220,
  "▁baby": 6221,
  "▁bail": 6222,
  "▁bald": 6223,
  "▁blot": 6224,
  "▁blue": 6225,
  "▁bowl": 6226,
  "▁bows": 6227,
  "▁cler": 6228,
  "▁cool": 6229,
  "▁cord": 6230,
  "▁crab": 6231,
  "▁crim": 6232,
  "▁dash": 6233,
  "▁dece": 6234,
  "▁deer": 6235,
  "▁defy": 6236,
  "▁desc": 6237,
  "▁dine": 6238,
  "▁diso": 6239,
  "▁dole": 6240,
  "▁dram": 6241,
  "▁earl": 6242,
  "▁fift": 6243,
  "▁fulf": 6244,
  "▁game": 6245,
  "▁grim": 6246,
  "▁gust": 6247,
  "▁harl": 6248,
  "▁heel": 6249,
  "▁hill": 6250,
  "▁inch": 6251,
  "▁lads": 6252,
  "▁leap": 6253,
  "▁lick": 6254,
  "▁lief": 6255,
  "▁lute": 6256,
  "▁mask": 6257,
  "▁meal": 6258,
  "▁meed": 6259,
  "▁milk": 6260,
  "▁nigh": 6261,
  "▁noon": 6262,
  "▁nort": 6263,
  "▁obsc": 6264,
  "▁pant": 6265,
  "▁peer": 6266,
  "▁perd": 6267,
  "▁pest": 6268,
  "▁plan": 6269,
  "▁pour": 6270,
  "▁race": 6271,
  "▁ranc": 6272,
  "▁rein": 6273,
  "▁roof": 6274,
  "▁runs": 6275,
  "▁rush": 6276,
  "▁sack": 6277,
  "▁shot": 6278,
  "▁silk": 6279,
  "▁sixt": 6280,
  "▁song": 6281,
  "▁stag": 6282,
  "▁summ": 6283,
  "▁terr": 6284,
  "▁torn": 6285,
  "▁trow": 6286,
  "▁undo": 6287,
  "▁vass": 6288,
  "▁veil": 6289,
  "▁vial": 6290,
  "▁welc": 6291,
  "▁yare": 6292,
  "BISHOP": 6293,
  "Zounds": 6294,
  "advent": 6295,
  "aments": 6296,
  "anders": 6297,
  "arried": 6298,
  "attern": 6299,
  "enches": 6300,
  "govern": 6301,
  "iments": 6302,
  "ittany": 6303,
  "lihood": 6304,
  "ossess": 6305,
  "ousins": 6306,
  "rament": 6307,
  "rantic": 6308,
  "twould": 6309,
  "uivant": 6310,
  "ulting": 6311,
  "▁Alban": 6312,
  "▁Ariel": 6313,
  "▁Bound": 6314,
  "▁Break": 6315,
  "▁Cupid": 6316,
  "▁Fetch": 6317,
  "▁Gives": 6318,
  "▁Ready": 6319,
  "▁Teach": 6320,
  "▁Tewks": 6321,
  "▁Thank": 6322,
  "▁Throw": 6323,
  "▁Touch": 6324,
  "▁Truly": 6325,
  "▁Tunis": 6326,
  "▁Twice": 6327,
  "▁aloud": 6328,
  "▁apart": 6329,
  "▁arise": 6330,
  "▁ashes": 6331,
  "▁blaze": 6332,
  "▁bliss": 6333,
  "▁blown": 6334,
  "▁brand": 6335,
  "▁cabin": 6336,
  "▁canop": 6337,
  "▁champ": 6338,
  "▁chose": 6339,
  "▁clean": 6340,
  "▁cloak": 6341,
  "▁coast": 6342,
  "▁cords": 6343,
  "▁crept": 6344,
  "▁crows": 6345,
  "▁crush": 6346,
  "▁cushi": 6347,
  "▁diest": 6348,
  "▁dined": 6349,
  "▁dried": 6350,
  "▁drift": 6351,
  "▁dukes": 6352,
  "▁eager": 6353,
  "▁evils": 6354,
  "▁faced": 6355,
  "▁fleet": 6356,
  "▁flock": 6357,
  "▁folks": 6358,
  "▁fount": 6359,
  "▁front": 6360,
  "▁fully": 6361,
  "▁gaunt": 6362,
  "▁grass": 6363,
  "▁groom": 6364,
  "▁haunt": 6365,
  "▁kites": 6366,
  "▁level": 6367,
  "▁linea": 6368,
  "▁lodge": 6369,
  "▁lowly": 6370,
  "▁mates": 6371,
  "▁medic": 6372,
  "▁midst": 6373,
  "▁model": 6374,
  "▁moody": 6375,
  "▁mouse": 6376,
  "▁murde": 6377,
  "▁nails": 6378,
  "▁named": 6379,
  "▁pearl": 6380,
  "▁pilot": 6381,
  "▁pinch": 6382,
  "▁prate": 6383,
  "▁print": 6384,
  "▁puiss": 6385,
  "▁rests": 6386,
  "▁roses": 6387,
  "▁sadly": 6388,
  "▁score": 6389,
  "▁seeks": 6390,
  "▁shade": 6391,
  "▁shown": 6392,
  "▁slily": 6393,
  "▁spark": 6394,
  "▁spurs": 6395,
  "▁stark": 6396,
  "▁steep": 6397,
  "▁stiff": 6398,
  "▁stink": 6399,
  "▁surpr": 6400,
  "▁swoon": 6401,
  "▁tardy": 6402,
  "▁theme": 6403,
  "▁tiger": 6404,
  "▁toads": 6405,
  "▁trees": 6406,
  "▁tutor": 6407,
  "▁unpro": 6408,
  "▁vouch": 6409,
  "▁waits": 6410,
  "▁whist": 6411,
  "▁worms": 6412,
  "▁wring": 6413,
  "advised": 6414,
  "angling": 6415,
  "emption": 6416,
  "ication": 6417,
  "racious": 6418,
  "rateful": 6419,
  "▁Answer": 6420,
  "▁Antium": 6421,
  "▁Bishop": 6422,
  "▁Murder": 6423,
  "▁Stands": 6424,
  "▁Sunday": 6425,
  "▁Virtue": 6426,
  "▁Walter": 6427,
  "▁abhorr": 6428,
  "▁accomp": 6429,
  "▁acknow": 6430,
  "▁afeard": 6431,
  "▁ancest": 6432,
  "▁angels": 6433,
  "▁asking": 6434,
  "▁belong": 6435,
  "▁bereft": 6436,
  "▁beside": 6437,
  "▁bestri": 6438,
  "▁bosoms": 6439,
  "▁bounty": 6440,
  "▁branch": 6441,
  "▁breaks": 6442,
  "▁burden": 6443,
  "▁butter": 6444,
  "▁causes": 6445,
  "▁closed": 6446,
  "▁crying": 6447,
  "▁dearth": 6448,
  "▁deform": 6449,
  "▁depend": 6450,
  "▁devils": 6451,
  "▁devour": 6452,
  "▁distra": 6453,
  "▁easily": 6454,
  "▁embass": 6455,
  "▁enrich": 6456,
  "▁exceed": 6457,
  "▁fallen": 6458,
  "▁feasts": 6459,
  "▁framed": 6460,
  "▁frozen": 6461,
  "▁gather": 6462,
  "▁graces": 6463,
  "▁growth": 6464,
  "▁herein": 6465,
  "▁hinder": 6466,
  "▁insinu": 6467,
  "▁invent": 6468,
  "▁inward": 6469,
  "▁knocks": 6470,
  "▁leaden": 6471,
  "▁lenity": 6472,
  "▁lights": 6473,
  "▁linger": 6474,
  "▁lodged": 6475,
  "▁magist": 6476,
  "▁meaner": 6477,
  "▁mildly": 6478,
  "▁moiety": 6479,
  "▁moment": 6480,
  "▁moving": 6481,
  "▁nimble": 6482,
  "▁orator": 6483,
  "▁patron": 6484,
  "▁pedlar": 6485,
  "▁pitied": 6486,
  "▁plants": 6487,
  "▁pursue": 6488,
  "▁reigns": 6489,
  "▁resemb": 6490,
  "▁rushes": 6491,
  "▁safely": 6492,
  "▁search": 6493,
  "▁speedy": 6494,
  "▁spider": 6495,
  "▁stocks": 6496,
  "▁strife": 6497,
  "▁taking": 6498,
  "▁taunts": 6499,
  "▁temple": 6500,
  "▁thrown": 6501,
  "▁unlike": 6502,
  "▁unlook": 6503,
  "▁unluck": 6504,
  "▁unruly": 6505,
  "▁unseen": 6506,
  "▁utmost": 6507,
  "▁watery": 6508,
  "▁wedded": 6509,
  "▁window": 6510,
  "▁worser": 6511,
  "▁yester": 6512,
  "isterous": 6513,
  "shearing": 6514,
  "standing": 6515,
  "▁ABRAHAM": 6516,
  "▁Antonio": 6517,
  "▁Command": 6518,
  "▁Confess": 6519,
  "▁Content": 6520,
  "▁Courage": 6521,
  "▁Jupiter": 6522,
  "▁Mistake": 6523,
  "▁Neptune": 6524,
  "▁Prosper": 6525,
  "▁Suppose": 6526,
  "▁Sycorax": 6527,
  "▁Thyself": 6528,
  "▁adverse": 6529,
  "▁afflict": 6530,
  "▁appears": 6531,
  "▁avoided": 6532,
  "▁battles": 6533,
  "▁beggars": 6534,
  "▁bending": 6535,
  "▁breasts": 6536,
  "▁carries": 6537,
  "▁chances": 6538,
  "▁charges": 6539,
  "▁climate": 6540,
  "▁compare": 6541,
  "▁dancing": 6542,
  "▁destiny": 6543,
  "▁dissemb": 6544,
  "▁disturb": 6545,
  "▁endured": 6546,
  "▁eternal": 6547,
  "▁falling": 6548,
  "▁fifteen": 6549,
  "▁frantic": 6550,
  "▁glasses": 6551,
  "▁hangman": 6552,
  "▁harbour": 6553,
  "▁harmony": 6554,
  "▁harvest": 6555,
  "▁heinous": 6556,
  "▁history": 6557,
  "▁ignoble": 6558,
  "▁impeach": 6559,
  "▁inquire": 6560,
  "▁intents": 6561,
  "▁lasting": 6562,
  "▁leaving": 6563,
  "▁loathed": 6564,
  "▁lodging": 6565,
  "▁loyalty": 6566,
  "▁lunatic": 6567,
  "▁manhood": 6568,
  "▁marshal": 6569,
  "▁midwife": 6570,
  "▁minutes": 6571,
  "▁mothers": 6572,
  "▁murders": 6573,
  "▁mustard": 6574,
  "▁numbers": 6575,
  "▁persons": 6576,
  "▁popular": 6577,
  "▁prating": 6578,
  "▁pursuit": 6579,
  "▁quarter": 6580,
  "▁require": 6581,
  "▁revenue": 6582,
  "▁roaring": 6583,
  "▁secrets": 6584,
  "▁serious": 6585,
  "▁serpent": 6586,
  "▁sitting": 6587,
  "▁sixteen": 6588,
  "▁springs": 6589,
  "▁steward": 6590,
  "▁support": 6591,
  "▁surfeit": 6592,
  "▁talking": 6593,
  "▁thereto": 6594,
  "▁trifles": 6595,
  "▁venture": 6596,
  "▁wronged": 6597,
  "adventure": 6598,
  "▁Brittany": 6599,
  "▁Capulets": 6600,
  "▁Carthage": 6601,
  "▁Isabella": 6602,
  "▁Pembroke": 6603,
  "▁Scotland": 6604,
  "▁Sometime": 6605,
  "▁Tarpeian": 6606,
  "▁Volscian": 6607,
  "▁advanced": 6608,
  "▁advocate": 6609,
  "▁approved": 6610,
  "▁attended": 6611,
  "▁believed": 6612,
  "▁blushing": 6613,
  "▁branches": 6614,
  "▁calamity": 6615,
  "▁changing": 6616,
  "▁chiefest": 6617,
  "▁commands": 6618,
  "▁commends": 6619,
  "▁concerns": 6620,
  "▁confeder": 6621,
  "▁cracking": 6622,
  "▁damnable": 6623,
  "▁delicate": 6624,
  "▁despised": 6625,
  "▁distress": 6626,
  "▁doubtful": 6627,
  "▁downfall": 6628,
  "▁drinking": 6629,
  "▁enforced": 6630,
  "▁entreaty": 6631,
  "▁everlast": 6632,
  "▁extremes": 6633,
  "▁familiar": 6634,
  "▁forehead": 6635,
  "▁forsooth": 6636,
  "▁humility": 6637,
  "▁incensed": 6638,
  "▁infected": 6639,
  "▁learning": 6640,
  "▁manifest": 6641,
  "▁mischief": 6642,
  "▁mountain": 6643,
  "▁murdered": 6644,
  "▁musician": 6645,
  "▁nighting": 6646,
  "▁northern": 6647,
  "▁offences": 6648,
  "▁perjured": 6649,
  "▁prophecy": 6650,
  "▁prophesy": 6651,
  "▁proudest": 6652,
  "▁provided": 6653,
  "▁recreant": 6654,
  "▁reported": 6655,
  "▁sensible": 6656,
  "▁singular": 6657,
  "▁smallest": 6658,
  "▁statutes": 6659,
  "▁sweetest": 6660,
  "▁swelling": 6661,
  "▁unworthy": 6662,
  "▁whoreson": 6663,
  "▁wrinkled": 6664,
  "▁yielding": 6665,
  "▁Montagues": 6666,
  "▁Tewksbury": 6667,
  "▁Volscians": 6668,
  "▁afterward": 6669,
  "▁confessor": 6670,
  "▁conqueror": 6671,
  "▁discharge": 6672,
  "▁disgraced": 6673,
  "▁guiltless": 6674,
  "▁injustice": 6675,
  "▁innocence": 6676,
  "▁interrupt": 6677,
  "▁loathsome": 6678,
  "▁multitude": 6679,
  "▁murderous": 6680,
  "▁ornaments": 6681,
  "▁otherwise": 6682,
  "▁plebeians": 6683,
  "▁royalties": 6684,
  "▁sacrament": 6685,
  "▁safeguard": 6686,
  "▁shoulders": 6687,
  "▁suffering": 6688,
  "▁thousands": 6689,
  "▁unwilling": 6690,
  "▁wonderful": 6691,
  "▁ARCHBISHOP": 6692,
  "▁Lieutenant": 6693,
  "▁boisterous": 6694,
  "▁compassion": 6695,
  "▁conclusion": 6696,
  "▁confession": 6697,
  "▁confidence": 6698,
  "▁considered": 6699,
  "▁correction": 6700,
  "▁corruption": 6701,
  "▁counsellor": 6702,
  "▁flatterers": 6703,
  "▁friendship": 6704,
  "▁henceforth": 6705,
  "▁likelihood": 6706,
  "▁marvellous": 6707,
  "▁oppression": 6708,
  "▁perfection": 6709,
  "▁prosperity": 6710,
  "▁redemption": 6711,
  "▁revengeful": 6712,
  "▁slanderous": 6713,
  "▁sufferance": 6714,
  "▁tenderness": 6715,
  "▁visitation": 6716,
  "▁whatsoever": 6717,
  "▁whispering": 6718,
  "▁brotherhood": 6719,
  "▁ceremonious": 6720,
  "▁consequence": 6721,
  "▁displeasure": 6722,
  "▁imagination": 6723,
  "▁lamentation": 6724,
  "▁proceedings": 6725,
  "Be": 6726,
  "He": 6727,
  "St": 6728,
  "cr": 6729,
  "ex": 6730,
  "lm": 6731,
  "lu": 6732,
  "ph": 6733,
  "AGE": 6734,
  "ANI": 6735,
  "ONA": 6736,
  "REY": 6737,
  "The": 6738,
  "ado": 6739,
  "ais": 6740,
  "ald": 6741,
  "ank": 6742,
  "asy": 6743,
  "ato": 6744,
  "aws": 6745,
  "bid": 6746,
  "cat": 6747,
  "cel": 6748,
  "cip": 6749,
  "cis": 6750,
  "civ": 6751,
  "eks": 6752,
  "eny": 6753,
  "hur": 6754,
  "idd": 6755,
  "iel": 6756,
  "imo": 6757,
  "ims": 6758,
  "iqu": 6759,
  "isk": 6760,
  "jud": 6761,
  "key": 6762,
  "lip": 6763,
  "met": 6764,
  "mph": 6765,
  "ops": 6766,
  "rge": 6767,
  "ros": 6768,
  "rup": 6769,
  "ted": 6770,
  "thw": 6771,
  "uge": 6772,
  "ule": 6773,
  "ums": 6774,
  "wit": 6775,
  "▁Ag": 6776,
  "▁Cy": 6777,
  "▁Du": 6778,
  "▁EM": 6779,
  "▁Ro": 6780,
  "▁av": 6781,
  "▁hy": 6782,
  "▁om": 6783,
  "▁vi": 6784,
  "Gain": 6785,
  "This": 6786,
  "adem": 6787,
  "atri": 6788,
  "azon": 6789,
  "bell": 6790,
  "bles": 6791,
  "cast": 6792,
  "cock": 6793,
  "core": 6794,
  "cund": 6795,
  "duce": 6796,
  "ebus": 6797,
  "ffer": 6798,
  "gage": 6799,
  "ghts": 6800,
  "gled": 6801,
  "good": 6802,
  "gory": 6803,
  "gued": 6804,
  "iner": 6805,
  "inew": 6806,
  "ingu": 6807,
  "itty": 6808,
  "ival": 6809,
  "izab": 6810,
  "kens": 6811,
  "lled": 6812,
  "look": 6813,
  "loqu": 6814,
  "love": 6815,
  "miss": 6816,
  "mpet": 6817,
  "odow": 6818,
  "olar": 6819,
  "olve": 6820,
  "omin": 6821,
  "peci": 6822,
  "phan": 6823,
  "pped": 6824,
  "ppet": 6825,
  "pret": 6826,
  "quet": 6827,
  "quis": 6828,
  "reth": 6829,
  "rial": 6830,
  "rief": 6831,
  "rion": 6832,
  "ropp": 6833,
  "seem": 6834,
  "seth": 6835,
  "side": 6836,
  "sion": 6837,
  "sses": 6838,
  "uced": 6839,
  "umes": 6840,
  "umny": 6841,
  "umps": 6842,
  "ungs": 6843,
  "upon": 6844,
  "urer": 6845,
  "urvy": 6846,
  "voke": 6847,
  "will": 6848,
  "xton": 6849,
  "your": 6850,
  "▁Any": 6851,
  "▁Arm": 6852,
  "▁Ass": 6853,
  "▁Bad": 6854,
  "▁Ban": 6855,
  "▁Def": 6856,
  "▁Dor": 6857,
  "▁End": 6858,
  "▁Fly": 6859,
  "▁Ill": 6860,
  "▁Ins": 6861,
  "▁Jer": 6862,
  "▁Jud": 6863,
  "▁Jun": 6864,
  "▁Lam": 6865,
  "▁Pha": 6866,
  "▁Pho": 6867,
  "▁Red": 6868,
  "▁Ren": 6869,
  "▁Run": 6870,
  "▁SUR": 6871,
  "▁Sin": 6872,
  "▁Tur": 6873,
  "▁box": 6874,
  "▁coz": 6875,
  "▁ded": 6876,
  "▁der": 6877,
  "▁dil": 6878,
  "▁ebb": 6879,
  "▁fem": 6880,
  "▁fet": 6881,
  "▁fif": 6882,
  "▁gaz": 6883,
  "▁haw": 6884,
  "▁ire": 6885,
  "▁kna": 6886,
  "▁mum": 6887,
  "▁non": 6888,
  "▁obt": 6889,
  "▁pox": 6890,
  "▁ren": 6891,
  "▁stu": 6892,
  "▁tax": 6893,
  "▁tea": 6894,
  "▁toe": 6895,
  "▁ton": 6896,
  "▁toy": 6897,
  "▁tur": 6898,
  "▁vig": 6899,
  "ANIEL": 6900,
  "Twill": 6901,
  "aches": 6902,
  "adise": 6903,
  "alion": 6904,
  "allel": 6905,
  "andle": 6906,
  "antle": 6907,
  "asing": 6908,
  "athom": 6909,
  "blown": 6910,
  "chool": 6911,
  "craft": 6912,
  "echer": 6913,
  "eches": 6914,
  "ethon": 6915,
  "feits": 6916,
  "glass": 6917,
  "gnant": 6918,
  "grown": 6919,
  "habit": 6920,
  "heard": 6921,
  "holds": 6922,
  "icial": 6923,
  "iding": 6924,
  "illed": 6925,
  "isome": 6926,
  "ivers": 6927,
  "licit": 6928,
  "lling": 6929,
  "neath": 6930,
  "nsion": 6931,
  "opher": 6932,
  "overy": 6933,
  "plish": 6934,
  "ptory": 6935,
  "rails": 6936,
  "rieve": 6937,
  "runes": 6938,
  "scals": 6939,
  "scape": 6940,
  "ships": 6941,
  "stone": 6942,
  "strel": 6943,
  "thing": 6944,
  "throw": 6945,
  "tised": 6946,
  "verse": 6947,
  "versy": 6948,
  "whelm": 6949,
  "where": 6950,
  "▁BONA": 6951,
  "▁Back": 6952,
  "▁Cher": 6953,
  "▁Cold": 6954,
  "▁DION": 6955,
  "▁Fill": 6956,
  "▁Fran": 6957,
  "▁Gold": 6958,
  "▁Harp": 6959,
  "▁Herc": 6960,
  "▁High": 6961,
  "▁Holy": 6962,
  "▁Host": 6963,
  "▁Join": 6964,
  "▁Just": 6965,
  "▁Left": 6966,
  "▁NATH": 6967,
  "▁Obey": 6968,
  "▁Open": 6969,
  "▁PAGE": 6970,
  "▁Pres": 6971,
  "▁Prof": 6972,
  "▁Rest": 6973,
  "▁Urge": 6974,
  "▁abod": 6975,
  "▁abst": 6976,
  "▁airy": 6977,
  "▁alto": 6978,
  "▁answ": 6979,
  "▁arch": 6980,
  "▁awry": 6981,
  "▁beet": 6982,
  "▁boon": 6983,
  "▁bush": 6984,
  "▁cann": 6985,
  "▁card": 6986,
  "▁cave": 6987,
  "▁chaf": 6988,
  "▁chap": 6989,
  "▁chop": 6990,
  "▁clap": 6991,
  "▁coal": 6992,
  "▁crew": 6993,
  "▁cuck": 6994,
  "▁dame": 6995,
  "▁diet": 6996,
  "▁doct": 6997,
  "▁dumb": 6998,
  "▁farm": 6999,
  "▁feat": 7000,
  "▁fest": 7001,
  "▁fits": 7002,
  "▁foil": 7003,
  "▁fold": 7004,
  "▁forn": 7005,
  "▁gait": 7006,
  "▁gaol": 7007,
  "▁gape": 7008,
  "▁geld": 7009,
  "▁gulf": 7010,
  "▁hall": 7011,
  "▁halt": 7012,
  "▁heap": 7013,
  "▁hole": 7014,
  "▁hood": 7015,
  "▁idly": 7016,
  "▁inve": 7017,
  "▁jade": 7018,
  "▁knit": 7019,
  "▁lace": 7020,
  "▁levy": 7021,
  "▁liar": 7022,
  "▁link": 7023,
  "▁liqu": 7024,
  "▁male": 7025,
  "▁marr": 7026,
  "▁mast": 7027,
  "▁moan": 7028,
  "▁muff": 7029,
  "▁negl": 7030,
  "▁obst": 7031,
  "▁pate": 7032,
  "▁pays": 7033,
  "▁perf": 7034,
  "▁pine": 7035,
  "▁prec": 7036,
  "▁puff": 7037,
  "▁pull": 7038,
  "▁rats": 7039,
  "▁rent": 7040,
  "▁ridd": 7041,
  "▁rode": 7042,
  "▁sear": 7043,
  "▁sequ": 7044,
  "▁sith": 7045,
  "▁spar": 7046,
  "▁sped": 7047,
  "▁stem": 7048,
  "▁sued": 7049,
  "▁sugg": 7050,
  "▁sung": 7051,
  "▁syll": 7052,
  "▁tink": 7053,
  "▁ugly": 7054,
  "▁unth": 7055,
  "▁vine": 7056,
  "▁warn": 7057,
  "▁wasp": 7058,
  "▁weal": 7059,
  "▁weed": 7060,
  "▁whet": 7061,
  "Gainst": 7062,
  "actors": 7063,
  "ailing": 7064,
  "aining": 7065,
  "antime": 7066,
  "apable": 7067,
  "arison": 7068,
  "asures": 7069,
  "bearer": 7070,
  "cedent": 7071,
  "chelor": 7072,
  "elting": 7073,
  "erving": 7074,
  "estern": 7075,
  "franch": 7076,
  "iquity": 7077,
  "ivered": 7078,
  "leness": 7079,
  "liness": 7080,
  "mongst": 7081,
  "omenes": 7082,
  "orizel": 7083,
  "otless": 7084,
  "ouches": 7085,
  "piring": 7086,
  "randam": 7087,
  "ressed": 7088,
  "rician": 7089,
  "riment": 7090,
  "strong": 7091,
  "terate": 7092,
  "ueless": 7093,
  "uments": 7094,
  "voided": 7095,
  "witted": 7096,
  "▁Again": 7097,
  "▁Arise": 7098,
  "▁Carry": 7099,
  "▁Every": 7100,
  "▁Fifth": 7101,
  "▁Flore": 7102,
  "▁Forth": 7103,
  "▁Groom": 7104,
  "▁Infer": 7105,
  "▁Knock": 7106,
  "▁Lodow": 7107,
  "▁Lovel": 7108,
  "▁Mercy": 7109,
  "▁Percy": 7110,
  "▁Seize": 7111,
  "▁Shame": 7112,
  "▁Sixth": 7113,
  "▁Smile": 7114,
  "▁Tarqu": 7115,
  "▁Wales": 7116,
  "▁Whate": 7117,
  "▁Worse": 7118,
  "▁Write": 7119,
  "▁actor": 7120,
  "▁admir": 7121,
  "▁admit": 7122,
  "▁afoot": 7123,
  "▁afore": 7124,
  "▁allay": 7125,
  "▁aloof": 7126,
  "▁amend": 7127,
  "▁antic": 7128,
  "▁apply": 7129,
  "▁arbit": 7130,
  "▁argos": 7131,
  "▁armed": 7132,
  "▁beads": 7133,
  "▁befal": 7134,
  "▁begot": 7135,
  "▁blade": 7136,
  "▁bleed": 7137,
  "▁bodes": 7138,
  "▁bount": 7139,
  "▁brass": 7140,
  "▁brawl": 7141,
  "▁bribe": 7142,
  "▁broad": 7143,
  "▁budge": 7144,
  "▁chest": 7145,
  "▁climb": 7146,
  "▁coals": 7147,
  "▁crest": 7148,
  "▁dared": 7149,
  "▁decay": 7150,
  "▁doors": 7151,
  "▁doves": 7152,
  "▁draws": 7153,
  "▁drows": 7154,
  "▁eloqu": 7155,
  "▁embra": 7156,
  "▁error": 7157,
  "▁exact": 7158,
  "▁fills": 7159,
  "▁filth": 7160,
  "▁flame": 7161,
  "▁foret": 7162,
  "▁graft": 7163,
  "▁greyh": 7164,
  "▁hatch": 7165,
  "▁hazel": 7166,
  "▁hears": 7167,
  "▁hedge": 7168,
  "▁heigh": 7169,
  "▁herbs": 7170,
  "▁holid": 7171,
  "▁imped": 7172,
  "▁impud": 7173,
  "▁lends": 7174,
  "▁locks": 7175,
  "▁loins": 7176,
  "▁loose": 7177,
  "▁lungs": 7178,
  "▁madly": 7179,
  "▁magic": 7180,
  "▁miles": 7181,
  "▁musty": 7182,
  "▁noses": 7183,
  "▁notes": 7184,
  "▁penny": 7185,
  "▁perem": 7186,
  "▁plate": 7187,
  "▁prays": 7188,
  "▁privy": 7189,
  "▁pupil": 7190,
  "▁quake": 7191,
  "▁rages": 7192,
  "▁rebel": 7193,
  "▁relig": 7194,
  "▁repet": 7195,
  "▁ripen": 7196,
  "▁rites": 7197,
  "▁rocks": 7198,
  "▁safer": 7199,
  "▁sands": 7200,
  "▁saucy": 7201,
  "▁scape": 7202,
  "▁scour": 7203,
  "▁separ": 7204,
  "▁shift": 7205,
  "▁shout": 7206,
  "▁siege": 7207,
  "▁signs": 7208,
  "▁sinew": 7209,
  "▁slack": 7210,
  "▁spilt": 7211,
  "▁split": 7212,
  "▁staff": 7213,
  "▁stirs": 7214,
  "▁sugar": 7215,
  "▁tamed": 7216,
  "▁tents": 7217,
  "▁thres": 7218,
  "▁token": 7219,
  "▁tower": 7220,
  "▁treat": 7221,
  "▁tried": 7222,
  "▁truer": 7223,
  "▁unple": 7224,
  "▁using": 7225,
  "▁value": 7226,
  "▁waken": 7227,
  "▁wheel": 7228,
  "▁whipt": 7229,
  "enerate": 7230,
  "entious": 7231,
  "fulness": 7232,
  "herited": 7233,
  "itories": 7234,
  "izabeth": 7235,
  "kenbury": 7236,
  "picious": 7237,
  "shining": 7238,
  "venient": 7239,
  "▁Attend": 7240,
  "▁Belike": 7241,
  "▁Calais": 7242,
  "▁Commit": 7243,
  "▁Cursed": 7244,
  "▁Darest": 7245,
  "▁Direct": 7246,
  "▁EMILIA": 7247,
  "▁Emilia": 7248,
  "▁Enough": 7249,
  "▁Forbid": 7250,
  "▁Greece": 7251,
  "▁Hector": 7252,
  "▁Herald": 7253,
  "▁Neighb": 7254,
  "▁Renown": 7255,
  "▁Repent": 7256,
  "▁SURREY": 7257,
  "▁Twenty": 7258,
  "▁Verily": 7259,
  "▁agreed": 7260,
  "▁allies": 7261,
  "▁anchor": 7262,
  "▁appell": 7263,
  "▁ashore": 7264,
  "▁assemb": 7265,
  "▁attent": 7266,
  "▁befits": 7267,
  "▁beseem": 7268,
  "▁beware": 7269,
  "▁bishop": 7270,
  "▁bleeds": 7271,
  "▁bought": 7272,
  "▁braved": 7273,
  "▁canker": 7274,
  "▁canopy": 7275,
  "▁caused": 7276,
  "▁centre": 7277,
  "▁chains": 7278,
  "▁chival": 7279,
  "▁coldly": 7280,
  "▁combat": 7281,
  "▁confer": 7282,
  "▁contri": 7283,
  "▁create": 7284,
  "▁darken": 7285,
  "▁debase": 7286,
  "▁deeper": 7287,
  "▁deeply": 7288,
  "▁defect": 7289,
  "▁denial": 7290,
  "▁device": 7291,
  "▁diadem": 7292,
  "▁dragon": 7293,
  "▁dreamt": 7294,
  "▁dwells": 7295,
  "▁entire": 7296,
  "▁events": 7297,
  "▁famish": 7298,
  "▁female": 7299,
  "▁fights": 7300,
  "▁firmly": 7301,
  "▁fitted": 7302,
  "▁forces": 7303,
  "▁forest": 7304,
  "▁fouler": 7305,
  "▁gaoler": 7306,
  "▁gloves": 7307,
  "▁harlot": 7308,
  "▁higher": 7309,
  "▁homage": 7310,
  "▁horror": 7311,
  "▁hunger": 7312,
  "▁impart": 7313,
  "▁infirm": 7314,
  "▁issued": 7315,
  "▁jocund": 7316,
  "▁killed": 7317,
  "▁latest": 7318,
  "▁limits": 7319,
  "▁looker": 7320,
  "▁louder": 7321,
  "▁madest": 7322,
  "▁madman": 7323,
  "▁malign": 7324,
  "▁marble": 7325,
  "▁mellow": 7326,
  "▁merely": 7327,
  "▁minded": 7328,
  "▁mutiny": 7329,
  "▁napkin": 7330,
  "▁naught": 7331,
  "▁needle": 7332,
  "▁nobler": 7333,
  "▁nursed": 7334,
  "▁obtain": 7335,
  "▁orphan": 7336,
  "▁pedant": 7337,
  "▁permit": 7338,
  "▁pledge": 7339,
  "▁plucks": 7340,
  "▁pocket": 7341,
  "▁pounds": 7342,
  "▁prerog": 7343,
  "▁profan": 7344,
  "▁prunes": 7345,
  "▁puppet": 7346,
  "▁quaint": 7347,
  "▁queens": 7348,
  "▁ragged": 7349,
  "▁raging": 7350,
  "▁rebuke": 7351,
  "▁render": 7352,
  "▁rescue": 7353,
  "▁resort": 7354,
  "▁rising": 7355,
  "▁rivers": 7356,
  "▁sayest": 7357,
  "▁scorns": 7358,
  "▁shower": 7359,
  "▁shriek": 7360,
  "▁shrink": 7361,
  "▁silken": 7362,
  "▁skulls": 7363,
  "▁sleeps": 7364,
  "▁sleepy": 7365,
  "▁solely": 7366,
  "▁spices": 7367,
  "▁starve": 7368,
  "▁strait": 7369,
  "▁stream": 7370,
  "▁street": 7371,
  "▁succor": 7372,
  "▁sunder": 7373,
  "▁suppli": 7374,
  "▁sweets": 7375,
  "▁tailor": 7376,
  "▁thorns": 7377,
  "▁threes": 7378,
  "▁trades": 7379,
  "▁tumble": 7380,
  "▁turned": 7381,
  "▁unborn": 7382,
  "▁unrest": 7383,
  "▁vassal": 7384,
  "▁volume": 7385,
  "▁vulgar": 7386,
  "▁widows": 7387,
  "▁wilful": 7388,
  "▁winged": 7389,
  "▁wisest": 7390,
  "▁woeful": 7391,
  "▁wolves": 7392,
  "ervation": 7393,
  "ifferent": 7394,
  "osterous": 7395,
  "pecially": 7396,
  "▁Advance": 7397,
  "▁Amongst": 7398,
  "▁Beshrew": 7399,
  "▁Between": 7400,
  "▁Betwixt": 7401,
  "▁Condemn": 7402,
  "▁Forbear": 7403,
  "▁Francis": 7404,
  "▁Grandam": 7405,
  "▁Gregory": 7406,
  "▁Masters": 7407,
  "▁Measure": 7408,
  "▁Phoebus": 7409,
  "▁achieve": 7410,
  "▁appoint": 7411,
  "▁assault": 7412,
  "▁baggage": 7413,
  "▁banquet": 7414,
  "▁beastly": 7415,
  "▁beating": 7416,
  "▁beguile": 7417,
  "▁blister": 7418,
  "▁calumny": 7419,
  "▁capital": 7420,
  "▁captive": 7421,
  "▁changes": 7422,
  "▁closely": 7423,
  "▁conspir": 7424,
  "▁contrad": 7425,
  "▁cordial": 7426,
  "▁council": 7427,
  "▁counted": 7428,
  "▁cousins": 7429,
  "▁created": 7430,
  "▁cuckold": 7431,
  "▁curious": 7432,
  "▁curtain": 7433,
  "▁dangers": 7434,
  "▁deceive": 7435,
  "▁degrees": 7436,
  "▁demands": 7437,
  "▁direful": 7438,
  "▁disobed": 7439,
  "▁divided": 7440,
  "▁divines": 7441,
  "▁divorce": 7442,
  "▁earldom": 7443,
  "▁exclaim": 7444,
  "▁faction": 7445,
  "▁faintly": 7446,
  "▁falsely": 7447,
  "▁fasting": 7448,
  "▁feeding": 7449,
  "▁follies": 7450,
  "▁footman": 7451,
  "▁forsake": 7452,
  "▁gentler": 7453,
  "▁getting": 7454,
  "▁glories": 7455,
  "▁happier": 7456,
  "▁haughty": 7457,
  "▁hideous": 7458,
  "▁highway": 7459,
  "▁hurried": 7460,
  "▁infring": 7461,
  "▁inherit": 7462,
  "▁knowest": 7463,
  "▁lecture": 7464,
  "▁lightly": 7465,
  "▁longest": 7466,
  "▁lustful": 7467,
  "▁matters": 7468,
  "▁merrily": 7469,
  "▁mockery": 7470,
  "▁mocking": 7471,
  "▁natures": 7472,
  "▁notwith": 7473,
  "▁nourish": 7474,
  "▁pardons": 7475,
  "▁pastime": 7476,
  "▁pattern": 7477,
  "▁perjury": 7478,
  "▁picture": 7479,
  "▁plaints": 7480,
  "▁procure": 7481,
  "▁profits": 7482,
  "▁pursued": 7483,
  "▁raiment": 7484,
  "▁rancour": 7485,
  "▁rascals": 7486,
  "▁recover": 7487,
  "▁replied": 7488,
  "▁reproof": 7489,
  "▁rewards": 7490,
  "▁roundly": 7491,
  "▁scarlet": 7492,
  "▁scholar": 7493,
  "▁shelter": 7494,
  "▁showers": 7495,
  "▁smiling": 7496,
  "▁society": 7497,
  "▁solicit": 7498,
  "▁spiders": 7499,
  "▁suffice": 7500,
  "▁superfl": 7501,
  "▁suppose": 7502,
  "▁supreme": 7503,
  "▁tainted": 7504,
  "▁threats": 7505,
  "▁throats": 7506,
  "▁tonight": 7507,
  "▁tribune": 7508,
  "▁tribute": 7509,
  "▁undergo": 7510,
  "▁villany": 7511,
  "▁warning": 7512,
  "▁wayward": 7513,
  "▁weighty": 7514,
  "▁wenches": 7515,
  "▁western": 7516,
  "▁whistle": 7517,
  "▁wonders": 7518,
  "mediately": 7519,
  "perienced": 7520,
  "▁Antiates": 7521,
  "▁Consider": 7522,
  "▁Dispatch": 7523,
  "▁Doricles": 7524,
  "▁Evermore": 7525,
  "▁Florizel": 7526,
  "▁Hercules": 7527,
  "▁Lodowick": 7528,
  "▁Meantime": 7529,
  "▁Overdone": 7530,
  "▁Phaethon": 7531,
  "▁Thoughts": 7532,
  "▁Touching": 7533,
  "▁Welshmen": 7534,
  "▁achieved": 7535,
  "▁admitted": 7536,
  "▁affright": 7537,
  "▁ambition": 7538,
  "▁appeared": 7539,
  "▁bachelor": 7540,
  "▁backward": 7541,
  "▁bankrupt": 7542,
  "▁baseness": 7543,
  "▁bootless": 7544,
  "▁brawling": 7545,
  "▁breaking": 7546,
  "▁breathes": 7547,
  "▁breeding": 7548,
  "▁chastity": 7549,
  "▁choleric": 7550,
  "▁comforts": 7551,
  "▁confines": 7552,
  "▁consumed": 7553,
  "▁councils": 7554,
  "▁counsels": 7555,
  "▁delights": 7556,
  "▁discords": 7557,
  "▁disorder": 7558,
  "▁distingu": 7559,
  "▁division": 7560,
  "▁drunkard": 7561,
  "▁embraced": 7562,
  "▁entrails": 7563,
  "▁farthest": 7564,
  "▁festival": 7565,
  "▁fighting": 7566,
  "▁frighted": 7567,
  "▁fruitful": 7568,
  "▁function": 7569,
  "▁governor": 7570,
  "▁harmless": 7571,
  "▁husbands": 7572,
  "▁imperial": 7573,
  "▁indirect": 7574,
  "▁inferior": 7575,
  "▁injuries": 7576,
  "▁intended": 7577,
  "▁knightly": 7578,
  "▁ladyship": 7579,
  "▁mariners": 7580,
  "▁medicine": 7581,
  "▁merciful": 7582,
  "▁millions": 7583,
  "▁minstrel": 7584,
  "▁miseries": 7585,
  "▁mounting": 7586,
  "▁mourning": 7587,
  "▁needless": 7588,
  "▁nobleman": 7589,
  "▁peaceful": 7590,
  "▁publicly": 7591,
  "▁puissant": 7592,
  "▁receives": 7593,
  "▁regiment": 7594,
  "▁remedies": 7595,
  "▁required": 7596,
  "▁requires": 7597,
  "▁resolute": 7598,
  "▁restored": 7599,
  "▁returned": 7600,
  "▁scarcely": 7601,
  "▁scolding": 7602,
  "▁stirring": 7603,
  "▁stooping": 7604,
  "▁strongly": 7605,
  "▁strumpet": 7606,
  "▁sunshine": 7607,
  "▁tenderly": 7608,
  "▁terrible": 7609,
  "▁timeless": 7610,
  "▁trembles": 7611,
  "▁triumphs": 7612,
  "▁unlawful": 7613,
  "▁vineyard": 7614,
  "▁welcomes": 7615,
  "▁worthily": 7616,
  "▁Affection": 7617,
  "▁Cleomenes": 7618,
  "▁Elizabeth": 7619,
  "▁NATHANIEL": 7620,
  "▁Patrician": 7621,
  "▁amazement": 7622,
  "▁blessings": 7623,
  "▁caparison": 7624,
  "▁concluded": 7625,
  "▁confusion": 7626,
  "▁consorted": 7627,
  "▁counterpo": 7628,
  "▁cowardice": 7629,
  "▁creatures": 7630,
  "▁delivered": 7631,
  "▁disguised": 7632,
  "▁dissemble": 7633,
  "▁elsewhere": 7634,
  "▁extremest": 7635,
  "▁following": 7636,
  "▁greetings": 7637,
  "▁impatient": 7638,
  "▁importune": 7639,
  "▁injurious": 7640,
  "▁insolence": 7641,
  "▁insulting": 7642,
  "▁lightness": 7643,
  "▁merriment": 7644,
  "▁mistaking": 7645,
  "▁necessary": 7646,
  "▁notorious": 7647,
  "▁penitence": 7648,
  "▁physician": 7649,
  "▁poisonous": 7650,
  "▁possessed": 7651,
  "▁posterity": 7652,
  "▁precedent": 7653,
  "▁preserved": 7654,
  "▁prisoners": 7655,
  "▁reckoning": 7656,
  "▁repossess": 7657,
  "▁restraint": 7658,
  "▁solemnity": 7659,
  "▁testimony": 7660,
  "▁treachery": 7661,
  "▁troublous": 7662,
  "▁unfeigned": 7663,
  "▁utterance": 7664,
  "▁witnesses": 7665,
  "▁wrangling": 7666,
  "▁Apothecary": 7667,
  "▁Brakenbury": 7668,
  "▁advertised": 7669,
  "▁altogether": 7670,
  "▁assistance": 7671,
  "▁cheerfully": 7672,
  "▁commanding": 7673,
  "▁conditions": 7674,
  "▁difference": 7675,
  "▁discharged": 7676,
  "▁distressed": 7677,
  "▁expedition": 7678,
  "▁headstrong": 7679,
  "▁impatience": 7680,
  "▁impediment": 7681,
  "▁impression": 7682,
  "▁inconstant": 7683,
  "▁jealousies": 7684,
  "▁knighthood": 7685,
  "▁lieutenant": 7686,
  "▁peremptory": 7687,
  "▁persuasion": 7688,
  "▁pestilence": 7689,
  "▁pronounced": 7690,
  "▁repetition": 7691,
  "▁sisterhood": 7692,
  "▁underneath": 7693,
  "▁witchcraft": 7694,
  "▁Christopher": 7695,
  "▁acknowledge": 7696,
  "▁chamberlain": 7697,
  "▁comfortable": 7698,
  "▁composition": 7699,
  "▁controversy": 7700,
  "▁forgiveness": 7701,
  "▁grandfather": 7702,
  "▁inclination": 7703,
  "▁indifferent": 7704,
  "▁interchange": 7705,
  "▁nightingale": 7706,
  "▁prerogative": 7707,
  "▁territories": 7708,
  "▁transported": 7709,
  "▁apprehension": 7710,
  "▁chastisement": 7711,
  "▁schoolmaster": 7712,
  "▁circumstances": 7713,
  "▁understanding": 7714,
  "▁notwithstanding": 7715,
  "LU": 7716,
  "We": 7717,
  "bu": 7718,
  "▁&": 7719,
  "ISC": 7720,
  "abb": 7721,
  "azy": 7722,
  "bes": 7723,
  "bri": 7724,
  "erw": 7725,
  "fix": 7726,
  "gia": 7727,
  "gom": 7728,
  "iby": 7729,
  "ige": 7730,
  "iod": 7731,
  "las": 7732,
  "leh": 7733,
  "liv": 7734,
  "pho": 7735,
  "pol": 7736,
  "qua": 7737,
  "sia": 7738,
  "soe": 7739,
  "spo": 7740,
  "ubs": 7741,
  "umn": 7742,
  "voc": 7743,
  "▁Pe": 7744,
  "▁ce": 7745,
  "▁cy": 7746,
  "▁eg": 7747,
  "▁ib": 7748,
  "▁na": 7749,
  "ALIS": 7750,
  "CISC": 7751,
  "LUNT": 7752,
  "Tell": 7753,
  "acks": 7754,
  "alls": 7755,
  "alty": 7756,
  "anks": 7757,
  "apes": 7758,
  "ashy": 7759,
  "aved": 7760,
  "bham": 7761,
  "bled": 7762,
  "body": 7763,
  "cats": 7764,
  "cipl": 7765,
  "cued": 7766,
  "dict": 7767,
  "door": 7768,
  "empl": 7769,
  "eria": 7770,
  "eyed": 7771,
  "gone": 7772,
  "hoop": 7773,
  "hyme": 7774,
  "ican": 7775,
  "irls": 7776,
  "itae": 7777,
  "keep": 7778,
  "lorn": 7779,
  "lves": 7780,
  "mary": 7781,
  "mind": 7782,
  "mony": 7783,
  "once": 7784,
  "ouls": 7785,
  "peak": 7786,
  "pery": 7787,
  "phos": 7788,
  "pire": 7789,
  "ribe": 7790,
  "roop": 7791,
  "rung": 7792,
  "tles": 7793,
  "uity": 7794,
  "ulte": 7795,
  "urbs": 7796,
  "urps": 7797,
  "warn": 7798,
  "ymph": 7799,
  "▁Beg": 7800,
  "▁Chi": 7801,
  "▁Env": 7802,
  "▁Err": 7803,
  "▁Lud": 7804,
  "My": 7805,
  "my": 7806,
  "ami": 7807,
  "aus": 7808,
  "bon": 7809,
  "erp": 7810,
  "isc": 7811,
  "nel": 7812,
  "oln": 7813,
  "▁Ti": 7814,
  "Good": 7815,
  "Hear": 7816,
  "ange": 7817,
  "bast": 7818,
  "geon": 7819,
  "hers": 7820,
  "inet": 7821,
  "pter": 7822,
  "qual": 7823,
  "take": 7824,
  "this": 7825,
  "▁Bea": 7826,
  "▁Dou": 7827,
  "▁Dre": 7828,
  "▁Far": 7829,
  "▁Mab": 7830,
  "▁Opp": 7831,
  "▁Pit": 7832,
  "▁Rag": 7833,
  "▁Ref": 7834,
  "▁Rus": 7835,
  "▁Sel": 7836,
  "▁Sub": 7837,
  "▁Uly": 7838,
  "▁Unb": 7839,
  "▁Unc": 7840,
  "▁Var": 7841,
  "▁awe": 7842,
  "▁baw": 7843,
  "▁cas": 7844,
  "▁cav": 7845,
  "▁dol": 7846,
  "▁dug": 7847,
  "▁dun": 7848,
  "▁egg": 7849,
  "▁kit": 7850,
  "▁map": 7851,
  "▁nea": 7852,
  "▁pry": 7853,
  "▁pul": 7854,
  "▁raw": 7855,
  "▁rip": 7856,
  "▁rod": 7857,
  "▁roy": 7858,
  "▁rub": 7859,
  "▁sex": 7860,
  "▁sly": 7861,
  "▁spa": 7862,
  "▁tum": 7863,
  "▁utt": 7864,
  "▁vap": 7865,
  "▁vio": 7866,
  "▁yew": 7867,
  "Heart": 7868,
  "Souls": 7869,
  "abour": 7870,
  "acket": 7871,
  "agine": 7872,
  "akers": 7873,
  "areth": 7874,
  "arlis": 7875,
  "asciv": 7876,
  "asite": 7877,
  "assad": 7878,
  "asted": 7879,
  "ately": 7880,
  "atics": 7881,
  "auble": 7882,
  "avish": 7883,
  "bborn": 7884,
  "bered": 7885,
  "brain": 7886,
  "ccess": 7887,
  "ceipt": 7888,
  "chard": 7889,
  "child": 7890,
  "doing": 7891,
  "eases": 7892,
  "efold": 7893,
  "endom": 7894,
  "ennel": 7895,
  "erely": 7896,
  "erman": 7897,
  "ersha": 7898,
  "ggard": 7899,
  "gging": 7900,
  "gress": 7901,
  "guish": 7902,
  "hance": 7903,
  "hilip": 7904,
  "ARL": 7905,
  "alf": 7906,
  "alo": 7907,
  "cas": 7908,
  "cts": 7909,
  "dra": 7910,
  "dur": 7911,
  "fly": 7912,
  "hra": 7913,
  "▁el": 7914,
  "aith": 7915,
  "dent": 7916,
  "geal": 7917,
  "gher": 7918,
  "happ": 7919,
  "lord": 7920,
  "lore": 7921,
  "lous": 7922,
  "pted": 7923,
  "rian": 7924,
  "▁Bar": 7925,
  "▁Fer": 7926,
  "▁Hap": 7927,
  "▁Lad": 7928,
  "▁Lat": 7929,
  "▁Nat": 7930,
  "▁gay": 7931,
  "▁pir": 7932,
  "▁sty": 7933,
  "▁web": 7934,
  "▁wra": 7935,
  "arded": 7936,
  "cible": 7937,
  "iable": 7938,
  "icide": 7939,
  "icing": 7940,
  "ieldy": 7941,
  "igeia": 7942,
  "ilver": 7943,
  "imois": 7944,
  "imple": 7945,
  "iving": 7946,
  "ivity": 7947,
  "izard": 7948,
  "jects": 7949,
  "journ": 7950,
  "ldren": 7951,
  "lings": 7952,
  "loyal": 7953,
  "lphur": 7954,
  "nders": 7955,
  "odity": 7956,
  "omest": 7957,
  "oming": 7958,
  "ongue": 7959,
  "orsel": 7960,
  "peror": 7961,
  "piece": 7962,
  "poses": 7963,
  "prise": 7964,
  "pture": 7965,
  "quess": 7966,
  "quiet": 7967,
  "raign": 7968,
  "reach": 7969,
  "rings": 7970,
  "rosby": 7971,
  "stood": 7972,
  "stool": 7973,
  "thren": 7974,
  "urity": 7975,
  "urope": 7976,
  "usale": 7977,
  "using": 7978,
  "ustle": 7979,
  "usual": 7980,
  "vener": 7981,
  "verns": 7982,
  "weary": 7983,
  "weigh": 7984,
  "wench": 7985,
  "women": 7986,
  "worth": 7987,
  "ybalt": 7988,
  "▁Acqu": 7989,
  "▁Adam": 7990,
  "▁Base": 7991,
  "▁Bret": 7992,
  "▁Care": 7993,
  "▁Deep": 7994,
  "▁Dick": 7995,
  "▁Dion": 7996,
  "▁EARL": 7997,
  "▁FRAN": 7998,
  "▁Fool": 7999,
  "▁Gall": 8000,
  "▁Girl": 8001,
  "▁Glad": 8002,
  "▁Half": 8003,
  "▁Hard": 8004,
  "te": 8005,
  "wh": 8006,
  "can": 8007,
  "lex": 8008,
  "nit": 8009,
  "pse": 8010,
  "usc": 8011,
  "uto": 8012,
  "bery": 8013,
  "fend": 8014,
  "ffic": 8015,
  "ille": 8016,
  "ilty": 8017,
  "itan": 8018,
  "mast": 8019,
  "tsey": 8020,
  "zine": 8021,
  "▁Cot": 8022,
  "▁Cut": 8023,
  "▁Wor": 8024,
  "▁ced": 8025,
  "▁cri": 8026,
  "▁fed": 8027,
  "▁fen": 8028,
  "▁fut": 8029,
  "▁gle": 8030,
  "▁hen": 8031,
  "▁oce": 8032,
  "anous": 8033,
  "aving": 8034,
  "ected": 8035,
  "ently": 8036,
  "lause": 8037,
  "leven": 8038,
  "olour": 8039,
  "ozine": 8040,
  "▁Bore": 8041,
  "▁Fitz": 8042,
  "▁Holl": 8043,
  "▁Hung": 8044,
  "▁Jule": 8045,
  "▁Juno": 8046,
  "▁Last": 8047,
  "▁Leic": 8048,
  "▁Less": 8049,
  "▁Lift": 8050,
  "▁Luke": 8051,
  "▁Meet": 8052,
  "▁Near": 8053,
  "▁Nine": 8054,
  "▁Pale": 8055,
  "▁Ross": 8056,
  "▁Sent": 8057,
  "▁Staf": 8058,
  "▁Step": 8059,
  "▁Stir": 8060,
  "▁Stop": 8061,
  "▁Suff": 8062,
  "▁Tend": 8063,
  "▁Told": 8064,
  "▁Trem": 8065,
  "▁Weep": 8066,
  "▁Went": 8067,
  "▁adul": 8068,
  "▁aery": 8069,
  "▁agre": 8070,
  "▁aqua": 8071,
  "▁aust": 8072,
  "▁bait": 8073,
  "▁bale": 8074,
  "▁barb": 8075,
  "▁barr": 8076,
  "▁bash": 8077,
  "▁bate": 8078,
  "▁bats": 8079,
  "▁beho": 8080,
  "▁bide": 8081,
  "▁bier": 8082,
  "▁bind": 8083,
  "▁bone": 8084,
  "▁bonn": 8085,
  "▁bulk": 8086,
  "▁calf": 8087,
  "▁caus": 8088,
  "▁cele": 8089,
  "▁cert": 8090,
  "▁chid": 8091,
  "▁cony": 8092,
  "▁crad": 8093,
  "▁crut": 8094,
  "▁cuff": 8095,
  "▁curs": 8096,
  "▁dial": 8097,
  "▁dimm": 8098,
  "▁doit": 8099,
  "▁emul": 8100,
  "▁exha": 8101,
  "▁eyeb": 8102,
  "▁fate": 8103,
  "▁fees": 8104,
  "'!": 8105,
  "arr": 8106,
  "ech": 8107,
  "min": 8108,
  "por": 8109,
  "ris": 8110,
  "▁Tr": 8111,
  "▁ox": 8112,
  "Fore": 8113,
  "bred": 8114,
  "hast": 8115,
  "hear": 8116,
  "ples": 8117,
  "song": 8118,
  "unch": 8119,
  "vity": 8120,
  "▁Die": 8121,
  "▁Unw": 8122,
  "▁esc": 8123,
  "▁hab": 8124,
  "▁hew": 8125,
  "▁mow": 8126,
  "▁nov": 8127,
  "▁ost": 8128,
  "▁phe": 8129,
  "▁poo": 8130,
  "atory": 8131,
  "ifter": 8132,
  "inite": 8133,
  "oison": 8134,
  "onour": 8135,
  "oting": 8136,
  "press": 8137,
  "score": 8138,
  "▁Sirs": 8139,
  "▁file": 8140,
  "▁flag": 8141,
  "▁fowl": 8142,
  "▁gear": 8143,
  "▁gild": 8144,
  "▁gilt": 8145,
  "▁gnaw": 8146,
  "▁grub": 8147,
  "▁heal": 8148,
  "▁hilt": 8149,
  "▁hint": 8150,
  "▁hook": 8151,
  "▁howl": 8152,
  "▁hush": 8153,
  "▁ibat": 8154,
  "▁keen": 8155,
  "▁kern": 8156,
  "▁lain": 8157,
  "▁lame": 8158,
  "▁lamp": 8159,
  "▁lane": 8160,
  "▁lass": 8161,
  "▁lazy": 8162,
  "▁limb": 8163,
  "▁lurk": 8164,
  "▁mart": 8165,
  "▁mass": 8166,
  "▁mete": 8167,
  "▁ming": 8168,
  "▁muse": 8169,
  "▁mute": 8170,
  "▁nuns": 8171,
  "▁pals": 8172,
  "▁park": 8173,
  "▁peck": 8174,
  "▁pens": 8175,
  "▁pith": 8176,
  "▁poll": 8177,
  "▁raze": 8178,
  "▁resp": 8179,
  "▁ribb": 8180,
  "▁road": 8181,
  "▁rope": 8182,
  "▁scra": 8183,
  "▁skin": 8184,
  "▁soar": 8185,
  "▁stew": 8186,
  "▁subm": 8187,
  "▁sues": 8188,
  "▁suns": 8189,
  "▁surm": 8190,
  "▁surn": 8191,
  "▁swim": 8192,
  "▁thra": 8193,
  "▁thre": 8194,
  "▁tire": 8195,
  "▁toss": 8196,
  "▁toys": 8197,
  "▁trod": 8198,
  "▁unaw": 8199,
  "▁unlo": 8200,
  "▁unsc": 8201,
  "▁vehe": 8202,
  "▁vest": 8203,
  "▁ware": 8204,
  "It": 8205,
  "co": 8206,
  "sy": 8207,
  "'--": 8208,
  "bel": 8209,
  "cho": 8210,
  "din": 8211,
  "dis": 8212,
  "ias": 8213,
  "nut": 8214,
  "ton": 8215,
  "▁au": 8216,
  "▁ew": 8217,
  "book": 8218,
  "oted": 8219,
  "sick": 8220,
  "tree": 8221,
  "utus": 8222,
  "▁Inf": 8223,
  "▁Pil": 8224,
  "▁Sad": 8225,
  "▁ant": 8226,
  "▁jar": 8227,
  "▁mot": 8228,
  "ackey": 8229,
  "agate": 8230,
  "agems": 8231,
  "greed": 8232,
  "pence": 8233,
  "▁Seal": 8234,
  "▁jump": 8235,
  "▁rood": 8236,
  "▁symp": 8237,
  "▁wary": 8238,
  "▁yard": 8239,
  "Tybalt": 8240,
  "antial": 8241,
  "arling": 8242,
  "atiate": 8243,
  "attery": 8244,
  "bering": 8245,
  "boding": 8246,
  "durate": 8247,
  "echery": 8248,
  "eliver": 8249,
  "ellows": 8250,
  "ension": 8251,
  "enting": 8252,
  "esters": 8253,
  "eterat": 8254,
  "favour": 8255,
  "gomery": 8256,
  "haniel": 8257,
  "horson": 8258,
  "iction": 8259,
  "ierced": 8260,
  "ighton": 8261,
  "inance": 8262,
  "inctly": 8263,
  "iously": 8264,
  "ironed": 8265,
  "ixture": 8266,
  "lehill": 8267,
  "livion": 8268,
  "makers": 8269,
  "mbling": 8270,
  "minded": 8271,
  "oubted": 8272,
  "oughby": 8273,
  "overed": 8274,
  "people": 8275,
  "pherds": 8276,
  "randon": 8277,
  "reathe": 8278,
  "rehend": 8279,
  "retion": 8280,
  "ristol": 8281,
  "rolled": 8282,
  "ruised": 8283,
  "scaped": 8284,
  "school": 8285,
  "scribe": 8286,
  "shapen": 8287,
  "ternal": 8288,
  "tinent": 8289,
  "usalem": 8290,
  "usters": 8291,
  "vering": 8292,
  "withal": 8293,
  "▁Abbot": 8294,
  "▁Afric": 8295,
  "▁Alone": 8296,
  "▁April": 8297,
  "▁Awake": 8298,
  "▁BLUNT": 8299,
  "▁Black": 8300,
  "▁Blind": 8301,
  "▁Blood": 8302,
  "▁Blush": 8303,
  "▁Brave": 8304,
  "▁Cheer": 8305,
  "▁Const": 8306,
  "▁Dukes": 8307,
  "▁Exton": 8308,
  "▁Found": 8309,
  "▁Given": 8310,
  "▁Guild": 8311,
  "▁Helen": 8312,
  "▁Irish": 8313,
  "▁James": 8314,
  "▁Knows": 8315,
  "▁LORDS": 8316,
  "▁Latin": 8317,
  "▁Lives": 8318,
  "▁Loved": 8319,
  "▁Mount": 8320,
  "▁Night": 8321,
  "▁Place": 8322,
  "▁Plain": 8323,
  "▁Pluck": 8324,
  "▁Proud": 8325,
  "▁Quick": 8326,
  "▁Revol": 8327,
  "▁SALIS": 8328,
  "▁Sland": 8329,
  "▁Sleep": 8330,
  "▁Small": 8331,
  "▁Spoke": 8332,
  "▁Susan": 8333,
  "▁Takes": 8334,
  "▁Tiber": 8335,
  "▁Trans": 8336,
  "▁Turks": 8337,
  "▁White": 8338,
  "▁aches": 8339,
  "▁added": 8340,
  "▁adder": 8341,
  "▁adorn": 8342,
  "▁agony": 8343,
  "▁amity": 8344,
  "▁annoy": 8345,
  "▁asked": 8346,
  "▁atone": 8347,
  "▁awful": 8348,
  "▁bandy": 8349,
  "▁basil": 8350,
  "▁bawdy": 8351,
  "▁bench": 8352,
  "▁bills": 8353,
  "▁bites": 8354,
  "▁blasp": 8355,
  "▁blots": 8356,
  "▁bonds": 8357,
  "▁bonny": 8358,
  "▁bragg": 8359,
  "▁brine": 8360,
  "▁built": 8361,
  "▁chaff": 8362,
  "▁chain": 8363,
  "▁choke": 8364,
  "▁chron": 8365,
  "▁cleft": 8366,
  "▁coats": 8367,
  "▁cropp": 8368,
  "▁curbs": 8369,
  "▁daint": 8370,
  "▁depth": 8371,
  "▁dooms": 8372,
  "▁dropp": 8373,
  "▁edict": 8374,
  "▁effem": 8375,
  "▁endea": 8376,
  "▁endow": 8377,
  "▁ensue": 8378,
  "▁estab": 8379,
  "▁fails": 8380,
  "▁fence": 8381,
  "▁fifty": 8382,
  "▁flour": 8383,
  "▁forms": 8384,
  "▁gamut": 8385,
  "▁giant": 8386,
  "▁girls": 8387,
  "▁glove": 8388,
  "▁goest": 8389,
  "▁gorge": 8390,
  "▁greed": 8391,
  "▁grove": 8392,
  "▁hardy": 8393,
  "▁harms": 8394,
  "▁haven": 8395,
  "▁helms": 8396,
  "▁herds": 8397,
  "▁hills": 8398,
  "▁hoped": 8399,
  "▁impre": 8400,
  "▁incur": 8401,
  "▁influ": 8402,
  "▁knell": 8403,
  "▁lacks": 8404,
  "▁liars": 8405,
  "▁linen": 8406,
  "▁longs": 8407,
  "▁manly": 8408,
  "▁masqu": 8409,
  "▁moans": 8410,
  "▁needy": 8411,
  "▁niece": 8412,
  "▁ninet": 8413,
  "▁nymph": 8414,
  "▁outst": 8415,
  "▁parch": 8416,
  "▁parle": 8417,
  "▁pikes": 8418,
  "▁piled": 8419,
  "▁pines": 8420,
  "▁plays": 8421,
  "▁plent": 8422,
  "▁ports": 8423,
  "▁posts": 8424,
  "▁pratt": 8425,
  "▁quest": 8426,
  "▁rates": 8427,
  "▁rheum": 8428,
  "▁rings": 8429,
  "▁sails": 8430,
  "▁scare": 8431,
  "▁scars": 8432,
  "▁senis": 8433,
  "▁shine": 8434,
  "▁shock": 8435,
  "▁shunn": 8436,
  "▁slide": 8437,
  "▁smelt": 8438,
  "▁sober": 8439,
  "▁songs": 8440,
  "▁space": 8441,
  "▁spear": 8442,
  "▁spell": 8443,
  "▁spurn": 8444,
  "▁stage": 8445,
  "▁start": 8446,
  "▁stole": 8447,
  "▁strat": 8448,
  "▁stray": 8449,
  "▁strip": 8450,
  "▁stuck": 8451,
  "▁suret": 8452,
  "▁surly": 8453,
  "▁swine": 8454,
  "▁tales": 8455,
  "▁threw": 8456,
  "▁tides": 8457,
  "▁tunes": 8458,
  "▁unacc": 8459,
  "▁unfit": 8460,
  "▁unity": 8461,
  "▁unman": 8462,
  "▁unpre": 8463,
  "▁upper": 8464,
  "▁usage": 8465,
  "▁verge": 8466,
  "▁vices": 8467,
  "▁visor": 8468,
  "▁wagon": 8469,
  "▁walks": 8470,
  "▁whate": 8471,
  "aration": 8472,
  "arlisle": 8473,
  "bastian": 8474,
  "cession": 8475,
  "erwhelm": 8476,
  "forward": 8477,
  "igation": 8478,
  "liction": 8479,
  "minster": 8480,
  "resseth": 8481,
  "seeming": 8482,
  "▁Amazon": 8483,
  "▁Assist": 8484,
  "▁Awaked": 8485,
  "▁Banish": 8486,
  "▁Become": 8487,
  "▁Castle": 8488,
  "▁Church": 8489,
  "▁Cobham": 8490,
  "▁Crosby": 8491,
  "▁Europe": 8492,
  "▁Except": 8493,
  "▁Fellow": 8494,
  "▁Forget": 8495,
  "▁Hallow": 8496,
  "▁Honest": 8497,
  "▁Julius": 8498,
  "▁Lammas": 8499,
  "▁Little": 8500,
  "▁Ludlow": 8501,
  "▁Merely": 8502,
  "▁Philip": 8503,
  "▁Plashy": 8504,
  "▁Player": 8505,
  "▁Prodig": 8506,
  "▁Redeem": 8507,
  "▁Repair": 8508,
  "▁Rescue": 8509,
  "▁Russia": 8510,
  "▁Sorrow": 8511,
  "▁Throng": 8512,
  "▁Tongue": 8513,
  "▁Valent": 8514,
  "▁Whence": 8515,
  "▁Withal": 8516,
  "▁Yonder": 8517,
  "▁abuses": 8518,
  "▁acting": 8519,
  "▁adulte": 8520,
  "▁ambush": 8521,
  "▁argosy": 8522,
  "▁ascend": 8523,
  "▁attach": 8524,
  "▁avouch": 8525,
  "▁bauble": 8526,
  "▁became": 8527,
  "▁beetle": 8528,
  "▁bewray": 8529,
  "▁births": 8530,
  "▁biting": 8531,
  "▁blasts": 8532,
  "▁blocks": 8533,
  "▁bonnet": 8534,
  "▁brazen": 8535,
  "▁broils": 8536,
  "▁buckle": 8537,
  "▁burial": 8538,
  "▁busied": 8539,
  "▁bustle": 8540,
  "▁candle": 8541,
  "▁cannib": 8542,
  "▁chafed": 8543,
  "▁charms": 8544,
  "▁cheers": 8545,
  "▁chides": 8546,
  "▁clergy": 8547,
  "▁clothe": 8548,
  "▁coffin": 8549,
  "▁colder": 8550,
  "▁commit": 8551,
  "▁conver": 8552,
  "▁courts": 8553,
  "▁crimes": 8554,
  "▁crutch": 8555,
  "▁dainty": 8556,
  "▁dances": 8557,
  "▁daring": 8558,
  "▁darkly": 8559,
  "▁decree": 8560,
  "▁digest": 8561,
  "▁dishes": 8562,
  "▁divers": 8563,
  "▁divide": 8564,
  "▁doings": 8565,
  "▁drinks": 8566,
  "▁driven": 8567,
  "▁drowsy": 8568,
  "▁ducats": 8569,
  "▁eating": 8570,
  "▁elders": 8571,
  "▁encomp": 8572,
  "▁enjoin": 8573,
  "▁enjoys": 8574,
  "▁enters": 8575,
  "▁execut": 8576,
  "▁expost": 8577,
  "▁fabric": 8578,
  "▁fathom": 8579,
  "▁feeble": 8580,
  "▁fester": 8581,
  "▁fickle": 8582,
  "▁fiends": 8583,
  "▁filthy": 8584,
  "▁fitter": 8585,
  "▁flayed": 8586,
  "▁fliers": 8587,
  "▁flinty": 8588,
  "▁floods": 8589,
  "▁fourth": 8590,
  "▁fruits": 8591,
  "▁future": 8592,
  "▁garlic": 8593,
  "▁gentry": 8594,
  "▁ginger": 8595,
  "▁gotten": 8596,
  "▁gratis": 8597,
  "▁greets": 8598,
  "▁handle": 8599,
  "▁happen": 8600,
  "▁harder": 8601,
  "▁hearth": 8602,
  "▁hounds": 8603,
  "▁hourly": 8604,
  "▁humane": 8605,
  "▁impose": 8606,
  "▁infamy": 8607,
  "▁issues": 8608,
  "▁jewels": 8609,
  "▁justly": 8610,
  "▁kennel": 8611,
  "▁kitche": 8612,
  "▁leader": 8613,
  "▁lesson": 8614,
  "▁levied": 8615,
  "▁lineal": 8616,
  "▁lively": 8617,
  "▁mantle": 8618,
  "▁mathem": 8619,
  "▁melted": 8620,
  "▁mirror": 8621,
  "▁morsel": 8622,
  "▁nearer": 8623,
  "▁nerves": 8624,
  "▁nettle": 8625,
  "▁ordain": 8626,
  "▁parcel": 8627,
  "▁passes": 8628,
  "▁penury": 8629,
  "▁period": 8630,
  "▁placed": 8631,
  "▁planet": 8632,
  "▁porter": 8633,
  "▁potion": 8634,
  "▁powder": 8635,
  "▁presum": 8636,
  "▁pricks": 8637,
  "▁proofs": 8638,
  "▁prover": 8639,
  "▁purged": 8640,
  "▁purses": 8641,
  "▁quarre": 8642,
  "▁rabble": 8643,
  "▁rarest": 8644,
  "▁refuge": 8645,
  "▁region": 8646,
  "▁rehear": 8647,
  "▁relish": 8648,
  "▁remiss": 8649,
  "▁remote": 8650,
  "▁repaid": 8651,
  "▁revell": 8652,
  "▁revers": 8653,
  "▁revive": 8654,
  "▁rigour": 8655,
  "▁rogues": 8656,
  "▁rumour": 8657,
  "▁saddle": 8658,
  "▁salute": 8659,
  "▁scouts": 8660,
  "▁seemed": 8661,
  "▁shamed": 8662,
  "▁sheets": 8663,
  "▁shores": 8664,
  "▁shouts": 8665,
  "▁sickly": 8666,
  "▁smiled": 8667,
  "▁soften": 8668,
  "▁softly": 8669,
  "▁solace": 8670,
  "▁spoils": 8671,
  "▁starts": 8672,
  "▁strain": 8673,
  "▁strang": 8674,
  "▁streak": 8675,
  "▁stride": 8676,
  "▁string": 8677,
  "▁subdue": 8678,
  "▁suborn": 8679,
  "▁summon": 8680,
  "▁supple": 8681,
  "▁survey": 8682,
  "▁talked": 8683,
  "▁tatter": 8684,
  "▁tellus": 8685,
  "▁thorny": 8686,
  "▁thrift": 8687,
  "▁throng": 8688,
  "▁tinker": 8689,
  "▁titles": 8690,
  "▁traged": 8691,
  "▁tragic": 8692,
  "▁treaty": 8693,
  "▁treble": 8694,
  "▁trudge": 8695,
  "▁tumult": 8696,
  "▁turtle": 8697,
  "▁uneven": 8698,
  "▁unwill": 8699,
  "▁urging": 8700,
  "▁usurer": 8701,
  "▁vanish": 8702,
  "▁verity": 8703,
  "▁vigour": 8704,
  "▁violet": 8705,
  "▁waning": 8706,
  "▁wasted": 8707,
  "▁welkin": 8708,
  "▁wheels": 8709,
  "▁wheres": 8710,
  "▁wildly": 8711,
  "▁wishes": 8712,
  "▁wooers": 8713,
  "▁yellow": 8714,
  "asonable": 8715,
  "changing": 8716,
  "cription": 8717,
  "peration": 8718,
  "ratitude": 8719,
  "▁Bearing": 8720,
  "▁Brandon": 8721,
  "▁Breathe": 8722,
  "▁Bristol": 8723,
  "▁Brought": 8724,
  "▁Delphos": 8725,
  "▁Destroy": 8726,
  "▁Dighton": 8727,
  "▁Enforce": 8728,
  "▁Forgive": 8729,
  "▁Forrest": 8730,
  "▁Happily": 8731,
  "▁Heavens": 8732,
  "▁Hostess": 8733,
  "▁Imagine": 8734,
  "▁Mariner": 8735,
  "▁Meaning": 8736,
  "▁Mercury": 8737,
  "▁Princes": 8738,
  "▁Seeking": 8739,
  "▁Setting": 8740,
  "▁Showing": 8741,
  "▁Silence": 8742,
  "▁Tarquin": 8743,
  "▁Thither": 8744,
  "▁Ulysses": 8745,
  "▁Valeria": 8746,
  "▁Witness": 8747,
  "▁Wouldst": 8748,
  "▁ability": 8749,
  "▁amended": 8750,
  "▁anguish": 8751,
  "▁arrival": 8752,
  "▁article": 8753,
  "▁ballads": 8754,
  "▁bargain": 8755,
  "▁bashful": 8756,
  "▁battery": 8757,
  "▁beggary": 8758,
  "▁begging": 8759,
  "▁belongs": 8760,
  "▁beshrew": 8761,
  "▁besiege": 8762,
  "▁bewitch": 8763,
  "▁bondage": 8764,
  "▁breaths": 8765,
  "▁briefly": 8766,
  "▁brittle": 8767,
  "▁buzzard": 8768,
  "▁calling": 8769,
  "▁capable": 8770,
  "▁carrion": 8771,
  "▁clouded": 8772,
  "▁coffers": 8773,
  "▁compell": 8774,
  "▁consort": 8775,
  "▁consuls": 8776,
  "▁consume": 8777,
  "▁control": 8778,
  "▁convent": 8779,
  "▁convers": 8780,
  "▁corners": 8781,
  "▁courses": 8782,
  "▁crowned": 8783,
  "▁cushion": 8784,
  "▁dastard": 8785,
  "▁dealing": 8786,
  "▁decrees": 8787,
  "▁derived": 8788,
  "▁deserts": 8789,
  "▁desired": 8790,
  "▁discipl": 8791,
  "▁discred": 8792,
  "▁dislike": 8793,
  "▁distrib": 8794,
  "▁doleful": 8795,
  "▁doublet": 8796,
  "▁doubted": 8797,
  "▁duteous": 8798,
  "▁effects": 8799,
  "▁engross": 8800,
  "▁evident": 8801,
  "▁fairies": 8802,
  "▁fitting": 8803,
  "▁foaming": 8804,
  "▁fooling": 8805,
  "▁footing": 8806,
  "▁forerun": 8807,
  "▁forlorn": 8808,
  "▁forsook": 8809,
  "▁fresher": 8810,
  "▁gainsay": 8811,
  "▁glister": 8812,
  "▁goodman": 8813,
  "▁gossips": 8814,
  "▁greatly": 8815,
  "▁hatches": 8816,
  "▁heavily": 8817,
  "▁helmets": 8818,
  "▁helping": 8819,
  "▁highest": 8820,
  "▁hostess": 8821,
  "▁incense": 8822,
  "▁infancy": 8823,
  "▁inhabit": 8824,
  "▁injured": 8825,
  "▁instead": 8826,
  "▁intends": 8827,
  "▁justify": 8828,
  "▁keeping": 8829,
  "▁kissing": 8830,
  "▁knavery": 8831,
  "▁longing": 8832,
  "▁lurking": 8833,
  "▁mangled": 8834,
  "▁mankind": 8835,
  "▁message": 8836,
  "▁mistook": 8837,
  "▁nearest": 8838,
  "▁nightly": 8839,
  "▁ominous": 8840,
  "▁opening": 8841,
  "▁opposed": 8842,
  "▁orchard": 8843,
  "▁orderly": 8844,
  "▁orphans": 8845,
  "▁painful": 8846,
  "▁parlous": 8847,
  "▁partake": 8848,
  "▁partial": 8849,
  "▁peasant": 8850,
  "▁perused": 8851,
  "▁plotted": 8852,
  "▁plucked": 8853,
  "▁poorest": 8854,
  "▁portion": 8855,
  "▁praised": 8856,
  "▁precise": 8857,
  "▁presses": 8858,
  "▁prodigy": 8859,
  "▁produce": 8860,
  "▁proffer": 8861,
  "▁pursues": 8862,
  "▁qualify": 8863,
  "▁quality": 8864,
  "▁quicken": 8865,
  "▁receipt": 8866,
  "▁recount": 8867,
  "▁regreet": 8868,
  "▁release": 8869,
  "▁relieve": 8870,
  "▁requite": 8871,
  "▁resteth": 8872,
  "▁returns": 8873,
  "▁rightly": 8874,
  "▁robbers": 8875,
  "▁royally": 8876,
  "▁sailors": 8877,
  "▁scourge": 8878,
  "▁seeking": 8879,
  "▁seemeth": 8880,
  "▁sending": 8881,
  "▁serving": 8882,
  "▁session": 8883,
  "▁shorten": 8884,
  "▁slender": 8885,
  "▁smoking": 8886,
  "▁soonest": 8887,
  "▁spotted": 8888,
  "▁sprites": 8889,
  "▁stabbed": 8890,
  "▁stripes": 8891,
  "▁studied": 8892,
  "▁studies": 8893,
  "▁subdued": 8894,
  "▁suburbs": 8895,
  "▁sulphur": 8896,
  "▁summers": 8897,
  "▁surname": 8898,
  "▁sweeten": 8899,
  "▁swifter": 8900,
  "▁swiftly": 8901,
  "▁teeming": 8902,
  "▁tending": 8903,
  "▁thirsty": 8904,
  "▁torches": 8905,
  "▁traffic": 8906,
  "▁turning": 8907,
  "▁univers": 8908,
  "▁unusual": 8909,
  "▁violate": 8910,
  "▁waiting": 8911,
  "▁wealthy": 8912,
  "▁wearing": 8913,
  "▁whipped": 8914,
  "▁winding": 8915,
  "▁wishing": 8916,
  "ascivious": 8917,
  "beseeming": 8918,
  "pretation": 8919,
  "▁Abhorson": 8920,
  "▁Accursed": 8921,
  "▁Acquaint": 8922,
  "▁Carlisle": 8923,
  "▁Chertsey": 8924,
  "▁Children": 8925,
  "▁FRANCISC": 8926,
  "▁Persuade": 8927,
  "▁Ragozine": 8928,
  "▁Renowned": 8929,
  "▁Senators": 8930,
  "▁Stafford": 8931,
  "▁Standing": 8932,
  "▁Thinking": 8933,
  "▁Together": 8934,
  "▁Yourself": 8935,
  "▁abundant": 8936,
  "▁affected": 8937,
  "▁ambassad": 8938,
  "▁applause": 8939,
  "▁argument": 8940,
  "▁articles": 8941,
  "▁aspiring": 8942,
  "▁assembly": 8943,
  "▁bastardy": 8944,
  "▁beauties": 8945,
  "▁beggarly": 8946,
  "▁beguiled": 8947,
  "▁brethren": 8948,
  "▁bringing": 8949,
  "▁butchers": 8950,
  "▁censured": 8951,
  "▁ceremony": 8952,
  "▁champion": 8953,
  "▁charters": 8954,
  "▁cheerful": 8955,
  "▁chivalry": 8956,
  "▁complete": 8957,
  "▁confined": 8958,
  "▁creation": 8959,
  "▁creeping": 8960,
  "▁criminal": 8961,
  "▁crutches": 8962,
  "▁daylight": 8963,
  "▁deceased": 8964,
  "▁delivery": 8965,
  "▁detested": 8966,
  "▁differen": 8967,
  "▁directly": 8968,
  "▁discreet": 8969,
  "▁diseases": 8970,
  "▁disguise": 8971,
  "▁disloyal": 8972,
  "▁disperse": 8973,
  "▁disposed": 8974,
  "▁drooping": 8975,
  "▁drowning": 8976,
  "▁dwelling": 8977,
  "▁election": 8978,
  "▁elements": 8979,
  "▁embraces": 8980,
  "▁enfranch": 8981,
  "▁entering": 8982,
  "▁exclaims": 8983,
  "▁external": 8984,
  "▁factious": 8985,
  "▁fashions": 8986,
  "▁fearless": 8987,
  "▁feasting": 8988,
  "▁foretell": 8989,
  "▁freshest": 8990,
  "▁fretting": 8991,
  "▁frowning": 8992,
  "▁handsome": 8993,
  "▁homicide": 8994,
  "▁hopeless": 8995,
  "▁horrible": 8996,
  "▁infinite": 8997,
  "▁infringe": 8998,
  "▁instance": 8999,
  "▁interest": 9000,
  "▁jointure": 9001,
  "▁laboured": 9002,
  "▁laughter": 9003,
  "▁leanness": 9004,
  "▁manacles": 9005,
  "▁marquess": 9006,
  "▁marrying": 9007,
  "▁mightily": 9008,
  "▁molehill": 9009,
  "▁mutinies": 9010,
  "▁nineteen": 9011,
  "▁obdurate": 9012,
  "▁oblivion": 9013,
  "▁obscured": 9014,
  "▁ordering": 9015,
  "▁painting": 9016,
  "▁paradise": 9017,
  "▁parasite": 9018,
  "▁pleaseth": 9019,
  "▁posterns": 9020,
  "▁pregnant": 9021,
  "▁prevails": 9022,
  "▁prodigal": 9023,
  "▁profound": 9024,
  "▁purposes": 9025,
  "▁reckless": 9026,
  "▁relation": 9027,
  "▁reprieve": 9028,
  "▁requital": 9029,
  "▁reserved": 9030,
  "▁resisted": 9031,
  "▁respects": 9032,
  "▁restrain": 9033,
  "▁rosemary": 9034,
  "▁security": 9035,
  "▁severity": 9036,
  "▁slanders": 9037,
  "▁somebody": 9038,
  "▁speeches": 9039,
  "▁speedily": 9040,
  "▁stealing": 9041,
  "▁steterat": 9042,
  "▁stinking": 9043,
  "▁stubborn": 9044,
  "▁stumbled": 9045,
  "▁swearing": 9046,
  "▁thorough": 9047,
  "▁timorous": 9048,
  "▁torments": 9049,
  "▁toucheth": 9050,
  "▁trencher": 9051,
  "▁trenches": 9052,
  "▁tumbling": 9053,
  "▁unawares": 9054,
  "▁ungentle": 9055,
  "▁unjustly": 9056,
  "▁unrevere": 9057,
  "▁unthrift": 9058,
  "▁vexation": 9059,
  "▁visiting": 9060,
  "▁warrants": 9061,
  "▁watchful": 9062,
  "▁womanish": 9063,
  "▁worships": 9064,
  "▁worthier": 9065,
  "estershire": 9066,
  "▁Condition": 9067,
  "▁Fitzwater": 9068,
  "▁Forthwith": 9069,
  "▁Hallowmas": 9070,
  "▁Jerusalem": 9071,
  "▁Nathaniel": 9072,
  "▁Perchance": 9073,
  "▁Persuades": 9074,
  "▁SALISBURY": 9075,
  "▁Sebastian": 9076,
  "▁abundance": 9077,
  "▁accompany": 9078,
  "▁agreement": 9079,
  "▁ancestors": 9080,
  "▁appellant": 9081,
  "▁arguments": 9082,
  "▁attorneys": 9083,
  "▁beautiful": 9084,
  "▁beginning": 9085,
  "▁butterfly": 9086,
  "▁certainly": 9087,
  "▁clamorous": 9088,
  "▁commodity": 9089,
  "▁complices": 9090,
  "▁consented": 9091,
  "▁conserves": 9092,
  "▁continued": 9093,
  "▁customary": 9094,
  "▁deformity": 9095,
  "▁diligence": 9096,
  "▁discovery": 9097,
  "▁distemper": 9098,
  "▁doubtless": 9099,
  "▁eloquence": 9100,
  "▁emulation": 9101,
  "▁encourage": 9102,
  "▁entreated": 9103,
  "▁expressly": 9104,
  "▁fantastic": 9105,
  "▁fortnight": 9106,
  "▁fortunate": 9107,
  "▁heaviness": 9108,
  "▁incapable": 9109,
  "▁infirmity": 9110,
  "▁innocency": 9111,
  "▁innocents": 9112,
  "▁insinuate": 9113,
  "▁intercept": 9114,
  "▁invention": 9115,
  "▁lengthens": 9116,
  "▁liberties": 9117,
  "▁malicious": 9118,
  "▁malignant": 9119,
  "▁minstrels": 9120,
  "▁momentary": 9121,
  "▁moveables": 9122,
  "▁murdering": 9123,
  "▁obsequies": 9124,
  "▁offenders": 9125,
  "▁ordinance": 9126,
  "▁overheard": 9127,
  "▁overthrow": 9128,
  "▁patiently": 9129,
  "▁perchance": 9130,
  "▁persuaded": 9131,
  "▁petitions": 9132,
  "▁pleasures": 9133,
  "▁privately": 9134,
  "▁qualities": 9135,
  "▁residence": 9136,
  "▁sacrifice": 9137,
  "▁separated": 9138,
  "▁shameless": 9139,
  "▁shepherds": 9140,
  "▁signories": 9141,
  "▁sparkling": 9142,
  "▁spectacle": 9143,
  "▁strangely": 9144,
  "▁subscribe": 9145,
  "▁suppliant": 9146,
  "▁surprised": 9147,
  "▁temperate": 9148,
  "▁threefold": 9149,
  "▁threshold": 9150,
  "▁throughly": 9151,
  "▁transport": 9152,
  "▁unavoided": 9153,
  "▁uncertain": 9154,
  "▁unluckily": 9155,
  "▁villanous": 9156,
  "▁whereupon": 9157,
  "▁wondering": 9158,
  "▁worthiest": 9159,
  "▁Englishman": 9160,
  "▁Montgomery": 9161,
  "▁Pursuivant": 9162,
  "▁Willoughby": 9163,
  "▁accomplish": 9164,
  "▁adulteress": 9165,
  "▁affliction": 9166,
  "▁afterwards": 9167,
  "▁alteration": 9168,
  "▁apothecary": 9169,
  "▁approaches": 9170,
  "▁changeling": 9171,
  "▁charitable": 9172,
  "▁companions": 9173,
  "▁complaints": 9174,
  "▁conspiracy": 9175,
  "▁countryman": 9176,
  "▁degenerate": 9177,
  "▁detestable": 9178,
  "▁discretion": 9179,
  "▁disinherit": 9180,
  "▁displeased": 9181,
  "▁distinctly": 9182,
  "▁effeminate": 9183,
  "▁enterprise": 9184,
  "▁especially": 9185,
  "▁favourable": 9186,
  "▁forefather": 9187,
  "▁imposition": 9188,
  "▁ingrateful": 9189,
  "▁inveterate": 9190,
  "▁lineaments": 9191,
  "▁magistrate": 9192,
  "▁maidenhead": 9193,
  "▁manifested": 9194,
  "▁meditation": 9195,
  "▁physicians": 9196,
  "▁proceeding": 9197,
  "▁profession": 9198,
  "▁prophecies": 9199,
  "▁punishment": 9200,
  "▁reasonable": 9201,
  "▁reconciled": 9202,
  "▁remembered": 9203,
  "▁spectators": 9204,
  "▁speechless": 9205,
  "▁stratagems": 9206,
  "▁strengthen": 9207,
  "▁submission": 9208,
  "▁temperance": 9209,
  "▁tongueless": 9210,
  "▁unaccustom": 9211,
  "▁unpleasing": 9212,
  "▁unprovided": 9213,
  "▁victorious": 9214,
  "▁worshipful": 9215,
  "▁wrongfully": 9216,
  "▁Christendom": 9217,
  "▁Westminster": 9218,
  "▁accusations": 9219,
  "▁advancement": 9220,
  "▁authorities": 9221,
  "▁commandment": 9222,
  "▁complexions": 9223,
  "▁confederate": 9224,
  "▁considering": 9225,
  "▁countermand": 9226,
  "▁deliverance": 9227,
  "▁desperately": 9228,
  "▁dissembling": 9229,
  "▁distinguish": 9230,
  "▁enforcement": 9231,
  "▁everlasting": 9232,
  "▁fantastical": 9233,
  "▁fornication": 9234,
  "▁immediately": 9235,
  "▁inheritance": 9236,
  "▁mathematics": 9237,
  "▁necessities": 9238,
  "▁preparation": 9239,
  "▁resemblance": 9240,
  "▁yesternight": 9241,
  "▁acquaintance": 9242,
  "▁disinherited": 9243,
  "▁embracements": 9244,
  "▁instructions": 9245,
  "▁intercession": 9246,
  "▁lamentations": 9247,
  "▁peradventure": 9248,
  "▁preposterous": 9249,
  "▁wretchedness": 9250,
  "EAS": 9251,
  "OPH": 9252,
  "URE": 9253,
  "ogy": 9254,
  "AUGH": 9255,
  "Alas": 9256,
  "Stay": 9257,
  "Thus": 9258,
  "True": 9259,
  "acre": 9260,
  "auph": 9261,
  "boys": 9262,
  "cote": 9263,
  "dges": 9264,
  "disp": 9265,
  "dyed": 9266,
  "ibal": 9267,
  "ipod": 9268,
  "lloa": 9269,
  "mmer": 9270,
  "much": 9271,
  "opsa": 9272,
  "pocr": 9273,
  "recy": 9274,
  "tico": 9275,
  "vals": 9276,
  "vels": 9277,
  "xcom": 9278,
  "zalo": 9279,
  "▁Ens": 9280,
  "▁Fla": 9281,
  "▁Imm": 9282,
  "▁err": 9283,
  "▁sip": 9284,
  "Faith": 9285,
  "OPHER": 9286,
  "affod": 9287,
  "agued": 9288,
  "arism": 9289,
  "atisf": 9290,
  "aucas": 9291,
  "brary": 9292,
  "chets": 9293,
  "comed": 9294,
  "cures": 9295,
  "doubt": 9296,
  "flies": 9297,
  "ggest": 9298,
  "goose": 9299,
  "guing": 9300,
  "hrase": 9301,
  "idels": 9302,
  "illyv": 9303,
  "imbly": 9304,
  "beat": 9305,
  "gars": 9306,
  "▁Spl": 9307,
  "alley": 9308,
  "black": 9309,
  "blind": 9310,
  "hampt": 9311,
  "iping": 9312,
  "kerel": 9313,
  "locks": 9314,
  "maids": 9315,
  "maker": 9316,
  "music": 9317,
  "oever": 9318,
  "ology": 9319,
  "orpor": 9320,
  "othed": 9321,
  "pared": 9322,
  "pired": 9323,
  "proud": 9324,
  "ramed": 9325,
  "raybe": 9326,
  "roses": 9327,
  "sheet": 9328,
  "shell": 9329,
  "thest": 9330,
  "uiced": 9331,
  "urcha": 9332,
  "uscad": 9333,
  "utoly": 9334,
  "utumn": 9335,
  "ville": 9336,
  "vived": 9337,
  "▁Alex": 9338,
  "▁Arch": 9339,
  "▁Barb": 9340,
  "▁Begg": 9341,
  "▁Coun": 9342,
  "▁Dece": 9343,
  "▁Deny": 9344,
  "▁Deuc": 9345,
  "▁Dogs": 9346,
  "▁Drop": 9347,
  "▁Echo": 9348,
  "▁Exam": 9349,
  "▁Hann": 9350,
  "▁Liby": 9351,
  "▁Lucy": 9352,
  "▁MEAS": 9353,
  "▁Maid": 9354,
  "▁Next": 9355,
  "▁Requ": 9356,
  "▁Self": 9357,
  "▁Sham": 9358,
  "▁Wash": 9359,
  "▁Worc": 9360,
  "▁ampl": 9361,
  "▁apes": 9362,
  "▁bias": 9363,
  "▁camp": 9364,
  "▁cape": 9365,
  "▁clog": 9366,
  "▁copy": 9367,
  "▁corm": 9368,
  "▁demi": 9369,
  "▁digg": 9370,
  "▁eats": 9371,
  "▁eggs": 9372,
  "▁fidd": 9373,
  "▁gasp": 9374,
  "▁hoop": 9375,
  "▁hugg": 9376,
  "▁indu": 9377,
  "▁jars": 9378,
  "▁larg": 9379,
  "▁logs": 9380,
  "▁lump": 9381,
  "▁magn": 9382,
  "▁malm": 9383,
  "▁matt": 9384,
  "▁medd": 9385,
  "▁meek": 9386,
  "▁navy": 9387,
  "▁nurs": 9388,
  "▁nuts": 9389,
  "▁pars": 9390,
  "▁pipe": 9391,
  "▁pump": 9392,
  "▁puny": 9393,
  "▁rags": 9394,
  "▁ribs": 9395,
  "▁sinc": 9396,
  "▁tape": 9397,
  "▁unex": 9398,
  "▁unpo": 9399,
  "▁unsk": 9400,
  "▁vein": 9401,
  "▁waft": 9402,
  "AUGHAN": 9403,
  "acheth": 9404,
  "▁bug": 9405,
  "▁giv": 9406,
  "▁ivy": 9407,
  "KELEY": 9408,
  "Whoop": 9409,
  "asury": 9410,
  "erily": 9411,
  "hapen": 9412,
  "iency": 9413,
  "ildly": 9414,
  "isans": 9415,
  "oriol": 9416,
  "ounts": 9417,
  "▁Abra": 9418,
  "▁bars": 9419,
  "▁boat": 9420,
  "▁boil": 9421,
  "▁carc": 9422,
  "▁choo": 9423,
  "▁fade": 9424,
  "▁gamb": 9425,
  "▁hild": 9426,
  "▁mudd": 9427,
  "▁nodd": 9428,
  "▁reek": 9429,
  "▁rubs": 9430,
  "▁void": 9431,
  "Coriol": 9432,
  "Verily": 9433,
  "amples": 9434,
  "anched": 9435,
  "angled": 9436,
  "appare": 9437,
  "ashion": 9438,
  "asping": 9439,
  "atrice": 9440,
  "avoury": 9441,
  "bodied": 9442,
  "cepter": 9443,
  "closed": 9444,
  "dinand": 9445,
  "emaker": 9446,
  "ements": 9447,
  "erbear": 9448,
  "erpast": 9449,
  "erween": 9450,
  "footed": 9451,
  "geably": 9452,
  "gealed": 9453,
  "gments": 9454,
  "gnable": 9455,
  "hastly": 9456,
  "hearts": 9457,
  "heriff": 9458,
  "hieves": 9459,
  "ianced": 9460,
  "icanor": 9461,
  "illars": 9462,
  "ipodes": 9463,
  "ithmet": 9464,
  "judged": 9465,
  "mitted": 9466,
  "monger": 9467,
  "onzalo": 9468,
  "otions": 9469,
  "ottage": 9470,
  "ouched": 9471,
  "ourest": 9472,
  "ourses": 9473,
  "plight": 9474,
  "queath": 9475,
  "racted": 9476,
  "raught": 9477,
  "ringed": 9478,
  "roying": 9479,
  "shaped": 9480,
  "spoken": 9481,
  "stones": 9482,
  "therea": 9483,
  "thread": 9484,
  "thwack": 9485,
  "thwart": 9486,
  "ticoat": 9487,
  "twenty": 9488,
  "uities": 9489,
  "urally": 9490,
  "uspect": 9491,
  "utiful": 9492,
  "vocate": 9493,
  "weighs": 9494,
  "winged": 9495,
  "▁Bened": 9496,
  "▁Bliss": 9497,
  "▁Brief": 9498,
  "▁Capel": 9499,
  "▁Cotus": 9500,
  "▁Count": 9501,
  "▁Delay": 9502,
  "▁Enjoy": 9503,
  "▁Greek": 9504,
  "HRI": 9505,
  "ITUS": 9506,
  "irts": 9507,
  "mark": 9508,
  "mock": 9509,
  "nock": 9510,
  "pray": 9511,
  "▁Arg": 9512,
  "▁Dev": 9513,
  "▁Emb": 9514,
  "HRIST": 9515,
  "aketh": 9516,
  "herds": 9517,
  "ideth": 9518,
  "itary": 9519,
  "orged": 9520,
  "▁Quit": 9521,
  "▁adds": 9522,
  "▁bits": 9523,
  "▁chur": 9524,
  "▁gird": 9525,
  "▁glit": 9526,
  "▁lawy": 9527,
  "▁malc": 9528,
  "▁semb": 9529,
  "Charge": 9530,
  "aching": 9531,
  "venged": 9532,
  "▁Below": 9533,
  "▁Doing": 9534,
  "▁Haply": 9535,
  "▁Haste": 9536,
  "▁Holla": 9537,
  "▁Hover": 9538,
  "▁Judas": 9539,
  "▁Kates": 9540,
  "▁Laugh": 9541,
  "▁Looks": 9542,
  "▁Negle": 9543,
  "▁POMPH": 9544,
  "▁Prick": 9545,
  "▁Provo": 9546,
  "▁Shake": 9547,
  "▁Short": 9548,
  "▁Sorry": 9549,
  "▁Stabb": 9550,
  "▁Stays": 9551,
  "▁Stirr": 9552,
  "▁TITUS": 9553,
  "▁Tread": 9554,
  "▁Troth": 9555,
  "▁Tutor": 9556,
  "▁Unshe": 9557,
  "▁Words": 9558,
  "▁Wrath": 9559,
  "▁Wrong": 9560,
  "▁abode": 9561,
  "▁angle": 9562,
  "▁aptly": 9563,
  "▁arrog": 9564,
  "▁baits": 9565,
  "▁baked": 9566,
  "▁barne": 9567,
  "▁belie": 9568,
  "▁blank": 9569,
  "▁broil": 9570,
  "▁bunch": 9571,
  "▁cater": 9572,
  "▁cavil": 9573,
  "▁cedar": 9574,
  "▁cheat": 9575,
  "▁churl": 9576,
  "▁clang": 9577,
  "▁clubs": 9578,
  "▁coral": 9579,
  "▁covet": 9580,
  "▁creep": 9581,
  "▁cryst": 9582,
  "▁cures": 9583,
  "▁curfe": 9584,
  "▁dally": 9585,
  "▁daunt": 9586,
  "▁doctr": 9587,
  "▁domin": 9588,
  "▁dregs": 9589,
  "▁drive": 9590,
  "▁drove": 9591,
  "▁duell": 9592,
  "▁dumps": 9593,
  "▁eased": 9594,
  "▁elbow": 9595,
  "▁extem": 9596,
  "▁extol": 9597,
  "▁faded": 9598,
  "▁famed": 9599,
  "▁fasts": 9600,
  "▁feels": 9601,
  "▁feign": 9602,
  "▁fitly": 9603,
  "▁fixed": 9604,
  "mew": 9605,
  "fied": 9606,
  "rons": 9607,
  "udes": 9608,
  "▁Jew": 9609,
  "▁New": 9610,
  "▁cog": 9611,
  "anied": 9612,
  "apert": 9613,
  "cloth": 9614,
  "elier": 9615,
  "itied": 9616,
  "meant": 9617,
  "ossed": 9618,
  "rants": 9619,
  "retty": 9620,
  "uding": 9621,
  "▁Cret": 9622,
  "▁Note": 9623,
  "▁Prop": 9624,
  "▁Vile": 9625,
  "▁clos": 9626,
  "▁coil": 9627,
  "▁coin": 9628,
  "▁fert": 9629,
  "▁pile": 9630,
  "▁tram": 9631,
  "▁vail": 9632,
  "▁wool": 9633,
  "ediles": 9634,
  "forter": 9635,
  "hallow": 9636,
  "illius": 9637,
  "▁Allow": 9638,
  "▁Grief": 9639,
  "▁Venus": 9640,
  "▁cakes": 9641,
  "▁chaos": 9642,
  "▁flung": 9643,
  "▁freez": 9644,
  "▁frequ": 9645,
  "▁funer": 9646,
  "▁gapes": 9647,
  "▁glean": 9648,
  "▁grate": 9649,
  "▁guile": 9650,
  "▁gusts": 9651,
  "▁habil": 9652,
  "▁hairs": 9653,
  "▁hides": 9654,
  "▁hunts": 9655,
  "▁hurry": 9656,
  "▁hurts": 9657,
  "▁immod": 9658,
  "▁ingen": 9659,
  "▁insur": 9660,
  "▁jades": 9661,
  "▁jolly": 9662,
  "▁kills": 9663,
  "▁knots": 9664,
  "▁lasts": 9665,
  "▁leash": 9666,
  "▁limed": 9667,
  "▁meets": 9668,
  "▁metho": 9669,
  "▁mocks": 9670,
  "▁moons": 9671,
  "▁muddy": 9672,
  "▁necks": 9673,
  "▁ocean": 9674,
  "▁ounce": 9675,
  "▁owest": 9676,
  "▁parag": 9677,
  "▁parks": 9678,
  "▁plots": 9679,
  "▁poets": 9680,
  "▁polit": 9681,
  "▁prank": 9682,
  "▁quaff": 9683,
  "▁raged": 9684,
  "▁range": 9685,
  "▁refer": 9686,
  "▁reins": 9687,
  "▁rhyme": 9688,
  "▁rival": 9689,
  "▁rocky": 9690,
  "▁roots": 9691,
  "▁rusty": 9692,
  "▁salve": 9693,
  "▁seals": 9694,
  "▁seats": 9695,
  "▁seeds": 9696,
  "▁shrug": 9697,
  "▁shuts": 9698,
  "▁simpl": 9699,
  "▁skies": 9700,
  "▁skull": 9701,
  "▁smack": 9702,
  "▁smear": 9703,
  "▁smock": 9704,
  "abs": 9705,
  "igm": 9706,
  "uft": 9707,
  "aled": 9708,
  "amps": 9709,
  "aned": 9710,
  "butt": 9711,
  "ercy": 9712,
  "rang": 9713,
  "suck": 9714,
  "▁Led": 9715,
  "▁esp": 9716,
  "▁jay": 9717,
  "▁owl": 9718,
  "alian": 9719,
  "chequ": 9720,
  "chest": 9721,
  "ckets": 9722,
  "icite": 9723,
  "isons": 9724,
  "mercy": 9725,
  "perly": 9726,
  "range": 9727,
  "swear": 9728,
  "uckle": 9729,
  "▁Cuts": 9730,
  "▁Pass": 9731,
  "▁Spur": 9732,
  "▁begs": 9733,
  "▁biss": 9734,
  "▁bolt": 9735,
  "▁dart": 9736,
  "▁grin": 9737,
  "▁peep": 9738,
  "▁pins": 9739,
  "▁pren": 9740,
  "▁ruff": 9741,
  "▁rung": 9742,
  "▁scri": 9743,
  "▁size": 9744,
  "▁tuft": 9745,
  "▁untr": 9746,
  "arable": 9747,
  "rimony": 9748,
  "valued": 9749,
  "▁Heart": 9750,
  "▁Learn": 9751,
  "▁apple": 9752,
  "▁lucky": 9753,
  "▁prenz": 9754,
  "▁prote": 9755,
  "▁smoke": 9756,
  "▁spawn": 9757,
  "▁splin": 9758,
  "▁stair": 9759,
  "▁stony": 9760,
  "▁strif": 9761,
  "▁surpl": 9762,
  "▁swarm": 9763,
  "▁sways": 9764,
  "▁swept": 9765,
  "▁tails": 9766,
  "▁tenor": 9767,
  "▁tenth": 9768,
  "▁tilth": 9769,
  "▁tribe": 9770,
  "▁trimm": 9771,
  "▁unpar": 9772,
  "▁unwho": 9773,
  "▁usual": 9774,
  "▁vanqu": 9775,
  "▁vaunt": 9776,
  "▁vials": 9777,
  "▁viper": 9778,
  "▁waded": 9779,
  "▁waist": 9780,
  "▁wealt": 9781,
  "▁weeks": 9782,
  "▁wiser": 9783,
  "▁witty": 9784,
  "▁wombs": 9785,
  "▁wormw": 9786,
  "▁wreak": 9787,
  "Courage": 9788,
  "ERKELEY": 9789,
  "aculate": 9790,
  "adition": 9791,
  "ainties": 9792,
  "antages": 9793,
  "arewell": 9794,
  "atesman": 9795,
  "attling": 9796,
  "berries": 9797,
  "cessors": 9798,
  "comfort": 9799,
  "emember": 9800,
  "ensible": 9801,
  "erately": 9802,
  "fellows": 9803,
  "genders": 9804,
  "How": 9805,
  "rob": 9806,
  "▁cu": 9807,
  "Hold": 9808,
  "avel": 9809,
  "beit": 9810,
  "crow": 9811,
  "iron": 9812,
  "izes": 9813,
  "lead": 9814,
  "serv": 9815,
  "west": 9816,
  "Bless": 9817,
  "cease": 9818,
  "iless": 9819,
  "reech": 9820,
  "rowns": 9821,
  "three": 9822,
  "▁Dull": 9823,
  "▁Incl": 9824,
  "▁arts": 9825,
  "▁bull": 9826,
  "▁cull": 9827,
  "▁fitt": 9828,
  "▁prig": 9829,
  "▁remn": 9830,
  "▁twig": 9831,
  "▁warp": 9832,
  "astery": 9833,
  "ighing": 9834,
  "kshire": 9835,
  "thrown": 9836,
  "ulling": 9837,
  "urnish": 9838,
  "▁Chide": 9839,
  "▁House": 9840,
  "▁Kings": 9841,
  "▁bloss": 9842,
  "▁bower": 9843,
  "▁clout": 9844,
  "▁corns": 9845,
  "▁darts": 9846,
  "▁dough": 9847,
  "▁flout": 9848,
  "▁gazed": 9849,
  "▁guide": 9850,
  "▁liver": 9851,
  "▁perch": 9852,
  "▁thigh": 9853,
  "▁twigs": 9854,
  "▁twist": 9855,
  "ificial": 9856,
  "ilities": 9857,
  "incetin": 9858,
  "itively": 9859,
  "itution": 9860,
  "jurious": 9861,
  "keeping": 9862,
  "masters": 9863,
  "mercies": 9864,
  "missive": 9865,
  "odpiece": 9866,
  "olution": 9867,
  "ondrous": 9868,
  "onition": 9869,
  "otchets": 9870,
  "pillars": 9871,
  "pointed": 9872,
  "politan": 9873,
  "righted": 9874,
  "riously": 9875,
  "ropping": 9876,
  "running": 9877,
  "settled": 9878,
  "staring": 9879,
  "ucation": 9880,
  "ucement": 9881,
  "velling": 9882,
  "venteen": 9883,
  "vouring": 9884,
  "wearied": 9885,
  "▁Adrian": 9886,
  "▁Almost": 9887,
  "▁Argier": 9888,
  "▁Autoly": 9889,
  "▁Barnet": 9890,
  "▁Became": 9891,
  "▁Behind": 9892,
  "▁Bloody": 9893,
  "▁Boldly": 9894,
  "▁Breton": 9895,
  "▁CHRIST": 9896,
  "▁Crowns": 9897,
  "▁Desire": 9898,
  "▁Divine": 9899,
  "▁Doubly": 9900,
  "▁During": 9901,
  "▁Eleven": 9902,
  "▁Engage": 9903,
  "▁Exceed": 9904,
  "An": 9905,
  "uct": 9906,
  "war": 9907,
  "▁ps": 9908,
  "When": 9909,
  "atal": 9910,
  "corn": 9911,
  "igen": 9912,
  "oise": 9913,
  "ooch": 9914,
  "ride": 9915,
  "▁Inc": 9916,
  "▁Oft": 9917,
  "▁Oly": 9918,
  "▁Roy": 9919,
  "▁alt": 9920,
  "▁ess": 9921,
  "▁roe": 9922,
  "celsa": 9923,
  "eries": 9924,
  "ifies": 9925,
  "match": 9926,
  "mouth": 9927,
  "otent": 9928,
  "oused": 9929,
  "raise": 9930,
  "sweet": 9931,
  "uance": 9932,
  "wness": 9933,
  "▁Been": 9934,
  "▁Inqu": 9935,
  "▁Inst": 9936,
  "▁List": 9937,
  "▁Mort": 9938,
  "▁Rise": 9939,
  "▁Tick": 9940,
  "▁Wise": 9941,
  "▁asks": 9942,
  "▁bede": 9943,
  "▁curb": 9944,
  "▁lave": 9945,
  "▁tush": 9946,
  "▁twin": 9947,
  "corner": 9948,
  "erness": 9949,
  "urther": 9950,
  "▁Olymp": 9951,
  "▁Plays": 9952,
  "▁Scorn": 9953,
  "▁aband": 9954,
  "▁ample": 9955,
  "▁clime": 9956,
  "▁cured": 9957,
  "▁knack": 9958,
  "▁misbe": 9959,
  "hampton": 9960,
  "ouncing": 9961,
  "▁Ascend": 9962,
  "▁Flower": 9963,
  "▁Forced": 9964,
  "▁Golden": 9965,
  "▁Honour": 9966,
  "▁Ladies": 9967,
  "▁Lament": 9968,
  "▁Matter": 9969,
  "▁Mortal": 9970,
  "▁Mortim": 9971,
  "▁Namely": 9972,
  "▁Pilate": 9973,
  "▁Poison": 9974,
  "▁Prefix": 9975,
  "▁Pretty": 9976,
  "▁Priami": 9977,
  "▁Reason": 9978,
  "▁Rebell": 9979,
  "▁Relent": 9980,
  "▁Resign": 9981,
  "▁Robert": 9982,
  "▁Saddle": 9983,
  "▁Scurvy": 9984,
  "▁Sicils": 9985,
  "▁Simois": 9986,
  "▁Sister": 9987,
  "▁Spread": 9988,
  "▁Strive": 9989,
  "▁Temper": 9990,
  "▁Twelve": 9991,
  "▁Unfold": 9992,
  "▁abides": 9993,
  "▁abound": 9994,
  "▁abstin": 9995,
  "▁alarum": 9996,
  "▁allied": 9997,
  "▁argued": 9998,
  "▁argues": 9999,
  "▁arrive": 10000,
  "▁assign": 10001,
  "▁autumn": 10002,
  "▁awaked": 10003,
  "▁awaken": 10004,
  "ipt": 10005,
  "uel": 10006,
  "▁Us": 10007,
  "cold": 10008,
  "dish": 10009,
  "live": 10010,
  "peer": 10011,
  "stit": 10012,
  "tide": 10013,
  "yves": 10014,
  "▁Mir": 10015,
  "▁Sum": 10016,
  "▁Win": 10017,
  "▁bal": 10018,
  "▁cel": 10019,
  "▁coc": 10020,
  "▁fel": 10021,
  "▁ker": 10022,
  "▁nut": 10023,
  "▁sci": 10024,
  "assed": 10025,
  "cence": 10026,
  "chess": 10027,
  "creat": 10028,
  "eling": 10029,
  "idity": 10030,
  "isher": 10031,
  "▁Howe": 10032,
  "▁Wish": 10033,
  "▁acre": 10034,
  "▁bene": 10035,
  "▁bout": 10036,
  "▁disf": 10037,
  "▁fuel": 10038,
  "▁maim": 10039,
  "▁poet": 10040,
  "▁sout": 10041,
  "▁stee": 10042,
  "auphin": 10043,
  "gentle": 10044,
  "▁Draws": 10045,
  "▁deity": 10046,
  "▁gyves": 10047,
  "▁hoard": 10048,
  "▁holes": 10049,
  "▁hound": 10050,
  "▁masks": 10051,
  "▁pence": 10052,
  "▁stake": 10053,
  "ounding": 10054,
  "reading": 10055,
  "ressing": 10056,
  "▁Mirand": 10057,
  "▁Summon": 10058,
  "▁Wrench": 10059,
  "▁acquit": 10060,
  "▁admire": 10061,
  "▁babies": 10062,
  "▁baited": 10063,
  "▁barber": 10064,
  "▁basely": 10065,
  "▁beards": 10066,
  "▁beaver": 10067,
  "▁behove": 10068,
  "▁bended": 10069,
  "▁bestir": 10070,
  "▁betake": 10071,
  "▁bisson": 10072,
  "▁blanks": 10073,
  "▁bolder": 10074,
  "▁bolted": 10075,
  "▁bottle": 10076,
  "▁bounds": 10077,
  "▁brands": 10078,
  "▁brawls": 10079,
  "▁breech": 10080,
  "▁bridle": 10081,
  "▁briers": 10082,
  "▁broach": 10083,
  "▁brooch": 10084,
  "▁brooks": 10085,
  "▁bubble": 10086,
  "▁builds": 10087,
  "▁carbon": 10088,
  "▁career": 10089,
  "▁carved": 10090,
  "▁carver": 10091,
  "▁casque": 10092,
  "▁causer": 10093,
  "▁celebr": 10094,
  "▁chairs": 10095,
  "▁chapel": 10096,
  "▁chests": 10097,
  "▁cities": 10098,
  "▁cleave": 10099,
  "▁client": 10100,
  "▁closet": 10101,
  "▁cloven": 10102,
  "▁clutch": 10103,
  "▁cockle": 10104,
  "yr": 10105,
  "ody": 10106,
  "bout": 10107,
  "exor": 10108,
  "fond": 10109,
  "lies": 10110,
  "pate": 10111,
  "wall": 10112,
  "wind": 10113,
  "▁Ask": 10114,
  "▁Dig": 10115,
  "▁Ing": 10116,
  "▁maw": 10117,
  "▁mol": 10118,
  "abond": 10119,
  "heres": 10120,
  "inary": 10121,
  "liest": 10122,
  "olate": 10123,
  "ppers": 10124,
  "ucing": 10125,
  "▁Bare": 10126,
  "▁Fred": 10127,
  "▁Heir": 10128,
  "▁Mond": 10129,
  "▁Sout": 10130,
  "▁Sure": 10131,
  "▁bitt": 10132,
  "▁dall": 10133,
  "▁deem": 10134,
  "▁dews": 10135,
  "▁dive": 10136,
  "▁eyed": 10137,
  "▁flee": 10138,
  "▁harp": 10139,
  "▁irks": 10140,
  "▁pond": 10141,
  "▁pout": 10142,
  "▁rubb": 10143,
  "▁sums": 10144,
  "▁swan": 10145,
  "▁unbu": 10146,
  "server": 10147,
  "silver": 10148,
  "volous": 10149,
  "▁Taste": 10150,
  "▁brood": 10151,
  "▁cable": 10152,
  "▁crupp": 10153,
  "▁dates": 10154,
  "▁fawns": 10155,
  "▁horns": 10156,
  "▁mista": 10157,
  "▁quond": 10158,
  "▁rayed": 10159,
  "▁unres": 10160,
  "▁usest": 10161,
  "agabond": 10162,
  "▁Freder": 10163,
  "▁Friend": 10164,
  "▁Monday": 10165,
  "▁confli": 10166,
  "▁conjur": 10167,
  "▁contag": 10168,
  "▁copest": 10169,
  "▁cormor": 10170,
  "▁counts": 10171,
  "▁coxcom": 10172,
  "▁cracks": 10173,
  "▁cradle": 10174,
  "▁crafts": 10175,
  "▁cramps": 10176,
  "▁curfew": 10177,
  "▁daffod": 10178,
  "▁damask": 10179,
  "▁danced": 10180,
  "▁denier": 10181,
  "▁detain": 10182,
  "▁devout": 10183,
  "▁dieted": 10184,
  "▁discom": 10185,
  "▁disfig": 10186,
  "▁dispro": 10187,
  "▁dolour": 10188,
  "▁dotard": 10189,
  "▁doubly": 10190,
  "▁doubts": 10191,
  "▁drudge": 10192,
  "▁eagles": 10193,
  "▁easter": 10194,
  "▁engine": 10195,
  "▁ensign": 10196,
  "▁entail": 10197,
  "▁exiled": 10198,
  "▁factor": 10199,
  "▁farmer": 10200,
  "▁faster": 10201,
  "▁featly": 10202,
  "▁fields": 10203,
  "▁finely": 10204,
  "ext": 10205,
  "ics": 10206,
  "lix": 10207,
  "oro": 10208,
  "▁Bu": 10209,
  "aths": 10210,
  "hips": 10211,
  "ints": 10212,
  "lars": 10213,
  "omed": 10214,
  "seed": 10215,
  "tong": 10216,
  "usty": 10217,
  "▁Dry": 10218,
  "▁Joy": 10219,
  "▁gun": 10220,
  "▁shy": 10221,
  "heart": 10222,
  "hoods": 10223,
  "itter": 10224,
  "rates": 10225,
  "stain": 10226,
  "▁Done": 10227,
  "▁Fors": 10228,
  "▁Safe": 10229,
  "▁ache": 10230,
  "▁conn": 10231,
  "▁hent": 10232,
  "▁lime": 10233,
  "▁moth": 10234,
  "▁wive": 10235,
  "anting": 10236,
  "▁Archb": 10237,
  "▁Bless": 10238,
  "▁Force": 10239,
  "▁Light": 10240,
  "▁Threw": 10241,
  "▁Worth": 10242,
  "▁acted": 10243,
  "▁afire": 10244,
  "▁bough": 10245,
  "▁chequ": 10246,
  "▁clerk": 10247,
  "▁hates": 10248,
  "▁pedig": 10249,
  "▁proro": 10250,
  "▁sheer": 10251,
  "▁spies": 10252,
  "▁spray": 10253,
  "▁tithe": 10254,
  "olation": 10255,
  "tongued": 10256,
  "unction": 10257,
  "▁Seeing": 10258,
  "▁choked": 10259,
  "▁finest": 10260,
  "▁finish": 10261,
  "▁fishes": 10262,
  "▁fleece": 10263,
  "▁flying": 10264,
  "▁foison": 10265,
  "▁forged": 10266,
  "▁forges": 10267,
  "▁formal": 10268,
  "▁freeze": 10269,
  "▁furred": 10270,
  "▁galled": 10271,
  "▁garish": 10272,
  "▁gavest": 10273,
  "▁gazing": 10274,
  "▁gillyv": 10275,
  "▁gossip": 10276,
  "▁grants": 10277,
  "▁graver": 10278,
  "▁guards": 10279,
  "▁guides": 10280,
  "▁hammer": 10281,
  "▁haunts": 10282,
  "▁heated": 10283,
  "▁heaved": 10284,
  "▁helped": 10285,
  "▁hidden": 10286,
  "▁highly": 10287,
  "▁hoping": 10288,
  "▁hypocr": 10289,
  "▁images": 10290,
  "▁impute": 10291,
  "▁indict": 10292,
  "▁indign": 10293,
  "▁indust": 10294,
  "▁inexor": 10295,
  "▁infall": 10296,
  "▁inside": 10297,
  "▁invest": 10298,
  "▁invite": 10299,
  "▁judged": 10300,
  "▁kersey": 10301,
  "▁kindle": 10302,
  "▁lackey": 10303,
  "▁ladder": 10304,
  "ids": 10305,
  "ney": 10306,
  "oan": 10307,
  "ora": 10308,
  "▁AL": 10309,
  "▁Di": 10310,
  "▁Es": 10311,
  "▁ci": 10312,
  "INAL": 10313,
  "days": 10314,
  "hank": 10315,
  "heir": 10316,
  "heth": 10317,
  "ifle": 10318,
  "imon": 10319,
  "nard": 10320,
  "reen": 10321,
  "tern": 10322,
  "test": 10323,
  "thou": 10324,
  "▁ALL": 10325,
  "▁Alb": 10326,
  "▁nep": 10327,
  "▁pea": 10328,
  "▁pru": 10329,
  "▁ram": 10330,
  "▁sew": 10331,
  "amour": 10332,
  "cipal": 10333,
  "hange": 10334,
  "inish": 10335,
  "swoln": 10336,
  "umbly": 10337,
  "▁Fast": 10338,
  "▁Nort": 10339,
  "▁ally": 10340,
  "▁beam": 10341,
  "▁doff": 10342,
  "▁fork": 10343,
  "▁fume": 10344,
  "▁owed": 10345,
  "▁riot": 10346,
  "▁rite": 10347,
  "▁seed": 10348,
  "▁sops": 10349,
  "▁twos": 10350,
  "aynard": 10351,
  "berate": 10352,
  "isheth": 10353,
  "ortive": 10354,
  "▁bells": 10355,
  "▁brake": 10356,
  "▁fined": 10357,
  "▁nephe": 10358,
  "▁scale": 10359,
  "▁shuns": 10360,
  "ARDINAL": 10361,
  "falling": 10362,
  "▁Albion": 10363,
  "▁Change": 10364,
  "▁Errone": 10365,
  "▁Hacket": 10366,
  "▁Longer": 10367,
  "▁cipher": 10368,
  "▁compet": 10369,
  "▁easier": 10370,
  "▁garter": 10371,
  "▁lances": 10372,
  "▁lastly": 10373,
  "▁latter": 10374,
  "▁liquid": 10375,
  "▁listen": 10376,
  "▁litter": 10377,
  "▁losing": 10378,
  "▁losses": 10379,
  "▁madmen": 10380,
  "▁makest": 10381,
  "▁malady": 10382,
  "▁manors": 10383,
  "▁mature": 10384,
  "▁medlar": 10385,
  "▁merits": 10386,
  "▁method": 10387,
  "▁mettle": 10388,
  "▁milder": 10389,
  "▁mingle": 10390,
  "▁misled": 10391,
  "▁motive": 10392,
  "▁muffle": 10393,
  "▁multip": 10394,
  "▁multit": 10395,
  "▁mutual": 10396,
  "▁nephew": 10397,
  "▁nicely": 10398,
  "▁novice": 10399,
  "▁opport": 10400,
  "▁orange": 10401,
  "▁orders": 10402,
  "▁ostent": 10403,
  "▁overta": 10404,
  "No": 10405,
  "▁:": 10406,
  "Sic": 10407,
  "aub": 10408,
  "cup": 10409,
  "dex": 10410,
  "iry": 10411,
  "rav": 10412,
  "sec": 10413,
  "▁--": 10414,
  "athy": 10415,
  "eese": 10416,
  "gger": 10417,
  "mend": 10418,
  "▁Bro": 10419,
  "▁Day": 10420,
  "▁Nea": 10421,
  "▁Sea": 10422,
  "▁Yor": 10423,
  "▁mam": 10424,
  "plain": 10425,
  "would": 10426,
  "▁Rain": 10427,
  "▁Wear": 10428,
  "▁ague": 10429,
  "▁begn": 10430,
  "▁gest": 10431,
  "▁shin": 10432,
  "abouts": 10433,
  "active": 10434,
  "bridge": 10435,
  "▁assay": 10436,
  "▁cloth": 10437,
  "▁geese": 10438,
  "▁gripe": 10439,
  "▁index": 10440,
  "▁jaunt": 10441,
  "▁penet": 10442,
  "▁saves": 10443,
  "▁skins": 10444,
  "▁stirr": 10445,
  "▁talks": 10446,
  "▁vitae": 10447,
  "landers": 10448,
  "▁Notice": 10449,
  "▁denies": 10450,
  "▁gilded": 10451,
  "▁hoarse": 10452,
  "▁lethar": 10453,
  "▁logger": 10454,
  "▁lowest": 10455,
  "▁oppose": 10456,
  "▁parley": 10457,
  "▁paying": 10458,
  "▁perfid": 10459,
  "▁phrase": 10460,
  "▁pieced": 10461,
  "▁pillow": 10462,
  "▁pirate": 10463,
  "▁pities": 10464,
  "▁plough": 10465,
  "▁poetry": 10466,
  "▁ponder": 10467,
  "▁potent": 10468,
  "▁prayed": 10469,
  "▁precip": 10470,
  "▁predom": 10471,
  "▁prolix": 10472,
  "▁proves": 10473,
  "▁purest": 10474,
  "▁purity": 10475,
  "▁rankle": 10476,
  "▁rashly": 10477,
  "▁reduce": 10478,
  "▁regent": 10479,
  "▁relent": 10480,
  "▁repeat": 10481,
  "▁replen": 10482,
  "▁retail": 10483,
  "▁revoke": 10484,
  "▁richer": 10485,
  "▁richly": 10486,
  "▁riddle": 10487,
  "▁ridges": 10488,
  "▁ripest": 10489,
  "▁rivals": 10490,
  "▁roared": 10491,
  "▁rooted": 10492,
  "▁rounds": 10493,
  "▁rudely": 10494,
  "▁sailor": 10495,
  "▁savour": 10496,
  "▁scared": 10497,
  "▁scathe": 10498,
  "▁scurvy": 10499,
  "▁sedges": 10500,
  "▁sequel": 10501,
  "▁shades": 10502,
  "▁shaped": 10503,
  "▁sheath": 10504,
  "aby": 10505,
  "ifs": 10506,
  "oil": 10507,
  "rip": 10508,
  "tri": 10509,
  "▁LO": 10510,
  "▁Wa": 10511,
  "▁ep": 10512,
  "▁la": 10513,
  "Come": 10514,
  "Rome": 10515,
  "cked": 10516,
  "erry": 10517,
  "gent": 10518,
  "ists": 10519,
  "lant": 10520,
  "rius": 10521,
  "▁Cra": 10522,
  "▁Fan": 10523,
  "▁Gro": 10524,
  "▁LOV": 10525,
  "▁Pen": 10526,
  "▁Pot": 10527,
  "▁Tor": 10528,
  "▁ply": 10529,
  "▁rav": 10530,
  "Romeo": 10531,
  "arget": 10532,
  "death": 10533,
  "denly": 10534,
  "hanks": 10535,
  "heads": 10536,
  "inent": 10537,
  "ooing": 10538,
  "ruple": 10539,
  "▁Kiss": 10540,
  "▁Potp": 10541,
  "▁Thee": 10542,
  "▁clip": 10543,
  "▁dump": 10544,
  "▁epit": 10545,
  "▁ewes": 10546,
  "▁hack": 10547,
  "▁hiss": 10548,
  "▁itch": 10549,
  "▁meas": 10550,
  "▁rift": 10551,
  "▁triv": 10552,
  "▁type": 10553,
  "Thanks": 10554,
  "ashing": 10555,
  "honour": 10556,
  "ledged": 10557,
  "remacy": 10558,
  "▁Keeps": 10559,
  "▁LOVEL": 10560,
  "▁Roger": 10561,
  "▁banns": 10562,
  "▁canon": 10563,
  "▁disli": 10564,
  "▁drugs": 10565,
  "▁earls": 10566,
  "▁fours": 10567,
  "▁shoot": 10568,
  "▁track": 10569,
  "▁wield": 10570,
  "▁Potpan": 10571,
  "▁admits": 10572,
  "▁afresh": 10573,
  "▁blench": 10574,
  "▁encamp": 10575,
  "▁excels": 10576,
  "▁fulfil": 10577,
  "▁grudge": 10578,
  "▁hereof": 10579,
  "▁lessen": 10580,
  "▁mended": 10581,
  "▁mutton": 10582,
  "▁robbed": 10583,
  "▁setter": 10584,
  "▁shamef": 10585,
  "▁shrill": 10586,
  "▁sinews": 10587,
  "▁sinful": 10588,
  "▁sleeve": 10589,
  "▁slower": 10590,
  "▁smells": 10591,
  "▁soever": 10592,
  "▁soothe": 10593,
  "▁sorted": 10594,
  "▁sparks": 10595,
  "▁speeds": 10596,
  "▁sprang": 10597,
  "▁sprung": 10598,
  "▁square": 10599,
  "▁squire": 10600,
  "▁stains": 10601,
  "▁stalls": 10602,
  "▁stamps": 10603,
  "▁staves": 10604,
  "azz": 10605,
  "imy": 10606,
  "ugh": 10607,
  "why": 10608,
  "▁Sk": 10609,
  "▁Sl": 10610,
  "▁Sn": 10611,
  "hily": 10612,
  "nity": 10613,
  "pile": 10614,
  "uman": 10615,
  "vius": 10616,
  "▁Aim": 10617,
  "▁Fam": 10618,
  "▁Hoo": 10619,
  "▁Man": 10620,
  "▁Sed": 10621,
  "▁Unf": 10622,
  "▁aus": 10623,
  "▁coy": 10624,
  "▁dul": 10625,
  "etchy": 10626,
  "human": 10627,
  "uming": 10628,
  "urned": 10629,
  "utish": 10630,
  "▁Cour": 10631,
  "▁Ethi": 10632,
  "▁Hour": 10633,
  "▁Hugh": 10634,
  "▁conv": 10635,
  "▁dugs": 10636,
  "▁flap": 10637,
  "▁gore": 10638,
  "▁noth": 10639,
  "▁pies": 10640,
  "▁rapt": 10641,
  "▁unsw": 10642,
  "▁wean": 10643,
  "alties": 10644,
  "sorrow": 10645,
  "▁Abate": 10646,
  "▁Spare": 10647,
  "▁apish": 10648,
  "▁brick": 10649,
  "▁entit": 10650,
  "▁falch": 10651,
  "▁fling": 10652,
  "▁mispl": 10653,
  "▁scarf": 10654,
  "pecting": 10655,
  "reation": 10656,
  "▁Accept": 10657,
  "▁Reward": 10658,
  "▁abomin": 10659,
  "▁adders": 10660,
  "▁detect": 10661,
  "▁grains": 10662,
  "▁sticks": 10663,
  "▁stored": 10664,
  "▁submit": 10665,
  "▁sunset": 10666,
  "▁surety": 10667,
  "▁tables": 10668,
  "▁tabour": 10669,
  "▁tackle": 10670,
  "▁taming": 10671,
  "▁tempor": 10672,
  "▁thrall": 10673,
  "▁throws": 10674,
  "▁thwack": 10675,
  "▁thwart": 10676,
  "▁tigers": 10677,
  "▁transg": 10678,
  "▁travel": 10679,
  "▁tribes": 10680,
  "▁truths": 10681,
  "▁tutors": 10682,
  "▁unable": 10683,
  "▁undisc": 10684,
  "▁unfelt": 10685,
  "▁unfort": 10686,
  "▁unhapp": 10687,
  "▁unking": 10688,
  "▁unknit": 10689,
  "▁unposs": 10690,
  "▁unsway": 10691,
  "▁usurps": 10692,
  "▁utters": 10693,
  "▁venuto": 10694,
  "▁verily": 10695,
  "▁vestal": 10696,
  "▁victor": 10697,
  "▁vizard": 10698,
  "▁waving": 10699,
  "▁weaker": 10700,
  "▁whores": 10701,
  "▁willow": 10702,
  "Citizens": 10703,
  "Remember": 10704,
  "Lo": 10705,
  "ky": 10706,
  "add": 10707,
  "lay": 10708,
  "omy": 10709,
  "vex": 10710,
  "▁Fe": 10711,
  "Thou": 10712,
  "cont": 10713,
  "fast": 10714,
  "flow": 10715,
  "isit": 10716,
  "late": 10717,
  "ldst": 10718,
  "orts": 10719,
  "rave": 10720,
  "▁Dra": 10721,
  "▁Wot": 10722,
  "▁bem": 10723,
  "▁hal": 10724,
  "▁ine": 10725,
  "onted": 10726,
  "▁Iron": 10727,
  "▁Need": 10728,
  "▁Wipe": 10729,
  "▁Wood": 10730,
  "▁foem": 10731,
  "▁robe": 10732,
  "▁subs": 10733,
  "▁tore": 10734,
  "hating": 10735,
  "lected": 10736,
  "simple": 10737,
  "▁Drawn": 10738,
  "▁Visit": 10739,
  "▁couch": 10740,
  "▁coven": 10741,
  "▁heaps": 10742,
  "▁ranks": 10743,
  "▁rider": 10744,
  "▁steer": 10745,
  "▁tires": 10746,
  "▁undes": 10747,
  "deliver": 10748,
  "longeth": 10749,
  "▁Taking": 10750,
  "▁chants": 10751,
  "▁falter": 10752,
  "▁groats": 10753,
  "▁loveth": 10754,
  "▁menace": 10755,
  "▁openly": 10756,
  "▁plight": 10757,
  "▁puling": 10758,
  "▁treads": 10759,
  "▁uneasy": 10760,
  "▁valley": 10761,
  "▁visits": 10762,
  "apparell": 10763,
  "creature": 10764,
  "ershades": 10765,
  "ertainly": 10766,
  "incetino": 10767,
  "ittingly": 10768,
  "kerchief": 10769,
  "moreland": 10770,
  "olerable": 10771,
  "orporate": 10772,
  "ubbering": 10773,
  "uspected": 10774,
  "▁AEdiles": 10775,
  "▁Abraham": 10776,
  "▁Account": 10777,
  "▁Barbary": 10778,
  "▁Baynard": 10779,
  "▁Cheerly": 10780,
  "▁Compare": 10781,
  "▁Counsel": 10782,
  "▁Culling": 10783,
  "▁Deliver": 10784,
  "▁Deserve": 10785,
  "▁Desires": 10786,
  "▁Despite": 10787,
  "▁Dismiss": 10788,
  "▁Dispose": 10789,
  "▁Emperor": 10790,
  "▁Endured": 10791,
  "▁Examine": 10792,
  "▁Falsely": 10793,
  "▁Fellows": 10794,
  "▁Flatter": 10795,
  "▁Flavius": 10796,
  "▁Florent": 10797,
  "▁Forward": 10798,
  "▁Further": 10799,
  "▁Gonzalo": 10800,
  "▁Herbert": 10801,
  "▁Herself": 10802,
  "▁Holding": 10803,
  "▁Hungary": 10804,
  "ii": 10805,
  "ob": 10806,
  "ux": 10807,
  "Yea": 10808,
  "haw": 10809,
  "hic": 10810,
  "Have": 10811,
  "harm": 10812,
  "pore": 10813,
  "utor": 10814,
  "viol": 10815,
  "▁Ear": 10816,
  "▁Lim": 10817,
  "▁Mam": 10818,
  "▁Ped": 10819,
  "▁lag": 10820,
  "▁oil": 10821,
  "▁rar": 10822,
  "▁rat": 10823,
  "igate": 10824,
  "inant": 10825,
  "inkle": 10826,
  "▁Fine": 10827,
  "▁Free": 10828,
  "▁Held": 10829,
  "▁Land": 10830,
  "▁Past": 10831,
  "▁Sith": 10832,
  "▁bled": 10833,
  "▁cats": 10834,
  "▁chin": 10835,
  "▁dawn": 10836,
  "▁hewn": 10837,
  "▁punk": 10838,
  "▁rice": 10839,
  "▁runn": 10840,
  "▁slug": 10841,
  "▁thaw": 10842,
  "▁toes": 10843,
  "ieving": 10844,
  "▁Earth": 10845,
  "▁Libya": 10846,
  "▁Mopsa": 10847,
  "▁curds": 10848,
  "▁deign": 10849,
  "▁doers": 10850,
  "▁extir": 10851,
  "▁inher": 10852,
  "▁prone": 10853,
  "▁scarr": 10854,
  "▁scrup": 10855,
  "▁sheet": 10856,
  "▁testy": 10857,
  "▁wrapt": 10858,
  "ittance": 10859,
  "▁Adding": 10860,
  "▁Scroop": 10861,
  "▁befell": 10862,
  "▁bloods": 10863,
  "▁forego": 10864,
  "▁ireful": 10865,
  "▁mocked": 10866,
  "▁nation": 10867,
  "▁presag": 10868,
  "▁saving": 10869,
  "▁selves": 10870,
  "▁swells": 10871,
  "▁tokens": 10872,
  "peakable": 10873,
  "▁Inquire": 10874,
  "▁Intends": 10875,
  "▁Italian": 10876,
  "▁Killing": 10877,
  "▁Knowing": 10878,
  "▁Letters": 10879,
  "▁Looking": 10880,
  "▁MEASURE": 10881,
  "▁Marquis": 10882,
  "▁Miranda": 10883,
  "▁Nicanor": 10884,
  "▁POMPHEY": 10885,
  "▁Perform": 10886,
  "▁Plainly": 10887,
  "▁Present": 10888,
  "▁Procure": 10889,
  "▁Profess": 10890,
  "▁Receive": 10891,
  "▁Resolve": 10892,
  "▁Sheriff": 10893,
  "▁Sitting": 10894,
  "▁Slander": 10895,
  "▁Southam": 10896,
  "▁Stephen": 10897,
  "▁Success": 10898,
  "▁Suffolk": 10899,
  "▁Suggest": 10900,
  "▁Therein": 10901,
  "▁Thereon": 10902,
  "▁Thieves": 10903,
  "▁Tremble": 10904,
  "su": 10905,
  "xy": 10906,
  "Sir": 10907,
  "eaf": 10908,
  "how": 10909,
  "rid": 10910,
  "you": 10911,
  "alus": 10912,
  "gery": 10913,
  "shot": 10914,
  "▁Ado": 10915,
  "▁Rec": 10916,
  "▁hay": 10917,
  "▁orb": 10918,
  "▁tot": 10919,
  "esnes": 10920,
  "fered": 10921,
  "inest": 10922,
  "onely": 10923,
  "ushed": 10924,
  "▁Fore": 10925,
  "▁Kill": 10926,
  "▁Laid": 10927,
  "▁Pity": 10928,
  "▁Rage": 10929,
  "▁Shed": 10930,
  "▁beck": 10931,
  "▁buds": 10932,
  "▁cloy": 10933,
  "▁diff": 10934,
  "▁disb": 10935,
  "▁": 10936,
  "e": 10937,
  "t": 10938,
  "o": 10939,
  "a": 10940,
  "h": 10941,
  "s": 10942,
  "r": 10943,
  "n": 10944,
  "i": 10945,
  "l": 10946,
  "d": 10947,
  "u": 10948,
  "m": 10949,
  "y": 10950,
  ",": 10951,
  "w": 10952,
  "f": 10953,
  "c": 10954,
  "g": 10955,
  "I": 10956,
  "b": 10957,
  "p": 10958,
  ":": 10959,
  ".": 10960,
  "A": 10961,
  "v": 10962,
  "k": 10963,
  "T": 10964,
  "'": 10965,
  "E": 10966,
  "O": 10967,
  "N": 10968,
  "R": 10969,
  "S": 10970,
  "L": 10971,
  "C": 10972,
  ";": 10973,
  "W": 10974,
  "U": 10975,
  "H": 10976,
  "M": 10977,
  "B": 10978,
  "?": 10979,
  "G": 10980,
  "!": 10981,
  "D": 10982,
  "-": 10983,
  "F": 10984,
  "Y": 10985,
  "P": 10986,
  "K": 10987,
  "V": 10988,
  "j": 10989,
  "q": 10990,
  "x": 10991,
  "z": 10992,
  "J": 10993,
  "Q": 10994,
  "Z": 10995,
  "X": 10996,
  "3": 10997,
  "&": 10998,
  "$": 10999
}